{
  "version": "1.0",
  "truncation": null,
  "padding": null,
  "added_tokens": [
    {
      "id": 0,
      "content": "<UNK>",
      "single_word": false,
      "lstrip": false,
      "rstrip": false,
      "normalized": false,
      "special": true
    },
    {
      "id": 1,
      "content": "<PAD>",
      "single_word": false,
      "lstrip": false,
      "rstrip": false,
      "normalized": false,
      "special": true
    },
    {
      "id": 2,
      "content": "<MASK>",
      "single_word": false,
      "lstrip": false,
      "rstrip": false,
      "normalized": false,
      "special": true
    },
    {
      "id": 3,
      "content": "<SOT>",
      "single_word": false,
      "lstrip": false,
      "rstrip": false,
      "normalized": false,
      "special": true
    },
    {
      "id": 4,
      "content": "<EOT>",
      "single_word": false,
      "lstrip": false,
      "rstrip": false,
      "normalized": false,
      "special": true
    },
    {
      "id": 5,
      "content": "<SUBJ>",
      "single_word": false,
      "lstrip": false,
      "rstrip": false,
      "normalized": false,
      "special": true
    },
    {
      "id": 6,
      "content": "<PRED>",
      "single_word": false,
      "lstrip": false,
      "rstrip": false,
      "normalized": false,
      "special": true
    },
    {
      "id": 7,
      "content": "<OBJ>",
      "single_word": false,
      "lstrip": false,
      "rstrip": false,
      "normalized": false,
      "special": true
    },
    {
      "id": 8,
      "content": "<Text2RDF>",
      "single_word": false,
      "lstrip": false,
      "rstrip": false,
      "normalized": false,
      "special": true
    },
    {
      "id": 9,
      "content": "<RDF2Text>",
      "single_word": false,
      "lstrip": false,
      "rstrip": false,
      "normalized": false,
      "special": true
    },
    {
      "id": 10,
      "content": "<CONTINUERDF>",
      "single_word": false,
      "lstrip": false,
      "rstrip": false,
      "normalized": false,
      "special": true
    }
  ],
  "normalizer": null,
  "pre_tokenizer": {
    "type": "Sequence",
    "pretokenizers": [
      {
        "type": "Split",
        "pattern": {
          "String": "_"
        },
        "behavior": "Removed",
        "invert": false
      },
      {
        "type": "Whitespace"
      }
    ]
  },
  "post_processor": null,
  "decoder": null,
  "model": {
    "type": "BPE",
    "dropout": null,
    "unk_token": "<UNK>",
    "continuing_subword_prefix": null,
    "end_of_word_suffix": null,
    "fuse_unk": false,
    "byte_fallback": false,
    "ignore_merges": false,
    "vocab": {
      "<UNK>": 0,
      "<PAD>": 1,
      "<MASK>": 2,
      "<SOT>": 3,
      "<EOT>": 4,
      "<SUBJ>": 5,
      "<PRED>": 6,
      "<OBJ>": 7,
      "<Text2RDF>": 8,
      "<RDF2Text>": 9,
      "<CONTINUERDF>": 10,
      "!": 11,
      "$": 12,
      "'": 13,
      "(": 14,
      ")": 15,
      ",": 16,
      "-": 17,
      ".": 18,
      "0": 19,
      "1": 20,
      "2": 21,
      "3": 22,
      "4": 23,
      "5": 24,
      "7": 25,
      "8": 26,
      "9": 27,
      ":": 28,
      ";": 29,
      "<": 30,
      ">": 31,
      "A": 32,
      "B": 33,
      "C": 34,
      "D": 35,
      "E": 36,
      "F": 37,
      "G": 38,
      "H": 39,
      "I": 40,
      "J": 41,
      "K": 42,
      "L": 43,
      "M": 44,
      "N": 45,
      "O": 46,
      "P": 47,
      "R": 48,
      "S": 49,
      "T": 50,
      "U": 51,
      "V": 52,
      "W": 53,
      "Y": 54,
      "Z": 55,
      "a": 56,
      "b": 57,
      "c": 58,
      "d": 59,
      "e": 60,
      "f": 61,
      "g": 62,
      "h": 63,
      "i": 64,
      "j": 65,
      "k": 66,
      "l": 67,
      "m": 68,
      "n": 69,
      "o": 70,
      "p": 71,
      "r": 72,
      "s": 73,
      "t": 74,
      "u": 75,
      "v": 76,
      "w": 77,
      "x": 78,
      "y": 79,
      "z": 80,
      "é": 81,
      "db": 82,
      "BJ": 83,
      "OT": 84,
      "dbr": 85,
      "ar": 86,
      "ri": 87,
      "00": 88,
      "ED": 89,
      "EOT": 90,
      "OBJ": 91,
      "PR": 92,
      "SU": 93,
      "SOT": 94,
      "dbo": 95,
      "PRED": 96,
      "SUBJ": 97,
      "an": 98,
      "st": 99,
      "er": 100,
      ":$": 101,
      "ng": 102,
      "or": 103,
      "re": 104,
      "on": 105,
      "at": 106,
      "en": 107,
      "star": 108,
      "ring": 109,
      "starring": 110,
      "000": 111,
      "di": 112,
      "th": 113,
      "ct": 114,
      "in": 115,
      "To": 116,
      "il": 117,
      "el": 118,
      "es": 119,
      "is": 120,
      "ch": 121,
      "ed": 122,
      "ard": 123,
      "Re": 124,
      "ow": 125,
      "and": 126,
      "rect": 127,
      "direct": 128,
      "al": 129,
      ":!": 130,
      "am": 131,
      "ion": 132,
      "ka": 133,
      "om": 134,
      "ward": 135,
      "own": 136,
      "ay": 137,
      "rit": 138,
      "Oka": 139,
      "as": 140,
      "by": 141,
      "kat": 142,
      "ut": 143,
      "Tokat": 144,
      "ilm": 145,
      "eri": 146,
      "ol": 147,
      "os": 148,
      "ine": 149,
      "10": 150,
      "down": 151,
      "ee": 152,
      "ou": 153,
      "uch": 154,
      "writ": 155,
      "Touch": 156,
      "Reward": 157,
      "director": 158,
      "Touchdown": 159,
      "30": 160,
      "Ra": 161,
      "the": 162,
      "ise": 163,
      "Raise": 164,
      "20": 165,
      "It": 166,
      "ck": 167,
      "film": 168,
      "ing": 169,
      "le": 170,
      "19": 171,
      "Jo": 172,
      "sh": 173,
      "writer": 174,
      "99": 175,
      "Ar": 176,
      "Ros": 177,
      "Wee": 178,
      "mat": 179,
      "od": 180,
      "ph": 181,
      "Week": 182,
      "50": 183,
      "but": 184,
      "et": 185,
      "ge": 186,
      "ic": 187,
      "li": 188,
      "og": 189,
      "ra": 190,
      "ur": 191,
      "vol": 192,
      "was": 193,
      "ribut": 194,
      "stribut": 195,
      "ent": 196,
      "distribut": 197,
      "directed": 198,
      "Am": 199,
      "Le": 200,
      "Mar": 201,
      "Wom": 202,
      "ai": 203,
      "ban": 204,
      "can": 205,
      "nn": 206,
      "us": 207,
      "ver": 208,
      "Revol": 209,
      "ution": 210,
      "erican": 211,
      "Art": 212,
      "distributor": 213,
      "American": 214,
      "Women": 215,
      "Revolution": 216,
      "Ch": 217,
      "Pa": 218,
      "cine": 219,
      "dr": 220,
      "ff": 221,
      "gh": 222,
      "it": 223,
      "ks": 224,
      "man": 225,
      "ru": 226,
      "rod": 227,
      "ton": 228,
      "res": 229,
      "193": 230,
      "matog": 231,
      "raph": 232,
      "cinematog": 233,
      "rodu": 234,
      "cinematograph": 235,
      "Car": 236,
      "Com": 237,
      "Da": 238,
      "Fai": 239,
      "Her": 240,
      "Ker": 241,
      "Ly": 242,
      "St": 243,
      "Th": 244,
      "ao": 245,
      "ce": 246,
      "cer": 247,
      "hn": 248,
      "ist": 249,
      "lan": 250,
      "ne": 251,
      "nt": 252,
      "produ": 253,
      "rban": 254,
      "son": 255,
      "seri": 256,
      "ve": 257,
      "art": 258,
      "ren": 259,
      "ina": 260,
      "ilent": 261,
      "eson": 262,
      "ama": 263,
      "ley": 264,
      "shman": 265,
      "Leeson": 266,
      "cinematography": 267,
      "Comp": 268,
      "Dav": 269,
      "Fairban": 270,
      "Hershman": 271,
      "Lynn": 272,
      "producer": 273,
      "series": 274,
      "Fairbanks": 275,
      "Ber": 276,
      "Del": 277,
      "Film": 278,
      "Ge": 279,
      "Ja": 280,
      "Jam": 281,
      "La": 282,
      "Ma": 283,
      "May": 284,
      "Ri": 285,
      "TV": 286,
      "act": 287,
      "day": 288,
      "ia": 289,
      "io": 290,
      "la": 291,
      "mus": 292,
      "of": 293,
      "ot": 294,
      "ror": 295,
      "ting": 296,
      "ures": 297,
      "ord": 298,
      "orror": 299,
      "red": 300,
      "enth": 301,
      "ill": 302,
      "ale": 303,
      "oser": 304,
      "John": 305,
      "Rosenth": 306,
      "ett": 307,
      "icComp": 308,
      "drama": 309,
      "ght": 310,
      "1935": 311,
      "Jack": 312,
      "James": 313,
      "musicComp": 314,
      "Rosenthal": 315,
      "musicComposer": 316,
      "200": 317,
      "Ang": 318,
      "Br": 319,
      "Cli": 320,
      "Ed": 321,
      "El": 322,
      "Har": 323,
      "Kar": 324,
      "Pi": 325,
      "Sus": 326,
      "Tu": 327,
      "Tat": 328,
      "age": 329,
      "com": 330,
      "del": 331,
      "ew": 332,
      "ever": 333,
      "for": 334,
      "fel": 335,
      "gu": 336,
      "gan": 337,
      "horror": 338,
      "ip": 339,
      "lor": 340,
      "mer": 341,
      "po": 342,
      "ry": 343,
      "ray": 344,
      "rou": 345,
      "sc": 346,
      "si": 347,
      "silent": 348,
      "ten": 349,
      "ul": 350,
      "ark": 351,
      "ort": 352,
      "rele": 353,
      "ath": 354,
      "ater": 355,
      "ation": 356,
      "ctures": 357,
      "edy": 358,
      "all": 359,
      "ased": 360,
      "ous": 361,
      "ount": 362,
      "written": 363,
      "cky": 364,
      "Joy": 365,
      "fford": 366,
      "Keret": 367,
      "langu": 368,
      "Davao": 369,
      "Ricky": 370,
      "Brown": 371,
      "Clifford": 372,
      "Elfel": 373,
      "Pictures": 374,
      "Tatia": 375,
      "comedy": 376,
      "ews": 377,
      "every": 378,
      "released": 379,
      "language": 380,
      "Elfelt": 381,
      "24": 382,
      "AB": 383,
      "Ab": 384,
      "Ag": 385,
      "Al": 386,
      "An": 387,
      "Au": 388,
      "Alan": 389,
      "BN": 390,
      "Bol": 391,
      "Bru": 392,
      "Bres": 393,
      "Blor": 394,
      "Con": 395,
      "Cru": 396,
      "CBN": 397,
      "Di": 398,
      "Dine": 399,
      "Er": 400,
      "Et": 401,
      "Eri": 402,
      "Est": 403,
      "Ever": 404,
      "Fo": 405,
      "Frit": 406,
      "Gl": 407,
      "Gw": 408,
      "Hor": 409,
      "Hay": 410,
      "Hog": 411,
      "Isi": 412,
      "Jeri": 413,
      "Jee": 414,
      "Ken": 415,
      "Lee": 416,
      "Lou": 417,
      "Man": 418,
      "Mor": 419,
      "Mur": 420,
      "Math": 421,
      "Oc": 422,
      "Ph": 423,
      "Par": 424,
      "Per": 425,
      "Ru": 426,
      "Ral": 427,
      "Ray": 428,
      "Ric": 429,
      "Sh": 430,
      "Silent": 431,
      "Uy": 432,
      "Vill": 433,
      "War": 434,
      "Wil": 435,
      "Ward": 436,
      "Ze": 437,
      "ad": 438,
      "ak": 439,
      "be": 440,
      "ber": 441,
      "ca": 442,
      "co": 443,
      "dale": 444,
      "est": 445,
      "edi": 446,
      "eth": 447,
      "fe": 448,
      "gar": 449,
      "gin": 450,
      "gli": 451,
      "gday": 452,
      "her": 453,
      "hart": 454,
      "ir": 455,
      "ith": 456,
      "ich": 457,
      "ika": 458,
      "ight": 459,
      "jo": 460,
      "ll": 461,
      "lo": 462,
      "low": 463,
      "later": 464,
      "ment": 465,
      "mina": 466,
      "nel": 467,
      "nard": 468,
      "nett": 469,
      "night": 470,
      "ori": 471,
      "oel": 472,
      "ock": 473,
      "off": 474,
      "ove": 475,
      "pine": 476,
      "pne": 477,
      "pla": 478,
      "ral": 479,
      "so": 480,
      "sp": 481,
      "ter": 482,
      "tis": 483,
      "tit": 484,
      "vis": 485,
      "wren": 486,
      "with": 487,
      "zi": 488,
      "ary": 489,
      "aroel": 490,
      "rigan": 491,
      "rill": 492,
      "ani": 493,
      "annel": 494,
      "sto": 495,
      "ston": 496,
      "stral": 497,
      "orge": 498,
      "oration": 499,
      "rey": 500,
      "reen": 501,
      "refor": 502,
      "ony": 503,
      "tha": 504,
      "thur": 505,
      "throu": 506,
      "thrill": 507,
      "thony": 508,
      "ilip": 509,
      "eled": 510,
      "elika": 511,
      "esday": 512,
      "cho": 513,
      "chill": 514,
      "ales": 515,
      "ampo": 516,
      "amount": 517,
      "olo": 518,
      "Joe": 519,
      "shall": 520,
      "Arthur": 521,
      "Rosina": 522,
      "Rosales": 523,
      "geist": 524,
      "liam": 525,
      "urchill": 526,
      "Marion": 527,
      "Martha": 528,
      "Marshall": 529,
      "aired": 530,
      "nning": 531,
      "Chio": 532,
      "Churchill": 533,
      "Paul": 534,
      "Pagli": 535,
      "Paolo": 536,
      "dro": 537,
      "itgeist": 538,
      "1939": 539,
      "Carl": 540,
      "Carmina": 541,
      "Kerrigan": 542,
      "Stark": 543,
      "Stock": 544,
      "nest": 545,
      "vey": 546,
      "Daves": 547,
      "Bert": 548,
      "Berton": 549,
      "Dela": 550,
      "Delmer": 551,
      "Films": 552,
      "Geoff": 553,
      "George": 554,
      "Lawren": 555,
      "LaPagli": 556,
      "Madel": 557,
      "Magday": 558,
      "Maynard": 559,
      "actor": 560,
      "action": 561,
      "tingco": 562,
      "alejo": 563,
      "Johnson": 564,
      "Angelika": 565,
      "Edward": 566,
      "Harvey": 567,
      "Karen": 568,
      "Susan": 569,
      "Tuesday": 570,
      "screen": 571,
      "Joyce": 572,
      "ABS": 573,
      "Abeled": 574,
      "Agot": 575,
      "Anthony": 576,
      "Austral": 577,
      "Boles": 578,
      "Brunett": 579,
      "Breslow": 580,
      "Blore": 581,
      "Contis": 582,
      "Cruz": 583,
      "Dieth": 584,
      "Dinehart": 585,
      "Ernest": 586,
      "Etgar": 587,
      "Eric": 588,
      "Esther": 589,
      "Everett": 590,
      "Fox": 591,
      "Fritzi": 592,
      "Glen": 593,
      "Gwen": 594,
      "Horton": 595,
      "Hayward": 596,
      "Hogan": 597,
      "Isidro": 598,
      "Jericho": 599,
      "Jeepne": 600,
      "Manio": 601,
      "Morley": 602,
      "Murray": 603,
      "Mathews": 604,
      "Ocampo": 605,
      "Philip": 606,
      "Paramount": 607,
      "Peralejo": 608,
      "Rush": 609,
      "Ralston": 610,
      "Raye": 611,
      "Rica": 612,
      "Uytingco": 613,
      "Villaroel": 614,
      "Warren": 615,
      "William": 616,
      "Warde": 617,
      "Zeitgeist": 618,
      "editing": 619,
      "plac": 620,
      "title": 621,
      "reformat": 622,
      "through": 623,
      "thriller": 624,
      "Chiong": 625,
      "Pauline": 626,
      "Starke": 627,
      "Stockdale": 628,
      "Geoffrey": 629,
      "Lawrence": 630,
      "LaPaglia": 631,
      "Madeline": 632,
      "Magdayao": 633,
      "Abeleda": 634,
      "Brunette": 635,
      "Diether": 636,
      "Jeepney": 637,
      "Philippine": 638,
      "!)": 639,
      ").": 640,
      "15": 641,
      "40": 642,
      "97": 643,
      "Aban": 644,
      "Ba": 645,
      "Ben": 646,
      "Bow": 647,
      "Bur": 648,
      "Cl": 649,
      "Cu": 650,
      "Cor": 651,
      "Cla": 652,
      "Cort": 653,
      "De": 654,
      "Dani": 655,
      "Em": 656,
      "Ex": 657,
      "Eng": 658,
      "Esp": 659,
      "Fe": 660,
      "Fr": 661,
      "Ford": 662,
      "Fred": 663,
      "Hen": 664,
      "How": 665,
      "Hod": 666,
      "Hart": 667,
      "Horror": 668,
      "Hous": 669,
      "Ic": 670,
      "Int": 671,
      "Je": 672,
      "Ju": 673,
      "Jan": 674,
      "Jos": 675,
      "Jir": 676,
      "Ka": 677,
      "King": 678,
      "Lo": 679,
      "Lin": 680,
      "Later": 681,
      "Men": 682,
      "Mel": 683,
      "Mes": 684,
      "Mich": 685,
      "Nove": 686,
      "Oct": 687,
      "Produ": 688,
      "Path": 689,
      "Sam": 690,
      "Tak": 691,
      "Wes": 692,
      "West": 693,
      "You": 694,
      "af": 695,
      "au": 696,
      "ael": 697,
      "aina": 698,
      "ble": 699,
      "bet": 700,
      "bru": 701,
      "boration": 702,
      "cl": 703,
      "cu": 704,
      "cal": 705,
      "crit": 706,
      "col": 707,
      "cur": 708,
      "count": 709,
      "dd": 710,
      "de": 711,
      "do": 712,
      "dren": 713,
      "dley": 714,
      "ex": 715,
      "ez": 716,
      "ear": 717,
      "een": 718,
      "ein": 719,
      "eck": 720,
      "eph": 721,
      "evis": 722,
      "fi": 723,
      "fr": 724,
      "ger": 725,
      "grou": 726,
      "hen": 727,
      "ham": 728,
      "hist": 729,
      "hous": 730,
      "hich": 731,
      "hau": 732,
      "ian": 733,
      "iews": 734,
      "ken": 735,
      "kin": 736,
      "lay": 737,
      "ling": 738,
      "my": 739,
      "mar": 740,
      "min": 741,
      "mel": 742,
      "mal": 743,
      "mot": 744,
      "mber": 745,
      "move": 746,
      "na": 747,
      "nd": 748,
      "nu": 749,
      "ning": 750,
      "nod": 751,
      "oic": 752,
      "over": 753,
      "ober": 754,
      "pm": 755,
      "par": 756,
      "port": 757,
      "poration": 758,
      "play": 759,
      "ras": 760,
      "rama": 761,
      "se": 762,
      "sand": 763,
      "to": 764,
      "tin": 765,
      "tel": 766,
      "ted": 767,
      "tra": 768,
      "ure": 769,
      "udi": 770,
      "uel": 771,
      "uken": 772,
      "unod": 773,
      "van": 774,
      "ves": 775,
      "vent": 776,
      "views": 777,
      "voic": 778,
      "wy": 779,
      "ween": 780,
      "which": 781,
      "year": 782,
      "za": 783,
      "ared": 784,
      "arou": 785,
      "rie": 786,
      "right": 787,
      "risto": 788,
      "ang": 789,
      "ank": 790,
      "ans": 791,
      "any": 792,
      "anor": 793,
      "ange": 794,
      "anhous": 795,
      "anza": 796,
      "ster": 797,
      "stre": 798,
      "stein": 799,
      "ern": 800,
      "erson": 801,
      "ertitle": 802,
      "eranza": 803,
      "ngen": 804,
      "ngest": 805,
      "ors": 806,
      "revol": 807,
      "rever": 808,
      "replac": 809,
      "ata": 810,
      "ate": 811,
      "atures": 812,
      "ators": 813,
      "stars": 814,
      "starred": 815,
      "thir": 816,
      "ction": 817,
      "int": 818,
      "inter": 819,
      "Todd": 820,
      "ildren": 821,
      "elli": 822,
      "elling": 823,
      "essand": 824,
      "channel": 825,
      "change": 826,
      "children": 827,
      "Rez": 828,
      "also": 829,
      "aming": 830,
      "amation": 831,
      "omas": 832,
      "old": 833,
      "they": 834,
      "2010": 835,
      "Its": 836,
      "cks": 837,
      "1920": 838,
      "1924": 839,
      "1915": 840,
      "1997": 841,
      "Joel": 842,
      "short": 843,
      "Rossi": 844,
      "mated": 845,
      "odrama": 846,
      "pher": 847,
      "phras": 848,
      "ics": 849,
      "distributed": 850,
      "Leo": 851,
      "Leip": 852,
      "Martin": 853,
      "banata": 854,
      "Channel": 855,
      "Christo": 856,
      "fferson": 857,
      "its": 858,
      "running": 859,
      "cinematographer": 860,
      "Carrie": 861,
      "State": 862,
      "The": 863,
      "Then": 864,
      "This": 865,
      "Thanhous": 866,
      "Thomas": 867,
      "ists": 868,
      "nted": 869,
      "artists": 870,
      "Company": 871,
      "Right": 872,
      "laboration": 873,
      "Jackson": 874,
      "2001": 875,
      "2002": 876,
      "2008": 877,
      "Edger": 878,
      "Harry": 879,
      "Karvan": 880,
      "Susunod": 881,
      "Tube": 882,
      "delso": 883,
      "merous": 884,
      "point": 885,
      "rayed": 886,
      "scared": 887,
      "ult": 888,
      "ally": 889,
      "Brownstein": 890,
      "Alwy": 891,
      "Alessand": 892,
      "Shaina": 893,
      "Shuken": 894,
      "advent": 895,
      "adult": 896,
      "ako": 897,
      "begin": 898,
      "cast": 899,
      "cable": 900,
      "femin": 901,
      "features": 902,
      "ginally": 903,
      "local": 904,
      "longest": 905,
      "mentary": 906,
      "nights": 907,
      "orians": 908,
      "originally": 909,
      "spelling": 910,
      "visit": 911,
      "animated": 912,
      "stop": 913,
      "nningham": 914,
      "screenwriter": 915,
      "screenplay": 916,
      "Australia": 917,
      "Australian": 918,
      "places": 919,
      "reformatted": 920,
      "!);": 921,
      "Abangan": 922,
      "Bain": 923,
      "Bowen": 924,
      "Burton": 925,
      "Clark": 926,
      "Cunningham": 927,
      "Corporation": 928,
      "Claudi": 929,
      "Cortez": 930,
      "Daniel": 931,
      "Emman": 932,
      "Exchange": 933,
      "Engel": 934,
      "Esperanza": 935,
      "Febru": 936,
      "Frank": 937,
      "Henry": 938,
      "Howard": 939,
      "Hodkin": 940,
      "Hartley": 941,
      "House": 942,
      "Icon": 943,
      "Intertitle": 944,
      "Jefferson": 945,
      "June": 946,
      "Jane": 947,
      "Joseph": 948,
      "Jiro": 949,
      "Kabanata": 950,
      "Longen": 951,
      "Lindley": 952,
      "Mendelso": 953,
      "Mellor": 954,
      "Mesa": 955,
      "Michael": 956,
      "November": 957,
      "October": 958,
      "Production": 959,
      "Pathé": 960,
      "Samuel": 961,
      "Takot": 962,
      "Wesley": 963,
      "Western": 964,
      "YouTube": 965,
      "after": 966,
      "between": 967,
      "clamation": 968,
      "cumentary": 969,
      "critics": 970,
      "collaboration": 971,
      "curators": 972,
      "country": 973,
      "documentary": 974,
      "exclamation": 975,
      "ecker": 976,
      "evision": 977,
      "five": 978,
      "from": 979,
      "group": 980,
      "hence": 981,
      "historians": 982,
      "haunted": 983,
      "myster": 984,
      "marks": 985,
      "melodrama": 986,
      "motion": 987,
      "movement": 988,
      "numerous": 989,
      "paranor": 990,
      "portrayed": 991,
      "television": 992,
      "tracks": 993,
      "voice": 994,
      "years": 995,
      "around": 996,
      "streaming": 997,
      "revolves": 998,
      "reverse": 999,
      "replacing": 1000,
      "third": 1001,
      "interviews": 1002,
      "phrase": 1003,
      "Leipold": 1004,
      "Martinelli": 1005,
      "Christopher": 1006,
      "Thanhouser": 1007,
      "Rights": 1008,
      "Edgerton": 1009,
      "Alwyn": 1010,
      "Alessandra": 1011,
      "adventure": 1012,
      "beginning": 1013,
      "feminist": 1014,
      "Claudia": 1015,
      "February": 1016,
      "Hodkinson": 1017,
      "Longenecker": 1018,
      "Mendelsohn": 1019,
      "Productions": 1020,
      "mystery": 1021,
      "paranormal": 1022
    },
    "merges": [
      [
        "d",
        "b"
      ],
      [
        "B",
        "J"
      ],
      [
        "O",
        "T"
      ],
      [
        "db",
        "r"
      ],
      [
        "a",
        "r"
      ],
      [
        "r",
        "i"
      ],
      [
        "0",
        "0"
      ],
      [
        "E",
        "D"
      ],
      [
        "E",
        "OT"
      ],
      [
        "O",
        "BJ"
      ],
      [
        "P",
        "R"
      ],
      [
        "S",
        "U"
      ],
      [
        "S",
        "OT"
      ],
      [
        "db",
        "o"
      ],
      [
        "PR",
        "ED"
      ],
      [
        "SU",
        "BJ"
      ],
      [
        "a",
        "n"
      ],
      [
        "s",
        "t"
      ],
      [
        "e",
        "r"
      ],
      [
        ":",
        "$"
      ],
      [
        "n",
        "g"
      ],
      [
        "o",
        "r"
      ],
      [
        "r",
        "e"
      ],
      [
        "o",
        "n"
      ],
      [
        "a",
        "t"
      ],
      [
        "e",
        "n"
      ],
      [
        "st",
        "ar"
      ],
      [
        "ri",
        "ng"
      ],
      [
        "star",
        "ring"
      ],
      [
        "00",
        "0"
      ],
      [
        "d",
        "i"
      ],
      [
        "t",
        "h"
      ],
      [
        "c",
        "t"
      ],
      [
        "i",
        "n"
      ],
      [
        "T",
        "o"
      ],
      [
        "i",
        "l"
      ],
      [
        "e",
        "l"
      ],
      [
        "e",
        "s"
      ],
      [
        "i",
        "s"
      ],
      [
        "c",
        "h"
      ],
      [
        "e",
        "d"
      ],
      [
        "ar",
        "d"
      ],
      [
        "R",
        "e"
      ],
      [
        "o",
        "w"
      ],
      [
        "an",
        "d"
      ],
      [
        "re",
        "ct"
      ],
      [
        "di",
        "rect"
      ],
      [
        "a",
        "l"
      ],
      [
        ":",
        "!"
      ],
      [
        "a",
        "m"
      ],
      [
        "i",
        "on"
      ],
      [
        "k",
        "a"
      ],
      [
        "o",
        "m"
      ],
      [
        "w",
        "ard"
      ],
      [
        "ow",
        "n"
      ],
      [
        "a",
        "y"
      ],
      [
        "ri",
        "t"
      ],
      [
        "O",
        "ka"
      ],
      [
        "a",
        "s"
      ],
      [
        "b",
        "y"
      ],
      [
        "k",
        "at"
      ],
      [
        "u",
        "t"
      ],
      [
        "To",
        "kat"
      ],
      [
        "il",
        "m"
      ],
      [
        "e",
        "ri"
      ],
      [
        "o",
        "l"
      ],
      [
        "o",
        "s"
      ],
      [
        "in",
        "e"
      ],
      [
        "1",
        "0"
      ],
      [
        "d",
        "own"
      ],
      [
        "e",
        "e"
      ],
      [
        "o",
        "u"
      ],
      [
        "u",
        "ch"
      ],
      [
        "w",
        "rit"
      ],
      [
        "To",
        "uch"
      ],
      [
        "Re",
        "ward"
      ],
      [
        "direct",
        "or"
      ],
      [
        "Touch",
        "down"
      ],
      [
        "3",
        "0"
      ],
      [
        "R",
        "a"
      ],
      [
        "th",
        "e"
      ],
      [
        "is",
        "e"
      ],
      [
        "Ra",
        "ise"
      ],
      [
        "2",
        "0"
      ],
      [
        "I",
        "t"
      ],
      [
        "c",
        "k"
      ],
      [
        "f",
        "ilm"
      ],
      [
        "i",
        "ng"
      ],
      [
        "l",
        "e"
      ],
      [
        "1",
        "9"
      ],
      [
        "J",
        "o"
      ],
      [
        "s",
        "h"
      ],
      [
        "writ",
        "er"
      ],
      [
        "9",
        "9"
      ],
      [
        "A",
        "r"
      ],
      [
        "R",
        "os"
      ],
      [
        "W",
        "ee"
      ],
      [
        "m",
        "at"
      ],
      [
        "o",
        "d"
      ],
      [
        "p",
        "h"
      ],
      [
        "Wee",
        "k"
      ],
      [
        "5",
        "0"
      ],
      [
        "b",
        "ut"
      ],
      [
        "e",
        "t"
      ],
      [
        "g",
        "e"
      ],
      [
        "i",
        "c"
      ],
      [
        "l",
        "i"
      ],
      [
        "o",
        "g"
      ],
      [
        "r",
        "a"
      ],
      [
        "u",
        "r"
      ],
      [
        "v",
        "ol"
      ],
      [
        "w",
        "as"
      ],
      [
        "ri",
        "but"
      ],
      [
        "st",
        "ribut"
      ],
      [
        "en",
        "t"
      ],
      [
        "di",
        "stribut"
      ],
      [
        "direct",
        "ed"
      ],
      [
        "A",
        "m"
      ],
      [
        "L",
        "e"
      ],
      [
        "M",
        "ar"
      ],
      [
        "W",
        "om"
      ],
      [
        "a",
        "i"
      ],
      [
        "b",
        "an"
      ],
      [
        "c",
        "an"
      ],
      [
        "n",
        "n"
      ],
      [
        "u",
        "s"
      ],
      [
        "v",
        "er"
      ],
      [
        "Re",
        "vol"
      ],
      [
        "ut",
        "ion"
      ],
      [
        "eri",
        "can"
      ],
      [
        "Ar",
        "t"
      ],
      [
        "distribut",
        "or"
      ],
      [
        "Am",
        "erican"
      ],
      [
        "Wom",
        "en"
      ],
      [
        "Revol",
        "ution"
      ],
      [
        "C",
        "h"
      ],
      [
        "P",
        "a"
      ],
      [
        "c",
        "ine"
      ],
      [
        "d",
        "r"
      ],
      [
        "f",
        "f"
      ],
      [
        "g",
        "h"
      ],
      [
        "i",
        "t"
      ],
      [
        "k",
        "s"
      ],
      [
        "m",
        "an"
      ],
      [
        "r",
        "u"
      ],
      [
        "r",
        "od"
      ],
      [
        "t",
        "on"
      ],
      [
        "re",
        "s"
      ],
      [
        "19",
        "3"
      ],
      [
        "mat",
        "og"
      ],
      [
        "ra",
        "ph"
      ],
      [
        "cine",
        "matog"
      ],
      [
        "rod",
        "u"
      ],
      [
        "cinematog",
        "raph"
      ],
      [
        "C",
        "ar"
      ],
      [
        "C",
        "om"
      ],
      [
        "D",
        "a"
      ],
      [
        "F",
        "ai"
      ],
      [
        "H",
        "er"
      ],
      [
        "K",
        "er"
      ],
      [
        "L",
        "y"
      ],
      [
        "S",
        "t"
      ],
      [
        "T",
        "h"
      ],
      [
        "a",
        "o"
      ],
      [
        "c",
        "e"
      ],
      [
        "c",
        "er"
      ],
      [
        "h",
        "n"
      ],
      [
        "i",
        "st"
      ],
      [
        "l",
        "an"
      ],
      [
        "n",
        "e"
      ],
      [
        "n",
        "t"
      ],
      [
        "p",
        "rodu"
      ],
      [
        "r",
        "ban"
      ],
      [
        "s",
        "on"
      ],
      [
        "s",
        "eri"
      ],
      [
        "v",
        "e"
      ],
      [
        "ar",
        "t"
      ],
      [
        "re",
        "n"
      ],
      [
        "in",
        "a"
      ],
      [
        "il",
        "ent"
      ],
      [
        "es",
        "on"
      ],
      [
        "am",
        "a"
      ],
      [
        "le",
        "y"
      ],
      [
        "sh",
        "man"
      ],
      [
        "Le",
        "eson"
      ],
      [
        "cinematograph",
        "y"
      ],
      [
        "Com",
        "p"
      ],
      [
        "Da",
        "v"
      ],
      [
        "Fai",
        "rban"
      ],
      [
        "Her",
        "shman"
      ],
      [
        "Ly",
        "nn"
      ],
      [
        "produ",
        "cer"
      ],
      [
        "seri",
        "es"
      ],
      [
        "Fairban",
        "ks"
      ],
      [
        "B",
        "er"
      ],
      [
        "D",
        "el"
      ],
      [
        "F",
        "ilm"
      ],
      [
        "G",
        "e"
      ],
      [
        "J",
        "a"
      ],
      [
        "J",
        "am"
      ],
      [
        "L",
        "a"
      ],
      [
        "M",
        "a"
      ],
      [
        "M",
        "ay"
      ],
      [
        "R",
        "i"
      ],
      [
        "T",
        "V"
      ],
      [
        "a",
        "ct"
      ],
      [
        "d",
        "ay"
      ],
      [
        "i",
        "a"
      ],
      [
        "i",
        "o"
      ],
      [
        "l",
        "a"
      ],
      [
        "m",
        "us"
      ],
      [
        "o",
        "f"
      ],
      [
        "o",
        "t"
      ],
      [
        "r",
        "or"
      ],
      [
        "t",
        "ing"
      ],
      [
        "u",
        "res"
      ],
      [
        "or",
        "d"
      ],
      [
        "or",
        "ror"
      ],
      [
        "re",
        "d"
      ],
      [
        "en",
        "th"
      ],
      [
        "il",
        "l"
      ],
      [
        "al",
        "e"
      ],
      [
        "os",
        "er"
      ],
      [
        "Jo",
        "hn"
      ],
      [
        "Ros",
        "enth"
      ],
      [
        "et",
        "t"
      ],
      [
        "ic",
        "Comp"
      ],
      [
        "dr",
        "ama"
      ],
      [
        "gh",
        "t"
      ],
      [
        "193",
        "5"
      ],
      [
        "Ja",
        "ck"
      ],
      [
        "Jam",
        "es"
      ],
      [
        "mus",
        "icComp"
      ],
      [
        "Rosenth",
        "al"
      ],
      [
        "musicComp",
        "oser"
      ],
      [
        "2",
        "00"
      ],
      [
        "A",
        "ng"
      ],
      [
        "B",
        "r"
      ],
      [
        "C",
        "li"
      ],
      [
        "E",
        "d"
      ],
      [
        "E",
        "l"
      ],
      [
        "H",
        "ar"
      ],
      [
        "K",
        "ar"
      ],
      [
        "P",
        "i"
      ],
      [
        "S",
        "us"
      ],
      [
        "T",
        "u"
      ],
      [
        "T",
        "at"
      ],
      [
        "a",
        "ge"
      ],
      [
        "c",
        "om"
      ],
      [
        "d",
        "el"
      ],
      [
        "e",
        "w"
      ],
      [
        "e",
        "ver"
      ],
      [
        "f",
        "or"
      ],
      [
        "f",
        "el"
      ],
      [
        "g",
        "u"
      ],
      [
        "g",
        "an"
      ],
      [
        "h",
        "orror"
      ],
      [
        "i",
        "p"
      ],
      [
        "l",
        "or"
      ],
      [
        "m",
        "er"
      ],
      [
        "p",
        "o"
      ],
      [
        "r",
        "y"
      ],
      [
        "r",
        "ay"
      ],
      [
        "r",
        "ou"
      ],
      [
        "s",
        "c"
      ],
      [
        "s",
        "i"
      ],
      [
        "s",
        "ilent"
      ],
      [
        "t",
        "en"
      ],
      [
        "u",
        "l"
      ],
      [
        "ar",
        "k"
      ],
      [
        "or",
        "t"
      ],
      [
        "re",
        "le"
      ],
      [
        "at",
        "h"
      ],
      [
        "at",
        "er"
      ],
      [
        "at",
        "ion"
      ],
      [
        "ct",
        "ures"
      ],
      [
        "ed",
        "y"
      ],
      [
        "al",
        "l"
      ],
      [
        "as",
        "ed"
      ],
      [
        "ou",
        "s"
      ],
      [
        "ou",
        "nt"
      ],
      [
        "writ",
        "ten"
      ],
      [
        "ck",
        "y"
      ],
      [
        "Jo",
        "y"
      ],
      [
        "ff",
        "ord"
      ],
      [
        "Ker",
        "et"
      ],
      [
        "lan",
        "gu"
      ],
      [
        "Dav",
        "ao"
      ],
      [
        "Ri",
        "cky"
      ],
      [
        "Br",
        "own"
      ],
      [
        "Cli",
        "fford"
      ],
      [
        "El",
        "fel"
      ],
      [
        "Pi",
        "ctures"
      ],
      [
        "Tat",
        "ia"
      ],
      [
        "com",
        "edy"
      ],
      [
        "ew",
        "s"
      ],
      [
        "ever",
        "y"
      ],
      [
        "rele",
        "ased"
      ],
      [
        "langu",
        "age"
      ],
      [
        "Elfel",
        "t"
      ],
      [
        "2",
        "4"
      ],
      [
        "A",
        "B"
      ],
      [
        "A",
        "b"
      ],
      [
        "A",
        "g"
      ],
      [
        "A",
        "l"
      ],
      [
        "A",
        "n"
      ],
      [
        "A",
        "u"
      ],
      [
        "A",
        "lan"
      ],
      [
        "B",
        "N"
      ],
      [
        "B",
        "ol"
      ],
      [
        "B",
        "ru"
      ],
      [
        "B",
        "res"
      ],
      [
        "B",
        "lor"
      ],
      [
        "C",
        "on"
      ],
      [
        "C",
        "ru"
      ],
      [
        "C",
        "BN"
      ],
      [
        "D",
        "i"
      ],
      [
        "D",
        "ine"
      ],
      [
        "E",
        "r"
      ],
      [
        "E",
        "t"
      ],
      [
        "E",
        "ri"
      ],
      [
        "E",
        "st"
      ],
      [
        "E",
        "ver"
      ],
      [
        "F",
        "o"
      ],
      [
        "F",
        "rit"
      ],
      [
        "G",
        "l"
      ],
      [
        "G",
        "w"
      ],
      [
        "H",
        "or"
      ],
      [
        "H",
        "ay"
      ],
      [
        "H",
        "og"
      ],
      [
        "I",
        "si"
      ],
      [
        "J",
        "eri"
      ],
      [
        "J",
        "ee"
      ],
      [
        "K",
        "en"
      ],
      [
        "L",
        "ee"
      ],
      [
        "L",
        "ou"
      ],
      [
        "M",
        "an"
      ],
      [
        "M",
        "or"
      ],
      [
        "M",
        "ur"
      ],
      [
        "M",
        "ath"
      ],
      [
        "O",
        "c"
      ],
      [
        "P",
        "h"
      ],
      [
        "P",
        "ar"
      ],
      [
        "P",
        "er"
      ],
      [
        "R",
        "u"
      ],
      [
        "R",
        "al"
      ],
      [
        "R",
        "ay"
      ],
      [
        "R",
        "ic"
      ],
      [
        "S",
        "h"
      ],
      [
        "S",
        "ilent"
      ],
      [
        "U",
        "y"
      ],
      [
        "V",
        "ill"
      ],
      [
        "W",
        "ar"
      ],
      [
        "W",
        "il"
      ],
      [
        "W",
        "ard"
      ],
      [
        "Z",
        "e"
      ],
      [
        "a",
        "d"
      ],
      [
        "a",
        "k"
      ],
      [
        "b",
        "e"
      ],
      [
        "b",
        "er"
      ],
      [
        "c",
        "a"
      ],
      [
        "c",
        "o"
      ],
      [
        "d",
        "ale"
      ],
      [
        "e",
        "st"
      ],
      [
        "e",
        "di"
      ],
      [
        "e",
        "th"
      ],
      [
        "f",
        "e"
      ],
      [
        "g",
        "ar"
      ],
      [
        "g",
        "in"
      ],
      [
        "g",
        "li"
      ],
      [
        "g",
        "day"
      ],
      [
        "h",
        "er"
      ],
      [
        "h",
        "art"
      ],
      [
        "i",
        "r"
      ],
      [
        "i",
        "th"
      ],
      [
        "i",
        "ch"
      ],
      [
        "i",
        "ka"
      ],
      [
        "i",
        "ght"
      ],
      [
        "j",
        "o"
      ],
      [
        "l",
        "l"
      ],
      [
        "l",
        "o"
      ],
      [
        "l",
        "ow"
      ],
      [
        "l",
        "ater"
      ],
      [
        "m",
        "ent"
      ],
      [
        "m",
        "ina"
      ],
      [
        "n",
        "el"
      ],
      [
        "n",
        "ard"
      ],
      [
        "n",
        "ett"
      ],
      [
        "n",
        "ight"
      ],
      [
        "o",
        "ri"
      ],
      [
        "o",
        "el"
      ],
      [
        "o",
        "ck"
      ],
      [
        "o",
        "ff"
      ],
      [
        "o",
        "ve"
      ],
      [
        "p",
        "ine"
      ],
      [
        "p",
        "ne"
      ],
      [
        "p",
        "la"
      ],
      [
        "r",
        "al"
      ],
      [
        "s",
        "o"
      ],
      [
        "s",
        "p"
      ],
      [
        "t",
        "er"
      ],
      [
        "t",
        "is"
      ],
      [
        "t",
        "it"
      ],
      [
        "v",
        "is"
      ],
      [
        "w",
        "ren"
      ],
      [
        "w",
        "ith"
      ],
      [
        "z",
        "i"
      ],
      [
        "ar",
        "y"
      ],
      [
        "ar",
        "oel"
      ],
      [
        "ri",
        "gan"
      ],
      [
        "ri",
        "ll"
      ],
      [
        "an",
        "i"
      ],
      [
        "an",
        "nel"
      ],
      [
        "st",
        "o"
      ],
      [
        "st",
        "on"
      ],
      [
        "st",
        "ral"
      ],
      [
        "or",
        "ge"
      ],
      [
        "or",
        "ation"
      ],
      [
        "re",
        "y"
      ],
      [
        "re",
        "en"
      ],
      [
        "re",
        "for"
      ],
      [
        "on",
        "y"
      ],
      [
        "th",
        "a"
      ],
      [
        "th",
        "ur"
      ],
      [
        "th",
        "rou"
      ],
      [
        "th",
        "rill"
      ],
      [
        "th",
        "ony"
      ],
      [
        "il",
        "ip"
      ],
      [
        "el",
        "ed"
      ],
      [
        "el",
        "ika"
      ],
      [
        "es",
        "day"
      ],
      [
        "ch",
        "o"
      ],
      [
        "ch",
        "ill"
      ],
      [
        "al",
        "es"
      ],
      [
        "am",
        "po"
      ],
      [
        "am",
        "ount"
      ],
      [
        "ol",
        "o"
      ],
      [
        "Jo",
        "e"
      ],
      [
        "sh",
        "all"
      ],
      [
        "Ar",
        "thur"
      ],
      [
        "Ros",
        "ina"
      ],
      [
        "Ros",
        "ales"
      ],
      [
        "ge",
        "ist"
      ],
      [
        "li",
        "am"
      ],
      [
        "ur",
        "chill"
      ],
      [
        "Mar",
        "ion"
      ],
      [
        "Mar",
        "tha"
      ],
      [
        "Mar",
        "shall"
      ],
      [
        "ai",
        "red"
      ],
      [
        "nn",
        "ing"
      ],
      [
        "Ch",
        "io"
      ],
      [
        "Ch",
        "urchill"
      ],
      [
        "Pa",
        "ul"
      ],
      [
        "Pa",
        "gli"
      ],
      [
        "Pa",
        "olo"
      ],
      [
        "dr",
        "o"
      ],
      [
        "it",
        "geist"
      ],
      [
        "193",
        "9"
      ],
      [
        "Car",
        "l"
      ],
      [
        "Car",
        "mina"
      ],
      [
        "Ker",
        "rigan"
      ],
      [
        "St",
        "ark"
      ],
      [
        "St",
        "ock"
      ],
      [
        "ne",
        "st"
      ],
      [
        "ve",
        "y"
      ],
      [
        "Dav",
        "es"
      ],
      [
        "Ber",
        "t"
      ],
      [
        "Ber",
        "ton"
      ],
      [
        "Del",
        "a"
      ],
      [
        "Del",
        "mer"
      ],
      [
        "Film",
        "s"
      ],
      [
        "Ge",
        "off"
      ],
      [
        "Ge",
        "orge"
      ],
      [
        "La",
        "wren"
      ],
      [
        "La",
        "Pagli"
      ],
      [
        "Ma",
        "del"
      ],
      [
        "Ma",
        "gday"
      ],
      [
        "May",
        "nard"
      ],
      [
        "act",
        "or"
      ],
      [
        "act",
        "ion"
      ],
      [
        "ting",
        "co"
      ],
      [
        "ale",
        "jo"
      ],
      [
        "John",
        "son"
      ],
      [
        "Ang",
        "elika"
      ],
      [
        "Ed",
        "ward"
      ],
      [
        "Har",
        "vey"
      ],
      [
        "Kar",
        "en"
      ],
      [
        "Sus",
        "an"
      ],
      [
        "Tu",
        "esday"
      ],
      [
        "sc",
        "reen"
      ],
      [
        "Joy",
        "ce"
      ],
      [
        "AB",
        "S"
      ],
      [
        "Ab",
        "eled"
      ],
      [
        "Ag",
        "ot"
      ],
      [
        "An",
        "thony"
      ],
      [
        "Au",
        "stral"
      ],
      [
        "Bol",
        "es"
      ],
      [
        "Bru",
        "nett"
      ],
      [
        "Bres",
        "low"
      ],
      [
        "Blor",
        "e"
      ],
      [
        "Con",
        "tis"
      ],
      [
        "Cru",
        "z"
      ],
      [
        "Di",
        "eth"
      ],
      [
        "Dine",
        "hart"
      ],
      [
        "Er",
        "nest"
      ],
      [
        "Et",
        "gar"
      ],
      [
        "Eri",
        "c"
      ],
      [
        "Est",
        "her"
      ],
      [
        "Ever",
        "ett"
      ],
      [
        "Fo",
        "x"
      ],
      [
        "Frit",
        "zi"
      ],
      [
        "Gl",
        "en"
      ],
      [
        "Gw",
        "en"
      ],
      [
        "Hor",
        "ton"
      ],
      [
        "Hay",
        "ward"
      ],
      [
        "Hog",
        "an"
      ],
      [
        "Isi",
        "dro"
      ],
      [
        "Jeri",
        "cho"
      ],
      [
        "Jee",
        "pne"
      ],
      [
        "Man",
        "io"
      ],
      [
        "Mor",
        "ley"
      ],
      [
        "Mur",
        "ray"
      ],
      [
        "Math",
        "ews"
      ],
      [
        "Oc",
        "ampo"
      ],
      [
        "Ph",
        "ilip"
      ],
      [
        "Par",
        "amount"
      ],
      [
        "Per",
        "alejo"
      ],
      [
        "Ru",
        "sh"
      ],
      [
        "Ral",
        "ston"
      ],
      [
        "Ray",
        "e"
      ],
      [
        "Ric",
        "a"
      ],
      [
        "Uy",
        "tingco"
      ],
      [
        "Vill",
        "aroel"
      ],
      [
        "War",
        "ren"
      ],
      [
        "Wil",
        "liam"
      ],
      [
        "Ward",
        "e"
      ],
      [
        "Ze",
        "itgeist"
      ],
      [
        "edi",
        "ting"
      ],
      [
        "pla",
        "c"
      ],
      [
        "tit",
        "le"
      ],
      [
        "refor",
        "mat"
      ],
      [
        "throu",
        "gh"
      ],
      [
        "thrill",
        "er"
      ],
      [
        "Chio",
        "ng"
      ],
      [
        "Paul",
        "ine"
      ],
      [
        "Stark",
        "e"
      ],
      [
        "Stock",
        "dale"
      ],
      [
        "Geoff",
        "rey"
      ],
      [
        "Lawren",
        "ce"
      ],
      [
        "LaPagli",
        "a"
      ],
      [
        "Madel",
        "ine"
      ],
      [
        "Magday",
        "ao"
      ],
      [
        "Abeled",
        "a"
      ],
      [
        "Brunett",
        "e"
      ],
      [
        "Dieth",
        "er"
      ],
      [
        "Jeepne",
        "y"
      ],
      [
        "Philip",
        "pine"
      ],
      [
        "!",
        ")"
      ],
      [
        ")",
        "."
      ],
      [
        "1",
        "5"
      ],
      [
        "4",
        "0"
      ],
      [
        "9",
        "7"
      ],
      [
        "A",
        "ban"
      ],
      [
        "B",
        "a"
      ],
      [
        "B",
        "en"
      ],
      [
        "B",
        "ow"
      ],
      [
        "B",
        "ur"
      ],
      [
        "C",
        "l"
      ],
      [
        "C",
        "u"
      ],
      [
        "C",
        "or"
      ],
      [
        "C",
        "la"
      ],
      [
        "C",
        "ort"
      ],
      [
        "D",
        "e"
      ],
      [
        "D",
        "ani"
      ],
      [
        "E",
        "m"
      ],
      [
        "E",
        "x"
      ],
      [
        "E",
        "ng"
      ],
      [
        "E",
        "sp"
      ],
      [
        "F",
        "e"
      ],
      [
        "F",
        "r"
      ],
      [
        "F",
        "ord"
      ],
      [
        "F",
        "red"
      ],
      [
        "H",
        "en"
      ],
      [
        "H",
        "ow"
      ],
      [
        "H",
        "od"
      ],
      [
        "H",
        "art"
      ],
      [
        "H",
        "orror"
      ],
      [
        "H",
        "ous"
      ],
      [
        "I",
        "c"
      ],
      [
        "I",
        "nt"
      ],
      [
        "J",
        "e"
      ],
      [
        "J",
        "u"
      ],
      [
        "J",
        "an"
      ],
      [
        "J",
        "os"
      ],
      [
        "J",
        "ir"
      ],
      [
        "K",
        "a"
      ],
      [
        "K",
        "ing"
      ],
      [
        "L",
        "o"
      ],
      [
        "L",
        "in"
      ],
      [
        "L",
        "ater"
      ],
      [
        "M",
        "en"
      ],
      [
        "M",
        "el"
      ],
      [
        "M",
        "es"
      ],
      [
        "M",
        "ich"
      ],
      [
        "N",
        "ove"
      ],
      [
        "O",
        "ct"
      ],
      [
        "P",
        "rodu"
      ],
      [
        "P",
        "ath"
      ],
      [
        "S",
        "am"
      ],
      [
        "T",
        "ak"
      ],
      [
        "W",
        "es"
      ],
      [
        "W",
        "est"
      ],
      [
        "Y",
        "ou"
      ],
      [
        "a",
        "f"
      ],
      [
        "a",
        "u"
      ],
      [
        "a",
        "el"
      ],
      [
        "a",
        "ina"
      ],
      [
        "b",
        "le"
      ],
      [
        "b",
        "et"
      ],
      [
        "b",
        "ru"
      ],
      [
        "b",
        "oration"
      ],
      [
        "c",
        "l"
      ],
      [
        "c",
        "u"
      ],
      [
        "c",
        "al"
      ],
      [
        "c",
        "rit"
      ],
      [
        "c",
        "ol"
      ],
      [
        "c",
        "ur"
      ],
      [
        "c",
        "ount"
      ],
      [
        "d",
        "d"
      ],
      [
        "d",
        "e"
      ],
      [
        "d",
        "o"
      ],
      [
        "d",
        "ren"
      ],
      [
        "d",
        "ley"
      ],
      [
        "e",
        "x"
      ],
      [
        "e",
        "z"
      ],
      [
        "e",
        "ar"
      ],
      [
        "e",
        "en"
      ],
      [
        "e",
        "in"
      ],
      [
        "e",
        "ck"
      ],
      [
        "e",
        "ph"
      ],
      [
        "e",
        "vis"
      ],
      [
        "f",
        "i"
      ],
      [
        "f",
        "r"
      ],
      [
        "g",
        "er"
      ],
      [
        "g",
        "rou"
      ],
      [
        "h",
        "en"
      ],
      [
        "h",
        "am"
      ],
      [
        "h",
        "ist"
      ],
      [
        "h",
        "ous"
      ],
      [
        "h",
        "ich"
      ],
      [
        "h",
        "au"
      ],
      [
        "i",
        "an"
      ],
      [
        "i",
        "ews"
      ],
      [
        "k",
        "en"
      ],
      [
        "k",
        "in"
      ],
      [
        "l",
        "ay"
      ],
      [
        "l",
        "ing"
      ],
      [
        "m",
        "y"
      ],
      [
        "m",
        "ar"
      ],
      [
        "m",
        "in"
      ],
      [
        "m",
        "el"
      ],
      [
        "m",
        "al"
      ],
      [
        "m",
        "ot"
      ],
      [
        "m",
        "ber"
      ],
      [
        "m",
        "ove"
      ],
      [
        "n",
        "a"
      ],
      [
        "n",
        "d"
      ],
      [
        "n",
        "u"
      ],
      [
        "n",
        "ing"
      ],
      [
        "n",
        "od"
      ],
      [
        "o",
        "ic"
      ],
      [
        "o",
        "ver"
      ],
      [
        "o",
        "ber"
      ],
      [
        "p",
        "m"
      ],
      [
        "p",
        "ar"
      ],
      [
        "p",
        "ort"
      ],
      [
        "p",
        "oration"
      ],
      [
        "p",
        "lay"
      ],
      [
        "r",
        "as"
      ],
      [
        "r",
        "ama"
      ],
      [
        "s",
        "e"
      ],
      [
        "s",
        "and"
      ],
      [
        "t",
        "o"
      ],
      [
        "t",
        "in"
      ],
      [
        "t",
        "el"
      ],
      [
        "t",
        "ed"
      ],
      [
        "t",
        "ra"
      ],
      [
        "u",
        "re"
      ],
      [
        "u",
        "di"
      ],
      [
        "u",
        "el"
      ],
      [
        "u",
        "ken"
      ],
      [
        "u",
        "nod"
      ],
      [
        "v",
        "an"
      ],
      [
        "v",
        "es"
      ],
      [
        "v",
        "ent"
      ],
      [
        "v",
        "iews"
      ],
      [
        "v",
        "oic"
      ],
      [
        "w",
        "y"
      ],
      [
        "w",
        "een"
      ],
      [
        "w",
        "hich"
      ],
      [
        "y",
        "ear"
      ],
      [
        "z",
        "a"
      ],
      [
        "ar",
        "ed"
      ],
      [
        "ar",
        "ou"
      ],
      [
        "ri",
        "e"
      ],
      [
        "ri",
        "ght"
      ],
      [
        "ri",
        "sto"
      ],
      [
        "an",
        "g"
      ],
      [
        "an",
        "k"
      ],
      [
        "an",
        "s"
      ],
      [
        "an",
        "y"
      ],
      [
        "an",
        "or"
      ],
      [
        "an",
        "ge"
      ],
      [
        "an",
        "hous"
      ],
      [
        "an",
        "za"
      ],
      [
        "st",
        "er"
      ],
      [
        "st",
        "re"
      ],
      [
        "st",
        "ein"
      ],
      [
        "er",
        "n"
      ],
      [
        "er",
        "son"
      ],
      [
        "er",
        "title"
      ],
      [
        "er",
        "anza"
      ],
      [
        "ng",
        "en"
      ],
      [
        "ng",
        "est"
      ],
      [
        "or",
        "s"
      ],
      [
        "re",
        "vol"
      ],
      [
        "re",
        "ver"
      ],
      [
        "re",
        "plac"
      ],
      [
        "at",
        "a"
      ],
      [
        "at",
        "e"
      ],
      [
        "at",
        "ures"
      ],
      [
        "at",
        "ors"
      ],
      [
        "star",
        "s"
      ],
      [
        "star",
        "red"
      ],
      [
        "th",
        "ir"
      ],
      [
        "ct",
        "ion"
      ],
      [
        "in",
        "t"
      ],
      [
        "in",
        "ter"
      ],
      [
        "To",
        "dd"
      ],
      [
        "il",
        "dren"
      ],
      [
        "el",
        "li"
      ],
      [
        "el",
        "ling"
      ],
      [
        "es",
        "sand"
      ],
      [
        "ch",
        "annel"
      ],
      [
        "ch",
        "ange"
      ],
      [
        "ch",
        "ildren"
      ],
      [
        "Re",
        "z"
      ],
      [
        "al",
        "so"
      ],
      [
        "am",
        "ing"
      ],
      [
        "am",
        "ation"
      ],
      [
        "om",
        "as"
      ],
      [
        "ol",
        "d"
      ],
      [
        "the",
        "y"
      ],
      [
        "20",
        "10"
      ],
      [
        "It",
        "s"
      ],
      [
        "ck",
        "s"
      ],
      [
        "19",
        "20"
      ],
      [
        "19",
        "24"
      ],
      [
        "19",
        "15"
      ],
      [
        "19",
        "97"
      ],
      [
        "Jo",
        "el"
      ],
      [
        "sh",
        "ort"
      ],
      [
        "Ros",
        "si"
      ],
      [
        "mat",
        "ed"
      ],
      [
        "od",
        "rama"
      ],
      [
        "ph",
        "er"
      ],
      [
        "ph",
        "ras"
      ],
      [
        "ic",
        "s"
      ],
      [
        "distribut",
        "ed"
      ],
      [
        "Le",
        "o"
      ],
      [
        "Le",
        "ip"
      ],
      [
        "Mar",
        "tin"
      ],
      [
        "ban",
        "ata"
      ],
      [
        "Ch",
        "annel"
      ],
      [
        "Ch",
        "risto"
      ],
      [
        "ff",
        "erson"
      ],
      [
        "it",
        "s"
      ],
      [
        "ru",
        "nning"
      ],
      [
        "cinematograph",
        "er"
      ],
      [
        "Car",
        "rie"
      ],
      [
        "St",
        "ate"
      ],
      [
        "Th",
        "e"
      ],
      [
        "Th",
        "en"
      ],
      [
        "Th",
        "is"
      ],
      [
        "Th",
        "anhous"
      ],
      [
        "Th",
        "omas"
      ],
      [
        "ist",
        "s"
      ],
      [
        "nt",
        "ed"
      ],
      [
        "art",
        "ists"
      ],
      [
        "Comp",
        "any"
      ],
      [
        "Ri",
        "ght"
      ],
      [
        "la",
        "boration"
      ],
      [
        "Jack",
        "son"
      ],
      [
        "200",
        "1"
      ],
      [
        "200",
        "2"
      ],
      [
        "200",
        "8"
      ],
      [
        "Ed",
        "ger"
      ],
      [
        "Har",
        "ry"
      ],
      [
        "Kar",
        "van"
      ],
      [
        "Sus",
        "unod"
      ],
      [
        "Tu",
        "be"
      ],
      [
        "del",
        "so"
      ],
      [
        "mer",
        "ous"
      ],
      [
        "po",
        "int"
      ],
      [
        "ray",
        "ed"
      ],
      [
        "sc",
        "ared"
      ],
      [
        "ul",
        "t"
      ],
      [
        "all",
        "y"
      ],
      [
        "Brown",
        "stein"
      ],
      [
        "Al",
        "wy"
      ],
      [
        "Al",
        "essand"
      ],
      [
        "Sh",
        "aina"
      ],
      [
        "Sh",
        "uken"
      ],
      [
        "ad",
        "vent"
      ],
      [
        "ad",
        "ult"
      ],
      [
        "ak",
        "o"
      ],
      [
        "be",
        "gin"
      ],
      [
        "ca",
        "st"
      ],
      [
        "ca",
        "ble"
      ],
      [
        "fe",
        "min"
      ],
      [
        "fe",
        "atures"
      ],
      [
        "gin",
        "ally"
      ],
      [
        "lo",
        "cal"
      ],
      [
        "lo",
        "ngest"
      ],
      [
        "ment",
        "ary"
      ],
      [
        "night",
        "s"
      ],
      [
        "ori",
        "ans"
      ],
      [
        "ori",
        "ginally"
      ],
      [
        "sp",
        "elling"
      ],
      [
        "vis",
        "it"
      ],
      [
        "ani",
        "mated"
      ],
      [
        "sto",
        "p"
      ],
      [
        "nning",
        "ham"
      ],
      [
        "screen",
        "writer"
      ],
      [
        "screen",
        "play"
      ],
      [
        "Austral",
        "ia"
      ],
      [
        "Austral",
        "ian"
      ],
      [
        "plac",
        "es"
      ],
      [
        "reformat",
        "ted"
      ],
      [
        "!)",
        ";"
      ],
      [
        "Aban",
        "gan"
      ],
      [
        "Ba",
        "in"
      ],
      [
        "Bow",
        "en"
      ],
      [
        "Bur",
        "ton"
      ],
      [
        "Cl",
        "ark"
      ],
      [
        "Cu",
        "nningham"
      ],
      [
        "Cor",
        "poration"
      ],
      [
        "Cla",
        "udi"
      ],
      [
        "Cort",
        "ez"
      ],
      [
        "Dani",
        "el"
      ],
      [
        "Em",
        "man"
      ],
      [
        "Ex",
        "change"
      ],
      [
        "Eng",
        "el"
      ],
      [
        "Esp",
        "eranza"
      ],
      [
        "Fe",
        "bru"
      ],
      [
        "Fr",
        "ank"
      ],
      [
        "Hen",
        "ry"
      ],
      [
        "How",
        "ard"
      ],
      [
        "Hod",
        "kin"
      ],
      [
        "Hart",
        "ley"
      ],
      [
        "Hous",
        "e"
      ],
      [
        "Ic",
        "on"
      ],
      [
        "Int",
        "ertitle"
      ],
      [
        "Je",
        "fferson"
      ],
      [
        "Ju",
        "ne"
      ],
      [
        "Jan",
        "e"
      ],
      [
        "Jos",
        "eph"
      ],
      [
        "Jir",
        "o"
      ],
      [
        "Ka",
        "banata"
      ],
      [
        "Lo",
        "ngen"
      ],
      [
        "Lin",
        "dley"
      ],
      [
        "Men",
        "delso"
      ],
      [
        "Mel",
        "lor"
      ],
      [
        "Mes",
        "a"
      ],
      [
        "Mich",
        "ael"
      ],
      [
        "Nove",
        "mber"
      ],
      [
        "Oct",
        "ober"
      ],
      [
        "Produ",
        "ction"
      ],
      [
        "Path",
        "é"
      ],
      [
        "Sam",
        "uel"
      ],
      [
        "Tak",
        "ot"
      ],
      [
        "Wes",
        "ley"
      ],
      [
        "West",
        "ern"
      ],
      [
        "You",
        "Tube"
      ],
      [
        "af",
        "ter"
      ],
      [
        "bet",
        "ween"
      ],
      [
        "cl",
        "amation"
      ],
      [
        "cu",
        "mentary"
      ],
      [
        "crit",
        "ics"
      ],
      [
        "col",
        "laboration"
      ],
      [
        "cur",
        "ators"
      ],
      [
        "count",
        "ry"
      ],
      [
        "do",
        "cumentary"
      ],
      [
        "ex",
        "clamation"
      ],
      [
        "eck",
        "er"
      ],
      [
        "evis",
        "ion"
      ],
      [
        "fi",
        "ve"
      ],
      [
        "fr",
        "om"
      ],
      [
        "grou",
        "p"
      ],
      [
        "hen",
        "ce"
      ],
      [
        "hist",
        "orians"
      ],
      [
        "hau",
        "nted"
      ],
      [
        "my",
        "ster"
      ],
      [
        "mar",
        "ks"
      ],
      [
        "mel",
        "odrama"
      ],
      [
        "mot",
        "ion"
      ],
      [
        "move",
        "ment"
      ],
      [
        "nu",
        "merous"
      ],
      [
        "par",
        "anor"
      ],
      [
        "port",
        "rayed"
      ],
      [
        "tel",
        "evision"
      ],
      [
        "tra",
        "cks"
      ],
      [
        "voic",
        "e"
      ],
      [
        "year",
        "s"
      ],
      [
        "arou",
        "nd"
      ],
      [
        "stre",
        "aming"
      ],
      [
        "revol",
        "ves"
      ],
      [
        "rever",
        "se"
      ],
      [
        "replac",
        "ing"
      ],
      [
        "thir",
        "d"
      ],
      [
        "inter",
        "views"
      ],
      [
        "phras",
        "e"
      ],
      [
        "Leip",
        "old"
      ],
      [
        "Martin",
        "elli"
      ],
      [
        "Christo",
        "pher"
      ],
      [
        "Thanhous",
        "er"
      ],
      [
        "Right",
        "s"
      ],
      [
        "Edger",
        "ton"
      ],
      [
        "Alwy",
        "n"
      ],
      [
        "Alessand",
        "ra"
      ],
      [
        "advent",
        "ure"
      ],
      [
        "begin",
        "ning"
      ],
      [
        "femin",
        "ist"
      ],
      [
        "Claudi",
        "a"
      ],
      [
        "Febru",
        "ary"
      ],
      [
        "Hodkin",
        "son"
      ],
      [
        "Longen",
        "ecker"
      ],
      [
        "Mendelso",
        "hn"
      ],
      [
        "Production",
        "s"
      ],
      [
        "myster",
        "y"
      ],
      [
        "paranor",
        "mal"
      ]
    ]
  }
}