{
  "version": "1.0",
  "truncation": null,
  "padding": null,
  "added_tokens": [
    {
      "id": 0,
      "content": "<UNK>",
      "single_word": false,
      "lstrip": false,
      "rstrip": false,
      "normalized": false,
      "special": true
    },
    {
      "id": 1,
      "content": "<PAD>",
      "single_word": false,
      "lstrip": false,
      "rstrip": false,
      "normalized": false,
      "special": true
    },
    {
      "id": 2,
      "content": "<MASK>",
      "single_word": false,
      "lstrip": false,
      "rstrip": false,
      "normalized": false,
      "special": true
    },
    {
      "id": 3,
      "content": "<MASKMLM>",
      "single_word": false,
      "lstrip": false,
      "rstrip": false,
      "normalized": false,
      "special": true
    },
    {
      "id": 4,
      "content": "<SOS>",
      "single_word": false,
      "lstrip": false,
      "rstrip": false,
      "normalized": false,
      "special": true
    },
    {
      "id": 5,
      "content": "<EOS>",
      "single_word": false,
      "lstrip": false,
      "rstrip": false,
      "normalized": false,
      "special": true
    },
    {
      "id": 6,
      "content": "<SOT>",
      "single_word": false,
      "lstrip": false,
      "rstrip": false,
      "normalized": false,
      "special": true
    },
    {
      "id": 7,
      "content": "<EOT>",
      "single_word": false,
      "lstrip": false,
      "rstrip": false,
      "normalized": false,
      "special": true
    },
    {
      "id": 8,
      "content": "<SUBJ>",
      "single_word": false,
      "lstrip": false,
      "rstrip": false,
      "normalized": false,
      "special": true
    },
    {
      "id": 9,
      "content": "<PRED>",
      "single_word": false,
      "lstrip": false,
      "rstrip": false,
      "normalized": false,
      "special": true
    },
    {
      "id": 10,
      "content": "<OBJ>",
      "single_word": false,
      "lstrip": false,
      "rstrip": false,
      "normalized": false,
      "special": true
    },
    {
      "id": 11,
      "content": "<Text2RDF>",
      "single_word": false,
      "lstrip": false,
      "rstrip": false,
      "normalized": false,
      "special": true
    },
    {
      "id": 12,
      "content": "<RDF2Text>",
      "single_word": false,
      "lstrip": false,
      "rstrip": false,
      "normalized": false,
      "special": true
    },
    {
      "id": 13,
      "content": "<CONTINUERDF>",
      "single_word": false,
      "lstrip": false,
      "rstrip": false,
      "normalized": false,
      "special": true
    },
    {
      "id": 14,
      "content": "<MASKTASK>",
      "single_word": false,
      "lstrip": false,
      "rstrip": false,
      "normalized": false,
      "special": true
    }
  ],
  "normalizer": null,
  "pre_tokenizer": {
    "type": "Sequence",
    "pretokenizers": [
      {
        "type": "Split",
        "pattern": {
          "String": "_"
        },
        "behavior": "Removed",
        "invert": false
      },
      {
        "type": "Whitespace"
      }
    ]
  },
  "post_processor": null,
  "decoder": null,
  "model": {
    "type": "BPE",
    "dropout": null,
    "unk_token": "<UNK>",
    "continuing_subword_prefix": null,
    "end_of_word_suffix": null,
    "fuse_unk": false,
    "byte_fallback": false,
    "ignore_merges": false,
    "vocab": {
      "<UNK>": 0,
      "<PAD>": 1,
      "<MASK>": 2,
      "<MASKMLM>": 3,
      "<SOS>": 4,
      "<EOS>": 5,
      "<SOT>": 6,
      "<EOT>": 7,
      "<SUBJ>": 8,
      "<PRED>": 9,
      "<OBJ>": 10,
      "<Text2RDF>": 11,
      "<RDF2Text>": 12,
      "<CONTINUERDF>": 13,
      "<MASKTASK>": 14,
      "!": 15,
      "\"": 16,
      "#": 17,
      "$": 18,
      "%": 19,
      "&": 20,
      "'": 21,
      "(": 22,
      ")": 23,
      "*": 24,
      "+": 25,
      ",": 26,
      "-": 27,
      ".": 28,
      "/": 29,
      "0": 30,
      "1": 31,
      "2": 32,
      "3": 33,
      "4": 34,
      "5": 35,
      "6": 36,
      "7": 37,
      "8": 38,
      "9": 39,
      ":": 40,
      ";": 41,
      "<": 42,
      "=": 43,
      ">": 44,
      "?": 45,
      "@": 46,
      "A": 47,
      "B": 48,
      "C": 49,
      "D": 50,
      "E": 51,
      "F": 52,
      "G": 53,
      "H": 54,
      "I": 55,
      "J": 56,
      "K": 57,
      "L": 58,
      "M": 59,
      "N": 60,
      "O": 61,
      "P": 62,
      "Q": 63,
      "R": 64,
      "S": 65,
      "T": 66,
      "U": 67,
      "V": 68,
      "W": 69,
      "X": 70,
      "Y": 71,
      "Z": 72,
      "[": 73,
      "]": 74,
      "`": 75,
      "a": 76,
      "b": 77,
      "c": 78,
      "d": 79,
      "e": 80,
      "f": 81,
      "g": 82,
      "h": 83,
      "i": 84,
      "j": 85,
      "k": 86,
      "l": 87,
      "m": 88,
      "n": 89,
      "o": 90,
      "p": 91,
      "q": 92,
      "r": 93,
      "s": 94,
      "t": 95,
      "u": 96,
      "v": 97,
      "w": 98,
      "x": 99,
      "y": 100,
      "z": 101,
      "{": 102,
      "}": 103,
      "~": 104,
      "¡": 105,
      "£": 106,
      "¥": 107,
      "°": 108,
      "·": 109,
      "½": 110,
      "¿": 111,
      "À": 112,
      "Á": 113,
      "Å": 114,
      "Ç": 115,
      "È": 116,
      "É": 117,
      "Í": 118,
      "Î": 119,
      "Ó": 120,
      "Ö": 121,
      "Ø": 122,
      "Ü": 123,
      "Þ": 124,
      "ß": 125,
      "à": 126,
      "á": 127,
      "â": 128,
      "ã": 129,
      "ä": 130,
      "å": 131,
      "æ": 132,
      "ç": 133,
      "è": 134,
      "é": 135,
      "ê": 136,
      "ë": 137,
      "ì": 138,
      "í": 139,
      "î": 140,
      "ï": 141,
      "ð": 142,
      "ñ": 143,
      "ò": 144,
      "ó": 145,
      "ô": 146,
      "õ": 147,
      "ö": 148,
      "ø": 149,
      "ù": 150,
      "ú": 151,
      "û": 152,
      "ü": 153,
      "ý": 154,
      "ÿ": 155,
      "ā": 156,
      "ă": 157,
      "ą": 158,
      "ć": 159,
      "Č": 160,
      "č": 161,
      "Đ": 162,
      "đ": 163,
      "Ē": 164,
      "ē": 165,
      "ė": 166,
      "ę": 167,
      "ě": 168,
      "ğ": 169,
      "ģ": 170,
      "ĩ": 171,
      "ī": 172,
      "İ": 173,
      "ı": 174,
      "ĺ": 175,
      "Ľ": 176,
      "Ł": 177,
      "ł": 178,
      "ń": 179,
      "ņ": 180,
      "ň": 181,
      "Ō": 182,
      "ō": 183,
      "ŏ": 184,
      "ő": 185,
      "Œ": 186,
      "œ": 187,
      "ř": 188,
      "Ś": 189,
      "ś": 190,
      "ş": 191,
      "Š": 192,
      "š": 193,
      "ū": 194,
      "ů": 195,
      "ű": 196,
      "ź": 197,
      "Ż": 198,
      "ż": 199,
      "Ž": 200,
      "ž": 201,
      "ư": 202,
      "ǎ": 203,
      "ǐ": 204,
      "ǒ": 205,
      "ǔ": 206,
      "ș": 207,
      "ɐ": 208,
      "ɔ": 209,
      "ɛ": 210,
      "ɪ": 211,
      "ʃ": 212,
      "ʎ": 213,
      "ʏ": 214,
      "ʻ": 215,
      "ʽ": 216,
      "ˀ": 217,
      "ˁ": 218,
      "ˈ": 219,
      "ː": 220,
      "́": 221,
      "̩": 222,
      "̯": 223,
      "Έ": 224,
      "Γ": 225,
      "Ε": 226,
      "Η": 227,
      "Θ": 228,
      "Κ": 229,
      "Μ": 230,
      "Π": 231,
      "Τ": 232,
      "Υ": 233,
      "ά": 234,
      "έ": 235,
      "ή": 236,
      "ί": 237,
      "α": 238,
      "γ": 239,
      "δ": 240,
      "ε": 241,
      "ζ": 242,
      "η": 243,
      "ι": 244,
      "κ": 245,
      "λ": 246,
      "μ": 247,
      "ν": 248,
      "ξ": 249,
      "ο": 250,
      "π": 251,
      "ρ": 252,
      "ς": 253,
      "σ": 254,
      "τ": 255,
      "υ": 256,
      "φ": 257,
      "χ": 258,
      "ψ": 259,
      "ω": 260,
      "ό": 261,
      "ύ": 262,
      "ώ": 263,
      "А": 264,
      "Б": 265,
      "В": 266,
      "Г": 267,
      "Д": 268,
      "Е": 269,
      "Ж": 270,
      "З": 271,
      "И": 272,
      "К": 273,
      "Л": 274,
      "М": 275,
      "Н": 276,
      "О": 277,
      "П": 278,
      "Р": 279,
      "С": 280,
      "Т": 281,
      "У": 282,
      "Ф": 283,
      "Ч": 284,
      "Ш": 285,
      "Щ": 286,
      "а": 287,
      "б": 288,
      "в": 289,
      "г": 290,
      "д": 291,
      "е": 292,
      "ж": 293,
      "з": 294,
      "и": 295,
      "й": 296,
      "к": 297,
      "л": 298,
      "м": 299,
      "н": 300,
      "о": 301,
      "п": 302,
      "р": 303,
      "с": 304,
      "т": 305,
      "у": 306,
      "ф": 307,
      "х": 308,
      "ц": 309,
      "ч": 310,
      "ш": 311,
      "щ": 312,
      "ъ": 313,
      "ы": 314,
      "ь": 315,
      "э": 316,
      "ю": 317,
      "я": 318,
      "ё": 319,
      "і": 320,
      "Կ": 321,
      "ե": 322,
      "ը": 323,
      "ի": 324,
      "կ": 325,
      "մ": 326,
      "ն": 327,
      "ո": 328,
      "տ": 329,
      "ր": 330,
      "ք": 331,
      "א": 332,
      "ב": 333,
      "ג": 334,
      "ד": 335,
      "ה": 336,
      "ו": 337,
      "ז": 338,
      "ח": 339,
      "ט": 340,
      "י": 341,
      "ך": 342,
      "כ": 343,
      "ל": 344,
      "ם": 345,
      "מ": 346,
      "ן": 347,
      "נ": 348,
      "ס": 349,
      "ע": 350,
      "ף": 351,
      "פ": 352,
      "ק": 353,
      "ר": 354,
      "ש": 355,
      "ת": 356,
      "ء": 357,
      "آ": 358,
      "ؤ": 359,
      "إ": 360,
      "ئ": 361,
      "ا": 362,
      "ب": 363,
      "ة": 364,
      "ت": 365,
      "ث": 366,
      "ج": 367,
      "ح": 368,
      "خ": 369,
      "د": 370,
      "ر": 371,
      "ز": 372,
      "س": 373,
      "ش": 374,
      "ص": 375,
      "ض": 376,
      "ط": 377,
      "ع": 378,
      "غ": 379,
      "ف": 380,
      "ق": 381,
      "ك": 382,
      "ل": 383,
      "م": 384,
      "ن": 385,
      "ه": 386,
      "و": 387,
      "ى": 388,
      "ي": 389,
      "ِ": 390,
      "١": 391,
      "٨": 392,
      "چ": 393,
      "ڑ": 394,
      "ژ": 395,
      "ک": 396,
      "گ": 397,
      "ں": 398,
      "ہ": 399,
      "ی": 400,
      "۲": 401,
      "۳": 402,
      "۴": 403,
      "ं": 404,
      "अ": 405,
      "ई": 406,
      "ए": 407,
      "ऑ": 408,
      "क": 409,
      "ग": 410,
      "घ": 411,
      "ज": 412,
      "ट": 413,
      "ड": 414,
      "द": 415,
      "ध": 416,
      "न": 417,
      "प": 418,
      "फ": 419,
      "ब": 420,
      "म": 421,
      "य": 422,
      "र": 423,
      "ल": 424,
      "स": 425,
      "ह": 426,
      "ा": 427,
      "ि": 428,
      "ी": 429,
      "ु": 430,
      "े": 431,
      "ॉ": 432,
      "ो": 433,
      "्": 434,
      "२": 435,
      "३": 436,
      "४": 437,
      "५": 438,
      "६": 439,
      "ট": 440,
      "দ": 441,
      "শ": 442,
      "া": 443,
      "ં": 444,
      "ટ": 445,
      "ન": 446,
      "ફ": 447,
      "મ": 448,
      "િ": 449,
      "ુ": 450,
      "૧": 451,
      "૨": 452,
      "ఎ": 453,
      "గ": 454,
      "ప": 455,
      "ఫ": 456,
      "మ": 457,
      "య": 458,
      "ర": 459,
      "ల": 460,
      "వ": 461,
      "శ": 462,
      "ా": 463,
      "ి": 464,
      "ో": 465,
      "్": 466,
      "ಂ": 467,
      "ಕ": 468,
      "ದ": 469,
      "ನ": 470,
      "ರ": 471,
      "ಸ": 472,
      "ಾ": 473,
      "ಿ": 474,
      "ೇ": 475,
      "್": 476,
      "೧": 477,
      "೨": 478,
      "೮": 479,
      "೯": 480,
      "ก": 481,
      "ค": 482,
      "ฆ": 483,
      "ง": 484,
      "จ": 485,
      "ด": 486,
      "ต": 487,
      "น": 488,
      "พ": 489,
      "ฟ": 490,
      "ม": 491,
      "ย": 492,
      "ร": 493,
      "ล": 494,
      "ว": 495,
      "ส": 496,
      "ห": 497,
      "อ": 498,
      "ะ": 499,
      "ั": 500,
      "า": 501,
      "ิ": 502,
      "ี": 503,
      "ู": 504,
      "เ": 505,
      "โ": 506,
      "ใ": 507,
      "ไ": 508,
      "่": 509,
      "้": 510,
      "์": 511,
      "က": 512,
      "ခ": 513,
      "င": 514,
      "စ": 515,
      "ဆ": 516,
      "ဇ": 517,
      "ည": 518,
      "တ": 519,
      "ထ": 520,
      "န": 521,
      "ပ": 522,
      "ဖ": 523,
      "ဗ": 524,
      "ဘ": 525,
      "မ": 526,
      "ယ": 527,
      "ရ": 528,
      "လ": 529,
      "သ": 530,
      "အ": 531,
      "ါ": 532,
      "ာ": 533,
      "ိ": 534,
      "ီ": 535,
      "ု": 536,
      "ူ": 537,
      "ေ": 538,
      "ဲ": 539,
      "ံ": 540,
      "့": 541,
      "း": 542,
      "္": 543,
      "်": 544,
      "ျ": 545,
      "ြ": 546,
      "ွ": 547,
      "ှ": 548,
      "၀": 549,
      "၁": 550,
      "၂": 551,
      "၃": 552,
      "၄": 553,
      "၉": 554,
      "၊": 555,
      "၍": 556,
      "ა": 557,
      "ბ": 558,
      "გ": 559,
      "დ": 560,
      "ე": 561,
      "ვ": 562,
      "თ": 563,
      "ი": 564,
      "კ": 565,
      "ლ": 566,
      "მ": 567,
      "ნ": 568,
      "ო": 569,
      "პ": 570,
      "რ": 571,
      "ს": 572,
      "ტ": 573,
      "უ": 574,
      "ფ": 575,
      "ყ": 576,
      "შ": 577,
      "ჩ": 578,
      "ც": 579,
      "ḍ": 580,
      "Ḥ": 581,
      "ḥ": 582,
      "ṣ": 583,
      "ế": 584,
      "ớ": 585,
      "‌": 586,
      "–": 587,
      "—": 588,
      "‘": 589,
      "’": 590,
      "“": 591,
      "”": 592,
      "„": 593,
      "…": 594,
      "′": 595,
      "⁄": 596,
      "€": 597,
      "₱": 598,
      "₹": 599,
      "↑": 600,
      "、": 601,
      "。": 602,
      "〇": 603,
      "〜": 604,
      "あ": 605,
      "い": 606,
      "う": 607,
      "え": 608,
      "お": 609,
      "か": 610,
      "が": 611,
      "き": 612,
      "く": 613,
      "げ": 614,
      "こ": 615,
      "さ": 616,
      "し": 617,
      "じ": 618,
      "す": 619,
      "ず": 620,
      "た": 621,
      "だ": 622,
      "ち": 623,
      "っ": 624,
      "で": 625,
      "と": 626,
      "な": 627,
      "に": 628,
      "の": 629,
      "は": 630,
      "ば": 631,
      "び": 632,
      "ぶ": 633,
      "ぷ": 634,
      "へ": 635,
      "ま": 636,
      "も": 637,
      "ゃ": 638,
      "や": 639,
      "ょ": 640,
      "よ": 641,
      "り": 642,
      "る": 643,
      "れ": 644,
      "わ": 645,
      "を": 646,
      "ん": 647,
      "ァ": 648,
      "ア": 649,
      "ィ": 650,
      "イ": 651,
      "ウ": 652,
      "エ": 653,
      "オ": 654,
      "カ": 655,
      "キ": 656,
      "ギ": 657,
      "ク": 658,
      "グ": 659,
      "コ": 660,
      "サ": 661,
      "ス": 662,
      "ズ": 663,
      "セ": 664,
      "ソ": 665,
      "タ": 666,
      "チ": 667,
      "ッ": 668,
      "テ": 669,
      "デ": 670,
      "ト": 671,
      "ド": 672,
      "ナ": 673,
      "ノ": 674,
      "ハ": 675,
      "パ": 676,
      "フ": 677,
      "ブ": 678,
      "プ": 679,
      "ホ": 680,
      "ポ": 681,
      "マ": 682,
      "ミ": 683,
      "ム": 684,
      "ャ": 685,
      "ュ": 686,
      "ヨ": 687,
      "ラ": 688,
      "リ": 689,
      "ル": 690,
      "レ": 691,
      "ロ": 692,
      "ン": 693,
      "ヴ": 694,
      "・": 695,
      "ー": 696,
      "一": 697,
      "万": 698,
      "三": 699,
      "上": 700,
      "下": 701,
      "不": 702,
      "世": 703,
      "个": 704,
      "中": 705,
      "主": 706,
      "之": 707,
      "九": 708,
      "也": 709,
      "乱": 710,
      "乳": 711,
      "二": 712,
      "五": 713,
      "亜": 714,
      "交": 715,
      "亥": 716,
      "人": 717,
      "今": 718,
      "他": 719,
      "代": 720,
      "件": 721,
      "你": 722,
      "來": 723,
      "係": 724,
      "俠": 725,
      "信": 726,
      "俺": 727,
      "個": 728,
      "候": 729,
      "倩": 730,
      "假": 731,
      "偽": 732,
      "僕": 733,
      "優": 734,
      "元": 735,
      "兇": 736,
      "光": 737,
      "入": 738,
      "全": 739,
      "公": 740,
      "六": 741,
      "兵": 742,
      "円": 743,
      "再": 744,
      "冒": 745,
      "冬": 746,
      "分": 747,
      "別": 748,
      "刺": 749,
      "剪": 750,
      "劇": 751,
      "功": 752,
      "勺": 753,
      "医": 754,
      "十": 755,
      "千": 756,
      "午": 757,
      "单": 758,
      "南": 759,
      "占": 760,
      "去": 761,
      "台": 762,
      "合": 763,
      "名": 764,
      "向": 765,
      "呂": 766,
      "告": 767,
      "呼": 768,
      "命": 769,
      "哀": 770,
      "單": 771,
      "器": 772,
      "囃": 773,
      "四": 774,
      "回": 775,
      "園": 776,
      "土": 777,
      "在": 778,
      "地": 779,
      "坂": 780,
      "城": 781,
      "場": 782,
      "士": 783,
      "声": 784,
      "夏": 785,
      "夕": 786,
      "多": 787,
      "夜": 788,
      "夢": 789,
      "大": 790,
      "天": 791,
      "太": 792,
      "夫": 793,
      "奇": 794,
      "奥": 795,
      "女": 796,
      "她": 797,
      "好": 798,
      "妈": 799,
      "妖": 800,
      "妹": 801,
      "妻": 802,
      "姉": 803,
      "姐": 804,
      "嫁": 805,
      "子": 806,
      "孤": 807,
      "学": 808,
      "孩": 809,
      "完": 810,
      "定": 811,
      "宝": 812,
      "客": 813,
      "宮": 814,
      "家": 815,
      "寒": 816,
      "射": 817,
      "對": 818,
      "小": 819,
      "少": 820,
      "屋": 821,
      "屏": 822,
      "山": 823,
      "岁": 824,
      "島": 825,
      "工": 826,
      "巨": 827,
      "市": 828,
      "希": 829,
      "帖": 830,
      "帝": 831,
      "師": 832,
      "常": 833,
      "年": 834,
      "幻": 835,
      "幼": 836,
      "幽": 837,
      "庁": 838,
      "庄": 839,
      "底": 840,
      "座": 841,
      "庭": 842,
      "康": 843,
      "形": 844,
      "後": 845,
      "復": 846,
      "微": 847,
      "心": 848,
      "忘": 849,
      "忠": 850,
      "怒": 851,
      "怪": 852,
      "恋": 853,
      "恨": 854,
      "息": 855,
      "悲": 856,
      "悼": 857,
      "情": 858,
      "惊": 859,
      "想": 860,
      "愁": 861,
      "愛": 862,
      "慶": 863,
      "應": 864,
      "成": 865,
      "我": 866,
      "戲": 867,
      "房": 868,
      "手": 869,
      "才": 870,
      "拍": 871,
      "拠": 872,
      "拳": 873,
      "摘": 874,
      "放": 875,
      "效": 876,
      "散": 877,
      "新": 878,
      "施": 879,
      "旅": 880,
      "无": 881,
      "日": 882,
      "早": 883,
      "易": 884,
      "星": 885,
      "春": 886,
      "是": 887,
      "時": 888,
      "晚": 889,
      "普": 890,
      "暫": 891,
      "書": 892,
      "會": 893,
      "月": 894,
      "有": 895,
      "望": 896,
      "期": 897,
      "木": 898,
      "本": 899,
      "朵": 900,
      "束": 901,
      "東": 902,
      "林": 903,
      "枪": 904,
      "校": 905,
      "桃": 906,
      "案": 907,
      "梅": 908,
      "條": 909,
      "梦": 910,
      "棒": 911,
      "森": 912,
      "楊": 913,
      "楼": 914,
      "榜": 915,
      "槍": 916,
      "樂": 917,
      "樓": 918,
      "樹": 919,
      "次": 920,
      "歌": 921,
      "歡": 922,
      "武": 923,
      "歩": 924,
      "死": 925,
      "殺": 926,
      "母": 927,
      "気": 928,
      "水": 929,
      "決": 930,
      "泣": 931,
      "注": 932,
      "泰": 933,
      "活": 934,
      "流": 935,
      "浪": 936,
      "浮": 937,
      "海": 938,
      "消": 939,
      "涙": 940,
      "清": 941,
      "湘": 942,
      "演": 943,
      "漢": 944,
      "潭": 945,
      "潮": 946,
      "烟": 947,
      "照": 948,
      "熟": 949,
      "熱": 950,
      "爱": 951,
      "父": 952,
      "版": 953,
      "牌": 954,
      "牝": 955,
      "物": 956,
      "特": 957,
      "犬": 958,
      "状": 959,
      "犹": 960,
      "狂": 961,
      "狗": 962,
      "猛": 963,
      "猫": 964,
      "献": 965,
      "獄": 966,
      "獨": 967,
      "玩": 968,
      "球": 969,
      "生": 970,
      "田": 971,
      "由": 972,
      "男": 973,
      "画": 974,
      "界": 975,
      "略": 976,
      "番": 977,
      "當": 978,
      "疯": 979,
      "痴": 980,
      "瘋": 981,
      "癲": 982,
      "発": 983,
      "白": 984,
      "百": 985,
      "的": 986,
      "目": 987,
      "盲": 988,
      "相": 989,
      "真": 990,
      "短": 991,
      "祇": 992,
      "禁": 993,
      "福": 994,
      "私": 995,
      "秘": 996,
      "称": 997,
      "穴": 998,
      "立": 999,
      "篇": 1000,
      "精": 1001,
      "紀": 1002,
      "約": 1003,
      "紅": 1004,
      "紙": 1005,
      "終": 1006,
      "組": 1007,
      "結": 1008,
      "続": 1009,
      "縛": 1010,
      "红": 1011,
      "约": 1012,
      "结": 1013,
      "羊": 1014,
      "美": 1015,
      "群": 1016,
      "義": 1017,
      "者": 1018,
      "聖": 1019,
      "聲": 1020,
      "胸": 1021,
      "能": 1022,
      "脫": 1023,
      "腿": 1024,
      "自": 1025,
      "與": 1026,
      "舎": 1027,
      "色": 1028,
      "花": 1029,
      "若": 1030,
      "英": 1031,
      "茶": 1032,
      "草": 1033,
      "菊": 1034,
      "華": 1035,
      "营": 1036,
      "萧": 1037,
      "蒸": 1038,
      "薇": 1039,
      "薔": 1040,
      "藏": 1041,
      "藤": 1042,
      "虎": 1043,
      "虫": 1044,
      "虹": 1045,
      "蛇": 1046,
      "蜩": 1047,
      "蝴": 1048,
      "蝶": 1049,
      "蟬": 1050,
      "術": 1051,
      "街": 1052,
      "衛": 1053,
      "衣": 1054,
      "襪": 1055,
      "西": 1056,
      "視": 1057,
      "親": 1058,
      "见": 1059,
      "言": 1060,
      "託": 1061,
      "記": 1062,
      "語": 1063,
      "説": 1064,
      "警": 1065,
      "讐": 1066,
      "讓": 1067,
      "让": 1068,
      "记": 1069,
      "说": 1070,
      "谢": 1071,
      "赵": 1072,
      "蹟": 1073,
      "身": 1074,
      "轉": 1075,
      "辈": 1076,
      "辛": 1077,
      "返": 1078,
      "送": 1079,
      "造": 1080,
      "連": 1081,
      "運": 1082,
      "過": 1083,
      "道": 1084,
      "遙": 1085,
      "遺": 1086,
      "那": 1087,
      "郎": 1088,
      "里": 1089,
      "重": 1090,
      "金": 1091,
      "銃": 1092,
      "鋼": 1093,
      "錦": 1094,
      "録": 1095,
      "钟": 1096,
      "铁": 1097,
      "長": 1098,
      "門": 1099,
      "間": 1100,
      "闇": 1101,
      "阁": 1102,
      "阿": 1103,
      "険": 1104,
      "陽": 1105,
      "雄": 1106,
      "難": 1107,
      "雨": 1108,
      "雲": 1109,
      "霧": 1110,
      "霹": 1111,
      "靂": 1112,
      "青": 1113,
      "静": 1114,
      "非": 1115,
      "革": 1116,
      "頁": 1117,
      "頭": 1118,
      "颜": 1119,
      "额": 1120,
      "風": 1121,
      "飛": 1122,
      "飞": 1123,
      "香": 1124,
      "馬": 1125,
      "駿": 1126,
      "驚": 1127,
      "马": 1128,
      "骊": 1129,
      "骏": 1130,
      "骰": 1131,
      "鬼": 1132,
      "魂": 1133,
      "魅": 1134,
      "魍": 1135,
      "魎": 1136,
      "魑": 1137,
      "魔": 1138,
      "鱷": 1139,
      "鳴": 1140,
      "鴨": 1141,
      "鶏": 1142,
      "鸭": 1143,
      "鸯": 1144,
      "鸳": 1145,
      "鹿": 1146,
      "黑": 1147,
      "龍": 1148,
      "ꯁ": 1149,
      "ꯃ": 1150,
      "ꯆ": 1151,
      "ꯇ": 1152,
      "ꯉ": 1153,
      "ꯍ": 1154,
      "ꯒ": 1155,
      "ꯕ": 1156,
      "ꯗ": 1157,
      "ꯡ": 1158,
      "ꯤ": 1159,
      "ꯥ": 1160,
      "ꯨ": 1161,
      "꯲": 1162,
      "꯳": 1163,
      "가": 1164,
      "간": 1165,
      "개": 1166,
      "거": 1167,
      "겨": 1168,
      "경": 1169,
      "고": 1170,
      "공": 1171,
      "과": 1172,
      "괴": 1173,
      "구": 1174,
      "글": 1175,
      "기": 1176,
      "까": 1177,
      "꽃": 1178,
      "꿈": 1179,
      "끝": 1180,
      "나": 1181,
      "난": 1182,
      "날": 1183,
      "남": 1184,
      "내": 1185,
      "너": 1186,
      "녀": 1187,
      "년": 1188,
      "녹": 1189,
      "놈": 1190,
      "늑": 1191,
      "는": 1192,
      "늘": 1193,
      "님": 1194,
      "다": 1195,
      "달": 1196,
      "담": 1197,
      "대": 1198,
      "댁": 1199,
      "더": 1200,
      "던": 1201,
      "데": 1202,
      "도": 1203,
      "돌": 1204,
      "동": 1205,
      "들": 1206,
      "라": 1207,
      "람": 1208,
      "랑": 1209,
      "련": 1210,
      "로": 1211,
      "루": 1212,
      "를": 1213,
      "름": 1214,
      "리": 1215,
      "린": 1216,
      "마": 1217,
      "만": 1218,
      "말": 1219,
      "맨": 1220,
      "맹": 1221,
      "머": 1222,
      "메": 1223,
      "모": 1224,
      "못": 1225,
      "몽": 1226,
      "무": 1227,
      "미": 1228,
      "바": 1229,
      "반": 1230,
      "발": 1231,
      "백": 1232,
      "병": 1233,
      "보": 1234,
      "복": 1235,
      "분": 1236,
      "불": 1237,
      "비": 1238,
      "빈": 1239,
      "사": 1240,
      "살": 1241,
      "삼": 1242,
      "생": 1243,
      "서": 1244,
      "세": 1245,
      "소": 1246,
      "속": 1247,
      "손": 1248,
      "수": 1249,
      "슈": 1250,
      "스": 1251,
      "승": 1252,
      "시": 1253,
      "싱": 1254,
      "쌍": 1255,
      "쏘": 1256,
      "아": 1257,
      "악": 1258,
      "않": 1259,
      "야": 1260,
      "양": 1261,
      "어": 1262,
      "억": 1263,
      "었": 1264,
      "엔": 1265,
      "여": 1266,
      "연": 1267,
      "열": 1268,
      "오": 1269,
      "옥": 1270,
      "올": 1271,
      "와": 1272,
      "우": 1273,
      "운": 1274,
      "울": 1275,
      "워": 1276,
      "원": 1277,
      "유": 1278,
      "은": 1279,
      "을": 1280,
      "의": 1281,
      "이": 1282,
      "인": 1283,
      "일": 1284,
      "잊": 1285,
      "잎": 1286,
      "자": 1287,
      "작": 1288,
      "장": 1289,
      "적": 1290,
      "전": 1291,
      "절": 1292,
      "점": 1293,
      "족": 1294,
      "좋": 1295,
      "죽": 1296,
      "즈": 1297,
      "지": 1298,
      "진": 1299,
      "집": 1300,
      "첫": 1301,
      "청": 1302,
      "춘": 1303,
      "칠": 1304,
      "카": 1305,
      "콤": 1306,
      "타": 1307,
      "태": 1308,
      "트": 1309,
      "판": 1310,
      "퍼": 1311,
      "프": 1312,
      "피": 1313,
      "한": 1314,
      "해": 1315,
      "행": 1316,
      "혈": 1317,
      "호": 1318,
      "홍": 1319,
      "화": 1320,
      "회": 1321,
      "휴": 1322,
      "희": 1323,
      "！": 1324,
      "＆": 1325,
      "（": 1326,
      "）": 1327,
      "０": 1328,
      "１": 1329,
      "：": 1330,
      "Ｈ": 1331,
      "db": 1332,
      "dbr": 1333,
      "OT": 1334,
      "BJ": 1335,
      "in": 1336,
      "an": 1337,
      "er": 1338,
      "ar": 1339,
      "RE": 1340,
      "PRE": 1341,
      "dbo": 1342,
      "EOT": 1343,
      "OBJ": 1344,
      "SU": 1345,
      "SOT": 1346,
      "PRED": 1347,
      "SUBJ": 1348,
      "st": 1349,
      "il": 1350,
      "or": 1351,
      "th": 1352,
      "on": 1353,
      "re": 1354,
      "ing": 1355,
      "ed": 1356,
      "ilm": 1357,
      "en": 1358,
      "film": 1359,
      "ri": 1360,
      "the": 1361,
      "al": 1362,
      "is": 1363,
      "at": 1364,
      "star": 1365,
      "and": 1366,
      "as": 1367,
      "ct": 1368,
      "ring": 1369,
      "di": 1370,
      "starring": 1371,
      "es": 1372,
      "om": 1373,
      "ic": 1374,
      "of": 1375,
      "el": 1376,
      "ou": 1377,
      "am": 1378,
      "it": 1379,
      "rect": 1380,
      "le": 1381,
      "direct": 1382,
      "ro": 1383,
      "ter": 1384,
      "by": 1385,
      "19": 1386,
      "he": 1387,
      "ra": 1388,
      "to": 1389,
      "20": 1390,
      "ion": 1391,
      "ent": 1392,
      "ol": 1393,
      "wri": 1394,
      "ay": 1395,
      "The": 1396,
      "em": 1397,
      "uc": 1398,
      "os": 1399,
      "ut": 1400,
      "ad": 1401,
      "ch": 1402,
      "us": 1403,
      "director": 1404,
      "ge": 1405,
      "ig": 1406,
      "for": 1407,
      "pro": 1408,
      "ce": 1409,
      "Ch": 1410,
      "et": 1411,
      "writer": 1412,
      "St": 1413,
      "was": 1414,
      "ir": 1415,
      "prod": 1416,
      "ov": 1417,
      "un": 1418,
      "produc": 1419,
      "directed": 1420,
      "im": 1421,
      "iv": 1422,
      "id": 1423,
      "ang": 1424,
      "ph": 1425,
      "ill": 1426,
      "og": 1427,
      "It": 1428,
      "ur": 1429,
      "but": 1430,
      "ow": 1431,
      "ul": 1432,
      "ie": 1433,
      "ard": 1434,
      "producer": 1435,
      "est": 1436,
      "omp": 1437,
      "ot": 1438,
      "la": 1439,
      "age": 1440,
      "stri": 1441,
      "man": 1442,
      "ber": 1443,
      "ht": 1444,
      "stribut": 1445,
      "all": 1446,
      "mer": 1447,
      "ure": 1448,
      "fe": 1449,
      "distribut": 1450,
      "um": 1451,
      "201": 1452,
      "ian": 1453,
      "usic": 1454,
      "ck": 1455,
      "ith": 1456,
      "inem": 1457,
      "distributor": 1458,
      "se": 1459,
      "Mar": 1460,
      "raph": 1461,
      "music": 1462,
      "ight": 1463,
      "Comp": 1464,
      "ap": 1465,
      "ers": 1466,
      "ry": 1467,
      "od": 1468,
      "ne": 1469,
      "ograph": 1470,
      "av": 1471,
      "ased": 1472,
      "angu": 1473,
      "Man": 1474,
      "ation": 1475,
      "anguage": 1476,
      "rom": 1477,
      "cinem": 1478,
      "oser": 1479,
      "wh": 1480,
      "oun": 1481,
      "ak": 1482,
      "ish": 1483,
      "sh": 1484,
      "language": 1485,
      "ich": 1486,
      "atograph": 1487,
      "Film": 1488,
      "ev": 1489,
      "cinematograph": 1490,
      "Composer": 1491,
      "musicComposer": 1492,
      "Sh": 1493,
      "ram": 1494,
      "200": 1495,
      "ong": 1496,
      "ear": 1497,
      "ell": 1498,
      "In": 1499,
      "ia": 1500,
      "An": 1501,
      "act": 1502,
      "Th": 1503,
      "cinematography": 1504,
      "Ro": 1505,
      "com": 1506,
      "meric": 1507,
      "Americ": 1508,
      "with": 1509,
      "ort": 1510,
      "be": 1511,
      "de": 1512,
      "ist": 1513,
      "ran": 1514,
      "ory": 1515,
      "Jo": 1516,
      "American": 1517,
      "tt": 1518,
      "Al": 1519,
      "ag": 1520,
      "ly": 1521,
      "rele": 1522,
      "ict": 1523,
      "ab": 1524,
      "from": 1525,
      "dram": 1526,
      "De": 1527,
      "son": 1528,
      "drama": 1529,
      "ain": 1530,
      "edit": 1531,
      "Le": 1532,
      "Night": 1533,
      "lo": 1534,
      "10": 1535,
      "art": 1536,
      "ife": 1537,
      "our": 1538,
      "ant": 1539,
      "ess": 1540,
      "pl": 1541,
      "ary": 1542,
      "op": 1543,
      "ath": 1544,
      "Day": 1545,
      "Se": 1546,
      "ures": 1547,
      "sc": 1548,
      "released": 1549,
      "ug": 1550,
      "ast": 1551,
      "edy": 1552,
      "ous": 1553,
      "res": 1554,
      "editing": 1555,
      "ine": 1556,
      "ud": 1557,
      "Chri": 1558,
      "Ar": 1559,
      "Un": 1560,
      "ren": 1561,
      "hn": 1562,
      "ff": 1563,
      "ac": 1564,
      "ik": 1565,
      "tten": 1566,
      "ame": 1567,
      "ies": 1568,
      "der": 1569,
      "qu": 1570,
      "ore": 1571,
      "ward": 1572,
      "oc": 1573,
      "ilent": 1574,
      "written": 1575,
      "Lov": 1576,
      "comedy": 1577,
      "Christ": 1578,
      "con": 1579,
      "ere": 1580,
      "oman": 1581,
      "ate": 1582,
      "Car": 1583,
      "ey": 1584,
      "John": 1585,
      "rit": 1586,
      "ount": 1587,
      "Sp": 1588,
      "bert": 1589,
      "Pict": 1590,
      "ew": 1591,
      "ern": 1592,
      "ust": 1593,
      "irl": 1594,
      "En": 1595,
      "les": 1596,
      "his": 1597,
      "so": 1598,
      "out": 1599,
      "own": 1600,
      "Re": 1601,
      "ood": 1602,
      "ark": 1603,
      "actor": 1604,
      "199": 1605,
      "Pictures": 1606,
      "Love": 1607,
      "ale": 1608,
      "ive": 1609,
      "ip": 1610,
      "who": 1611,
      "up": 1612,
      "aw": 1613,
      "ok": 1614,
      "Fran": 1615,
      "Ma": 1616,
      "end": 1617,
      "ass": 1618,
      "ier": 1619,
      "ick": 1620,
      "ost": 1621,
      "ann": 1622,
      "Girl": 1623,
      "193": 1624,
      "Will": 1625,
      "ld": 1626,
      "ival": 1627,
      "Har": 1628,
      "192": 1629,
      "00": 1630,
      "stars": 1631,
      "ese": 1632,
      "Bo": 1633,
      "one": 1634,
      "Be": 1635,
      "based": 1636,
      "195": 1637,
      "play": 1638,
      "reen": 1639,
      "Life": 1640,
      "Ge": 1641,
      "ub": 1642,
      "te": 1643,
      "ice": 1644,
      "old": 1645,
      "ind": 1646,
      "War": 1647,
      "estival": 1648,
      "red": 1649,
      "produced": 1650,
      "mas": 1651,
      "per": 1652,
      "ue": 1653,
      "ember": 1654,
      "ery": 1655,
      "oth": 1656,
      "ton": 1657,
      "ome": 1658,
      "ime": 1659,
      "Bro": 1660,
      "itt": 1661,
      "ide": 1662,
      "Wal": 1663,
      "io": 1664,
      "Christmas": 1665,
      "co": 1666,
      "also": 1667,
      "ated": 1668,
      "198": 1669,
      "ack": 1670,
      "ai": 1671,
      "are": 1672,
      "ade": 1673,
      "ner": 1674,
      "Par": 1675,
      "Ger": 1676,
      "196": 1677,
      "ally": 1678,
      "Sc": 1679,
      "pre": 1680,
      "lace": 1681,
      "Festival": 1682,
      "Dav": 1683,
      "191": 1684,
      "Story": 1685,
      "inc": 1686,
      "ah": 1687,
      "oll": 1688,
      "Ad": 1689,
      "Geor": 1690,
      "ex": 1691,
      "me": 1692,
      "Best": 1693,
      "ction": 1694,
      "197": 1695,
      "silent": 1696,
      "ity": 1697,
      "Robert": 1698,
      "her": 1699,
      "au": 1700,
      "194": 1701,
      "El": 1702,
      "air": 1703,
      "pe": 1704,
      "He": 1705,
      "Mich": 1706,
      "ial": 1707,
      "its": 1708,
      "that": 1709,
      "ational": 1710,
      "ountry": 1711,
      "Pe": 1712,
      "tit": 1713,
      "Fren": 1714,
      "if": 1715,
      "ment": 1716,
      "French": 1717,
      "wo": 1718,
      "..": 1719,
      "Cl": 1720,
      "iam": 1721,
      "irst": 1722,
      "ney": 1723,
      "iss": 1724,
      "ress": 1725,
      "pt": 1726,
      "oug": 1727,
      "Mon": 1728,
      "feat": 1729,
      "Award": 1730,
      "short": 1731,
      "Ed": 1732,
      "12": 1733,
      "we": 1734,
      "ound": 1735,
      "screen": 1736,
      "Inter": 1737,
      "ser": 1738,
      "ley": 1739,
      "wor": 1740,
      "ited": 1741,
      "Char": 1742,
      "And": 1743,
      "Con": 1744,
      "New": 1745,
      "comp": 1746,
      "ins": 1747,
      "story": 1748,
      "ach": 1749,
      "William": 1750,
      "bo": 1751,
      "enn": 1752,
      "Gu": 1753,
      "af": 1754,
      "18": 1755,
      "ael": 1756,
      "Tale": 1757,
      "country": 1758,
      "ence": 1759,
      "Rich": 1760,
      "iz": 1761,
      "ittle": 1762,
      "att": 1763,
      "ance": 1764,
      "Days": 1765,
      "Her": 1766,
      "ase": 1767,
      "German": 1768,
      "udi": 1769,
      "amil": 1770,
      "Di": 1771,
      "Roman": 1772,
      "ose": 1773,
      "We": 1774,
      "ert": 1775,
      "orn": 1776,
      "ument": 1777,
      "Brit": 1778,
      "Little": 1779,
      "ream": 1780,
      "uk": 1781,
      "alian": 1782,
      "Call": 1783,
      "first": 1784,
      "off": 1785,
      "Pa": 1786,
      "ates": 1787,
      "iel": 1788,
      "Mc": 1789,
      "ina": 1790,
      "any": 1791,
      "13": 1792,
      "Am": 1793,
      "George": 1794,
      "ign": 1795,
      "Is": 1796,
      "ric": 1797,
      "Bl": 1798,
      "ss": 1799,
      "ild": 1800,
      "ears": 1801,
      "ocument": 1802,
      "Michael": 1803,
      "British": 1804,
      "ana": 1805,
      "ett": 1806,
      "22": 1807,
      "nov": 1808,
      "ord": 1809,
      "Place": 1810,
      "az": 1811,
      "Je": 1812,
      "ep": 1813,
      "ott": 1814,
      "app": 1815,
      "which": 1816,
      "United": 1817,
      "ve": 1818,
      "Stre": 1819,
      "national": 1820,
      "Mo": 1821,
      "Sou": 1822,
      "ib": 1823,
      "ail": 1824,
      "24": 1825,
      "Fo": 1826,
      "ocumentary": 1827,
      "David": 1828,
      "Bri": 1829,
      "dian": 1830,
      "Qu": 1831,
      "iew": 1832,
      "100": 1833,
      "Jam": 1834,
      "ung": 1835,
      "ise": 1836,
      "30": 1837,
      "land": 1838,
      "ree": 1839,
      "ouse": 1840,
      "ummer": 1841,
      "port": 1842,
      "inal": 1843,
      "lin": 1844,
      "ond": 1845,
      "iller": 1846,
      "Br": 1847,
      "sk": 1848,
      "ile": 1849,
      "ical": 1850,
      "ele": 1851,
      "novel": 1852,
      "Street": 1853,
      "iet": 1854,
      "Ac": 1855,
      "ver": 1856,
      "21": 1857,
      "ks": 1858,
      "ix": 1859,
      "Co": 1860,
      "Romance": 1861,
      "Per": 1862,
      "du": 1863,
      "ough": 1864,
      "Me": 1865,
      "illion": 1866,
      "Dan": 1867,
      "Wor": 1868,
      "Paul": 1869,
      "My": 1870,
      "title": 1871,
      "Jul": 1872,
      "Mat": 1873,
      "Richard": 1874,
      "Mor": 1875,
      "ens": 1876,
      "ater": 1877,
      "Tom": 1878,
      "Silent": 1879,
      "ason": 1880,
      "Bar": 1881,
      "Ab": 1882,
      "about": 1883,
      "uss": 1884,
      "ake": 1885,
      "Sch": 1886,
      "prem": 1887,
      "inter": 1888,
      "ony": 1889,
      "other": 1890,
      "series": 1891,
      "made": 1892,
      "ision": 1893,
      "ely": 1894,
      "had": 1895,
      "International": 1896,
      "Col": 1897,
      "ble": 1898,
      "ovie": 1899,
      "Ph": 1900,
      "ite": 1901,
      "same": 1902,
      "anger": 1903,
      "und": 1904,
      "Eng": 1905,
      "Pr": 1906,
      "vent": 1907,
      "documentary": 1908,
      "row": 1909,
      "Good": 1910,
      "Cor": 1911,
      "Time": 1912,
      "Sm": 1913,
      "Wh": 1914,
      "Italian": 1915,
      "Gold": 1916,
      "ived": 1917,
      "Charles": 1918,
      "Fe": 1919,
      "Go": 1920,
      "ces": 1921,
      "aj": 1922,
      "ru": 1923,
      "thr": 1924,
      "Dream": 1925,
      "Called": 1926,
      "apt": 1927,
      "May": 1928,
      "were": 1929,
      "rece": 1930,
      "Ben": 1931,
      "ane": 1932,
      "uck": 1933,
      "),": 1934,
      "oung": 1935,
      "Ale": 1936,
      "Chin": 1937,
      "Jack": 1938,
      "my": 1939,
      "ther": 1940,
      "elev": 1941,
      "ugh": 1942,
      "cre": 1943,
      "kn": 1944,
      "ike": 1945,
      "World": 1946,
      "Ne": 1947,
      "ke": 1948,
      "urn": 1949,
      "ult": 1950,
      "ire": 1951,
      "ury": 1952,
      "James": 1953,
      "Gent": 1954,
      "ful": 1955,
      "lish": 1956,
      "has": 1957,
      "ray": 1958,
      "amily": 1959,
      "Pri": 1960,
      "Ber": 1961,
      "not": 1962,
      "Boy": 1963,
      "Hear": 1964,
      "Pro": 1965,
      "Sam": 1966,
      "Ros": 1967,
      "omin": 1968,
      "Hour": 1969,
      "Frank": 1970,
      "Heart": 1971,
      "Nor": 1972,
      "ans": 1973,
      "films": 1974,
      "States": 1975,
      "For": 1976,
      "ollow": 1977,
      "Peter": 1978,
      "Tri": 1979,
      "ald": 1980,
      "emy": 1981,
      "King": 1982,
      "yn": 1983,
      "known": 1984,
      "Min": 1985,
      "Gentle": 1986,
      "Woman": 1987,
      "pr": 1988,
      "elevision": 1989,
      "La": 1990,
      "rev": 1991,
      "unt": 1992,
      "des": 1993,
      "received": 1994,
      "ious": 1995,
      "Jean": 1996,
      "ash": 1997,
      "All": 1998,
      "incl": 1999,
      "follow": 2000,
      "Gl": 2001,
      "part": 2002,
      "na": 2003,
      "ady": 2004,
      "Mur": 2005,
      "ler": 2006,
      "Ste": 2007,
      "Jap": 2008,
      "amed": 2009,
      "antic": 2010,
      "ather": 2011,
      "West": 2012,
      "set": 2013,
      "over": 2014,
      "000": 2015,
      ").": 2016,
      "Dark": 2017,
      "cast": 2018,
      "Japan": 2019,
      "Dog": 2020,
      "won": 2021,
      "ob": 2022,
      "Don": 2023,
      "their": 2024,
      "let": 2025,
      "eng": 2026,
      "une": 2027,
      "House": 2028,
      "...": 2029,
      "fect": 2030,
      "II": 2031,
      "int": 2032,
      "Mer": 2033,
      "ple": 2034,
      "Chinese": 2035,
      "Sw": 2036,
      "South": 2037,
      "2012": 2038,
      "Films": 2039,
      "Far": 2040,
      "ara": 2041,
      "Sim": 2042,
      "way": 2043,
      "ze": 2044,
      "orig": 2045,
      "11": 2046,
      "Des": 2047,
      "Home": 2048,
      "Song": 2049,
      "two": 2050,
      "Gre": 2051,
      "Russ": 2052,
      "Fl": 2053,
      "tain": 2054,
      "lack": 2055,
      "2014": 2056,
      "premier": 2057,
      "Men": 2058,
      "Dec": 2059,
      "Lee": 2060,
      "Ser": 2061,
      "rig": 2062,
      "Studi": 2063,
      "Jon": 2064,
      "Pat": 2065,
      "tin": 2066,
      "name": 2067,
      "includ": 2068,
      "Hen": 2069,
      "after": 2070,
      "premiered": 2071,
      "night": 2072,
      "nomin": 2073,
      "Very": 2074,
      "cri": 2075,
      "ave": 2076,
      "Awards": 2077,
      "Ev": 2078,
      "Mal": 2079,
      "ene": 2080,
      "igh": 2081,
      "Star": 2082,
      "2011": 2083,
      "Company": 2084,
      "2019": 2085,
      "shot": 2086,
      "Er": 2087,
      "Bra": 2088,
      "ma": 2089,
      "Two": 2090,
      "Warner": 2091,
      ":'": 2092,
      "2015": 2093,
      "Gentleman": 2094,
      "Mid": 2095,
      "Hours": 2096,
      "Kar": 2097,
      "aker": 2098,
      "English": 2099,
      "One": 2100,
      "2016": 2101,
      "Fox": 2102,
      "ors": 2103,
      "romantic": 2104,
      "ffair": 2105,
      "Harry": 2106,
      "gen": 2107,
      "ademy": 2108,
      "Academy": 2109,
      "Em": 2110,
      "Ol": 2111,
      "Sing": 2112,
      "No": 2113,
      "Summer": 2114,
      "Ho": 2115,
      "li": 2116,
      "Roy": 2117,
      "Die": 2118,
      "Hol": 2119,
      "Jan": 2120,
      "sp": 2121,
      "tra": 2122,
      "ucc": 2123,
      "feature": 2124,
      "15": 2125,
      "Gar": 2126,
      "dy": 2127,
      "television": 2128,
      "uri": 2129,
      "Indian": 2130,
      "min": 2131,
      "anc": 2132,
      "2017": 2133,
      "2009": 2134,
      "Years": 2135,
      "crit": 2136,
      "ster": 2137,
      "ics": 2138,
      "fore": 2139,
      "ron": 2140,
      "anish": 2141,
      "Com": 2142,
      "into": 2143,
      "ross": 2144,
      "erson": 2145,
      "go": 2146,
      "36": 2147,
      "TV": 2148,
      "led": 2149,
      "2010": 2150,
      "Kore": 2151,
      "Da": 2152,
      "Sk": 2153,
      "ira": 2154,
      "ork": 2155,
      "release": 2156,
      "Lo": 2157,
      "etter": 2158,
      "under": 2159,
      "Enter": 2160,
      "Affair": 2161,
      "amp": 2162,
      "adapt": 2163,
      "Bur": 2164,
      "gan": 2165,
      "ger": 2166,
      "ror": 2167,
      "His": 2168,
      "han": 2169,
      "Ray": 2170,
      "ace": 2171,
      "col": 2172,
      "rel": 2173,
      "ents": 2174,
      "aut": 2175,
      "ever": 2176,
      "cond": 2177,
      "ousand": 2178,
      "14": 2179,
      "BC": 2180,
      "wn": 2181,
      "2013": 2182,
      "Studios": 2183,
      "Aust": 2184,
      "do": 2185,
      "oo": 2186,
      "riend": 2187,
      "thriller": 2188,
      "Af": 2189,
      "sequ": 2190,
      "Way": 2191,
      "Spanish": 2192,
      "Mel": 2193,
      "ris": 2194,
      "ada": 2195,
      "day": 2196,
      "time": 2197,
      "ino": 2198,
      "Wife": 2199,
      "Mark": 2200,
      "Pl": 2201,
      "Phil": 2202,
      "Cinem": 2203,
      "Kill": 2204,
      "well": 2205,
      "Edward": 2206,
      "je": 2207,
      "movie": 2208,
      "Sun": 2209,
      "Minut": 2210,
      "How": 2211,
      "cial": 2212,
      "mon": 2213,
      "ings": 2214,
      "ughter": 2215,
      "Cent": 2216,
      "Cla": 2217,
      "Danger": 2218,
      "Mil": 2219,
      "Thousand": 2220,
      "Kiss": 2221,
      "York": 2222,
      "cl": 2223,
      "Rob": 2224,
      "work": 2225,
      "Ear": 2226,
      "Gh": 2227,
      "Lady": 2228,
      "lie": 2229,
      "vers": 2230,
      "win": 2231,
      "debut": 2232,
      "screenplay": 2233,
      "tainment": 2234,
      "Gr": 2235,
      "ody": 2236,
      "able": 2237,
      "Perfect": 2238,
      "You": 2239,
      "bor": 2240,
      "ty": 2241,
      "Japanese": 2242,
      "City": 2243,
      "She": 2244,
      "ions": 2245,
      "ations": 2246,
      "2008": 2247,
      "venture": 2248,
      "Entertainment": 2249,
      "Bel": 2250,
      "wood": 2251,
      "ank": 2252,
      "actress": 2253,
      "Carol": 2254,
      "Bill": 2255,
      "Mad": 2256,
      "Nov": 2257,
      "hi": 2258,
      "lead": 2259,
      "Family": 2260,
      "Ra": 2261,
      "char": 2262,
      "uel": 2263,
      "theat": 2264,
      "ull": 2265,
      "Bros": 2266,
      "iews": 2267,
      "car": 2268,
      "por": 2269,
      "ird": 2270,
      "produ": 2271,
      "Lou": 2272,
      "life": 2273,
      "pos": 2274,
      "Art": 2275,
      "Dangerous": 2276,
      "ivers": 2277,
      "2007": 2278,
      "ptember": 2279,
      "no": 2280,
      "been": 2281,
      "September": 2282,
      "Gra": 2283,
      "Pol": 2284,
      "Tra": 2285,
      "Martin": 2286,
      "Paris": 2287,
      "Param": 2288,
      "Son": 2289,
      "ness": 2290,
      "ford": 2291,
      "Walk": 2292,
      "Andre": 2293,
      "Ha": 2294,
      "ha": 2295,
      "par": 2296,
      "Ang": 2297,
      "Death": 2298,
      "Arth": 2299,
      "December": 2300,
      "production": 2301,
      "su": 2302,
      "olf": 2303,
      "2018": 2304,
      "Alex": 2305,
      "million": 2306,
      "berg": 2307,
      "Arthur": 2308,
      "Luc": 2309,
      "Sol": 2310,
      "rick": 2311,
      "Dev": 2312,
      "fl": 2313,
      "Jose": 2314,
      "ham": 2315,
      "Reg": 2316,
      "Hero": 2317,
      "Matter": 2318,
      "da": 2319,
      "ek": 2320,
      "this": 2321,
      "Daniel": 2322,
      "40": 2323,
      "ves": 2324,
      "anim": 2325,
      "Carl": 2326,
      "uccess": 2327,
      "Named": 2328,
      "Ter": 2329,
      "mar": 2330,
      "ita": 2331,
      "itz": 2332,
      "ement": 2333,
      "Austr": 2334,
      "perfor": 2335,
      "during": 2336,
      "16": 2337,
      "Thom": 2338,
      "Million": 2339,
      "Tim": 2340,
      "Stev": 2341,
      "umb": 2342,
      "dep": 2343,
      "Or": 2344,
      "ince": 2345,
      "Paramount": 2346,
      "25": 2347,
      "Aug": 2348,
      "Les": 2349,
      "Long": 2350,
      "Wil": 2351,
      "pres": 2352,
      "young": 2353,
      "Str": 2354,
      "nominated": 2355,
      "ding": 2356,
      "ouch": 2357,
      "Guy": 2358,
      "As": 2359,
      "Act": 2360,
      "Cal": 2361,
      "Hong": 2362,
      "Mac": 2363,
      "aly": 2364,
      "ister": 2365,
      "August": 2366,
      "Sto": 2367,
      "men": 2368,
      "Swed": 2369,
      "uring": 2370,
      "ani": 2371,
      "Cinema": 2372,
      "June": 2373,
      "ual": 2374,
      "2001": 2375,
      "lost": 2376,
      "Russian": 2377,
      "Lar": 2378,
      "Town": 2379,
      "hor": 2380,
      "get": 2381,
      "world": 2382,
      "Dis": 2383,
      "med": 2384,
      "tell": 2385,
      "Gen": 2386,
      "Jac": 2387,
      "Like": 2388,
      "Sal": 2389,
      "him": 2390,
      "ular": 2391,
      "Ba": 2392,
      "bet": 2393,
      "rem": 2394,
      "cted": 2395,
      "role": 2396,
      "original": 2397,
      "Fred": 2398,
      "band": 2399,
      "ca": 2400,
      "ven": 2401,
      "yd": 2402,
      "ille": 2403,
      "dit": 2404,
      "Georg": 2405,
      "Daughter": 2406,
      "Doll": 2407,
      "Law": 2408,
      "Su": 2409,
      "ning": 2410,
      "enter": 2411,
      "ella": 2412,
      "Kong": 2413,
      "Mag": 2414,
      "hist": 2415,
      "2020": 2416,
      "ween": 2417,
      "Do": 2418,
      "Port": 2419,
      "award": 2420,
      "sel": 2421,
      "Korean": 2422,
      "Joseph": 2423,
      "Can": 2424,
      "Jos": 2425,
      "ini": 2426,
      "cinematographer": 2427,
      "features": 2428,
      "charact": 2429,
      "dis": 2430,
      "ling": 2431,
      "lov": 2432,
      "roles": 2433,
      "Lu": 2434,
      "Pal": 2435,
      "ny": 2436,
      "Mary": 2437,
      "ider": 2438,
      "Walter": 2439,
      "including": 2440,
      "Che": 2441,
      "Ke": 2442,
      "Ver": 2443,
      "Murder": 2444,
      "Thomas": 2445,
      "Apr": 2446,
      "Park": 2447,
      "To": 2448,
      "Val": 2449,
      "ya": 2450,
      "action": 2451,
      "April": 2452,
      "17": 2453,
      "Hon": 2454,
      "Kim": 2455,
      "So": 2456,
      "Sar": 2457,
      "2006": 2458,
      "Univers": 2459,
      "Swedish": 2460,
      "Hor": 2461,
      "Chap": 2462,
      "crime": 2463,
      "bro": 2464,
      "now": 2465,
      "filmm": 2466,
      "ica": 2467,
      "2004": 2468,
      "This": 2469,
      "que": 2470,
      "Max": 2471,
      "ari": 2472,
      "ico": 2473,
      "2021": 2474,
      "between": 2475,
      "Sil": 2476,
      "later": 2477,
      "summer": 2478,
      "ues": 2479,
      "yl": 2480,
      "Chan": 2481,
      "Child": 2482,
      "March": 2483,
      "lock": 2484,
      "Wed": 2485,
      "reviews": 2486,
      "Ghost": 2487,
      "Cana": 2488,
      "Gun": 2489,
      "Mom": 2490,
      "str": 2491,
      "iver": 2492,
      "akes": 2493,
      "ourney": 2494,
      "Golden": 2495,
      "Henry": 2496,
      "Cin": 2497,
      "Po": 2498,
      "sch": 2499,
      "ield": 2500,
      "Philip": 2501,
      "Minutes": 2502,
      "Black": 2503,
      "Part": 2504,
      "Ru": 2505,
      "sup": 2506,
      "ould": 2507,
      "ives": 2508,
      "iction": 2509,
      "Young": 2510,
      "sur": 2511,
      "cons": 2512,
      "sequel": 2513,
      "99": 2514,
      "Jim": 2515,
      "Sid": 2516,
      "har": 2517,
      "urt": 2518,
      "Shot": 2519,
      "2000": 2520,
      "ugu": 2521,
      "follows": 2522,
      "aven": 2523,
      "Canadian": 2524,
      "gr": 2525,
      "gar": 2526,
      "sen": 2527,
      "year": 2528,
      "where": 2529,
      "being": 2530,
      "design": 2531,
      ":...": 2532,
      "Oct": 2533,
      "mare": 2534,
      "tr": 2535,
      "Moon": 2536,
      "23": 2537,
      "At": 2538,
      "Gri": 2539,
      "Hill": 2540,
      "Movie": 2541,
      "Out": 2542,
      "Pier": 2543,
      "most": 2544,
      "success": 2545,
      "rec": 2546,
      "rey": 2547,
      "horror": 2548,
      "\".": 2549,
      "Ram": 2550,
      "dom": 2551,
      "spe": 2552,
      "ideo": 2553,
      "November": 2554,
      "Ag": 2555,
      "Ara": 2556,
      "Bal": 2557,
      "Cri": 2558,
      "Franc": 2559,
      "appear": 2560,
      "Century": 2561,
      "Born": 2562,
      "Del": 2563,
      "Tr": 2564,
      "ef": 2565,
      "sub": 2566,
      "years": 2567,
      "ities": 2568,
      "before": 2569,
      "Nightmare": 2570,
      "Hell": 2571,
      "Ken": 2572,
      "San": 2573,
      "ien": 2574,
      "mark": 2575,
      "ober": 2576,
      "ude": 2577,
      "show": 2578,
      "1922": 2579,
      "Ex": 2580,
      "Happ": 2581,
      "Rog": 2582,
      "Bob": 2583,
      "Heaven": 2584,
      "October": 2585,
      "three": 2586,
      "ative": 2587,
      "2002": 2588,
      "editor": 2589,
      "Live": 2590,
      "ston": 2591,
      "Joe": 2592,
      "Beaut": 2593,
      "Pass": 2594,
      "che": 2595,
      "mond": 2596,
      "sele": 2597,
      "eral": 2598,
      "sey": 2599,
      "Div": 2600,
      "Sand": 2601,
      "lit": 2602,
      "pi": 2603,
      "pub": 2604,
      "za": 2605,
      "ffer": 2606,
      "Scott": 2607,
      "Smith": 2608,
      "sets": 2609,
      "Midsummer": 2610,
      "Bul": 2611,
      "Vi": 2612,
      "Wood": 2613,
      "Anth": 2614,
      "Howard": 2615,
      "lic": 2616,
      "oot": 2617,
      "otion": 2618,
      "while": 2619,
      "Nights": 2620,
      "ertain": 2621,
      "filmmaker": 2622,
      "Jr": 2623,
      "Red": 2624,
      "she": 2625,
      "uary": 2626,
      "itch": 2627,
      "Dor": 2628,
      "ool": 2629,
      "ura": 2630,
      "use": 2631,
      "ship": 2632,
      "ists": 2633,
      "ople": 2634,
      "White": 2635,
      "January": 2636,
      "Anthony": 2637,
      "Ass": 2638,
      "National": 2639,
      "Sa": 2640,
      "new": 2641,
      "Alf": 2642,
      "Direct": 2643,
      "Princ": 2644,
      "Western": 2645,
      "critics": 2646,
      "Bern": 2647,
      "den": 2648,
      "ved": 2649,
      "dia": 2650,
      "America": 2651,
      "designed": 2652,
      "Up": 2653,
      "ho": 2654,
      "ius": 2655,
      "ience": 2656,
      "sy": 2657,
      "Marc": 2658,
      "screened": 2659,
      "Simple": 2660,
      "Hel": 2661,
      "Made": 2662,
      "Touch": 2663,
      "Year": 2664,
      "án": 2665,
      "omen": 2666,
      "Leon": 2667,
      "Steph": 2668,
      "Jones": 2669,
      "Rem": 2670,
      "Te": 2671,
      "Vict": 2672,
      "more": 2673,
      "side": 2674,
      "1920": 2675,
      "iving": 2676,
      "Spe": 2677,
      "Adventure": 2678,
      "Bre": 2679,
      "Journey": 2680,
      "bi": 2681,
      "pri": 2682,
      "war": 2683,
      "1919": 2684,
      "odern": 2685,
      "aking": 2686,
      "loc": 2687,
      "featuring": 2688,
      "ABC": 2689,
      "Cra": 2690,
      "Im": 2691,
      "Mé": 2692,
      "With": 2693,
      "fiction": 2694,
      "iro": 2695,
      "place": 2696,
      "mann": 2697,
      "acc": 2698,
      "Corpor": 2699,
      "Universal": 2700,
      "Cann": 2701,
      "Fair": 2702,
      "Van": 2703,
      "pol": 2704,
      "vo": 2705,
      "Chance": 2706,
      "distributed": 2707,
      "Shar": 2708,
      "range": 2709,
      "ized": 2710,
      "Berlin": 2711,
      "Soldi": 2712,
      "animated": 2713,
      "Case": 2714,
      "Certain": 2715,
      "po": 2716,
      "indi": 2717,
      "them": 2718,
      "uch": 2719,
      "Short": 2720,
      "Season": 2721,
      "book": 2722,
      "Trip": 2723,
      "Corporation": 2724,
      "Jer": 2725,
      "Mother": 2726,
      "Rev": 2727,
      "gross": 2728,
      "ste": 2729,
      "esh": 2730,
      "ski": 2731,
      "29": 2732,
      "Blo": 2733,
      "ature": 2734,
      "last": 2735,
      "theatric": 2736,
      "performan": 2737,
      "Green": 2738,
      "Sov": 2739,
      "ced": 2740,
      "four": 2741,
      "gin": 2742,
      "song": 2743,
      "filmed": 2744,
      "20th": 2745,
      "musical": 2746,
      "1999": 2747,
      "1917": 2748,
      "Wedding": 2749,
      "Big": 2750,
      "Ko": 2751,
      "back": 2752,
      "va": 2753,
      "real": 2754,
      "ena": 2755,
      "ander": 2756,
      "histor": 2757,
      "Fore": 2758,
      "Hard": 2759,
      "ki": 2760,
      "ush": 2761,
      "composer": 2762,
      "Columb": 2763,
      "Angel": 2764,
      "Game": 2765,
      "Tor": 2766,
      "Tay": 2767,
      "Ven": 2768,
      "family": 2769,
      "oto": 2770,
      "woman": 2771,
      "eld": 2772,
      "olog": 2773,
      "Adam": 2774,
      "iful": 2775,
      "box": 2776,
      "ka": 2777,
      "lor": 2778,
      "oph": 2779,
      "ès": 2780,
      "second": 2781,
      "plot": 2782,
      "Quiet": 2783,
      "Royal": 2784,
      "27": 2785,
      "Cat": 2786,
      "cy": 2787,
      "Haunt": 2788,
      "selected": 2789,
      "Soviet": 2790,
      "Columbia": 2791,
      "ba": 2792,
      "friend": 2793,
      "ref": 2794,
      "rie": 2795,
      "Andrew": 2796,
      "Victor": 2797,
      "Hall": 2798,
      "Sl": 2799,
      "Vir": 2800,
      "Win": 2801,
      "they": 2802,
      "rans": 2803,
      "Elm": 2804,
      "sky": 2805,
      "Fre": 2806,
      "Lond": 2807,
      "Miss": 2808,
      "zo": 2809,
      "ouble": 2810,
      "child": 2811,
      "used": 2812,
      "ident": 2813,
      "Fool": 2814,
      "porting": 2815,
      "through": 2816,
      "London": 2817,
      "28": 2818,
      "Hu": 2819,
      "Li": 2820,
      "Wind": 2821,
      "vate": 2822,
      "die": 2823,
      "cher": 2824,
      "ida": 2825,
      "Lew": 2826,
      "Broad": 2827,
      "Hans": 2828,
      "bru": 2829,
      "lyn": 2830,
      "1945": 2831,
      "Williams": 2832,
      "duction": 2833,
      "tells": 2834,
      "Few": 2835,
      "came": 2836,
      "ms": 2837,
      "ont": 2838,
      "anda": 2839,
      "oss": 2840,
      "ute": 2841,
      "version": 2842,
      "Beautiful": 2843,
      "Foreign": 2844,
      "Bit": 2845,
      "Cam": 2846,
      "Rain": 2847,
      "have": 2848,
      "some": 2849,
      "ison": 2850,
      "aste": 2851,
      "Parad": 2852,
      "About": 2853,
      "Febru": 2854,
      "cret": 2855,
      "Private": 2856,
      "ject": 2857,
      "ko": 2858,
      "usband": 2859,
      "Taylor": 2860,
      "February": 2861,
      "Lau": 2862,
      "only": 2863,
      "itive": 2864,
      "2005": 2865,
      "derella": 2866,
      "Brian": 2867,
      "Louis": 2868,
      "Australian": 2869,
      "Stranger": 2870,
      "Cinderella": 2871,
      "Griff": 2872,
      "Hal": 2873,
      "Met": 2874,
      "Tur": 2875,
      "ano": 2876,
      "2022": 2877,
      "Production": 2878,
      "Pra": 2879,
      "Was": 2880,
      "Winter": 2881,
      "iere": 2882,
      "inally": 2883,
      "oup": 2884,
      "oper": 2885,
      "Mont": 2886,
      "Sund": 2887,
      "mo": 2888,
      "nie": 2889,
      "sing": 2890,
      "around": 2891,
      "ories": 2892,
      "ition": 2893,
      "190": 2894,
      "There": 2895,
      "Maid": 2896,
      "Laure": 2897,
      "adapted": 2898,
      "Sidney": 2899,
      "Ral": 2900,
      "hu": 2901,
      "las": 2902,
      "wan": 2903,
      "ret": 2904,
      "Anton": 2905,
      "Sea": 2906,
      "1932": 2907,
      "Soul": 2908,
      "July": 2909,
      "liès": 2910,
      "adaptation": 2911,
      "Méliès": 2912,
      "Paradise": 2913,
      "Du": 2914,
      "Eric": 2915,
      "Lind": 2916,
      "Pie": 2917,
      "Ren": 2918,
      "gy": 2919,
      "ré": 2920,
      "video": 2921,
      "thers": 2922,
      "umar": 2923,
      "1996": 2924,
      "awn": 2925,
      "endent": 2926,
      "Blue": 2927,
      "Francis": 2928,
      "Doug": 2929,
      "Light": 2930,
      "nar": 2931,
      "Three": 2932,
      "ourt": 2933,
      "1918": 2934,
      "consider": 2935,
      "Stephen": 2936,
      "Hay": 2937,
      "Lion": 2938,
      "Sister": 2939,
      "ji": 2940,
      "ts": 2941,
      "orrow": 2942,
      "isa": 2943,
      "imp": 2944,
      "Walt": 2945,
      "Kingdom": 2946,
      "right": 2947,
      "After": 2948,
      "Cannes": 2949,
      "East": 2950,
      "Friend": 2951,
      "Land": 2952,
      "Sel": 2953,
      "Ta": 2954,
      "Wall": 2955,
      "ga": 2956,
      "ried": 2957,
      "ati": 2958,
      "ova": 2959,
      "Second": 2960,
      "Christoph": 2961,
      "cont": 2962,
      "1971": 2963,
      "office": 2964,
      "Arab": 2965,
      "Soldier": 2966,
      "Bad": 2967,
      "Sus": 2968,
      "main": 2969,
      "when": 2970,
      "Alan": 2971,
      "loyd": 2972,
      "Chris": 2973,
      "Den": 2974,
      "Hand": 2975,
      "Med": 2976,
      "black": 2977,
      "ky": 2978,
      "ening": 2979,
      "along": 2980,
      "evin": 2981,
      "1954": 2982,
      "Hindi": 2983,
      "Letter": 2984,
      "Modern": 2985,
      "On": 2986,
      "Sup": 2987,
      "Tw": 2988,
      "stery": 2989,
      "rich": 2990,
      "1931": 2991,
      "othy": 2992,
      "Remember": 2993,
      "Better": 2994,
      "Dar": 2995,
      "God": 2996,
      "Raj": 2997,
      "Tal": 2998,
      "best": 2999,
      "bud": 3000,
      "iy": 3001,
      "ll": 3002,
      "wyn": 3003,
      "elli": 3004,
      "come": 3005,
      "coming": 3006,
      "ope": 3007,
      "Davis": 3008,
      "ounds": 3009,
      "screenwriter": 3010,
      "North": 3011,
      "Jacqu": 3012,
      "DV": 3013,
      "Mast": 3014,
      "Nin": 3015,
      "Net": 3016,
      "Taste": 3017,
      "ette": 3018,
      "many": 3019,
      "Sher": 3020,
      "India": 3021,
      "Head": 3022,
      "Greg": 3023,
      "Miles": 3024,
      "Pierre": 3025,
      "Bullet": 3026,
      "del": 3027,
      "ec": 3028,
      "final": 3029,
      "berto": 3030,
      "France": 3031,
      "1921": 3032,
      "1925": 3033,
      "premiere": 3034,
      "Georges": 3035,
      "character": 3036,
      "Alfred": 3037,
      "Bell": 3038,
      "Knight": 3039,
      "kins": 3040,
      "trans": 3041,
      "uro": 3042,
      "Distribut": 3043,
      "Great": 3044,
      "Disney": 3045,
      "DVD": 3046,
      "Ham": 3047,
      "Lloyd": 3048,
      "Mex": 3049,
      "Que": 3050,
      "Ret": 3051,
      "gu": 3052,
      "ta": 3053,
      "val": 3054,
      "ye": 3055,
      "ying": 3056,
      "elle": 3057,
      "Stan": 3058,
      "ower": 3059,
      "Maria": 3060,
      "2003": 3061,
      "1934": 3062,
      "Quest": 3063,
      "Chaplin": 3064,
      "public": 3065,
      "Without": 3066,
      "Griffith": 3067,
      "Christopher": 3068,
      "0s": 3069,
      "Cities": 3070,
      "Gil": 3071,
      "Has": 3072,
      "Sin": 3073,
      "oy": 3074,
      "yan": 3075,
      "inv": 3076,
      "ato": 3077,
      "ital": 3078,
      "iger": 3079,
      "ete": 3080,
      "comm": 3081,
      "Ern": 3082,
      "Divor": 3083,
      "Fort": 3084,
      "Run": 3085,
      "Rod": 3086,
      "Tamil": 3087,
      "cle": 3088,
      "gre": 3089,
      "girl": 3090,
      "mi": 3091,
      "ically": 3092,
      "els": 3093,
      "titled": 3094,
      "Goldwyn": 3095,
      "Fight": 3096,
      "Lam": 3097,
      "Nik": 3098,
      "Rome": 3099,
      "cent": 3100,
      "ten": 3101,
      "iness": 3102,
      "ator": 3103,
      "andal": 3104,
      "Strange": 3105,
      "ural": 3106,
      "Albert": 3107,
      "science": 3108,
      "prev": 3109,
      "1916": 3110,
      "Clark": 3111,
      "Brid": 3112,
      "Earth": 3113,
      "Moment": 3114,
      "Lauren": 3115,
      "Cap": 3116,
      "ja": 3117,
      "vis": 3118,
      "ys": 3119,
      "ily": 3120,
      "starred": 3121,
      "ump": 3122,
      "Dead": 3123,
      "Secret": 3124,
      "fferent": 3125,
      "Venice": 3126,
      "Lewis": 3127,
      "considered": 3128,
      "Date": 3129,
      "hal": 3130,
      "len": 3131,
      "van": 3132,
      "ines": 3133,
      "rik": 3134,
      "ution": 3135,
      "China": 3136,
      "ima": 3137,
      "ardo": 3138,
      "Ann": 3139,
      "played": 3140,
      "Midnight": 3141,
      "dependent": 3142,
      "José": 3143,
      "Metro": 3144,
      "Ralph": 3145,
      "budget": 3146,
      "Return": 3147,
      "Gi": 3148,
      "Ka": 3149,
      "Kind": 3150,
      "call": 3151,
      "wide": 3152,
      "era": 3153,
      "ality": 3154,
      "toon": 3155,
      "osed": 3156,
      "cept": 3157,
      "ief": 3158,
      "sever": 3159,
      "dec": 3160,
      "again": 3161,
      "Sex": 3162,
      "ffic": 3163,
      "Christian": 3164,
      "1998": 3165,
      "entered": 3166,
      "\",": 3167,
      "But": 3168,
      "Cry": 3169,
      "Dem": 3170,
      "Jane": 3171,
      "View": 3172,
      "nd": 3173,
      "pop": 3174,
      "ters": 3175,
      "took": 3176,
      "Thing": 3177,
      "1915": 3178,
      "Prince": 3179,
      "Steve": 3180,
      "love": 3181,
      "previous": 3182,
      "several": 3183,
      "Fine": 3184,
      "Hung": 3185,
      "Ir": 3186,
      "Jenn": 3187,
      "father": 3188,
      "zi": 3189,
      "ola": 3190,
      "aya": 3191,
      "1942": 3192,
      "originally": 3193,
      "Ak": 3194,
      "Bren": 3195,
      "Ca": 3196,
      "Cle": 3197,
      "Ot": 3198,
      "sa": 3199,
      "vey": 3200,
      "inn": 3201,
      "rote": 3202,
      "ode": 3203,
      "Room": 3204,
      "1985": 3205,
      "1987": 3206,
      "1969": 3207,
      "Among": 3208,
      "Moore": 3209,
      "Brand": 3210,
      "Patrick": 3211,
      "positive": 3212,
      "Country": 3213,
      "Just": 3214,
      "Not": 3215,
      "Ring": 3216,
      "Tony": 3217,
      "bed": 3218,
      "both": 3219,
      "uan": 3220,
      "var": 3221,
      "ism": 3222,
      "Italy": 3223,
      "early": 3224,
      "athan": 3225,
      "1997": 3226,
      "Warri": 3227,
      "self": 3228,
      "Bor": 3229,
      "Fa": 3230,
      "Gord": 3231,
      "Kid": 3232,
      "Language": 3233,
      "Music": 3234,
      "ón": 3235,
      "studi": 3236,
      "then": 3237,
      "uses": 3238,
      "1995": 3239,
      "1935": 3240,
      "1938": 3241,
      "boy": 3242,
      "Small": 3243,
      "Robin": 3244,
      "special": 3245,
      "31": 3246,
      "Dr": 3247,
      "First": 3248,
      "Kri": 3249,
      "Kevin": 3250,
      "Mik": 3251,
      "Sla": 3252,
      "don": 3253,
      "num": 3254,
      "oice": 3255,
      "post": 3256,
      "iano": 3257,
      "1953": 3258,
      "Brook": 3259,
      "Scandal": 3260,
      "Donald": 3261,
      "historical": 3262,
      "45": 3263,
      "Cast": 3264,
      "Dam": 3265,
      "ban": 3266,
      "bre": 3267,
      "inst": 3268,
      "onto": 3269,
      "ata": 3270,
      "directorial": 3271,
      "section": 3272,
      "Sha": 3273,
      "1990": 3274,
      "1956": 3275,
      "1966": 3276,
      "1968": 3277,
      "1914": 3278,
      "Charlie": 3279,
      "ailor": 3280,
      "iety": 3281,
      "Hole": 3282,
      "Broadway": 3283,
      "Gam": 3284,
      "Swe": 3285,
      "Wolf": 3286,
      "Women": 3287,
      "festival": 3288,
      "gh": 3289,
      "graph": 3290,
      "ially": 3291,
      "wrote": 3292,
      "than": 3293,
      "enes": 3294,
      "alia": 3295,
      "oud": 3296,
      "lywood": 3297,
      "abri": 3298,
      "biograph": 3299,
      "Gordon": 3300,
      "Ron": 3301,
      "hol": 3302,
      "ni": 3303,
      "ars": 3304,
      "ali": 3305,
      "ised": 3306,
      "ester": 3307,
      "1991": 3308,
      "1937": 3309,
      "1959": 3310,
      "1984": 3311,
      "exper": 3312,
      "ific": 3313,
      "Bert": 3314,
      "Fun": 3315,
      "Vik": 3316,
      "cult": 3317,
      "dev": 3318,
      "hood": 3319,
      "sound": 3320,
      "alam": 3321,
      "ama": 3322,
      "roman": 3323,
      "Alice": 3324,
      "udy": 3325,
      "offic": 3326,
      "Barb": 3327,
      "Single": 3328,
      "Fer": 3329,
      "Fle": 3330,
      "Ga": 3331,
      "Kap": 3332,
      "Kell": 3333,
      "Kath": 3334,
      "Nick": 3335,
      "Sant": 3336,
      "Wong": 3337,
      "br": 3338,
      "ić": 3339,
      "von": 3340,
      "enc": 3341,
      "als": 3342,
      "empt": 3343,
      "Anna": 3344,
      "antas": 3345,
      "scri": 3346,
      "Before": 3347,
      "1957": 3348,
      "1958": 3349,
      "teen": 3350,
      "company": 3351,
      "uke": 3352,
      "Devil": 3353,
      "Happy": 3354,
      "Princess": 3355,
      "Lon": 3356,
      "Na": 3357,
      "Nat": 3358,
      "Tel": 3359,
      "line": 3360,
      "mur": 3361,
      "vin": 3362,
      "ating": 3363,
      "beth": 3364,
      "awa": 3365,
      "aired": 3366,
      "Oliver": 3367,
      "Wilson": 3368,
      "Crime": 3369,
      "Douglas": 3370,
      "Ash": 3371,
      "Down": 3372,
      "Eug": 3373,
      "Fern": 3374,
      "Ky": 3375,
      "Ly": 3376,
      "Los": 3377,
      "Most": 3378,
      "Own": 3379,
      "Your": 3380,
      "bur": 3381,
      "ied": 3382,
      "pra": 3383,
      "ía": 3384,
      "Marie": 3385,
      "rant": 3386,
      "1924": 3387,
      "Wallace": 3388,
      "189": 3389,
      "Grand": 3390,
      "Canada": 3391,
      "Special": 3392,
      "26": 3393,
      "BS": 3394,
      "Bla": 3395,
      "Fell": 3396,
      "Mas": 3397,
      "Wa": 3398,
      "fin": 3399,
      "gi": 3400,
      "house": 3401,
      "jo": 3402,
      "ken": 3403,
      "mov": 3404,
      "rd": 3405,
      "rough": 3406,
      "tri": 3407,
      "though": 3408,
      "ional": 3409,
      "Show": 3410,
      "1988": 3411,
      "Tomorrow": 3412,
      "flix": 3413,
      "performance": 3414,
      "narr": 3415,
      "Netflix": 3416,
      "Queen": 3417,
      "script": 3418,
      "Ari": 3419,
      "Burn": 3420,
      "Bird": 3421,
      "Crow": 3422,
      "Miller": 3423,
      "Pair": 3424,
      "iff": 3425,
      "kin": 3426,
      "ming": 3427,
      "nia": 3428,
      "atch": 3429,
      "ets": 3430,
      "romance": 3431,
      "Leag": 3432,
      "101": 3433,
      "Johnson": 3434,
      "1960": 3435,
      "1940": 3436,
      "people": 3437,
      "Herbert": 3438,
      "Germany": 3439,
      "Flor": 3440,
      "Malay": 3441,
      "Afric": 3442,
      "cartoon": 3443,
      "Actress": 3444,
      "Question": 3445,
      "Ah": 3446,
      "Ap": 3447,
      "Fear": 3448,
      "Hugh": 3449,
      "Lor": 3450,
      "Nich": 3451,
      "Water": 3452,
      "foot": 3453,
      "less": 3454,
      "ilian": 3455,
      "oul": 3456,
      "lett": 3457,
      "actors": 3458,
      "Harold": 3459,
      "1923": 3460,
      "1927": 3461,
      "1928": 3462,
      "1978": 3463,
      "Class": 3464,
      "Jeff": 3465,
      "Morgan": 3466,
      "Play": 3467,
      "Leslie": 3468,
      "Horse": 3469,
      "Toronto": 3470,
      "Jacques": 3471,
      "Bol": 3472,
      "Cas": 3473,
      "Jay": 3474,
      "Lane": 3475,
      "Mu": 3476,
      "Pray": 3477,
      "Tro": 3478,
      "eks": 3479,
      "hav": 3480,
      "nor": 3481,
      "such": 3482,
      "ving": 3483,
      "thing": 3484,
      "asing": 3485,
      "entine": 3486,
      "ided": 3487,
      "Under": 3488,
      "Reason": 3489,
      "titles": 3490,
      "inspi": 3491,
      "Guide": 3492,
      "Prize": 3493,
      "Simon": 3494,
      "Actor": 3495,
      "surv": 3496,
      "Piece": 3497,
      "Bu": 3498,
      "Bus": 3499,
      "Old": 3500,
      "Wild": 3501,
      "ft": 3502,
      "ges": 3503,
      "key": 3504,
      "wen": 3505,
      "yo": 3506,
      "anth": 3507,
      "ero": 3508,
      "ened": 3509,
      "rice": 3510,
      "entry": 3511,
      "uce": 3512,
      "form": 3513,
      "illa": 3514,
      "Spring": 3515,
      "Scream": 3516,
      "1973": 3517,
      "Intertitle": 3518,
      "iza": 3519,
      "Every": 3520,
      "Alexander": 3521,
      "disc": 3522,
      "supporting": 3523,
      "inspired": 3524,
      "AK": 3525,
      "Bay": 3526,
      "Bah": 3527,
      "Court": 3528,
      "Documentary": 3529,
      "Hist": 3530,
      "Husband": 3531,
      "can": 3532,
      "find": 3533,
      "hard": 3534,
      "ifor": 3535,
      "mix": 3536,
      "uf": 3537,
      "rid": 3538,
      "atic": 3539,
      "ouple": 3540,
      "olph": 3541,
      "adventure": 3542,
      "Stu": 3543,
      "musician": 3544,
      "ape": 3545,
      "shown": 3546,
      "Leo": 3547,
      "Brown": 3548,
      "Michel": 3549,
      "Glass": 3550,
      "atherine": 3551,
      "stein": 3552,
      "theatrically": 3553,
      "Haunting": 3554,
      "Cur": 3555,
      "Cze": 3556,
      "Ford": 3557,
      "Lost": 3558,
      "Res": 3559,
      "US": 3560,
      "bal": 3561,
      "born": 3562,
      "field": 3563,
      "wife": 3564,
      "ço": 3565,
      "reg": 3566,
      "eman": 3567,
      "osely": 3568,
      "Anim": 3569,
      "aint": 3570,
      "achel": 3571,
      "Week": 3572,
      "Blanc": 3573,
      "ucky": 3574,
      "Sky": 3575,
      "Claude": 3576,
      "called": 3577,
      "popular": 3578,
      "Otto": 3579,
      "Nichol": 3580,
      "Czech": 3581,
      "Bud": 3582,
      "Dut": 3583,
      "Ein": 3584,
      "Gian": 3585,
      "Han": 3586,
      "Kr": 3587,
      "Low": 3588,
      "Lev": 3589,
      "Mos": 3590,
      "Rick": 3591,
      "duc": 3592,
      "lim": 3593,
      "mand": 3594,
      "sim": 3595,
      "anne": 3596,
      "omb": 3597,
      "unch": 3598,
      "ively": 3599,
      "Marsh": 3600,
      "Margar": 3601,
      "events": 3602,
      "Anne": 3603,
      "Through": 3604,
      "1993": 3605,
      "Mack": 3606,
      "credit": 3607,
      "Samuel": 3608,
      "Califor": 3609,
      "Larry": 3610,
      "characters": 3611,
      "Roger": 3612,
      "sych": 3613,
      "Blood": 3614,
      "Productions": 3615,
      ".\"": 3616,
      "Bab": 3617,
      "Gal": 3618,
      "Gary": 3619,
      "Jason": 3620,
      "Kir": 3621,
      "Killer": 3622,
      "Motion": 3623,
      "Six": 3624,
      "sol": 3625,
      "ink": 3626,
      "rest": 3627,
      "Sho": 3628,
      "ello": 3629,
      "Thief": 3630,
      "ages": 3631,
      "Mauri": 3632,
      "anny": 3633,
      "anner": 3634,
      "1933": 3635,
      "composed": 3636,
      "Braz": 3637,
      "present": 3638,
      "General": 3639,
      "08": 3640,
      "44": 3641,
      "Cre": 3642,
      "Lan": 3643,
      "Rom": 3644,
      "Squ": 3645,
      "Tem": 3646,
      "down": 3647,
      "lar": 3648,
      "non": 3649,
      "zy": 3650,
      "thew": 3651,
      "town": 3652,
      "iment": 3653,
      "photo": 3654,
      "ationship": 3655,
      "Real": 3656,
      "1994": 3657,
      "Mayer": 3658,
      "Allan": 3659,
      "Allen": 3660,
      "Killing": 3661,
      "Australia": 3662,
      "location": 3663,
      "Virgin": 3664,
      "murder": 3665,
      "California": 3666,
      "Bag": 3667,
      "Dal": 3668,
      "Dun": 3669,
      "Mus": 3670,
      "Sen": 3671,
      "bu": 3672,
      "hel": 3673,
      "jas": 3674,
      "ctor": 3675,
      "Road": 3676,
      "rence": 3677,
      "Month": 3678,
      "Conf": 3679,
      "ennett": 3680,
      "following": 3681,
      "followed": 3682,
      "III": 3683,
      "Karl": 3684,
      "relationship": 3685,
      "remake": 3686,
      "awards": 3687,
      "Honor": 3688,
      "Antonio": 3689,
      "Telugu": 3690,
      ":$": 3691,
      "Double": 3692,
      "Hop": 3693,
      "Lib": 3694,
      "Lyn": 3695,
      "Rele": 3696,
      "Ty": 3697,
      "Vinc": 3698,
      "home": 3699,
      "ão": 3700,
      "arian": 3701,
      "het": 3702,
      "white": 3703,
      "Rock": 3704,
      "Deep": 3705,
      "conc": 3706,
      "End": 3707,
      "compet": 3708,
      "portray": 3709,
      "Bruce": 3710,
      "Ross": 3711,
      "Merry": 3712,
      "Raymond": 3713,
      "colle": 3714,
      "worldwide": 3715,
      "Woods": 3716,
      "grossing": 3717,
      "mixed": 3718,
      "Au": 3719,
      "Jes": 3720,
      "Later": 3721,
      "Pan": 3722,
      "Soc": 3723,
      "Sub": 3724,
      "Television": 3725,
      "Wang": 3726,
      "ker": 3727,
      "low": 3728,
      "rison": 3729,
      "Mario": 3730,
      "cinema": 3731,
      "aka": 3732,
      "death": 3733,
      "Allo": 3734,
      "Arb": 3735,
      "Screen": 3736,
      "1912": 3737,
      "Acc": 3738,
      "Danish": 3739,
      "uckle": 3740,
      "Norman": 3741,
      "ABCD": 3742,
      "Ninjas": 3743,
      "Barbara": 3744,
      "Cr": 3745,
      "Cro": 3746,
      "Dra": 3747,
      "Euro": 3748,
      "Fall": 3749,
      "Kal": 3750,
      "Kay": 3751,
      "Mill": 3752,
      "Orig": 3753,
      "foc": 3754,
      "hom": 3755,
      "how": 3756,
      "view": 3757,
      "enge": 3758,
      "ences": 3759,
      "riage": 3760,
      "dim": 3761,
      "ami": 3762,
      "utt": 3763,
      "ume": 3764,
      "became": 3765,
      "1986": 3766,
      "pect": 3767,
      "enny": 3768,
      "Brun": 3769,
      "Matthew": 3770,
      "Feature": 3771,
      "Hollywood": 3772,
      "Korea": 3773,
      "3F": 3774,
      "Cong": 3775,
      "Esc": 3776,
      "Fland": 3777,
      "Jew": 3778,
      "Mind": 3779,
      "Si": 3780,
      "mid": 3781,
      "run": 3782,
      "takes": 3783,
      "iny": 3784,
      "ori": 3785,
      "prog": 3786,
      "Step": 3787,
      "otte": 3788,
      "ante": 3789,
      "Arch": 3790,
      "Picture": 3791,
      "Harris": 3792,
      "1950": 3793,
      "created": 3794,
      "until": 3795,
      "Serge": 3796,
      "Carlos": 3797,
      "Dorothy": 3798,
      "Seasons": 3799,
      "Divorce": 3800,
      "History": 3801,
      "Margaret": 3802,
      "Flanders": 3803,
      "Av": 3804,
      "Bh": 3805,
      "Dying": 3806,
      "Ja": 3807,
      "Kumar": 3808,
      "Mess": 3809,
      "Rey": 3810,
      "list": 3811,
      "named": 3812,
      "sm": 3813,
      "oni": 3814,
      "icol": 3815,
      "ela": 3816,
      "elson": 3817,
      "sex": 3818,
      "Dean": 3819,
      "Arg": 3820,
      "1929": 3821,
      "1982": 3822,
      "1970": 3823,
      "enna": 3824,
      "Barry": 3825,
      "Lawrence": 3826,
      "Portugu": 3827,
      "Change": 3828,
      "Bernard": 3829,
      "Media": 3830,
      "Stuart": 3831,
      "photograph": 3832,
      "Baker": 3833,
      "Clock": 3834,
      "Dick": 3835,
      "Hot": 3836,
      "Kaz": 3837,
      "Mr": 3838,
      "Mak": 3839,
      "Os": 3840,
      "ij": 3841,
      "long": 3842,
      "psych": 3843,
      "soc": 3844,
      "sign": 3845,
      "six": 3846,
      "independent": 3847,
      "erally": 3848,
      "eder": 3849,
      "leg": 3850,
      "lav": 3851,
      "scar": 3852,
      "perate": 3853,
      "André": 3854,
      "187": 3855,
      "Aleks": 3856,
      "Garc": 3857,
      "days": 3858,
      "Sarah": 3859,
      "children": 3860,
      "Stanley": 3861,
      "fficult": 3862,
      "studio": 3863,
      "Slave": 3864,
      "romanized": 3865,
      "Portuguese": 3866,
      "Hun": 3867,
      "Iran": 3868,
      "Kent": 3869,
      "Our": 3870,
      "Rose": 3871,
      "Syl": 3872,
      "Til": 3873,
      "Tam": 3874,
      "wa": 3875,
      "thor": 3876,
      "chn": 3877,
      "Cha": 3878,
      "what": 3879,
      "ika": 3880,
      "1951": 3881,
      "1979": 3882,
      "Roberts": 3883,
      "audi": 3884,
      "1943": 3885,
      "Russell": 3886,
      "class": 3887,
      "himself": 3888,
      "Master": 3889,
      "against": 3890,
      "Eve": 3891,
      "Gill": 3892,
      "Ire": 3893,
      "Juan": 3894,
      "Nar": 3895,
      "kov": 3896,
      "net": 3897,
      "oor": 3898,
      "rary": 3899,
      "yer": 3900,
      "ons": 3901,
      "iser": 3902,
      "esc": 3903,
      "ican": 3904,
      "Franço": 3905,
      "Walks": 3906,
      "1961": 3907,
      "1965": 3908,
      "Eliza": 3909,
      "Emil": 3910,
      "Silver": 3911,
      "refer": 3912,
      "number": 3913,
      "Elizabeth": 3914,
      "Catherine": 3915,
      "Fish": 3916,
      "Full": 3917,
      "Hart": 3918,
      "Las": 3919,
      "Mira": 3920,
      "ila": 3921,
      "third": 3922,
      "elop": 3923,
      "illip": 3924,
      "loosely": 3925,
      "Warren": 3926,
      "1989": 3927,
      "People": 3928,
      "ifer": 3929,
      "Money": 3930,
      "Monster": 3931,
      "track": 3932,
      "Steven": 3933,
      "Lesson": 3934,
      "Baby": 3935,
      "broad": 3936,
      "Bas": 3937,
      "Less": 3938,
      "Lisa": 3939,
      "Mike": 3940,
      "Pet": 3941,
      "Person": 3942,
      "Rud": 3943,
      "bel": 3944,
      "five": 3945,
      "fantas": 3946,
      "hl": 3947,
      "hand": 3948,
      "kar": 3949,
      "pp": 3950,
      "öm": 3951,
      "arch": 3952,
      "rait": 3953,
      "laim": 3954,
      "score": 3955,
      "Frances": 3956,
      "exp": 3957,
      "Ell": 3958,
      "attle": 3959,
      "Bron": 3960,
      "Desperate": 3961,
      "leading": 3962,
      "install": 3963,
      "Malayalam": 3964,
      "Aleksand": 3965,
      ":.": 3966,
      "Bett": 3967,
      "Cru": 3968,
      "Field": 3969,
      "Glo": 3970,
      "Hunt": 3971,
      "Mir": 3972,
      "Pre": 3973,
      "Tok": 3974,
      "gang": 3975,
      "high": 3976,
      "miss": 3977,
      "nam": 3978,
      "would": 3979,
      "ores": 3980,
      "inger": 3981,
      "alog": 3982,
      "did": 3983,
      "olution": 3984,
      "gether": 3985,
      "Space": 3986,
      "upon": 3987,
      "Brothers": 3988,
      "Desire": 3989,
      "Singh": 3990,
      "depict": 3991,
      "Director": 3992,
      "grossed": 3993,
      "Ernest": 3994,
      "Faith": 3995,
      "Library": 3996,
      "installment": 3997,
      ":%": 3998,
      "Ast": 3999,
      "Bon": 4000,
      "Dir": 4001,
      "Dist": 4002,
      "Fil": 4003,
      "Fri": 4004,
      "Haw": 4005,
      "Row": 4006,
      "Une": 4007,
      "Vit": 4008,
      "Woo": 4009,
      "Yu": 4010,
      "dem": 4011,
      "person": 4012,
      "will": 4013,
      "zer": 4014,
      "stit": 4015,
      "stage": 4016,
      "orm": 4017,
      "ats": 4018,
      "ofess": 4019,
      "room": 4020,
      "aces": 4021,
      "away": 4022,
      "Franz": 4023,
      "plays": 4024,
      "expl": 4025,
      "Elli": 4026,
      "ift": 4027,
      "uki": 4028,
      "Julie": 4029,
      "includes": 4030,
      "group": 4031,
      "Mexico": 4032,
      "Hungarian": 4033,
      "Maurice": 4034,
      "Congress": 4035,
      "broadcast": 4036,
      "2nd": 4037,
      "300": 4038,
      "Ian": 4039,
      "Lot": 4040,
      "Living": 4041,
      "Oscar": 4042,
      "Py": 4043,
      "Sad": 4044,
      "Ted": 4045,
      "Us": 4046,
      "bl": 4047,
      "fall": 4048,
      "light": 4049,
      "mother": 4050,
      "since": 4051,
      "vi": 4052,
      "eland": 4053,
      "amous": 4054,
      "chi": 4055,
      "Stra": 4056,
      "ots": 4057,
      "udent": 4058,
      "Union": 4059,
      "iko": 4060,
      "annel": 4061,
      "1964": 4062,
      "worth": 4063,
      "1001": 4064,
      "Produc": 4065,
      "nominations": 4066,
      "critical": 4067,
      "Polish": 4068,
      "school": 4069,
      "true": 4070,
      "Waltz": 4071,
      "biographical": 4072,
      "Bear": 4073,
      "Dian": 4074,
      "Danny": 4075,
      "Egy": 4076,
      "Gram": 4077,
      "Kat": 4078,
      "River": 4079,
      "Tai": 4080,
      "Wat": 4081,
      "Yo": 4082,
      "due": 4083,
      "leng": 4084,
      "ral": 4085,
      "uz": 4086,
      "én": 4087,
      "tha": 4088,
      "elf": 4089,
      "among": 4090,
      "chan": 4091,
      "una": 4092,
      "ogy": 4093,
      "ighty": 4094,
      "Manuel": 4095,
      "Shaw": 4096,
      "Anderson": 4097,
      "Berg": 4098,
      "Jacob": 4099,
      "Dollars": 4100,
      "ström": 4101,
      "Philipp": 4102,
      "Party": 4103,
      "Jimmy": 4104,
      "theatrical": 4105,
      "Distribution": 4106,
      "Square": 4107,
      "Arbuckle": 4108,
      "fantasy": 4109,
      "Dawn": 4110,
      "Gang": 4111,
      "Haz": 4112,
      "Prom": 4113,
      "Sony": 4114,
      "Syd": 4115,
      "Snow": 4116,
      "gedy": 4117,
      "ked": 4118,
      "make": 4119,
      "nes": 4120,
      "erman": 4121,
      "osh": 4122,
      "Chi": 4123,
      "That": 4124,
      "tti": 4125,
      "Franco": 4126,
      "ended": 4127,
      "oster": 4128,
      "1976": 4129,
      "Quality": 4130,
      "Southern": 4131,
      "Brad": 4132,
      "Minute": 4133,
      "Ruth": 4134,
      "record": 4135,
      "Angeles": 4136,
      "ology": 4137,
      "Arabic": 4138,
      "Kelly": 4139,
      "footage": 4140,
      "Virginia": 4141,
      "program": 4142,
      "Sylv": 4143,
      "1st": 4144,
      "Bir": 4145,
      "Bug": 4146,
      "Fal": 4147,
      "Grant": 4148,
      "Matt": 4149,
      "Pist": 4150,
      "lan": 4151,
      "ée": 4152,
      "ür": 4153,
      "stand": 4154,
      "ona": 4155,
      "Chand": 4156,
      "Mart": 4157,
      "began": 4158,
      "Sean": 4159,
      "Una": 4160,
      "icked": 4161,
      "coe": 4162,
      "aire": 4163,
      "1948": 4164,
      "Weeks": 4165,
      "Moh": 4166,
      "Mystery": 4167,
      "Holm": 4168,
      "ronic": 4169,
      "polit": 4170,
      "Africa": 4171,
      "Releasing": 4172,
      "Taiwan": 4173,
      "Action": 4174,
      "Gor": 4175,
      "Gabri": 4176,
      "RR": 4177,
      "Rav": 4178,
      "Sang": 4179,
      "Tan": 4180,
      "Tick": 4181,
      "Tex": 4182,
      "Ve": 4183,
      "Var": 4184,
      "Ye": 4185,
      "cott": 4186,
      "gio": 4187,
      "gins": 4188,
      "jay": 4189,
      "kill": 4190,
      "ole": 4191,
      "pa": 4192,
      "yle": 4193,
      "erg": 4194,
      "ilogy": 4195,
      "ala": 4196,
      "dig": 4197,
      "different": 4198,
      "ently": 4199,
      "adow": 4200,
      "directors": 4201,
      "law": 4202,
      "scenes": 4203,
      "Harvey": 4204,
      "1949": 4205,
      "Cloud": 4206,
      "Intertitles": 4207,
      "Charl": 4208,
      "attempt": 4209,
      "Jules": 4210,
      "theaters": 4211,
      "Parker": 4212,
      "ological": 4213,
      "Sunday": 4214,
      "Bridge": 4215,
      "develop": 4216,
      "length": 4217,
      "33": 4218,
      "3D": 4219,
      "Bry": 4220,
      "Cy": 4221,
      "Dest": 4222,
      "Fist": 4223,
      "Father": 4224,
      "Gé": 4225,
      "Mighty": 4226,
      "Nam": 4227,
      "Nag": 4228,
      "Pers": 4229,
      "Well": 4230,
      "bin": 4231,
      "fan": 4232,
      "fem": 4233,
      "found": 4234,
      "hig": 4235,
      "oney": 4236,
      "ington": 4237,
      "atter": 4238,
      "ides": 4239,
      "Shin": 4240,
      "earl": 4241,
      "comed": 4242,
      "become": 4243,
      "10th": 4244,
      "1930": 4245,
      "1926": 4246,
      "1983": 4247,
      "1977": 4248,
      "1941": 4249,
      "Anders": 4250,
      "Perry": 4251,
      "School": 4252,
      "Brady": 4253,
      "preser": 4254,
      "Tax": 4255,
      "Handful": 4256,
      "Fortune": 4257,
      "Romeo": 4258,
      "Vincent": 4259,
      "49": 4260,
      "AT": 4261,
      "Bet": 4262,
      "Cub": 4263,
      "Dub": 4264,
      "Fin": 4265,
      "Face": 4266,
      "Jung": 4267,
      "Mol": 4268,
      "Nest": 4269,
      "Sy": 4270,
      "Sav": 4271,
      "Sound": 4272,
      "UK": 4273,
      "Vla": 4274,
      "Yan": 4275,
      "bra": 4276,
      "ci": 4277,
      "cur": 4278,
      "fran": 4279,
      "late": 4280,
      "live": 4281,
      "member": 4282,
      "sent": 4283,
      "tern": 4284,
      "Stone": 4285,
      "uma": 4286,
      "avor": 4287,
      "Ship": 4288,
      "beca": 4289,
      "ourn": 4290,
      "1936": 4291,
      "1939": 4292,
      "1967": 4293,
      "author": 4294,
      "Streets": 4295,
      "Julia": 4296,
      "international": 4297,
      "mystery": 4298,
      "Darkness": 4299,
      "Evil": 4300,
      "featured": 4301,
      "Melody": 4302,
      "Louise": 4303,
      "Artists": 4304,
      "Portrait": 4305,
      "Vera": 4306,
      "performances": 4307,
      "Fernand": 4308,
      "Prayer": 4309,
      "Pistol": 4310,
      "Air": 4311,
      "Curt": 4312,
      "Gon": 4313,
      "Gust": 4314,
      "Hom": 4315,
      "Kann": 4316,
      "Lad": 4317,
      "Lie": 4318,
      "Must": 4319,
      "Mick": 4320,
      "Mix": 4321,
      "Nelson": 4322,
      "Pay": 4323,
      "Pla": 4324,
      "Sailor": 4325,
      "Vill": 4326,
      "gra": 4327,
      "hind": 4328,
      "lives": 4329,
      "nation": 4330,
      "prom": 4331,
      "tal": 4332,
      "tim": 4333,
      "ually": 4334,
      "wick": 4335,
      "oria": 4336,
      "olves": 4337,
      "ula": 4338,
      "Mars": 4339,
      "commer": 4340,
      "oking": 4341,
      "1952": 4342,
      "1980": 4343,
      "Dave": 4344,
      "Cole": 4345,
      "Cooper": 4346,
      "Roses": 4347,
      "print": 4348,
      "fects": 4349,
      "colla": 4350,
      "itzer": 4351,
      "Stolen": 4352,
      "Philippe": 4353,
      "Viol": 4354,
      "Camer": 4355,
      "Jennifer": 4356,
      "Leagues": 4357,
      "Marshall": 4358,
      "credited": 4359,
      "concern": 4360,
      "Europe": 4361,
      "Egypt": 4362,
      "Sydney": 4363,
      "Vladim": 4364,
      "97": 4365,
      "By": 4366,
      "Code": 4367,
      "Fro": 4368,
      "Fath": 4369,
      "Gene": 4370,
      "Judy": 4371,
      "Mov": 4372,
      "Rah": 4373,
      "Tod": 4374,
      "Tsu": 4375,
      "body": 4376,
      "nold": 4377,
      "pla": 4378,
      "dio": 4379,
      "oms": 4380,
      "iting": 4381,
      "direction": 4382,
      "hest": 4383,
      "ado": 4384,
      "ules": 4385,
      "arden": 4386,
      "umont": 4387,
      "Marion": 4388,
      "whose": 4389,
      "aki": 4390,
      "comes": 4391,
      "Ali": 4392,
      "ains": 4393,
      "opra": 4394,
      "ugg": 4395,
      "Carmen": 4396,
      "Mah": 4397,
      "Girls": 4398,
      "Gerald": 4399,
      "Close": 4400,
      "Diary": 4401,
      "Colin": 4402,
      "lished": 4403,
      "descri": 4404,
      "winning": 4405,
      "Honour": 4406,
      "Madea": 4407,
      "singer": 4408,
      "Aleksandr": 4409,
      "\")": 4410,
      "Bi": 4411,
      "Cant": 4412,
      "Hat": 4413,
      "Hit": 4414,
      "Jump": 4415,
      "Kon": 4416,
      "Line": 4417,
      "Mun": 4418,
      "Mort": 4419,
      "Mitch": 4420,
      "Now": 4421,
      "Od": 4422,
      "Pur": 4423,
      "Path": 4424,
      "Wu": 4425,
      "Ze": 4426,
      "Zh": 4427,
      "bon": 4428,
      "bell": 4429,
      "cer": 4430,
      "din": 4431,
      "dle": 4432,
      "ique": 4433,
      "jor": 4434,
      "making": 4435,
      "pen": 4436,
      "sett": 4437,
      "ube": 4438,
      "ville": 4439,
      "went": 4440,
      "ared": 4441,
      "ored": 4442,
      "dies": 4443,
      "together": 4444,
      "ote": 4445,
      "aga": 4446,
      "abel": 4447,
      "lop": 4448,
      "artist": 4449,
      "ples": 4450,
      "Lover": 4451,
      "Rec": 4452,
      "anna": 4453,
      "others": 4454,
      "1962": 4455,
      "Andy": 4456,
      "Amy": 4457,
      "Corner": 4458,
      "Smile": 4459,
      "Roscoe": 4460,
      "ront": 4461,
      "Alexand": 4462,
      "Cheung": 4463,
      "Assist": 4464,
      "Helen": 4465,
      "Hardy": 4466,
      "Laura": 4467,
      "return": 4468,
      "psychological": 4469,
      "35": 4470,
      "Att": 4471,
      "Cop": 4472,
      "Hy": 4473,
      "Hoff": 4474,
      "Il": 4475,
      "Ji": 4476,
      "Mi": 4477,
      "Mist": 4478,
      "Ng": 4479,
      "Name": 4480,
      "Pas": 4481,
      "Ry": 4482,
      "Rand": 4483,
      "Set": 4484,
      "care": 4485,
      "like": 4486,
      "mill": 4487,
      "maj": 4488,
      "rang": 4489,
      "vice": 4490,
      "ries": 4491,
      "ales": 4492,
      "andro": 4493,
      "eli": 4494,
      "Its": 4495,
      "owell": 4496,
      "ians": 4497,
      "Carlo": 4498,
      "Carey": 4499,
      "assin": 4500,
      "azz": 4501,
      "otta": 4502,
      "Sammy": 4503,
      "Henri": 4504,
      "month": 4505,
      "Tragedy": 4506,
      "appearance": 4507,
      "great": 4508,
      "Robinson": 4509,
      "having": 4510,
      "limited": 4511,
      "Brazilian": 4512,
      "imental": 4513,
      "François": 4514,
      "Az": 4515,
      "BBC": 4516,
      "Cage": 4517,
      "Din": 4518,
      "Jor": 4519,
      "Lim": 4520,
      "Mis": 4521,
      "Mand": 4522,
      "Oper": 4523,
      "Other": 4524,
      "Pres": 4525,
      "Ric": 4526,
      "Sat": 4527,
      "Sur": 4528,
      "Tail": 4529,
      "Tiger": 4530,
      "Vas": 4531,
      "Wright": 4532,
      "burn": 4533,
      "cing": 4534,
      "just": 4535,
      "ned": 4536,
      "uter": 4537,
      "ario": 4538,
      "stant": 4539,
      "rible": 4540,
      "amin": 4541,
      "ros": 4542,
      "olo": 4543,
      "using": 4544,
      "former": 4545,
      "ogn": 4546,
      "owers": 4547,
      "ompson": 4548,
      "neg": 4549,
      "Shadow": 4550,
      "iac": 4551,
      "Thompson": 4552,
      "1981": 4553,
      "Adri": 4554,
      "Web": 4555,
      "When": 4556,
      "Force": 4557,
      "Forest": 4558,
      "ighbor": 4559,
      "Earl": 4560,
      "Regular": 4561,
      "Chapman": 4562,
      "successful": 4563,
      "Fairy": 4564,
      "Revenge": 4565,
      "Fighting": 4566,
      "soundtrack": 4567,
      "Nicholas": 4568,
      "Original": 4569,
      "highest": 4570,
      "Kannada": 4571,
      "AC": 4572,
      "Back": 4573,
      "Buck": 4574,
      "Camp": 4575,
      "Ek": 4576,
      "Ful": 4577,
      "Grow": 4578,
      "High": 4579,
      "Id": 4580,
      "Mut": 4581,
      "More": 4582,
      "Pil": 4583,
      "Past": 4584,
      "Pounds": 4585,
      "Ran": 4586,
      "Rounds": 4587,
      "Ryan": 4588,
      "Ton": 4589,
      "Tib": 4590,
      "bast": 4591,
      "each": 4592,
      "lad": 4593,
      "mil": 4594,
      "met": 4595,
      "mag": 4596,
      "nu": 4597,
      "oe": 4598,
      "pse": 4599,
      "say": 4600,
      "uo": 4601,
      "rett": 4602,
      "esa": 4603,
      "rag": 4604,
      "Chang": 4605,
      "Choice": 4606,
      "ivil": 4607,
      "iven": 4608,
      "iday": 4609,
      "umm": 4610,
      "Marriage": 4611,
      "deal": 4612,
      "ago": 4613,
      "ants": 4614,
      "opening": 4615,
      "Spain": 4616,
      "erner": 4617,
      "1913": 4618,
      "ought": 4619,
      "ible": 4620,
      "ensen": 4621,
      "ventures": 4622,
      "included": 4623,
      "generally": 4624,
      "Oliv": 4625,
      "Graham": 4626,
      "Hills": 4627,
      "Again": 4628,
      "subject": 4629,
      "voice": 4630,
      "Mission": 4631,
      "Gregory": 4632,
      "century": 4633,
      "Warrior": 4634,
      "Warriors": 4635,
      "burg": 4636,
      "competition": 4637,
      "Society": 4638,
      "Argentine": 4639,
      "Hunter": 4640,
      "Dirty": 4641,
      "Vladimir": 4642,
      "Tsui": 4643,
      "37": 4644,
      "Cass": 4645,
      "Come": 4646,
      "Coll": 4647,
      "CBS": 4648,
      "Hate": 4649,
      "Iv": 4650,
      "Jun": 4651,
      "Ki": 4652,
      "Kn": 4653,
      "Kate": 4654,
      "Tru": 4655,
      "Ul": 4656,
      "Viv": 4657,
      "gian": 4658,
      "hy": 4659,
      "king": 4660,
      "turn": 4661,
      "aron": 4662,
      "there": 4663,
      "rish": 4664,
      "ising": 4665,
      "ito": 4666,
      "leen": 4667,
      "utes": 4668,
      "gest": 4669,
      "cker": 4670,
      "appro": 4671,
      "1992": 4672,
      "team": 4673,
      "exec": 4674,
      "works": 4675,
      "Difficult": 4676,
      "Trick": 4677,
      "Serious": 4678,
      "critic": 4679,
      "Comes": 4680,
      "Claire": 4681,
      "Kisses": 4682,
      "working": 4683,
      "Passion": 4684,
      "fictional": 4685,
      "Slice": 4686,
      "alongside": 4687,
      "Returns": 4688,
      "Gamble": 4689,
      "Eugen": 4690,
      "help": 4691,
      "Jesse": 4692,
      "small": 4693,
      "Produced": 4694,
      "Aven": 4695,
      "Bos": 4696,
      "Cow": 4697,
      "Capt": 4698,
      "Domin": 4699,
      "Fan": 4700,
      "Jess": 4701,
      "Lions": 4702,
      "Mem": 4703,
      "Nico": 4704,
      "Rel": 4705,
      "Ten": 4706,
      "Tak": 4707,
      "Wri": 4708,
      "Wicked": 4709,
      "Yam": 4710,
      "bas": 4711,
      "cut": 4712,
      "hack": 4713,
      "ired": 4714,
      "vert": 4715,
      "ín": 4716,
      "ör": 4717,
      "ilar": 4718,
      "ischer": 4719,
      "heim": 4720,
      "oshi": 4721,
      "Chen": 4722,
      "Chit": 4723,
      "Chuck": 4724,
      "Channel": 4725,
      "ards": 4726,
      "Mann": 4727,
      "shi": 4728,
      "Alberto": 4729,
      "Arms": 4730,
      "Sport": 4731,
      "upid": 4732,
      "Willy": 4733,
      "1955": 4734,
      "ahl": 4735,
      "week": 4736,
      "180": 4737,
      "Different": 4738,
      "Julian": 4739,
      "Jonathan": 4740,
      "Plan": 4741,
      "Group": 4742,
      "Terry": 4743,
      "Craig": 4744,
      "Sharma": 4745,
      "Turk": 4746,
      "Francisco": 4747,
      "Susan": 4748,
      "Supporting": 4749,
      "transl": 4750,
      "Texas": 4751,
      "Clouds": 4752,
      "Charlotte": 4753,
      "Fistful": 4754,
      "commercial": 4755,
      "88": 4756,
      ":(": 4757,
      "Ball": 4758,
      "Cir": 4759,
      "Erich": 4760,
      "Fel": 4761,
      "Gol": 4762,
      "Hers": 4763,
      "Jord": 4764,
      "Kam": 4765,
      "Lin": 4766,
      "Lucky": 4767,
      "Mount": 4768,
      "Off": 4769,
      "Ple": 4770,
      "Pav": 4771,
      "Pain": 4772,
      "Pop": 4773,
      "Pick": 4774,
      "Sever": 4775,
      "ben": 4776,
      "ball": 4777,
      "cop": 4778,
      "dal": 4779,
      "husband": 4780,
      "iod": 4781,
      "lund": 4782,
      "nell": 4783,
      "ux": 4784,
      "vel": 4785,
      "eri": 4786,
      "filming": 4787,
      "start": 4788,
      "emp": 4789,
      "unity": 4790,
      "ivan": 4791,
      "Joan": 4792,
      "1000": 4793,
      "oci": 4794,
      "Loving": 4795,
      "period": 4796,
      "1963": 4797,
      "1972": 4798,
      "Monkey": 4799,
      "Edu": 4800,
      "Rosen": 4801,
      "Murray": 4802,
      "Diego": 4803,
      "Billy": 4804,
      "Parisian": 4805,
      "flu": 4806,
      "daughter": 4807,
      "Suz": 4808,
      "brother": 4809,
      "Directed": 4810,
      "Freder": 4811,
      "Gilbert": 4812,
      "Laurence": 4813,
      "Dutch": 4814,
      "photography": 4815,
      "Filip": 4816,
      "Elliott": 4817,
      "concerns": 4818,
      "Pathé": 4819,
      "')": 4820,
      ".,": 4821,
      "//": 4822,
      "AI": 4823,
      "Bed": 4824,
      "Bran": 4825,
      "Bart": 4826,
      "Bunch": 4827,
      "Battle": 4828,
      "Cav": 4829,
      "Cost": 4830,
      "Ever": 4831,
      "Fra": 4832,
      "Gib": 4833,
      "Gree": 4834,
      "Haj": 4835,
      "Kh": 4836,
      "Lang": 4837,
      "Rid": 4838,
      "Ts": 4839,
      "Tre": 4840,
      "Voice": 4841,
      "Ward": 4842,
      "cat": 4843,
      "cam": 4844,
      "city": 4845,
      "fast": 4846,
      "ient": 4847,
      "mese": 4848,
      "ti": 4849,
      "vid": 4850,
      "views": 4851,
      "wak": 4852,
      "women": 4853,
      "eson": 4854,
      "emble": 4855,
      "ogan": 4856,
      "ulla": 4857,
      "ieve": 4858,
      "iance": 4859,
      "Lead": 4860,
      "Nighting": 4861,
      "Spot": 4862,
      "ewell": 4863,
      "Republic": 4864,
      "Bea": 4865,
      "Warm": 4866,
      "1974": 4867,
      "1975": 4868,
      "1946": 4869,
      "ensemble": 4870,
      "Phillip": 4871,
      "ashi": 4872,
      "Eva": 4873,
      "dys": 4874,
      "minutes": 4875,
      "porary": 4876,
      "Grace": 4877,
      "Luis": 4878,
      "Chaney": 4879,
      "effects": 4880,
      "Haunted": 4881,
      "Nikol": 4882,
      "Clarke": 4883,
      "previously": 4884,
      "Vikram": 4885,
      "Santa": 4886,
      "Kirk": 4887,
      "focuses": 4888,
      "signific": 4889,
      "Betty": 4890,
      "stitute": 4891,
      "Persian": 4892,
      "Fernando": 4893,
      "collabor": 4894,
      "Avenue": 4895,
      "Turkish": 4896,
      "Jordan": 4897,
      "Based": 4898,
      "Cec": 4899,
      "Denn": 4900,
      "Eg": 4901,
      "Foster": 4902,
      "Hark": 4903,
      "Ig": 4904,
      "Lav": 4905,
      "Mason": 4906,
      "Nicol": 4907,
      "Owen": 4908,
      "Sev": 4909,
      "Sab": 4910,
      "Sac": 4911,
      "Some": 4912,
      "Success": 4913,
      "Saint": 4914,
      "Sennett": 4915,
      "Tat": 4916,
      "Ur": 4917,
      "Vis": 4918,
      "bar": 4919,
      "cor": 4920,
      "ez": 4921,
      "gate": 4922,
      "mel": 4923,
      "pict": 4924,
      "tre": 4925,
      "very": 4926,
      "eno": 4927,
      "oli": 4928,
      "igar": 4929,
      "project": 4930,
      "Chor": 4931,
      "phy": 4932,
      "akh": 4933,
      "Anita": 4934,
      "Joy": 4935,
      "ocaly": 4936,
      "Carro": 4937,
      "ending": 4938,
      "Harrison": 4939,
      "Book": 4940,
      "1911": 4941,
      "Eddie": 4942,
      "complet": 4943,
      "Cool": 4944,
      "Feet": 4945,
      "Goes": 4946,
      "minute": 4947,
      "Edwards": 4948,
      "Honey": 4949,
      "Vienna": 4950,
      "songs": 4951,
      "Mexican": 4952,
      "Irving": 4953,
      "Castle": 4954,
      "Kapoor": 4955,
      "Ahmed": 4956,
      "Destiny": 4957,
      "Ay": 4958,
      "Age": 4959,
      "BA": 4960,
      "BO": 4961,
      "Band": 4962,
      "Bank": 4963,
      "Count": 4964,
      "Cold": 4965,
      "Frit": 4966,
      "Hum": 4967,
      "Hug": 4968,
      "Hann": 4969,
      "Oh": 4970,
      "Pu": 4971,
      "Rol": 4972,
      "Rachel": 4973,
      "bles": 4974,
      "cow": 4975,
      "cover": 4976,
      "cca": 4977,
      "dri": 4978,
      "ght": 4979,
      "irit": 4980,
      "mad": 4981,
      "rin": 4982,
      "uous": 4983,
      "zen": 4984,
      "ined": 4985,
      "orio": 4986,
      "eds": 4987,
      "died": 4988,
      "ices": 4989,
      "head": 4990,
      "They": 4991,
      "uts": 4992,
      "ades": 4993,
      "chang": 4994,
      "State": 4995,
      "see": 4996,
      "neth": 4997,
      "Roberto": 4998,
      "agraph": 4999,
      "Deb": 5000,
      "ours": 5001,
      "Sebast": 5002,
      "ateg": 5003,
      "1944": 5004,
      "ments": 5005,
      "acher": 5006,
      "anya": 5007,
      "Richardson": 5008,
      "Morris": 5009,
      "partic": 5010,
      "Noble": 5011,
      "Burton": 5012,
      "Burmese": 5013,
      "However": 5014,
      "Valley": 5015,
      "published": 5016,
      "acclaim": 5017,
      "Linda": 5018,
      "contro": 5019,
      "Super": 5020,
      "Justice": 5021,
      "various": 5022,
      "Brooklyn": 5023,
      "praised": 5024,
      "Animation": 5025,
      "Message": 5026,
      "Vitagraph": 5027,
      "political": 5028,
      "Mitchell": 5029,
      "Odd": 5030,
      "significant": 5031,
      "60": 5032,
      "Aaron": 5033,
      "Fate": 5034,
      "Gay": 5035,
      "Hir": 5036,
      "Kurt": 5037,
      "Mass": 5038,
      "Nathan": 5039,
      "Odys": 5040,
      "Ped": 5041,
      "Poo": 5042,
      "Sear": 5043,
      "Turt": 5044,
      "bes": 5045,
      "bus": 5046,
      "bury": 5047,
      "count": 5048,
      "case": 5049,
      "capt": 5050,
      "cement": 5051,
      "couple": 5052,
      "kel": 5053,
      "lia": 5054,
      "mult": 5055,
      "vir": 5056,
      "iner": 5057,
      "isch": 5058,
      "asant": 5059,
      "Cho": 5060,
      "Chow": 5061,
      "idel": 5062,
      "Marg": 5063,
      "near": 5064,
      "acting": 5065,
      "ista": 5066,
      "Job": 5067,
      "edited": 5068,
      "resp": 5069,
      "Army": 5070,
      "rent": 5071,
      "Whit": 5072,
      "Goo": 5073,
      "Beng": 5074,
      "Jackie": 5075,
      "Farewell": 5076,
      "Flower": 5077,
      "Studio": 5078,
      "ighter": 5079,
      "Austin": 5080,
      "Freddy": 5081,
      "history": 5082,
      "Valent": 5083,
      "appeared": 5084,
      "Trouble": 5085,
      "Bridges": 5086,
      "Caprice": 5087,
      "Krist": 5088,
      "festivals": 5089,
      "official": 5090,
      "Fellow": 5091,
      "Jeffrey": 5092,
      "Weekend": 5093,
      "mission": 5094,
      "Tibet": 5095,
      "Successful": 5096,
      "Odyssey": 5097,
      "9th": 5098,
      "Couple": 5099,
      "Hob": 5100,
      "Kō": 5101,
      "Mou": 5102,
      "Ny": 5103,
      "Noth": 5104,
      "Never": 5105,
      "Pi": 5106,
      "Rub": 5107,
      "Tun": 5108,
      "Tailor": 5109,
      "Video": 5110,
      "Wish": 5111,
      "bul": 5112,
      "banner": 5113,
      "camp": 5114,
      "eight": 5115,
      "held": 5116,
      "pris": 5117,
      "tor": 5118,
      "try": 5119,
      "uff": 5120,
      "és": 5121,
      "init": 5122,
      "another": 5123,
      "still": 5124,
      "ili": 5125,
      "ones": 5126,
      "remade": 5127,
      "esar": 5128,
      "lem": 5129,
      "ione": 5130,
      "ements": 5131,
      "igi": 5132,
      "Stand": 5133,
      "Stew": 5134,
      "urst": 5135,
      "Marco": 5136,
      "apore": 5137,
      "shoot": 5138,
      "rama": 5139,
      "Things": 5140,
      "Leg": 5141,
      "Carr": 5142,
      "Maz": 5143,
      "Peace": 5144,
      "attan": 5145,
      "Blade": 5146,
      "azi": 5147,
      "England": 5148,
      "Kings": 5149,
      "Singapore": 5150,
      "Comedy": 5151,
      "Burg": 5152,
      "Ways": 5153,
      "Claudi": 5154,
      "Angry": 5155,
      "Stevens": 5156,
      "dition": 5157,
      "Kenneth": 5158,
      "Revolution": 5159,
      "Adams": 5160,
      "friends": 5161,
      "invol": 5162,
      "Sweet": 5163,
      "soldi": 5164,
      "Lynn": 5165,
      "iseries": 5166,
      "major": 5167,
      "negative": 5168,
      "Sporting": 5169,
      "Dennis": 5170,
      "Stewart": 5171,
      "Bog": 5172,
      "Bac": 5173,
      "Crit": 5174,
      "Civil": 5175,
      "Der": 5176,
      "Fr": 5177,
      "Fire": 5178,
      "Gö": 5179,
      "Gro": 5180,
      "Get": 5181,
      "Gop": 5182,
      "Ker": 5183,
      "Over": 5184,
      "Powell": 5185,
      "Rise": 5186,
      "Sig": 5187,
      "Vin": 5188,
      "Vol": 5189,
      "Wy": 5190,
      "Yas": 5191,
      "bit": 5192,
      "center": 5193,
      "eh": 5194,
      "ns": 5195,
      "nick": 5196,
      "sit": 5197,
      "sport": 5198,
      "vation": 5199,
      "xter": 5200,
      "dberg": 5201,
      "anov": 5202,
      "sto": 5203,
      "student": 5204,
      "iles": 5205,
      "onso": 5206,
      "ctive": 5207,
      "Theat": 5208,
      "adur": 5209,
      "prov": 5210,
      "seven": 5211,
      "Institute": 5212,
      "Thorn": 5213,
      "Joh": 5214,
      "Debor": 5215,
      "ourse": 5216,
      "athi": 5217,
      "Separ": 5218,
      "quel": 5219,
      "uster": 5220,
      "ipp": 5221,
      "ipal": 5222,
      "iple": 5223,
      "oked": 5224,
      "Adolph": 5225,
      "inski": 5226,
      "ize": 5227,
      "Brief": 5228,
      "Jackson": 5229,
      "Hearts": 5230,
      "include": 5231,
      "Songs": 5232,
      "spira": 5233,
      "365": 5234,
      "Wayne": 5235,
      "Madness": 5236,
      "Walker": 5237,
      "Stock": 5238,
      "ditional": 5239,
      "iences": 5240,
      "Jerry": 5241,
      "Jeremy": 5242,
      "Sundance": 5243,
      "Rodrig": 5244,
      "Lonely": 5245,
      "Bahadur": 5246,
      "Garcia": 5247,
      "Iranian": 5248,
      "depicts": 5249,
      "Cameron": 5250,
      "career": 5251,
      "execut": 5252,
      "01": 5253,
      "Away": 5254,
      "Dri": 5255,
      "Daw": 5256,
      "Five": 5257,
      "Kin": 5258,
      "Know": 5259,
      "Nice": 5260,
      "Pad": 5261,
      "Tar": 5262,
      "Vern": 5263,
      "Wag": 5264,
      "bene": 5265,
      "cr": 5266,
      "categ": 5267,
      "fer": 5268,
      "fare": 5269,
      "hit": 5270,
      "hail": 5271,
      "motion": 5272,
      "pite": 5273,
      "tz": 5274,
      "ün": 5275,
      "stone": 5276,
      "stories": 5277,
      "eny": 5278,
      "enko": 5279,
      "isin": 5280,
      "asse": 5281,
      "rop": 5282,
      "entire": 5283,
      "uture": 5284,
      "chise": 5285,
      "unny": 5286,
      "aver": 5287,
      "Shir": 5288,
      "Than": 5289,
      "dez": 5290,
      "tte": 5291,
      "aine": 5292,
      "scene": 5293,
      "auf": 5294,
      "McG": 5295,
      "Isra": 5296,
      "etti": 5297,
      "epis": 5298,
      "eppe": 5299,
      "Brien": 5300,
      "Myers": 5301,
      "therland": 5302,
      "Murphy": 5303,
      "Holiday": 5304,
      "Lock": 5305,
      "Josh": 5306,
      "Rogers": 5307,
      "Vijay": 5308,
      "prise": 5309,
      "Ringo": 5310,
      "holm": 5311,
      "lette": 5312,
      "similar": 5313,
      "Sense": 5314,
      "Tyler": 5315,
      "Austri": 5316,
      "Screenplay": 5317,
      "Lasky": 5318,
      "Taiwanese": 5319,
      "Gabriel": 5320,
      "Mickey": 5321,
      "nationally": 5322,
      "Egyptian": 5323,
      "months": 5324,
      "Frederick": 5325,
      "picture": 5326,
      "spiracy": 5327,
      "42": 5328,
      "50": 5329,
      "Audi": 5330,
      "Apart": 5331,
      "Awak": 5332,
      "Bou": 5333,
      "Bitzer": 5334,
      "Elop": 5335,
      "FF": 5336,
      "Four": 5337,
      "Gall": 5338,
      "Gius": 5339,
      "Hou": 5340,
      "Hod": 5341,
      "Ib": 5342,
      "Idi": 5343,
      "Jin": 5344,
      "Nak": 5345,
      "NBC": 5346,
      "Pawn": 5347,
      "Rules": 5348,
      "Sn": 5349,
      "Sle": 5350,
      "Sale": 5351,
      "Tree": 5352,
      "Too": 5353,
      "Vo": 5354,
      "Wid": 5355,
      "Werner": 5356,
      "adi": 5357,
      "bs": 5358,
      "dr": 5359,
      "far": 5360,
      "hr": 5361,
      "ior": 5362,
      "jamin": 5363,
      "mal": 5364,
      "pass": 5365,
      "take": 5366,
      "uj": 5367,
      "vol": 5368,
      "you": 5369,
      "zio": 5370,
      "dbye": 5371,
      "inz": 5372,
      "influ": 5373,
      "stop": 5374,
      "ora": 5375,
      "order": 5376,
      "eda": 5377,
      "theme": 5378,
      "alth": 5379,
      "eline": 5380,
      "top": 5381,
      "cha": 5382,
      "ove": 5383,
      "ido": 5384,
      "illian": 5385,
      "manuel": 5386,
      "umor": 5387,
      "aves": 5388,
      "aks": 5389,
      "event": 5390,
      "istry": 5391,
      "antast": 5392,
      "respect": 5393,
      "Arri": 5394,
      "Arnold": 5395,
      "accept": 5396,
      "Brother": 5397,
      "Adolf": 5398,
      "Robertson": 5399,
      "auto": 5400,
      "Clif": 5401,
      "Monte": 5402,
      "ukor": 5403,
      "Bride": 5404,
      "Tommy": 5405,
      "Barrett": 5406,
      "miniseries": 5407,
      "rell": 5408,
      "Milton": 5409,
      "performed": 5410,
      "Timothy": 5411,
      "brothers": 5412,
      "Atl": 5413,
      "Bobby": 5414,
      "Divided": 5415,
      "Fairly": 5416,
      "Maiden": 5417,
      "Krish": 5418,
      "collection": 5419,
      "social": 5420,
      "Globe": 5421,
      "Mutual": 5422,
      "Lionsgate": 5423,
      "Pickford": 5424,
      "Chorus": 5425,
      "Goodbye": 5426,
      "Deborah": 5427,
      "Awakening": 5428,
      "Elopement": 5429,
      "Giuseppe": 5430,
      "55": 5431,
      "Bald": 5432,
      "Bachel": 5433,
      "Dry": 5434,
      "Fog": 5435,
      "Fail": 5436,
      "Favor": 5437,
      "Hiro": 5438,
      "Lud": 5439,
      "Rh": 5440,
      "Rank": 5441,
      "Sor": 5442,
      "Sent": 5443,
      "Va": 5444,
      "Vio": 5445,
      "aff": 5446,
      "dra": 5447,
      "eth": 5448,
      "hen": 5449,
      "mem": 5450,
      "nan": 5451,
      "press": 5452,
      "ção": 5453,
      "rew": 5454,
      "oft": 5455,
      "lection": 5456,
      "1910": 5457,
      "204": 5458,
      "aye": 5459,
      "ayan": 5460,
      "irth": 5461,
      "phia": 5462,
      "phone": 5463,
      "María": 5464,
      "whom": 5465,
      "ished": 5466,
      "ichi": 5467,
      "Inside": 5468,
      "Roth": 5469,
      "Joey": 5470,
      "acation": 5471,
      "quest": 5472,
      "contin": 5473,
      "erek": 5474,
      "eyer": 5475,
      "auer": 5476,
      "serial": 5477,
      "appears": 5478,
      "inald": 5479,
      "Meet": 5480,
      "Schne": 5481,
      "internationally": 5482,
      "Benjamin": 5483,
      "Neill": 5484,
      "Neighbor": 5485,
      "Glimp": 5486,
      "Gloria": 5487,
      "casting": 5488,
      "enger": 5489,
      "Skin": 5490,
      "Reginald": 5491,
      "Terrible": 5492,
      "Times": 5493,
      "Keith": 5494,
      "strugg": 5495,
      "Sandra": 5496,
      "Leonard": 5497,
      "police": 5498,
      "Window": 5499,
      "Ernst": 5500,
      "Divorcement": 5501,
      "Justin": 5502,
      "build": 5503,
      "Irene": 5504,
      "Basil": 5505,
      "Tokyo": 5506,
      "explores": 5507,
      "change": 5508,
      "Promise": 5509,
      "female": 5510,
      "franchise": 5511,
      "ournal": 5512,
      "Written": 5513,
      "Greek": 5514,
      "Phillips": 5515,
      "Roland": 5516,
      "Bin": 5517,
      "Ban": 5518,
      "Buc": 5519,
      "Bow": 5520,
      "Bav": 5521,
      "Cure": 5522,
      "Could": 5523,
      "Cigar": 5524,
      "Ey": 5525,
      "Erik": 5526,
      "Fitz": 5527,
      "Gem": 5528,
      "Gift": 5529,
      "Lis": 5530,
      "Pill": 5531,
      "Rue": 5532,
      "Raf": 5533,
      "Sull": 5534,
      "Vay": 5535,
      "Vitt": 5536,
      "Wel": 5537,
      "Wits": 5538,
      "Wake": 5539,
      "Yi": 5540,
      "Yuma": 5541,
      "bill": 5542,
      "fight": 5543,
      "hold": 5544,
      "happ": 5545,
      "minal": 5546,
      "nom": 5547,
      "odies": 5548,
      "rat": 5549,
      "si": 5550,
      "sz": 5551,
      "sold": 5552,
      "tham": 5553,
      "although": 5554,
      "isy": 5555,
      "dialog": 5556,
      "roe": 5557,
      "rage": 5558,
      "ention": 5559,
      "Chile": 5560,
      "Stake": 5561,
      "Stories": 5562,
      "imi": 5563,
      "illo": 5564,
      "ogram": 5565,
      "alling": 5566,
      "Marx": 5567,
      "without": 5568,
      "anted": 5569,
      "essa": 5570,
      "aster": 5571,
      "inee": 5572,
      "across": 5573,
      "Enri": 5574,
      "Reed": 5575,
      "Geoff": 5576,
      "Broken": 5577,
      "Adventures": 5578,
      "atts": 5579,
      "atty": 5580,
      "ported": 5581,
      "Julius": 5582,
      "Schmid": 5583,
      "elyn": 5584,
      "Flat": 5585,
      "genre": 5586,
      "Emmanuel": 5587,
      "Comm": 5588,
      "Central": 5589,
      "Lucas": 5590,
      "prison": 5591,
      "local": 5592,
      "1909": 5593,
      "Demon": 5594,
      "Blake": 5595,
      "Shock": 5596,
      "Ellery": 5597,
      "viol": 5598,
      "because": 5599,
      "Hoffman": 5600,
      "Pilot": 5601,
      "Sullivan": 5602,
      "32": 5603,
      "71": 5604,
      "AR": 5605,
      "Ala": 5606,
      "Dy": 5607,
      "Dup": 5608,
      "Dress": 5609,
      "Emer": 5610,
      "Hos": 5611,
      "Ish": 5612,
      "Khan": 5613,
      "Muk": 5614,
      "Mile": 5615,
      "Muse": 5616,
      "Ni": 5617,
      "Pun": 5618,
      "Pap": 5619,
      "Saw": 5620,
      "bour": 5621,
      "cu": 5622,
      "cas": 5623,
      "cov": 5624,
      "cess": 5625,
      "cles": 5626,
      "court": 5627,
      "dam": 5628,
      "famous": 5629,
      "hai": 5630,
      "hattan": 5631,
      "ias": 5632,
      "lon": 5633,
      "mor": 5634,
      "modern": 5635,
      "sie": 5636,
      "sson": 5637,
      "xt": 5638,
      "ël": 5639,
      "onna": 5640,
      "reel": 5641,
      "oux": 5642,
      "lear": 5643,
      "hee": 5644,
      "prot": 5645,
      "fee": 5646,
      "Married": 5647,
      "Manhattan": 5648,
      "every": 5649,
      "Shame": 5650,
      "earned": 5651,
      "Ing": 5652,
      "Indon": 5653,
      "iao": 5654,
      "ously": 5655,
      "result": 5656,
      "ikov": 5657,
      "rity": 5658,
      "oke": 5659,
      "playing": 5660,
      "Scar": 5661,
      "1947": 5662,
      "Edna": 5663,
      "word": 5664,
      "Guest": 5665,
      "izing": 5666,
      "Jama": 5667,
      "onda": 5668,
      "Stefan": 5669,
      "Mero": 5670,
      "Swan": 5671,
      "Desert": 5672,
      "Emily": 5673,
      "Raisin": 5674,
      "Trap": 5675,
      "Regard": 5676,
      "ground": 5677,
      "trilogy": 5678,
      "subsequ": 5679,
      "Passport": 5680,
      "urai": 5681,
      "Techn": 5682,
      "Slight": 5683,
      "guer": 5684,
      "Butler": 5685,
      "said": 5686,
      "Funny": 5687,
      "hardt": 5688,
      "Moscow": 5689,
      "Temper": 5690,
      "Accident": 5691,
      "Jewish": 5692,
      "Dickens": 5693,
      "Hajur": 5694,
      "executive": 5695,
      "Shirley": 5696,
      "Bachelor": 5697,
      "Violet": 5698,
      "Indones": 5699,
      "7th": 5700,
      "Bennett": 5701,
      "Cine": 5702,
      "Dom": 5703,
      "Dance": 5704,
      "Fried": 5705,
      "Front": 5706,
      "Gav": 5707,
      "Jud": 5708,
      "Judi": 5709,
      "Rage": 5710,
      "Sri": 5711,
      "Trev": 5712,
      "Vig": 5713,
      "Whe": 5714,
      "ao": 5715,
      "bian": 5716,
      "bird": 5717,
      "dog": 5718,
      "done": 5719,
      "ein": 5720,
      "fact": 5721,
      "ium": 5722,
      "lu": 5723,
      "mp": 5724,
      "ting": 5725,
      "él": 5726,
      "style": 5727,
      "altern": 5728,
      "lev": 5729,
      "hetti": 5730,
      "rad": 5731,
      "fort": 5732,
      "Chic": 5733,
      "Chad": 5734,
      "irō": 5735,
      "imo": 5736,
      "urch": 5737,
      "otic": 5738,
      "few": 5739,
      "umi": 5740,
      "Marbles": 5741,
      "aped": 5742,
      "aku": 5743,
      "isha": 5744,
      "Shi": 5745,
      "Independent": 5746,
      "Thunder": 5747,
      "within": 5748,
      "Spy": 5749,
      "Been": 5750,
      "Scenes": 5751,
      "ified": 5752,
      "Connor": 5753,
      "Conspiracy": 5754,
      "board": 5755,
      "Guil": 5756,
      "ettle": 5757,
      "Moe": 5758,
      "novella": 5759,
      "interviews": 5760,
      "Profess": 5761,
      "Corm": 5762,
      "notable": 5763,
      "revolves": 5764,
      "Glady": 5765,
      "Steel": 5766,
      "Decent": 5767,
      "Malcol": 5768,
      "ancy": 5769,
      "Common": 5770,
      "poss": 5771,
      "noir": 5772,
      "Terror": 5773,
      "Magn": 5774,
      "Silence": 5775,
      "Guns": 5776,
      "Happiness": 5777,
      "Bulgar": 5778,
      "fourth": 5779,
      "Lionel": 5780,
      "Darling": 5781,
      "Mikhail": 5782,
      "Funeral": 5783,
      "Eugene": 5784,
      "Blanche": 5785,
      "presented": 5786,
      "Miracle": 5787,
      "Distant": 5788,
      "Holmes": 5789,
      "members": 5790,
      "described": 5791,
      "Ricardo": 5792,
      "Nightingale": 5793,
      "Cecil": 5794,
      "completed": 5795,
      "Pooh": 5796,
      "Turtle": 5797,
      "Vittorio": 5798,
      "Gladys": 5799,
      "Malcolm": 5800,
      "3rd": 5801,
      "Bess": 5802,
      "Bush": 5803,
      "Bunny": 5804,
      "Cand": 5805,
      "Cab": 5806,
      "Cai": 5807,
      "Dia": 5808,
      "Derek": 5809,
      "Fever": 5810,
      "Hend": 5811,
      "Holl": 5812,
      "Hors": 5813,
      "Ivan": 5814,
      "Jake": 5815,
      "Lai": 5816,
      "Lord": 5817,
      "Lake": 5818,
      "MG": 5819,
      "Mig": 5820,
      "Nation": 5821,
      "Pak": 5822,
      "Ras": 5823,
      "Ride": 5824,
      "Sain": 5825,
      "Sah": 5826,
      "Torn": 5827,
      "VI": 5828,
      "Vamp": 5829,
      "Wave": 5830,
      "cal": 5831,
      "dan": 5832,
      "gov": 5833,
      "given": 5834,
      "mat": 5835,
      "much": 5836,
      "nio": 5837,
      "py": 5838,
      "pun": 5839,
      "pire": 5840,
      "sla": 5841,
      "tele": 5842,
      "west": 5843,
      "zel": 5844,
      "sten": 5845,
      "onse": 5846,
      "ately": 5847,
      "asa": 5848,
      "div": 5849,
      "icz": 5850,
      "ician": 5851,
      "roy": 5852,
      "rap": 5853,
      "tos": 5854,
      "olly": 5855,
      "Cheng": 5856,
      "Chopra": 5857,
      "Storm": 5858,
      "uli": 5859,
      "odes": 5860,
      "avail": 5861,
      "cinemas": 5862,
      "Another": 5863,
      "Roach": 5864,
      "Alone": 5865,
      "Leaf": 5866,
      "arts": 5867,
      "ache": 5868,
      "acqu": 5869,
      "Hare": 5870,
      "Box": 5871,
      "weet": 5872,
      "Cont": 5873,
      "Newman": 5874,
      "13th": 5875,
      "Island": 5876,
      "Blind": 5877,
      "Work": 5878,
      "Juliet": 5879,
      "Goof": 5880,
      "Neil": 5881,
      "Glenn": 5882,
      "Stars": 5883,
      "sterious": 5884,
      "ledge": 5885,
      "Youth": 5886,
      "Caroline": 5887,
      "animation": 5888,
      "Chester": 5889,
      "Toho": 5890,
      "Valer": 5891,
      "Poet": 5892,
      "Beauty": 5893,
      "Sharon": 5894,
      "poor": 5895,
      "Montreal": 5896,
      "single": 5897,
      "Tales": 5898,
      "Sherlock": 5899,
      "experiences": 5900,
      "tries": 5901,
      "League": 5902,
      "Hopkins": 5903,
      "Bruno": 5904,
      "Escape": 5905,
      "Ireland": 5906,
      "Sadness": 5907,
      "Strauss": 5908,
      "Diane": 5909,
      "Philippines": 5910,
      "earlier": 5911,
      "Curtis": 5912,
      "setting": 5913,
      "Jessica": 5914,
      "Carroll": 5915,
      "business": 5916,
      "sports": 5917,
      "Baldwin": 5918,
      "nominee": 5919,
      "4th": 5920,
      "76": 5921,
      "Bond": 5922,
      "Cou": 5923,
      "Es": 5924,
      "Ele": 5925,
      "Event": 5926,
      "Flo": 5927,
      "Free": 5928,
      "Gul": 5929,
      "Gast": 5930,
      "Gaz": 5931,
      "Gather": 5932,
      "Hag": 5933,
      "Ku": 5934,
      "Lenn": 5935,
      "Mend": 5936,
      "Mouse": 5937,
      "Niger": 5938,
      "Penn": 5939,
      "Rut": 5940,
      "Settle": 5941,
      "Tob": 5942,
      "Wash": 5943,
      "celand": 5944,
      "fun": 5945,
      "fly": 5946,
      "fred": 5947,
      "fif": 5948,
      "fund": 5949,
      "future": 5950,
      "gain": 5951,
      "hman": 5952,
      "here": 5953,
      "mund": 5954,
      "på": 5955,
      "past": 5956,
      "rard": 5957,
      "rup": 5958,
      "taking": 5959,
      "wer": 5960,
      "wal": 5961,
      "wart": 5962,
      "ances": 5963,
      "aries": 5964,
      "stem": 5965,
      "thod": 5966,
      "onde": 5967,
      "read": 5968,
      "enzo": 5969,
      "ouri": 5970,
      "ament": 5971,
      "adh": 5972,
      "iga": 5973,
      "Chung": 5974,
      "eta": 5975,
      "Stupid": 5976,
      "idan": 5977,
      "idden": 5978,
      "ows": 5979,
      "otel": 5980,
      "ured": 5981,
      "never": 5982,
      "Maniac": 5983,
      "aken": 5984,
      "akers": 5985,
      "Filming": 5986,
      "eva": 5987,
      "Shah": 5988,
      "Shank": 5989,
      "Thai": 5990,
      "istance": 5991,
      "Although": 5992,
      "Leigh": 5993,
      "anta": 5994,
      "Seg": 5995,
      "Reev": 5996,
      "annon": 5997,
      "anned": 5998,
      "exam": 5999,
      "meet": 6000,
      "aux": 6001,
      "Clay": 6002,
      "Edwin": 6003,
      "Newton": 6004,
      "Streetcar": 6005,
      "Abd": 6006,
      "Alec": 6007,
      "Neal": 6008,
      "full": 6009,
      "profess": 6010,
      "Sergio": 6011,
      "Olcott": 6012,
      "uriel": 6013,
      "color": 6014,
      "YouT": 6015,
      "Arts": 6016,
      "Registry": 6017,
      "awarded": 6018,
      "Childhood": 6019,
      "Rogue": 6020,
      "Half": 6021,
      "invest": 6022,
      "Swee": 6023,
      "Ronald": 6024,
      "Waiting": 6025,
      "narrative": 6026,
      "Hughes": 6027,
      "Business": 6028,
      "Romantic": 6029,
      "audience": 6030,
      "Emilio": 6031,
      "personal": 6032,
      "Mohamed": 6033,
      "current": 6034,
      "Violent": 6035,
      "Zhang": 6036,
      "Alexandre": 6037,
      "Grows": 6038,
      "Nicole": 6039,
      "Hobart": 6040,
      "Theatre": 6041,
      "Geoffrey": 6042,
      "Miguel": 6043,
      "Maniacs": 6044,
      "56": 6045,
      "AB": 6046,
      "Bark": 6047,
      "Block": 6048,
      "Cord": 6049,
      "Cave": 6050,
      "Dig": 6051,
      "Dwan": 6052,
      "Fantast": 6053,
      "Ht": 6054,
      "Hav": 6055,
      "Hope": 6056,
      "Kw": 6057,
      "Kan": 6058,
      "Kur": 6059,
      "Kub": 6060,
      "Len": 6061,
      "Loc": 6062,
      "Liz": 6063,
      "Luk": 6064,
      "Luke": 6065,
      "Nad": 6066,
      "Near": 6067,
      "Nord": 6068,
      "Ok": 6069,
      "Orange": 6070,
      "Por": 6071,
      "Pos": 6072,
      "Pear": 6073,
      "Rup": 6074,
      "Sj": 6075,
      "Spl": 6076,
      "Vacation": 6077,
      "Wend": 6078,
      "Wanda": 6079,
      "Yang": 6080,
      "cia": 6081,
      "dub": 6082,
      "fa": 6083,
      "hab": 6084,
      "jun": 6085,
      "little": 6086,
      "mit": 6087,
      "ners": 6088,
      "pie": 6089,
      "ril": 6090,
      "round": 6091,
      "tuous": 6092,
      "vill": 6093,
      "vest": 6094,
      "vict": 6095,
      "wald": 6096,
      "ère": 6097,
      "ít": 6098,
      "ка": 6099,
      "ст": 6100,
      "anmar": 6101,
      "ilt": 6102,
      "orious": 6103,
      "thia": 6104,
      "those": 6105,
      "atra": 6106,
      "Their": 6107,
      "emi": 6108,
      "illon": 6109,
      "ogo": 6110,
      "alli": 6111,
      "merous": 6112,
      "apart": 6113,
      "akov": 6114,
      "even": 6115,
      "rane": 6116,
      "Alt": 6117,
      "agn": 6118,
      "ager": 6119,
      "aghetti": 6120,
      "Deal": 6121,
      "Sey": 6122,
      "Christine": 6123,
      "Carn": 6124,
      "Ref": 6125,
      "announ": 6126,
      "Gert": 6127,
      "Davies": 6128,
      "ext": 6129,
      "Heidel": 6130,
      "wegian": 6131,
      "McCorm": 6132,
      "Quinn": 6133,
      "Pauline": 6134,
      "Myanmar": 6135,
      "Morals": 6136,
      "onym": 6137,
      "undred": 6138,
      "Neath": 6139,
      "Price": 6140,
      "Boys": 6141,
      "Frankie": 6142,
      "Franklyn": 6143,
      "Norwegian": 6144,
      "Peters": 6145,
      "nomination": 6146,
      "Garland": 6147,
      "360": 6148,
      "Lois": 6149,
      "Claus": 6150,
      "Earle": 6151,
      "Sheep": 6152,
      "lovak": 6153,
      "Toy": 6154,
      "Horror": 6155,
      "mostly": 6156,
      "market": 6157,
      "Passage": 6158,
      "Associ": 6159,
      "Help": 6160,
      "ández": 6161,
      "Virtuous": 6162,
      "moon": 6163,
      "rights": 6164,
      "Once": 6165,
      "Twist": 6166,
      "Northern": 6167,
      "grees": 6168,
      "Brent": 6169,
      "financ": 6170,
      "discover": 6171,
      "portrays": 6172,
      "Bhatt": 6173,
      "listed": 6174,
      "Chaos": 6175,
      "Bronx": 6176,
      "Hazard": 6177,
      "attempts": 6178,
      "comedian": 6179,
      "Taxing": 6180,
      "times": 6181,
      "Biograph": 6182,
      "Olivier": 6183,
      "Filipino": 6184,
      "Joyce": 6185,
      "countries": 6186,
      "multiple": 6187,
      "trying": 6188,
      "Wagner": 6189,
      "accepted": 6190,
      "Clifford": 6191,
      "Failure": 6192,
      "Schneider": 6193,
      "Neighborhood": 6194,
      "Chicago": 6195,
      "MGM": 6196,
      "available": 6197,
      "39": 6198,
      "Aa": 6199,
      "Aung": 6200,
      "Bail": 6201,
      "Cath": 6202,
      "Came": 6203,
      "Corn": 6204,
      "Dj": 6205,
      "Dow": 6206,
      "Dag": 6207,
      "FI": 6208,
      "Fing": 6209,
      "Finn": 6210,
      "Famous": 6211,
      "Garden": 6212,
      "Ju": 6213,
      "Kra": 6214,
      "Kun": 6215,
      "Kick": 6216,
      "Let": 6217,
      "Last": 6218,
      "Lip": 6219,
      "Mong": 6220,
      "Mabel": 6221,
      "Nol": 6222,
      "Rab": 6223,
      "Rough": 6224,
      "Sally": 6225,
      "Um": 6226,
      "Vid": 6227,
      "XX": 6228,
      "Yuri": 6229,
      "bum": 6230,
      "cus": 6231,
      "ceny": 6232,
      "fre": 6233,
      "fail": 6234,
      "gn": 6235,
      "gren": 6236,
      "must": 6237,
      "san": 6238,
      "wig": 6239,
      "wid": 6240,
      "watch": 6241,
      "zie": 6242,
      "ène": 6243,
      "arin": 6244,
      "rez": 6245,
      "repris": 6246,
      "rif": 6247,
      "thel": 6248,
      "aling": 6249,
      "omi": 6250,
      "rock": 6251,
      "olk": 6252,
      "cht": 6253,
      "chronic": 6254,
      "igan": 6255,
      "igence": 6256,
      "Chu": 6257,
      "ango": 6258,
      "esthet": 6259,
      "ota": 6260,
      "season": 6261,
      "ryn": 6262,
      "Shoot": 6263,
      "Dee": 6264,
      "Degrees": 6265,
      "quin": 6266,
      "contra": 6267,
      "Johnny": 6268,
      "Spenc": 6269,
      "ernment": 6270,
      "Ennio": 6271,
      "oka": 6272,
      "Major": 6273,
      "ends": 6274,
      "assins": 6275,
      "anning": 6276,
      "Hari": 6277,
      "Beck": 6278,
      "uez": 6279,
      "Peep": 6280,
      "Clar": 6281,
      "issa": 6282,
      "McKim": 6283,
      "Blu": 6284,
      "Acres": 6285,
      "Coy": 6286,
      "Mormon": 6287,
      "blem": 6288,
      "kee": 6289,
      "Samurai": 6290,
      "prof": 6291,
      "Russia": 6292,
      "Fluff": 6293,
      "Henrik": 6294,
      "borg": 6295,
      "Rao": 6296,
      "parents": 6297,
      "Strong": 6298,
      "Larceny": 6299,
      "Gener": 6300,
      "Magdal": 6301,
      "grand": 6302,
      "23rd": 6303,
      "Doris": 6304,
      "accident": 6305,
      "Soldiers": 6306,
      "refers": 6307,
      "throughout": 6308,
      "ception": 6309,
      "Boris": 6310,
      "break": 6311,
      "experimental": 6312,
      "ificial": 6313,
      "Fleischer": 6314,
      "Kathleen": 6315,
      "Florida": 6316,
      "formation": 6317,
      "ufact": 6318,
      "Kras": 6319,
      "Crooked": 6320,
      "Kentucky": 6321,
      "Rudolf": 6322,
      "killed": 6323,
      "Homes": 6324,
      "Movies": 6325,
      "Truth": 6326,
      "Captain": 6327,
      "Glimpse": 6328,
      "dialogue": 6329,
      "Emmanuelle": 6330,
      "Temperament": 6331,
      "Trevor": 6332,
      "Profession": 6333,
      "Goofy": 6334,
      "Reeves": 6335,
      "YouTube": 6336,
      "investig": 6337,
      "Heidelberg": 6338,
      "Spencer": 6339,
      "38": 6340,
      "41": 6341,
      "AD": 6342,
      "AM": 6343,
      "Bost": 6344,
      "Bach": 6345,
      "Benny": 6346,
      "Cott": 6347,
      "Dale": 6348,
      "From": 6349,
      "Fab": 6350,
      "Fighter": 6351,
      "Had": 6352,
      "Hamp": 6353,
      "Jag": 6354,
      "Kenn": 6355,
      "Lit": 6356,
      "Lab": 6357,
      "Mam": 6358,
      "Mot": 6359,
      "Mine": 6360,
      "Nig": 6361,
      "Nap": 6362,
      "Nine": 6363,
      "Pul": 6364,
      "Pai": 6365,
      "PBS": 6366,
      "Ri": 6367,
      "Ré": 6368,
      "Rou": 6369,
      "Rib": 6370,
      "Races": 6371,
      "Sie": 6372,
      "Vel": 6373,
      "Vita": 6374,
      "Yves": 6375,
      "Zen": 6376,
      "Zukor": 6377,
      "aesthet": 6378,
      "blo": 6379,
      "canc": 6380,
      "dos": 6381,
      "ee": 6382,
      "face": 6383,
      "feld": 6384,
      "gs": 6385,
      "hov": 6386,
      "kumar": 6387,
      "mart": 6388,
      "oir": 6389,
      "sus": 6390,
      "sour": 6391,
      "via": 6392,
      "ík": 6393,
      "aring": 6394,
      "stream": 6395,
      "ilder": 6396,
      "organ": 6397,
      "reported": 6398,
      "edt": 6399,
      "atural": 6400,
      "aser": 6401,
      "icia": 6402,
      "elo": 6403,
      "eless": 6404,
      "tery": 6405,
      "too": 6406,
      "Theod": 6407,
      "uchi": 6408,
      "usion": 6409,
      "etch": 6410,
      "urally": 6411,
      "arde": 6412,
      "estic": 6413,
      "Marian": 6414,
      "Marguer": 6415,
      "Shu": 6416,
      "Ant": 6417,
      "Ther": 6418,
      "Thor": 6419,
      "Role": 6420,
      "comic": 6421,
      "beck": 6422,
      "becomes": 6423,
      "aged": 6424,
      "agement": 6425,
      "lying": 6426,
      "Armand": 6427,
      "acy": 6428,
      "contain": 6429,
      "Johnnie": 6430,
      "Spaghetti": 6431,
      "anni": 6432,
      "Willis": 6433,
      "Harlem": 6434,
      "Bee": 6435,
      "Behind": 6436,
      "cohol": 6437,
      "Hep": 6438,
      "Contin": 6439,
      "ization": 6440,
      "Blonde": 6441,
      "eps": 6442,
      "Brass": 6443,
      "skaya": 6444,
      "elebr": 6445,
      "Cox": 6446,
      "Who": 6447,
      "Alek": 6448,
      "Merc": 6449,
      "Grey": 6450,
      "Empire": 6451,
      "jee": 6452,
      "worked": 6453,
      "Andrea": 6454,
      "Daniels": 6455,
      "media": 6456,
      "Baxter": 6457,
      "Doctor": 6458,
      "Balance": 6459,
      "True": 6460,
      "point": 6461,
      "29th": 6462,
      "historically": 6463,
      "Winters": 6464,
      "Self": 6465,
      "Seconds": 6466,
      "Denis": 6467,
      "Twent": 6468,
      "Sheriff": 6469,
      "Wolfgang": 6470,
      "culturally": 6471,
      "Kyaw": 6472,
      "AKA": 6473,
      "Budd": 6474,
      "Mills": 6475,
      "classic": 6476,
      "Ellis": 6477,
      "Wooing": 6478,
      "Diana": 6479,
      "Ticket": 6480,
      "development": 6481,
      "Gérard": 6482,
      "preserved": 6483,
      "preservation": 6484,
      "Gonz": 6485,
      "Village": 6486,
      "Todd": 6487,
      "Record": 6488,
      "stantin": 6489,
      "numerous": 6490,
      "emplo": 6491,
      "camera": 6492,
      "Hugo": 6493,
      "Pedro": 6494,
      "Critics": 6495,
      "Vernon": 6496,
      "Atlanta": 6497,
      "Schmidt": 6498,
      "Gavin": 6499,
      "announced": 6500,
      "Clarence": 6501,
      "Kennedy": 6502,
      "Marguerite": 6503,
      "Cut": 6504,
      "Cup": 6505,
      "Cyn": 6506,
      "Cross": 6507,
      "Crick": 6508,
      "Did": 6509,
      "Duck": 6510,
      "Ess": 6511,
      "Gest": 6512,
      "Gray": 6513,
      "Gould": 6514,
      "Hamil": 6515,
      "Kel": 6516,
      "Lun": 6517,
      "Lust": 6518,
      "Ox": 6519,
      "PC": 6520,
      "Pag": 6521,
      "Raw": 6522,
      "Round": 6523,
      "Sem": 6524,
      "Sak": 6525,
      "Tight": 6526,
      "Tav": 6527,
      "Whis": 6528,
      "big": 6529,
      "cio": 6530,
      "dark": 6531,
      "gie": 6532,
      "ghan": 6533,
      "hon": 6534,
      "hous": 6535,
      "jandro": 6536,
      "ku": 6537,
      "som": 6538,
      "uil": 6539,
      "wing": 6540,
      "anow": 6541,
      "stra": 6542,
      "state": 6543,
      "reement": 6544,
      "asi": 6545,
      "dist": 6546,
      "lete": 6547,
      "rob": 6548,
      "rov": 6549,
      "heed": 6550,
      "radio": 6551,
      "Store": 6552,
      "Stalling": 6553,
      "ills": 6554,
      "ulu": 6555,
      "distribution": 6556,
      "seen": 6557,
      "separ": 6558,
      "Shane": 6559,
      "ramp": 6560,
      "Inn": 6561,
      "behind": 6562,
      "istan": 6563,
      "Joel": 6564,
      "ession": 6565,
      "opened": 6566,
      "Lovers": 6567,
      "ustry": 6568,
      "upp": 6569,
      "Board": 6570,
      "techn": 6571,
      "industry": 6572,
      "pert": 6573,
      "itted": 6574,
      "Michelle": 6575,
      "Edgar": 6576,
      "computer": 6577,
      "184": 6578,
      "attack": 6579,
      "Dix": 6580,
      "Weaver": 6581,
      "Amor": 6582,
      "Isab": 6583,
      "Blues": 6584,
      "Souza": 6585,
      "aily": 6586,
      "Britt": 6587,
      "Bright": 6588,
      "ska": 6589,
      "Matth": 6590,
      "Abbas": 6591,
      "Alejandro": 6592,
      "Jeanne": 6593,
      "Desi": 6594,
      "Sklad": 6595,
      "Melodies": 6596,
      "Cinematograph": 6597,
      "Robb": 6598,
      "Grasse": 6599,
      "Millionaire": 6600,
      "MacDonald": 6601,
      "Luigi": 6602,
      "Valentine": 6603,
      "sched": 6604,
      "Francs": 6605,
      "marks": 6606,
      "Assassins": 6607,
      "Principal": 6608,
      "Leonid": 6609,
      "Vanessa": 6610,
      "Missing": 6611,
      "Rainb": 6612,
      "1908": 6613,
      "René": 6614,
      "Godf": 6615,
      "Distributors": 6616,
      "Deadly": 6617,
      "Gior": 6618,
      "Giov": 6619,
      "Notorious": 6620,
      "biography": 6621,
      "Natural": 6622,
      "finished": 6623,
      "African": 6624,
      "Classic": 6625,
      "Brazil": 6626,
      "Creature": 6627,
      "Sergey": 6628,
      "referred": 6629,
      "Sylvester": 6630,
      "digital": 6631,
      "ATL": 6632,
      "Gustav": 6633,
      "Nowhere": 6634,
      "ranged": 6635,
      "Mandarin": 6636,
      "Campbell": 6637,
      "Mountain": 6638,
      "Monkeys": 6639,
      "Sebastian": 6640,
      "controvers": 6641,
      "shooting": 6642,
      "Claudia": 6643,
      "Separation": 6644,
      "respectively": 6645,
      "Krishna": 6646,
      "Pillow": 6647,
      "Jamaica": 6648,
      "Washington": 6649,
      "Shankar": 6650,
      "Fantastic": 6651,
      "Vitaphone": 6652,
      "aesthetically": 6653,
      "Cynthia": 6654,
      "Gesture": 6655,
      "Hamilton": 6656,
      "Skladanow": 6657,
      "47": 6658,
      "59": 6659,
      "Body": 6660,
      "Bull": 6661,
      "Cos": 6662,
      "Cort": 6663,
      "Cumm": 6664,
      "Dud": 6665,
      "Dust": 6666,
      "Dates": 6667,
      "Fact": 6668,
      "Fame": 6669,
      "Fuk": 6670,
      "Frel": 6671,
      "Hil": 6672,
      "Hold": 6673,
      "Jar": 6674,
      "Jury": 6675,
      "Kitt": 6676,
      "Khal": 6677,
      "Led": 6678,
      "Lal": 6679,
      "Lag": 6680,
      "Map": 6681,
      "Muriel": 6682,
      "Oka": 6683,
      "Offic": 6684,
      "Pen": 6685,
      "Pearl": 6686,
      "Right": 6687,
      "Rag": 6688,
      "Sica": 6689,
      "Sorrow": 6690,
      "Twas": 6691,
      "Vic": 6692,
      "Viet": 6693,
      "Yosh": 6694,
      "bri": 6695,
      "bad": 6696,
      "cross": 6697,
      "fat": 6698,
      "fair": 6699,
      "horn": 6700,
      "idi": 6701,
      "km": 6702,
      "kid": 6703,
      "los": 6704,
      "ller": 6705,
      "mis": 6706,
      "ng": 6707,
      "pan": 6708,
      "ted": 6709,
      "taken": 6710,
      "vs": 6711,
      "vall": 6712,
      "wy": 6713,
      "zar": 6714,
      "ár": 6715,
      "är": 6716,
      "iley": 6717,
      "ility": 6718,
      "things": 6719,
      "aton": 6720,
      "ators": 6721,
      "often": 6722,
      "itan": 6723,
      "itary": 6724,
      "toward": 6725,
      "2036": 6726,
      "emm": 6727,
      "ems": 6728,
      "emporary": 6729,
      "process": 6730,
      "Chronic": 6731,
      "Stro": 6732,
      "Study": 6733,
      "ovich": 6734,
      "ims": 6735,
      "illy": 6736,
      "urs": 6737,
      "bute": 6738,
      "search": 6739,
      "Martha": 6740,
      "apa": 6741,
      "aper": 6742,
      "Shel": 6743,
      "Throw": 6744,
      "begin": 6745,
      "agh": 6746,
      "anton": 6747,
      "Seth": 6748,
      "conf": 6749,
      "Carter": 6750,
      "Reck": 6751,
      "endra": 6752,
      "Beery": 6753,
      "Beach": 6754,
      "Scors": 6755,
      "1970s": 6756,
      "Elia": 6757,
      "pez": 6758,
      "iewicz": 6759,
      "Abel": 6760,
      "Bened": 6761,
      "crew": 6762,
      "Franklin": 6763,
      "Form": 6764,
      "Glory": 6765,
      "intended": 6766,
      "Desmond": 6767,
      "Patch": 6768,
      "Karab": 6769,
      "Olga": 6770,
      "Noisy": 6771,
      "urious": 6772,
      "Afghan": 6773,
      "Salem": 6774,
      "Canção": 6775,
      "Chest": 6776,
      "Soe": 6777,
      "Silva": 6778,
      "Direction": 6779,
      "Upon": 6780,
      "Marcello": 6781,
      "Stephan": 6782,
      "stead": 6783,
      "Turner": 6784,
      "Pieces": 6785,
      "Bullets": 6786,
      "translit": 6787,
      "community": 6788,
      "visual": 6789,
      "Butter": 6790,
      "Caesar": 6791,
      "Gamb": 6792,
      "Burns": 6793,
      "Burning": 6794,
      "survives": 6795,
      "anthology": 6796,
      "Animated": 6797,
      "ombie": 6798,
      "icolor": 6799,
      "García": 6800,
      "Miracles": 6801,
      "Hunting": 6802,
      "Bergman": 6803,
      "Plains": 6804,
      "Rahman": 6805,
      "Canton": 6806,
      "greatest": 6807,
      "Memory": 6808,
      "collaboration": 6809,
      "Egg": 6810,
      "ocalypse": 6811,
      "Fritz": 6812,
      "Search": 6813,
      "involved": 6814,
      "Museum": 6815,
      "Technicolor": 6816,
      "alternative": 6817,
      "currently": 6818,
      "Hampton": 6819,
      "Oxford": 6820,
      "Cummings": 6821,
      "Vietnam": 6822,
      "Scorsese": 6823,
      "42nd": 6824,
      "Bid": 6825,
      "Blast": 6826,
      "Dum": 6827,
      "Dob": 6828,
      "Dhan": 6829,
      "FT": 6830,
      "Fut": 6831,
      "Gy": 6832,
      "If": 6833,
      "Ide": 6834,
      "Irish": 6835,
      "Jen": 6836,
      "Jang": 6837,
      "Jazz": 6838,
      "Key": 6839,
      "Kane": 6840,
      "Lass": 6841,
      "Lund": 6842,
      "Lives": 6843,
      "Nan": 6844,
      "Ner": 6845,
      "Nep": 6846,
      "Pin": 6847,
      "Page": 6848,
      "Pab": 6849,
      "Prem": 6850,
      "Sue": 6851,
      "Ti": 6852,
      "Tin": 6853,
      "Wives": 6854,
      "Wanted": 6855,
      "bott": 6856,
      "cin": 6857,
      "cially": 6858,
      "fel": 6859,
      "fig": 6860,
      "gay": 6861,
      "got": 6862,
      "game": 6863,
      "ián": 6864,
      "ju": 6865,
      "job": 6866,
      "kj": 6867,
      "oh": 6868,
      "pel": 6869,
      "put": 6870,
      "pose": 6871,
      "rand": 6872,
      "sell": 6873,
      "whe": 6874,
      "yt": 6875,
      "yal": 6876,
      "éric": 6877,
      "ît": 6878,
      "inent": 6879,
      "inile": 6880,
      "sta": 6881,
      "once": 6882,
      "atsu": 6883,
      "asure": 6884,
      "omon": 6885,
      "icide": 6886,
      "amoto": 6887,
      "road": 6888,
      "rath": 6889,
      "osa": 6890,
      "usa": 6891,
      "Ching": 6892,
      "Sté": 6893,
      "imate": 6894,
      "ultery": 6895,
      "iev": 6896,
      "producers": 6897,
      "bers": 6898,
      "Marine": 6899,
      "Intell": 6900,
      "Ana": 6901,
      "Any": 6902,
      "orton": 6903,
      "Joanne": 6904,
      "agar": 6905,
      "Leis": 6906,
      "athers": 6907,
      "quake": 6908,
      "Spar": 6909,
      "Spice": 6910,
      "ernatural": 6911,
      "icken": 6912,
      "tech": 6913,
      "hero": 6914,
      "12th": 6915,
      "wealth": 6916,
      "Conway": 6917,
      "Conscience": 6918,
      "Weed": 6919,
      "uko": 6920,
      "Amir": 6921,
      "ricia": 6922,
      "ettes": 6923,
      "eping": 6924,
      "Cook": 6925,
      "interview": 6926,
      "Colon": 6927,
      "Pró": 6928,
      "While": 6929,
      "Feud": 6930,
      "Goat": 6931,
      "Beno": 6932,
      "intro": 6933,
      "Serbian": 6934,
      "Patricia": 6935,
      "criminal": 6936,
      "Evans": 6937,
      "ucci": 6938,
      "Looney": 6939,
      "does": 6940,
      "Plumb": 6941,
      "Earn": 6942,
      "Madonna": 6943,
      "Artificial": 6944,
      "Police": 6945,
      "16th": 6946,
      "Calam": 6947,
      "selves": 6948,
      "Poor": 6949,
      "supernatural": 6950,
      "Ramesh": 6951,
      "Balt": 6952,
      "Trilogy": 6953,
      "marked": 6954,
      "shows": 6955,
      "stones": 6956,
      "Spect": 6957,
      "Crazy": 6958,
      "Winnie": 6959,
      "Freed": 6960,
      "Broadcasting": 6961,
      "human": 6962,
      "Arabia": 6963,
      "Mastro": 6964,
      "Brando": 6965,
      "studios": 6966,
      "Damian": 6967,
      "Damsel": 6968,
      "banks": 6969,
      "Shafee": 6970,
      "Flea": 6971,
      "praise": 6972,
      "1898": 6973,
      "Florence": 6974,
      "Apocalypse": 6975,
      "Everything": 6976,
      "Resistance": 6977,
      "Social": 6978,
      "sexual": 6979,
      "Hotel": 6980,
      "Oswald": 6981,
      "Distress": 6982,
      "Ravi": 6983,
      "Bryan": 6984,
      "Taxi": 6985,
      "Violence": 6986,
      "placed": 6987,
      "Opera": 6988,
      "Vivian": 6989,
      "Painter": 6990,
      "Eduard": 6991,
      "Nothing": 6992,
      "centers": 6993,
      "drug": 6994,
      "Eyes": 6995,
      "Scarlet": 6996,
      "Indonesian": 6997,
      "Henderson": 6998,
      "Saints": 6999,
      "Blocks": 7000,
      "apartment": 7001,
      "ufacturing": 7002,
      "Hepburn": 7003,
      "Skladanowsky": 7004,
      "Chronicle": 7005,
      "Butterfly": 7006,
      "06": 7007,
      "Bever": 7008,
      "Cot": 7009,
      "Dad": 7010,
      "Drama": 7011,
      "Fug": 7012,
      "Gir": 7013,
      "Gur": 7014,
      "Gla": 7015,
      "Hig": 7016,
      "Him": 7017,
      "Hak": 7018,
      "Hood": 7019,
      "Iron": 7020,
      "Kor": 7021,
      "Lat": 7022,
      "Luck": 7023,
      "Make": 7024,
      "Miy": 7025,
      "Nay": 7026,
      "Nob": 7027,
      "Ob": 7028,
      "Pure": 7029,
      "Pac": 7030,
      "RK": 7031,
      "Rit": 7032,
      "Rus": 7033,
      "Race": 7034,
      "SS": 7035,
      "Sz": 7036,
      "Sai": 7037,
      "Sven": 7038,
      "Test": 7039,
      "Trem": 7040,
      "could": 7041,
      "ded": 7042,
      "fal": 7043,
      "good": 7044,
      "journey": 7045,
      "kow": 7046,
      "kete": 7047,
      "living": 7048,
      "mu": 7049,
      "mph": 7050,
      "mail": 7051,
      "nik": 7052,
      "phe": 7053,
      "porn": 7054,
      "ration": 7055,
      "sis": 7056,
      "sati": 7057,
      "té": 7058,
      "ued": 7059,
      "wind": 7060,
      "yuki": 7061,
      "ák": 7062,
      "ро": 7063,
      "anay": 7064,
      "ering": 7065,
      "ises": 7066,
      "elia": 7067,
      "elements": 7068,
      "amura": 7069,
      "left": 7070,
      "ucks": 7071,
      "Chatter": 7072,
      "etz": 7073,
      "etime": 7074,
      "Stor": 7075,
      "Student": 7076,
      "oven": 7077,
      "ovic": 7078,
      "ović": 7079,
      "import": 7080,
      "idy": 7081,
      "anga": 7082,
      "umed": 7083,
      "secret": 7084,
      "Manufacturing": 7085,
      "ishi": 7086,
      "Ince": 7087,
      "Roh": 7088,
      "isters": 7089,
      "tty": 7090,
      "Aless": 7091,
      "agon": 7092,
      "ably": 7093,
      "Christy": 7094,
      "confl": 7095,
      "ipper": 7096,
      "Bother": 7097,
      "1950s": 7098,
      "Score": 7099,
      "Adapt": 7100,
      "meets": 7101,
      "Peg": 7102,
      "woo": 7103,
      "22nd": 7104,
      "ording": 7105,
      "ibal": 7106,
      "Moroc": 7107,
      "Neuf": 7108,
      "Normand": 7109,
      "aldo": 7110,
      "princ": 7111,
      "review": 7112,
      "Service": 7113,
      "goes": 7114,
      "Burst": 7115,
      "Burke": 7116,
      "sequences": 7117,
      "borough": 7118,
      "Below": 7119,
      "Belgi": 7120,
      "Believe": 7121,
      "Poland": 7122,
      "Terence": 7123,
      "married": 7124,
      "Suit": 7125,
      "Lux": 7126,
      "Palme": 7127,
      "ylum": 7128,
      "Ruby": 7129,
      "Agreement": 7130,
      "Exchange": 7131,
      "Happened": 7132,
      "Passenger": 7133,
      "Image": 7134,
      "poet": 7135,
      "themselves": 7136,
      "Bloody": 7137,
      "Lindsay": 7138,
      "Eastman": 7139,
      "Denmark": 7140,
      "Viktor": 7141,
      "narrated": 7142,
      "Horseback": 7143,
      "Muskete": 7144,
      "Confused": 7145,
      "inyin": 7146,
      "Archive": 7147,
      "Mrs": 7148,
      "reference": 7149,
      "Fisher": 7150,
      "Personal": 7151,
      "Francesco": 7152,
      "Astray": 7153,
      "Friz": 7154,
      "demand": 7155,
      "Grams": 7156,
      "Philippine": 7157,
      "standing": 7158,
      "Betray": 7159,
      "Tonight": 7160,
      "Collins": 7161,
      "copy": 7162,
      "Igor": 7163,
      "Honeymoon": 7164,
      "particip": 7165,
      "Tunes": 7166,
      "Johann": 7167,
      "Austrian": 7168,
      "Idiots": 7169,
      "Widow": 7170,
      "2046": 7171,
      "Shocking": 7172,
      "Sawmill": 7173,
      "Guilty": 7174,
      "government": 7175,
      "Digital": 7176,
      "Rupert": 7177,
      "Sjö": 7178,
      "Reflection": 7179,
      "Finnish": 7180,
      "Nigel": 7181,
      "Dudley": 7182,
      "Freleng": 7183,
      "Cantonese": 7184,
      "Intelligence": 7185,
      "Benoît": 7186,
      "Beverly": 7187,
      "conflict": 7188,
      "AA": 7189,
      "AW": 7190,
      "Bey": 7191,
      "Cu": 7192,
      "Card": 7193,
      "Cés": 7194,
      "Dim": 7195,
      "Dur": 7196,
      "Dot": 7197,
      "Dell": 7198,
      "Doc": 7199,
      "Dyl": 7200,
      "Fur": 7201,
      "Final": 7202,
      "Gug": 7203,
      "HBO": 7204,
      "Hundred": 7205,
      "Jy": 7206,
      "Kla": 7207,
      "Lem": 7208,
      "Lub": 7209,
      "Math": 7210,
      "Mull": 7211,
      "Om": 7212,
      "Oz": 7213,
      "Pust": 7214,
      "Puri": 7215,
      "Rust": 7216,
      "Rio": 7217,
      "Sung": 7218,
      "Tol": 7219,
      "Top": 7220,
      "Vista": 7221,
      "Wyn": 7222,
      "Yun": 7223,
      "Yev": 7224,
      "Yong": 7225,
      "Yuk": 7226,
      "Yank": 7227,
      "affair": 7228,
      "cie": 7229,
      "cap": 7230,
      "cell": 7231,
      "cup": 7232,
      "ders": 7233,
      "dream": 7234,
      "giving": 7235,
      "iri": 7236,
      "journal": 7237,
      "lot": 7238,
      "math": 7239,
      "ps": 7240,
      "power": 7241,
      "pinyin": 7242,
      "rated": 7243,
      "sung": 7244,
      "vuo": 7245,
      "ér": 7246,
      "erotic": 7247,
      "aria": 7248,
      "stru": 7249,
      "ribut": 7250,
      "difficult": 7251,
      "itar": 7252,
      "rog": 7253,
      "termin": 7254,
      "heav": 7255,
      "tov": 7256,
      "advert": 7257,
      "cey": 7258,
      "Chong": 7259,
      "imately": 7260,
      "angle": 7261,
      "phane": 7262,
      "ardon": 7263,
      "ianni": 7264,
      "ither": 7265,
      "avier": 7266,
      "Many": 7267,
      "activ": 7268,
      "actual": 7269,
      "Thel": 7270,
      "Thapa": 7271,
      "Rox": 7272,
      "bey": 7273,
      "becoming": 7274,
      "begins": 7275,
      "deep": 7276,
      "102": 7277,
      "plom": 7278,
      "uda": 7279,
      "udes": 7280,
      "ffy": 7281,
      "ques": 7282,
      "Christensen": 7283,
      "Spirit": 7284,
      "lesque": 7285,
      "owns": 7286,
      "Rex": 7287,
      "Rein": 7288,
      "icky": 7289,
      "Beats": 7290,
      "Walsh": 7291,
      "Adultery": 7292,
      "meg": 7293,
      "Elmer": 7294,
      "Michele": 7295,
      "Monty": 7296,
      "screening": 7297,
      "served": 7298,
      "Amanda": 7299,
      "etts": 7300,
      "eleb": 7301,
      "Cock": 7302,
      "Dancing": 7303,
      "Paulo": 7304,
      "Mori": 7305,
      "Morrison": 7306,
      "What": 7307,
      "Feat": 7308,
      "Feather": 7309,
      "mysterious": 7310,
      "create": 7311,
      "Berry": 7312,
      "Berger": 7313,
      "Boyle": 7314,
      "Trial": 7315,
      "Laemm": 7316,
      "Stein": 7317,
      "Menon": 7318,
      "Evelyn": 7319,
      "Starring": 7320,
      "Emmy": 7321,
      "Olsen": 7322,
      "Noise": 7323,
      "travel": 7324,
      "Command": 7325,
      "going": 7326,
      "Killed": 7327,
      "Belfast": 7328,
      "Andrey": 7329,
      "Sutherland": 7330,
      "Soap": 7331,
      "Maxim": 7332,
      "Ghosts": 7333,
      "super": 7334,
      "support": 7335,
      "Moons": 7336,
      "Outs": 7337,
      "appearances": 7338,
      "locations": 7339,
      "Fairbanks": 7340,
      "themes": 7341,
      "Jersey": 7342,
      "skiy": 7343,
      "Hallmark": 7344,
      "Liu": 7345,
      "cameo": 7346,
      "Hayes": 7347,
      "Jacqueline": 7348,
      "Nikita": 7349,
      "Jenny": 7350,
      "culture": 7351,
      "Ferr": 7352,
      "Kathryn": 7353,
      "teenage": 7354,
      "Fernández": 7355,
      "Grande": 7356,
      "antha": 7357,
      "finds": 7358,
      "ridge": 7359,
      "regard": 7360,
      "homme": 7361,
      "running": 7362,
      "Sergei": 7363,
      "Argent": 7364,
      "iju": 7365,
      "society": 7366,
      "network": 7367,
      "Bradley": 7368,
      "Andersson": 7369,
      "Cuban": 7370,
      "976": 7371,
      "Jorge": 7372,
      "Idol": 7373,
      "turned": 7374,
      "approval": 7375,
      "Everett": 7376,
      "Gibson": 7377,
      "Beaumont": 7378,
      "Nicolas": 7379,
      "Visit": 7380,
      "BAFT": 7381,
      "Kōji": 7382,
      "soldiers": 7383,
      "Thornton": 7384,
      "episodes": 7385,
      "Arrived": 7386,
      "Ludwig": 7387,
      "Bulgarian": 7388,
      "Gaston": 7389,
      "Nigerian": 7390,
      "fifth": 7391,
      "professional": 7392,
      "Kubrick": 7393,
      "dubbed": 7394,
      "McKimson": 7395,
      "Krasinski": 7396,
      "Boston": 7397,
      "Cricket": 7398,
      "Essanay": 7399,
      "Karabakh": 7400,
      "Stéphane": 7401,
      "Leisure": 7402,
      "Shafeeu": 7403,
      "Neufeld": 7404,
      "Belgium": 7405,
      "Beyond": 7406,
      "César": 7407,
      "Dylan": 7408,
      "Yevgen": 7409,
      "Laemmle": 7410,
      "BAFTA": 7411,
      ",\"": 7412,
      ":!": 7413,
      "AG": 7414,
      "Bres": 7415,
      "Bound": 7416,
      "Bord": 7417,
      "Cun": 7418,
      "Cart": 7419,
      "Cio": 7420,
      "Curious": 7421,
      "Dul": 7422,
      "Daily": 7423,
      "Ee": 7424,
      "Ela": 7425,
      "Fantas": 7426,
      "Fatty": 7427,
      "Gov": 7428,
      "Hume": 7429,
      "Ira": 7430,
      "Jogo": 7431,
      "Kul": 7432,
      "Kav": 7433,
      "Kai": 7434,
      "Kris": 7435,
      "Ló": 7436,
      "Mic": 7437,
      "Mod": 7438,
      "NP": 7439,
      "Nic": 7440,
      "Nav": 7441,
      "Nach": 7442,
      "Pere": 7443,
      "Pitt": 7444,
      "Patt": 7445,
      "Pett": 7446,
      "Power": 7447,
      "Rent": 7448,
      "Rad": 7449,
      "Rare": 7450,
      "Rolf": 7451,
      "Sr": 7452,
      "Sir": 7453,
      "Slo": 7454,
      "Sath": 7455,
      "Sign": 7456,
      "Tis": 7457,
      "Takes": 7458,
      "Wo": 7459,
      "Wis": 7460,
      "Wes": 7461,
      "Wol": 7462,
      "Wet": 7463,
      "Wai": 7464,
      "Winc": 7465,
      "Watts": 7466,
      "Zay": 7467,
      "Zim": 7468,
      "Zero": 7469,
      "bing": 7470,
      "birth": 7471,
      "claim": 7472,
      "course": 7473,
      "ds": 7474,
      "dest": 7475,
      "dance": 7476,
      "document": 7477,
      "ech": 7478,
      "eper": 7479,
      "fi": 7480,
      "fè": 7481,
      "gone": 7482,
      "gress": 7483,
      "iber": 7484,
      "jan": 7485,
      "may": 7486,
      "mut": 7487,
      "mour": 7488,
      "mine": 7489,
      "mass": 7490,
      "nel": 7491,
      "oz": 7492,
      "pair": 7493,
      "sl": 7494,
      "sopra": 7495,
      "uto": 7496,
      "umann": 7497,
      "vind": 7498,
      "vels": 7499,
      "zt": 7500,
      "Éric": 7501,
      "ön": 7502,
      "úl": 7503,
      "ński": 7504,
      "erd": 7505,
      "iler": 7506,
      "enth": 7507,
      "aland": 7508,
      "andy": 7509,
      "icy": 7510,
      "elve": 7511,
      "rav": 7512,
      "206": 7513,
      "osuf": 7514,
      "oslovak": 7515,
      "aded": 7516,
      "chall": 7517,
      "chant": 7518,
      "chik": 7519,
      "geon": 7520,
      "Chump": 7521,
      "Stitch": 7522,
      "imag": 7523,
      "phans": 7524,
      "uled": 7525,
      "strict": 7526,
      "iana": 7527,
      "seg": 7528,
      "Marin": 7529,
      "Marvin": 7530,
      "Marathi": 7531,
      "avík": 7532,
      "Mano": 7533,
      "shop": 7534,
      "Inde": 7535,
      "Third": 7536,
      "istant": 7537,
      "Leung": 7538,
      "Legh": 7539,
      "plus": 7540,
      "Sequel": 7541,
      "scope": 7542,
      "acia": 7543,
      "quer": 7544,
      "preced": 7545,
      "pregn": 7546,
      "Ella": 7547,
      "Heinz": 7548,
      "itself": 7549,
      "ifetime": 7550,
      "Clive": 7551,
      "shorts": 7552,
      "Edmund": 7553,
      "Andr": 7554,
      "18th": 7555,
      "1860": 7556,
      "Britain": 7557,
      "etta": 7558,
      "portato": 7559,
      "eleine": 7560,
      "Across": 7561,
      "Acacia": 7562,
      "Abram": 7563,
      "Above": 7564,
      "Engel": 7565,
      "Going": 7566,
      "Neck": 7567,
      "Problem": 7568,
      "Norway": 7569,
      "asha": 7570,
      "parts": 7571,
      "Flowers": 7572,
      "gener": 7573,
      "Holt": 7574,
      "Hologram": 7575,
      "spirit": 7576,
      "Looking": 7577,
      "Burlesque": 7578,
      "Sunil": 7579,
      "debuted": 7580,
      "Bella": 7581,
      "Madeleine": 7582,
      "Luca": 7583,
      "Luciano": 7584,
      "Devotion": 7585,
      "Regra": 7586,
      "marriage": 7587,
      "presumed": 7588,
      "Strat": 7589,
      "Asia": 7590,
      "Asylum": 7591,
      "Salv": 7592,
      "venience": 7593,
      "Magic": 7594,
      "Maggie": 7595,
      "Verne": 7596,
      "Partners": 7597,
      "literally": 7598,
      "più": 7599,
      "Teacher": 7600,
      "Bloom": 7601,
      "mainly": 7602,
      "Sinatra": 7603,
      "Runner": 7604,
      "decides": 7605,
      "Cafe": 7606,
      "Clear": 7607,
      "Brooks": 7608,
      "Shaun": 7609,
      "officer": 7610,
      "officially": 7611,
      "Ashley": 7612,
      "Crowd": 7613,
      "kinson": 7614,
      "Plaything": 7615,
      "survive": 7616,
      "discov": 7617,
      "Czechoslovak": 7618,
      "restored": 7619,
      "helm": 7620,
      "Roadside": 7621,
      "Reykj": 7622,
      "Kazan": 7623,
      "audiences": 7624,
      "illipo": 7625,
      "Rudolph": 7626,
      "pped": 7627,
      "falls": 7628,
      "Watson": 7629,
      "Yoosuf": 7630,
      "Gangster": 7631,
      "Yankee": 7632,
      "grave": 7633,
      "Purpose": 7634,
      "Alexandra": 7635,
      "millime": 7636,
      "Dinner": 7637,
      "Webb": 7638,
      "Bucket": 7639,
      "Fuller": 7640,
      "Felix": 7641,
      "Pavel": 7642,
      "Severa": 7643,
      "Eduardo": 7644,
      "Suzanne": 7645,
      "catalog": 7646,
      "Sacrif": 7647,
      "Singaporean": 7648,
      "Rodrigo": 7649,
      "Israeli": 7650,
      "youth": 7651,
      "Gaza": 7652,
      "Posillipo": 7653,
      "Fingers": 7654,
      "Majority": 7655,
      "Factory": 7656,
      "Futile": 7657,
      "techni": 7658,
      "Mastroianni": 7659,
      "RKO": 7660,
      "Adapted": 7661,
      "vuoi": 7662,
      "Cioè": 7663,
      "López": 7664,
      "fèv": 7665,
      "Leghorn": 7666,
      "Reykjavík": 7667,
      "Sacrifice": 7668,
      ".%": 7669,
      "05": 7670,
      "3000": 7671,
      "5th": 7672,
      "Aut": 7673,
      "Aud": 7674,
      "Aub": 7675,
      "Ago": 7676,
      "Bing": 7677,
      "Bes": 7678,
      "Bang": 7679,
      "Dh": 7680,
      "Eine": 7681,
      "Ethel": 7682,
      "FA": 7683,
      "FC": 7684,
      "Feld": 7685,
      "Gas": 7686,
      "Grig": 7687,
      "Hale": 7688,
      "Hurt": 7689,
      "Hidden": 7690,
      "Kom": 7691,
      "Kle": 7692,
      "Lé": 7693,
      "Lank": 7694,
      "Lily": 7695,
      "Luna": 7696,
      "Lillian": 7697,
      "Mish": 7698,
      "Mate": 7699,
      "Meyer": 7700,
      "Nil": 7701,
      "Nish": 7702,
      "Nina": 7703,
      "Oly": 7704,
      "Open": 7705,
      "Pic": 7706,
      "Pomp": 7707,
      "Pull": 7708,
      "Piano": 7709,
      "Som": 7710,
      "Ster": 7711,
      "Sure": 7712,
      "Suk": 7713,
      "Sens": 7714,
      "Sara": 7715,
      "Saga": 7716,
      "Tz": 7717,
      "Wool": 7718,
      "Yū": 7719,
      "Zombie": 7720,
      "aar": 7721,
      "bach": 7722,
      "dad": 7723,
      "det": 7724,
      "date": 7725,
      "dings": 7726,
      "gas": 7727,
      "hour": 7728,
      "hours": 7729,
      "mm": 7730,
      "má": 7731,
      "mod": 7732,
      "nard": 7733,
      "pear": 7734,
      "rong": 7735,
      "slas": 7736,
      "tw": 7737,
      "tel": 7738,
      "tion": 7739,
      "vide": 7740,
      "wich": 7741,
      "yed": 7742,
      "zes": 7743,
      "znick": 7744,
      "Öz": 7745,
      "aro": 7746,
      "stad": 7747,
      "stance": 7748,
      "iled": 7749,
      "thy": 7750,
      "thought": 7751,
      "reun": 7752,
      "edles": 7753,
      "eni": 7754,
      "enced": 7755,
      "ria": 7756,
      "rim": 7757,
      "ricon": 7758,
      "theart": 7759,
      "dic": 7760,
      "diant": 7761,
      "icate": 7762,
      "amo": 7763,
      "itney": 7764,
      "teran": 7765,
      "hester": 7766,
      "race": 7767,
      "told": 7768,
      "olt": 7769,
      "writing": 7770,
      "emann": 7771,
      "adel": 7772,
      "adour": 7773,
      "addition": 7774,
      "chen": 7775,
      "chard": 7776,
      "forman": 7777,
      "Chase": 7778,
      "imming": 7779,
      "ulf": 7780,
      "allow": 7781,
      "ureen": 7782,
      "apas": 7783,
      "oda": 7784,
      "Mani": 7785,
      "Manole": 7786,
      "whurst": 7787,
      "Shakes": 7788,
      "Shawn": 7789,
      "elly": 7790,
      "ellini": 7791,
      "Inc": 7792,
      "Intr": 7793,
      "Rooney": 7794,
      "comb": 7795,
      "beat": 7796,
      "istic": 7797,
      "Alicia": 7798,
      "dramatic": 7799,
      "Dewhurst": 7800,
      "Leap": 7801,
      "ught": 7802,
      "quick": 7803,
      "Spark": 7804,
      "upta": 7805,
      "Maureen": 7806,
      "assistant": 7807,
      "ieri": 7808,
      "annis": 7809,
      "Harald": 7810,
      "indu": 7811,
      "ahr": 7812,
      "Elisa": 7813,
      "ptic": 7814,
      "ennes": 7815,
      "Herman": 7816,
      "Calls": 7817,
      "Isa": 7818,
      "rical": 7819,
      "22FF": 7820,
      "azine": 7821,
      "ibre": 7822,
      "Quai": 7823,
      "303": 7824,
      "elect": 7825,
      "Meter": 7826,
      "Morricon": 7827,
      "Abra": 7828,
      "vention": 7829,
      "Corman": 7830,
      "Worlds": 7831,
      "Tribeca": 7832,
      "Merrie": 7833,
      "Homecoming": 7834,
      "Karel": 7835,
      "general": 7836,
      "Emma": 7837,
      "Noah": 7838,
      "spy": 7839,
      "Daffy": 7840,
      "Enterprise": 7841,
      "mons": 7842,
      "versions": 7843,
      "Madison": 7844,
      "Radio": 7845,
      "Orson": 7846,
      "Orfèv": 7847,
      "Wilfred": 7848,
      "younger": 7849,
      "Stoll": 7850,
      "Disp": 7851,
      "Genev": 7852,
      "Lawyer": 7853,
      "Door": 7854,
      "Wednes": 7855,
      "strong": 7856,
      "Rule": 7857,
      "Pierce": 7858,
      "recogn": 7859,
      "Santos": 7860,
      "showing": 7861,
      "Assassin": 7862,
      "news": 7863,
      "Alfonso": 7864,
      "Team": 7865,
      "Break": 7866,
      "voices": 7867,
      "Angelo": 7868,
      "Wink": 7869,
      "Foolish": 7870,
      "lynn": 7871,
      "Turkey": 7872,
      "hua": 7873,
      "Duvall": 7874,
      "Selznick": 7875,
      "halkov": 7876,
      "Musical": 7877,
      "Mikhalkov": 7878,
      "experience": 7879,
      "Gaumont": 7880,
      "emption": 7881,
      "Naomi": 7882,
      "movement": 7883,
      "Ariz": 7884,
      "Troll": 7885,
      "Temporary": 7886,
      "Duncan": 7887,
      "Muslim": 7888,
      "portrayed": 7889,
      "viewers": 7890,
      "Escaped": 7891,
      "Cruel": 7892,
      "Miranda": 7893,
      "Chiapas": 7894,
      "recorded": 7895,
      "developed": 7896,
      "ATM": 7897,
      "Finish": 7898,
      "European": 7899,
      "Mahm": 7900,
      "Recogn": 7901,
      "Olivia": 7902,
      "Dominic": 7903,
      "Pleasant": 7904,
      "started": 7905,
      "melod": 7906,
      "Debt": 7907,
      "Noblemen": 7908,
      "Jobim": 7909,
      "Bengali": 7910,
      "Gösta": 7911,
      "Padroe": 7912,
      "Thanhous": 7913,
      "Sleeping": 7914,
      "eventually": 7915,
      "memoir": 7916,
      "building": 7917,
      "Enrique": 7918,
      "moral": 7919,
      "subsequently": 7920,
      "Judith": 7921,
      "Wheat": 7922,
      "Cairo": 7923,
      "western": 7924,
      "Gathering": 7925,
      "Altman": 7926,
      "chronicles": 7927,
      "quinas": 7928,
      "Cinematography": 7929,
      "Official": 7930,
      "Pablo": 7931,
      "Earnhardt": 7932,
      "Argentina": 7933,
      "millimeter": 7934,
      "Pompadour": 7935,
      "Pullman": 7936,
      "peare": 7937,
      "slasher": 7938,
      "Manolete": 7939,
      "Shakespeare": 7940,
      "Morricone": 7941,
      "Orfèvres": 7942,
      "Wednesday": 7943,
      "Padroeira": 7944,
      "Thanhouser": 7945,
      "2B": 7946,
      "400": 7947,
      "6th": 7948,
      "70": 7949,
      "Bates": 7950,
      "Bomb": 7951,
      "Bible": 7952,
      "CJ": 7953,
      "Course": 7954,
      "Dod": 7955,
      "Dice": 7956,
      "Dana": 7957,
      "Dash": 7958,
      "Dumb": 7959,
      "Duke": 7960,
      "Each": 7961,
      "Eason": 7962,
      "Feder": 7963,
      "Fonda": 7964,
      "Gut": 7965,
      "Gard": 7966,
      "Gran": 7967,
      "Hur": 7968,
      "Here": 7969,
      "Horn": 7970,
      "Jaf": 7971,
      "Lel": 7972,
      "Log": 7973,
      "Lamp": 7974,
      "Levin": 7975,
      "Lester": 7976,
      "Nu": 7977,
      "Naj": 7978,
      "Nazi": 7979,
      "Nancy": 7980,
      "Ober": 7981,
      "Oleg": 7982,
      "Porn": 7983,
      "Prec": 7984,
      "Pete": 7985,
      "Rumor": 7986,
      "Sach": 7987,
      "Tall": 7988,
      "Tah": 7989,
      "Tara": 7990,
      "Table": 7991,
      "Tweet": 7992,
      "Ull": 7993,
      "Ves": 7994,
      "Vít": 7995,
      "Yoo": 7996,
      "bomb": 7997,
      "dale": 7998,
      "doll": 7999,
      "danc": 8000,
      "folk": 8001,
      "gel": 8002,
      "hra": 8003,
      "hip": 8004,
      "host": 8005,
      "irie": 8006,
      "kra": 8007,
      "ls": 8008,
      "lis": 8009,
      "liss": 8010,
      "mess": 8011,
      "male": 8012,
      "maker": 8013,
      "pay": 8014,
      "ras": 8015,
      "rill": 8016,
      "rural": 8017,
      "sat": 8018,
      "saw": 8019,
      "sister": 8020,
      "tour": 8021,
      "wants": 8022,
      "xima": 8023,
      "yon": 8024,
      "zman": 8025,
      "Ál": 8026,
      "ør": 8027,
      "ел": 8028,
      "на": 8029,
      "inf": 8030,
      "anime": 8031,
      "anova": 8032,
      "erto": 8033,
      "araj": 8034,
      "stat": 8035,
      "stud": 8036,
      "ready": 8037,
      "educ": 8038,
      "enberg": 8039,
      "riam": 8040,
      "rival": 8041,
      "alo": 8042,
      "alie": 8043,
      "album": 8044,
      "isk": 8045,
      "asim": 8046,
      "rings": 8047,
      "esquinas": 8048,
      "heures": 8049,
      "total": 8050,
      "olia": 8051,
      "older": 8052,
      "write": 8053,
      "Chry": 8054,
      "uncredited": 8055,
      "images": 8056,
      "iva": 8057,
      "ivas": 8058,
      "owan": 8059,
      "ieu": 8060,
      "ieved": 8061,
      "otal": 8062,
      "launch": 8063,
      "bery": 8064,
      "umber": 8065,
      "Marjor": 8066,
      "apocaly": 8067,
      "ographic": 8068,
      "ishment": 8069,
      "shan": 8070,
      "Shwe": 8071,
      "Should": 8072,
      "aging": 8073,
      "lyric": 8074,
      "abl": 8075,
      "Def": 8076,
      "Depar": 8077,
      "edition": 8078,
      "Lean": 8079,
      "look": 8080,
      "artists": 8081,
      "ffield": 8082,
      "ocious": 8083,
      "Loved": 8084,
      "eware": 8085,
      "soon": 8086,
      "Reza": 8087,
      "upcoming": 8088,
      "oko": 8089,
      "Mae": 8090,
      "assassin": 8091,
      "Beat": 8092,
      "ueger": 8093,
      "itting": 8094,
      "idea": 8095,
      "1960s": 8096,
      "ctions": 8097,
      "airy": 8098,
      "Heather": 8099,
      "Hebre": 8100,
      "mental": 8101,
      "ressed": 8102,
      "127": 8103,
      "Convenience": 8104,
      "Constance": 8105,
      "compete": 8106,
      "achi": 8107,
      "boat": 8108,
      "attention": 8109,
      "Herb": 8110,
      "Herr": 8111,
      "Wei": 8112,
      "Weber": 8113,
      "umentary": 8114,
      "Paolo": 8115,
      "Mob": 8116,
      "ibbe": 8117,
      "Quart": 8118,
      "sketch": 8119,
      "Megan": 8120,
      "Method": 8121,
      "Match": 8122,
      "Schul": 8123,
      "interest": 8124,
      "Engagement": 8125,
      "rude": 8126,
      "Needles": 8127,
      "Berkel": 8128,
      "Boyfriend": 8129,
      "Samantha": 8130,
      "Forum": 8131,
      "revolution": 8132,
      "ashion": 8133,
      "Donnell": 8134,
      "Farmer": 8135,
      "Farnum": 8136,
      "Flash": 8137,
      "Karen": 8138,
      "Singing": 8139,
      "Noon": 8140,
      "Noël": 8141,
      "Hock": 8142,
      "Melford": 8143,
      "Philadel": 8144,
      "money": 8145,
      "Polly": 8146,
      "Lucy": 8147,
      "Teresa": 8148,
      "Ordin": 8149,
      "25th": 8150,
      "Sweden": 8151,
      "Bastar": 8152,
      "ningham": 8153,
      "Joshi": 8154,
      "Palm": 8155,
      "Soph": 8156,
      "Universum": 8157,
      "Maxwell": 8158,
      "Moms": 8159,
      "Safe": 8160,
      "Princesa": 8161,
      "Brett": 8162,
      "account": 8163,
      "Greene": 8164,
      "Bigger": 8165,
      "Koch": 8166,
      "friendship": 8167,
      "Victoria": 8168,
      "dieu": 8169,
      "Prab": 8170,
      "Friends": 8171,
      "Tae": 8172,
      "Arabian": 8173,
      "Medal": 8174,
      "Ont": 8175,
      "Sherman": 8176,
      "Alfredo": 8177,
      "Sinner": 8178,
      "commun": 8179,
      "decided": 8180,
      "Note": 8181,
      "Brooke": 8182,
      "Sweep": 8183,
      "Bertrand": 8184,
      "romaniac": 8185,
      "encoun": 8186,
      "Losey": 8187,
      "Burnett": 8188,
      "surviving": 8189,
      "Buena": 8190,
      "Courtship": 8191,
      "Krueger": 8192,
      "Levy": 8193,
      "Ricky": 8194,
      "Pyromaniac": 8195,
      "Sylvia": 8196,
      "False": 8197,
      "Ticking": 8198,
      "Cyril": 8199,
      "Fathoms": 8200,
      "Cantor": 8201,
      "Munich": 8202,
      "Zealand": 8203,
      "Ilha": 8204,
      "Adrian": 8205,
      "AIBO": 8206,
      "changed": 8207,
      "particular": 8208,
      "response": 8209,
      "Burglar": 8210,
      "soldier": 8211,
      "Bacon": 8212,
      "Stockholm": 8213,
      "Driver": 8214,
      "category": 8215,
      "Houston": 8216,
      "autobiographical": 8217,
      "Cigarettes": 8218,
      "Rafael": 8219,
      "violent": 8220,
      "Alain": 8221,
      "Emery": 8222,
      "Friedrich": 8223,
      "Courage": 8224,
      "Sweetheart": 8225,
      "Pearson": 8226,
      "Seymour": 8227,
      "Gertrude": 8228,
      "Generations": 8229,
      "Magdalene": 8230,
      "separate": 8231,
      "controversial": 8232,
      "kidn": 8233,
      "Jenkins": 8234,
      "Próxima": 8235,
      "Plumbing": 8236,
      "Chatterjee": 8237,
      "important": 8238,
      "Peggy": 8239,
      "Sjöström": 8240,
      "Yankovic": 8241,
      "journalist": 8242,
      "Roxbury": 8243,
      "Cunningham": 8244,
      "Winchester": 8245,
      "Index": 8246,
      "Autum": 8247,
      "Abraham": 8248,
      "Recognizing": 8249,
      "Precocious": 8250,
      "Tweety": 8251,
      "Vítima": 8252,
      "Marjorie": 8253,
      "apocalyptic": 8254,
      "Depardieu": 8255,
      "Hebrew": 8256,
      "Berkeley": 8257,
      "Philadelphia": 8258,
      "Ordinary": 8259,
      "AIBOU": 8260,
      "68": 8261,
      "A1": 8262,
      "AV": 8263,
      "Ai": 8264,
      "Are": 8265,
      "ANP": 8266,
      "Bass": 8267,
      "Bone": 8268,
      "Bott": 8269,
      "Bike": 8270,
      "Cly": 8271,
      "Coff": 8272,
      "Couch": 8273,
      "Crane": 8274,
      "DC": 8275,
      "Das": 8276,
      "Dol": 8277,
      "Dall": 8278,
      "Dies": 8279,
      "Dillon": 8280,
      "Ei": 8281,
      "Est": 8282,
      "Eag": 8283,
      "Fat": 8284,
      "Fid": 8285,
      "Fest": 8286,
      "Frig": 8287,
      "Fabri": 8288,
      "Fischer": 8289,
      "Gan": 8290,
      "Gring": 8291,
      "Hem": 8292,
      "Hud": 8293,
      "Hick": 8294,
      "Jia": 8295,
      "Kro": 8296,
      "Kish": 8297,
      "Lum": 8298,
      "Liam": 8299,
      "Leder": 8300,
      "Logan": 8301,
      "Lifetime": 8302,
      "Mia": 8303,
      "Nev": 8304,
      "Og": 8305,
      "Ost": 8306,
      "Pand": 8307,
      "Pel": 8308,
      "Pia": 8309,
      "Pub": 8310,
      "Pimp": 8311,
      "Paces": 8312,
      "Rum": 8313,
      "Sv": 8314,
      "Sug": 8315,
      "Suri": 8316,
      "Tough": 8317,
      "Trans": 8318,
      "Toni": 8319,
      "Tramp": 8320,
      "Vers": 8321,
      "Wing": 8322,
      "Wim": 8323,
      "Witt": 8324,
      "aign": 8325,
      "better": 8326,
      "bstones": 8327,
      "cir": 8328,
      "cost": 8329,
      "cens": 8330,
      "dor": 8331,
      "dete": 8332,
      "drop": 8333,
      "ehan": 8334,
      "fram": 8335,
      "fell": 8336,
      "fai": 8337,
      "famil": 8338,
      "fire": 8339,
      "ged": 8340,
      "grow": 8341,
      "hers": 8342,
      "hoff": 8343,
      "jar": 8344,
      "kk": 8345,
      "killer": 8346,
      "lene": 8347,
      "loss": 8348,
      "mos": 8349,
      "makes": 8350,
      "nine": 8351,
      "pst": 8352,
      "sw": 8353,
      "squ": 8354,
      "tar": 8355,
      "tig": 8356,
      "tab": 8357,
      "wu": 8358,
      "xi": 8359,
      "zz": 8360,
      "zys": 8361,
      "éma": 8362,
      "ław": 8363,
      "ет": 8364,
      "ни": 8365,
      "ов": 8366,
      "ри": 8367,
      "anion": 8368,
      "anski": 8369,
      "ares": 8370,
      "arost": 8371,
      "stre": 8372,
      "ilante": 8373,
      "thi": 8374,
      "reat": 8375,
      "reason": 8376,
      "enne": 8377,
      "these": 8378,
      "alh": 8379,
      "almost": 8380,
      "alcohol": 8381,
      "isla": 8382,
      "andon": 8383,
      "omer": 8384,
      "oub": 8385,
      "itation": 8386,
      "leton": 8387,
      "Thet": 8388,
      "emic": 8389,
      "oslav": 8390,
      "proble": 8391,
      "ceived": 8392,
      "Champ": 8393,
      "Stanton": 8394,
      "ová": 8395,
      "univers": 8396,
      "idence": 8397,
      "idents": 8398,
      "ieth": 8399,
      "berlost": 8400,
      "umph": 8401,
      "Mara": 8402,
      "Marina": 8403,
      "Marlon": 8404,
      "neo": 8405,
      "next": 8406,
      "Mans": 8407,
      "shaw": 8408,
      "Filmed": 8409,
      "Shr": 8410,
      "Shri": 8411,
      "Sham": 8412,
      "Shannon": 8413,
      "Anil": 8414,
      "beaut": 8415,
      "deals": 8416,
      "istration": 8417,
      "rani": 8418,
      "João": 8419,
      "agne": 8420,
      "Deeware": 8421,
      "Leaves": 8422,
      "looking": 8423,
      "anti": 8424,
      "plat": 8425,
      "Arte": 8426,
      "quet": 8427,
      "ocence": 8428,
      "erno": 8429,
      "awk": 8430,
      "oker": 8431,
      "Boh": 8432,
      "Become": 8433,
      "coesquinas": 8434,
      "exist": 8435,
      "mez": 8436,
      "meen": 8437,
      "Peck": 8438,
      "Clucks": 8439,
      "Monica": 8440,
      "weeks": 8441,
      "serves": 8442,
      "Connell": 8443,
      "Conrad": 8444,
      "188": 8445,
      "Herz": 8446,
      "Weird": 8447,
      "Weeds": 8448,
      "ukulla": 8449,
      "McGu": 8450,
      "Amar": 8451,
      "Isabel": 8452,
      "azar": 8453,
      "veteran": 8454,
      "Jamie": 8455,
      "Aces": 8456,
      "Meg": 8457,
      "Moreno": 8458,
      "Tombstones": 8459,
      "Colour": 8460,
      "Englund": 8461,
      "Gob": 8462,
      "aji": 8463,
      "Maya": 8464,
      "Mayfair": 8465,
      "Bengh": 8466,
      "Prime": 8467,
      "Norma": 8468,
      "Triangle": 8469,
      "Doggone": 8470,
      "zej": 8471,
      "Despite": 8472,
      "Noel": 8473,
      "traditional": 8474,
      "Garwood": 8475,
      "Skies": 8476,
      "Burt": 8477,
      "gerald": 8478,
      "doctor": 8479,
      "sequence": 8480,
      "mont": 8481,
      "close": 8482,
      "winner": 8483,
      "Billings": 8484,
      "leader": 8485,
      "position": 8486,
      "Polit": 8487,
      "Train": 8488,
      "Travis": 8489,
      "parody": 8490,
      "suit": 8491,
      "Orphans": 8492,
      "Lesley": 8493,
      "Wilder": 8494,
      "Asian": 8495,
      "Calibre": 8496,
      "telling": 8497,
      "Genius": 8498,
      "Georgia": 8499,
      "Magical": 8500,
      "Toast": 8501,
      "17th": 8502,
      "Sophia": 8503,
      "University": 8504,
      "Chapter": 8505,
      "Weddings": 8506,
      "Cincoesquinas": 8507,
      "Poit": 8508,
      "Shots": 8509,
      "Piero": 8510,
      "appearing": 8511,
      "Exile": 8512,
      "Sandwich": 8513,
      "Redemption": 8514,
      "Marcel": 8515,
      "iros": 8516,
      "individ": 8517,
      "themum": 8518,
      "Huang": 8519,
      "Rainy": 8520,
      "Montg": 8521,
      "Talking": 8522,
      "Hamlet": 8523,
      "Laurent": 8524,
      "half": 8525,
      "Giul": 8526,
      "Shaheed": 8527,
      "esterday": 8528,
      "movies": 8529,
      "trip": 8530,
      "Casanova": 8531,
      "Mule": 8532,
      "Built": 8533,
      "ainting": 8534,
      "popularity": 8535,
      "Hanks": 8536,
      "Romero": 8537,
      "Rocky": 8538,
      "Endrath": 8539,
      "Drag": 8540,
      "Kalem": 8541,
      "Jewel": 8542,
      "Jaime": 8543,
      "1878": 8544,
      "numbered": 8545,
      "handled": 8546,
      "Global": 8547,
      "Yuen": 8548,
      "Yoon": 8549,
      "Jacobs": 8550,
      "Bugs": 8551,
      "Falcon": 8552,
      "Cuba": 8553,
      "Molly": 8554,
      "Places": 8555,
      "Attack": 8556,
      "Randy": 8557,
      "Joris": 8558,
      "Limberlost": 8559,
      "Webber": 8560,
      "Kiarost": 8561,
      "Circus": 8562,
      "Goldberg": 8563,
      "Herself": 8564,
      "Pleasure": 8565,
      "Urugu": 8566,
      "Countess": 8567,
      "Supermen": 8568,
      "Massimo": 8569,
      "Grover": 8570,
      "Gopi": 8571,
      "Rodriguez": 8572,
      "Knowing": 8573,
      "categories": 8574,
      "Israel": 8575,
      "Ibsen": 8576,
      "Fitzgerald": 8577,
      "bourne": 8578,
      "sieur": 8579,
      "protagon": 8580,
      "Ingrid": 8581,
      "Diaz": 8582,
      "acquired": 8583,
      "Floating": 8584,
      "Lizard": 8585,
      "Splash": 8586,
      "village": 8587,
      "McCormick": 8588,
      "Bailey": 8589,
      "santhemum": 8590,
      "contract": 8591,
      "cancer": 8592,
      "streaming": 8593,
      "Theodore": 8594,
      "Records": 8595,
      "Storeys": 8596,
      "1843": 8597,
      "scheduled": 8598,
      "Stroke": 8599,
      "beginning": 8600,
      "Reckless": 8601,
      "Formality": 8602,
      "Idea": 8603,
      "Sparrow": 8604,
      "introduc": 8605,
      "Fugitive": 8606,
      "Higgins": 8607,
      "satirical": 8608,
      "Betrayed": 8609,
      "plomatic": 8610,
      "Fantasia": 8611,
      "icycle": 8612,
      "challeng": 8613,
      "Andrzej": 8614,
      "Federico": 8615,
      "Chrysanthemum": 8616,
      "Sophie": 8617,
      "ANPO": 8618,
      "Coffin": 8619,
      "Gringo": 8620,
      "problems": 8621,
      "Deewarein": 8622,
      "Benghazi": 8623,
      "Endrathukulla": 8624,
      "Kiarostami": 8625,
      "120": 8626,
      "2D": 8627,
      "92": 8628,
      "Ax": 8629,
      "Apar": 8630,
      "Bé": 8631,
      "Bat": 8632,
      "Ble": 8633,
      "Bent": 8634,
      "Bew": 8635,
      "Cuck": 8636,
      "Cint": 8637,
      "Cupid": 8638,
      "ES": 8639,
      "Ef": 8640,
      "Eston": 8641,
      "Fem": 8642,
      "Fow": 8643,
      "Find": 8644,
      "Frie": 8645,
      "Fright": 8646,
      "Gó": 8647,
      "Gou": 8648,
      "Grom": 8649,
      "Hus": 8650,
      "Hub": 8651,
      "Hide": 8652,
      "Horton": 8653,
      "Ist": 8654,
      "Ice": 8655,
      "Iceland": 8656,
      "IFC": 8657,
      "Jol": 8658,
      "Jut": 8659,
      "Jug": 8660,
      "Jared": 8661,
      "Kop": 8662,
      "Kirst": 8663,
      "Lt": 8664,
      "Making": 8665,
      "Niel": 8666,
      "Ott": 8667,
      "Obl": 8668,
      "Pang": 8669,
      "Preferred": 8670,
      "Ris": 8671,
      "Rif": 8672,
      "Ritz": 8673,
      "Rising": 8674,
      "Side": 8675,
      "Sny": 8676,
      "Sán": 8677,
      "Sledge": 8678,
      "Sisters": 8679,
      "Tess": 8680,
      "Tears": 8681,
      "Vent": 8682,
      "Vanish": 8683,
      "Xia": 8684,
      "Yesterday": 8685,
      "bb": 8686,
      "cil": 8687,
      "cul": 8688,
      "doc": 8689,
      "für": 8690,
      "favor": 8691,
      "gely": 8692,
      "hum": 8693,
      "humor": 8694,
      "lik": 8695,
      "mes": 8696,
      "mion": 8697,
      "och": 8698,
      "oaded": 8699,
      "pin": 8700,
      "pal": 8701,
      "pet": 8702,
      "pur": 8703,
      "pati": 8704,
      "pital": 8705,
      "rine": 8706,
      "sin": 8707,
      "test": 8708,
      "uer": 8709,
      "uters": 8710,
      "vist": 8711,
      "öl": 8712,
      "inson": 8713,
      "ardi": 8714,
      "ilo": 8715,
      "reve": 8716,
      "represent": 8717,
      "edi": 8718,
      "alu": 8719,
      "aldi": 8720,
      "atively": 8721,
      "differ": 8722,
      "espe": 8723,
      "omery": 8724,
      "elot": 8725,
      "ouf": 8726,
      "lect": 8727,
      "rade": 8728,
      "today": 8729,
      "wright": 8730,
      "emerg": 8731,
      "osc": 8732,
      "addi": 8733,
      "adult": 8734,
      "additional": 8735,
      "cho": 8736,
      "usz": 8737,
      "forced": 8738,
      "forts": 8739,
      "ceed": 8740,
      "Cham": 8741,
      "eties": 8742,
      "Stat": 8743,
      "imes": 8744,
      "phys": 8745,
      "lair": 8746,
      "ums": 8747,
      "ckumentary": 8748,
      "sein": 8749,
      "ouncil": 8750,
      "akis": 8751,
      "Shave": 8752,
      "earth": 8753,
      "common": 8754,
      "def": 8755,
      "dramat": 8756,
      "Leila": 8757,
      "108": 8758,
      "scen": 8759,
      "astro": 8760,
      "Arm": 8761,
      "Around": 8762,
      "acing": 8763,
      "iki": 8764,
      "occur": 8765,
      "occup": 8766,
      "conom": 8767,
      "Johnston": 8768,
      "Spell": 8769,
      "ernel": 8770,
      "Endy": 8771,
      "lesinger": 8772,
      "Rebe": 8773,
      "Reardon": 8774,
      "ips": 8775,
      "Maj": 8776,
      "endously": 8777,
      "iero": 8778,
      "Willi": 8779,
      "Hara": 8780,
      "009": 8781,
      "Becker": 8782,
      "Warwick": 8783,
      "1980s": 8784,
      "Paran": 8785,
      "pret": 8786,
      "ahan": 8787,
      "Adol": 8788,
      "Admin": 8789,
      "Peasant": 8790,
      "Clowns": 8791,
      "ission": 8792,
      "issue": 8793,
      "ption": 8794,
      "Mond": 8795,
      "Monsieur": 8796,
      "shortly": 8797,
      "12B": 8798,
      "ached": 8799,
      "Guer": 8800,
      "afa": 8801,
      "izes": 8802,
      "Diplomatic": 8803,
      "Romanian": 8804,
      "erty": 8805,
      "McC": 8806,
      "Amato": 8807,
      "ordin": 8808,
      "azon": 8809,
      "azione": 8810,
      "lines": 8811,
      "verse": 8812,
      "Cohen": 8813,
      "Mats": 8814,
      "Moral": 8815,
      "Abdel": 8816,
      "Schwart": 8817,
      "Color": 8818,
      "Pras": 8819,
      "Smart": 8820,
      "Goose": 8821,
      "ajda": 8822,
      "receiving": 8823,
      "ucker": 8824,
      "Netherland": 8825,
      "Prison": 8826,
      "Boyd": 8827,
      "Rosem": 8828,
      "ansom": 8829,
      "untier": 8830,
      "despite": 8831,
      "Allison": 8832,
      "partly": 8833,
      "letcher": 8834,
      "intendent": 8835,
      "Farrow": 8836,
      "Simmons": 8837,
      "ways": 8838,
      "Patrice": 8839,
      "Patient": 8840,
      "Olive": 8841,
      "Garibal": 8842,
      "anca": 8843,
      "143": 8844,
      "1408": 8845,
      "Melissa": 8846,
      "Melbourne": 8847,
      "Belle": 8848,
      "woods": 8849,
      "theatres": 8850,
      "Artist": 8851,
      "Travers": 8852,
      "Stol": 8853,
      "Lars": 8854,
      "remain": 8855,
      "remains": 8856,
      "Georgian": 8857,
      "Josephine": 8858,
      "Palest": 8859,
      "Palmer": 8860,
      "Palms": 8861,
      "1776": 8862,
      "Sole": 8863,
      "Sarge": 8864,
      "Gunj": 8865,
      "surround": 8866,
      "consist": 8867,
      "harest": 8868,
      "Ramón": 8869,
      "domestic": 8870,
      "Crist": 8871,
      "Trust": 8872,
      "Sanders": 8873,
      "system": 8874,
      "Craw": 8875,
      "Craven": 8876,
      "Craft": 8877,
      "Angela": 8878,
      "Andrews": 8879,
      "Slipp": 8880,
      "Missed": 8881,
      "Human": 8882,
      "Huey": 8883,
      "Liber": 8884,
      "Sundar": 8885,
      "contribut": 8886,
      "Gods": 8887,
      "Godard": 8888,
      "Talmad": 8889,
      "Network": 8890,
      "Hammer": 8891,
      "Brenda": 8892,
      "Brendan": 8893,
      "Brandon": 8894,
      "Drun": 8895,
      "Gauntier": 8896,
      "1897": 8897,
      "moving": 8898,
      "Crown": 8899,
      "Crows": 8900,
      "Malays": 8901,
      "Players": 8902,
      "Casabl": 8903,
      "discuss": 8904,
      "Nichols": 8905,
      "Duty": 8906,
      "Krzys": 8907,
      "Dunn": 8908,
      "Subject": 8909,
      "Accuses": 8910,
      "Crus": 8911,
      "Europa": 8912,
      "however": 8913,
      "Barrymore": 8914,
      "Gilles": 8915,
      "escu": 8916,
      "Françoise": 8917,
      "Cruz": 8918,
      "Cruise": 8919,
      "Tokat": 8920,
      "Rowland": 8921,
      "Elliot": 8922,
      "oleon": 8923,
      "Cyborg": 8924,
      "Wells": 8925,
      "Ladd": 8926,
      "prominent": 8927,
      "Fathers": 8928,
      "Konstantin": 8929,
      "Miriam": 8930,
      "Pascal": 8931,
      "Tails": 8932,
      "military": 8933,
      "Reloaded": 8934,
      "Mountains": 8935,
      "Caval": 8936,
      "Leading": 8937,
      "Nikolay": 8938,
      "Somebody": 8939,
      "Hannah": 8940,
      "Puerto": 8941,
      "changes": 8942,
      "Superintendent": 8943,
      "Searle": 8944,
      "capture": 8945,
      "Bengt": 8946,
      "Valentin": 8947,
      "Moulin": 8948,
      "campaign": 8949,
      "initially": 8950,
      "Standard": 8951,
      "Briefs": 8952,
      "entirely": 8953,
      "episode": 8954,
      "Boulev": 8955,
      "Snitch": 8956,
      "Hiroshi": 8957,
      "Bucharest": 8958,
      "Bavaria": 8959,
      "Dresses": 8960,
      "Punishment": 8961,
      "possible": 8962,
      "Juliette": 8963,
      "Barker": 8964,
      "Wendy": 8965,
      "piece": 8966,
      "Carnival": 8967,
      "Associated": 8968,
      "reprising": 8969,
      "Napoleon": 8970,
      "Rouge": 8971,
      "ildered": 8972,
      "Armando": 8973,
      "contains": 8974,
      "Continues": 8975,
      "Godfathers": 8976,
      "Giovanni": 8977,
      "brief": 8978,
      "Benedict": 8979,
      "Dhanush": 8980,
      "wealthy": 8981,
      "Freedom": 8982,
      "Tremendously": 8983,
      "Alessandro": 8984,
      "Bursts": 8985,
      "heavily": 8986,
      "Thelma": 8987,
      "elebrity": 8988,
      "Features": 8989,
      "Zayar": 8990,
      "ztof": 8991,
      "catalogues": 8992,
      "Elisabeth": 8993,
      "Breakfast": 8994,
      "melodrama": 8995,
      "students": 8996,
      "lyrics": 8997,
      "Ontario": 8998,
      "particularly": 8999,
      "Clyde": 9000,
      "Hudson": 9001,
      "Pimpernel": 9002,
      "individual": 9003,
      "Montgomery": 9004,
      "protagonist": 9005,
      "Cuckoo": 9006,
      "Gómez": 9007,
      "Jutra": 9008,
      "Snyder": 9009,
      "Administration": 9010,
      "Netherlands": 9011,
      "Talmadge": 9012,
      "Casablanca": 9013,
      "Krzysztof": 9014,
      "Boulevard": 9015,
      "34": 9016,
      "3x": 9017,
      "3fal": 9018,
      "54": 9019,
      "78": 9020,
      "96": 9021,
      "Ain": 9022,
      "Ath": 9023,
      "Asp": 9024,
      "Bj": 9025,
      "Bod": 9026,
      "Bish": 9027,
      "Bub": 9028,
      "Boss": 9029,
      "Bauer": 9030,
      "Botel": 9031,
      "CO": 9032,
      "Cim": 9033,
      "Dong": 9034,
      "Ec": 9035,
      "Eri": 9036,
      "EVI": 9037,
      "Fu": 9038,
      "Fol": 9039,
      "Foss": 9040,
      "Faye": 9041,
      "Flying": 9042,
      "Gia": 9043,
      "Give": 9044,
      "Gott": 9045,
      "Gwen": 9046,
      "Gün": 9047,
      "Hey": 9048,
      "Hust": 9049,
      "Hogan": 9050,
      "Hurst": 9051,
      "Ily": 9052,
      "Jade": 9053,
      "Kl": 9054,
      "Kot": 9055,
      "Kline": 9056,
      "Katherine": 9057,
      "Kenny": 9058,
      "LA": 9059,
      "Lay": 9060,
      "Laf": 9061,
      "Lott": 9062,
      "MA": 9063,
      "MP": 9064,
      "Mes": 9065,
      "Minter": 9066,
      "Miser": 9067,
      "Miros": 9068,
      "Nah": 9069,
      "Nose": 9070,
      "Naz": 9071,
      "Ove": 9072,
      "Omar": 9073,
      "Pest": 9074,
      "Pup": 9075,
      "Rita": 9076,
      "Sof": 9077,
      "Sort": 9078,
      "Sud": 9079,
      "Srin": 9080,
      "Tiff": 9081,
      "Toshi": 9082,
      "Vert": 9083,
      "Villa": 9084,
      "Won": 9085,
      "WAC": 9086,
      "Yoshi": 9087,
      "ax": 9088,
      "cou": 9089,
      "danger": 9090,
      "ei": 9091,
      "gri": 9092,
      "git": 9093,
      "hos": 9094,
      "hib": 9095,
      "jin": 9096,
      "jou": 9097,
      "joy": 9098,
      "kash": 9099,
      "lived": 9100,
      "lady": 9101,
      "latter": 9102,
      "ml": 9103,
      "mig": 9104,
      "mone": 9105,
      "mater": 9106,
      "nur": 9107,
      "piv": 9108,
      "phet": 9109,
      "spl": 9110,
      "uh": 9111,
      "uy": 9112,
      "uve": 9113,
      "viance": 9114,
      "wang": 9115,
      "wai": 9116,
      "xman": 9117,
      "yam": 9118,
      "zh": 9119,
      "zsa": 9120,
      "ás": 9121,
      "íc": 9122,
      "üller": 9123,
      "inton": 9124,
      "eras": 9125,
      "arry": 9126,
      "arine": 9127,
      "station": 9128,
      "oro": 9129,
      "thousand": 9130,
      "threat": 9131,
      "oning": 9132,
      "atore": 9133,
      "rington": 9134,
      "omov": 9135,
      "icit": 9136,
      "icated": 9137,
      "eling": 9138,
      "elago": 9139,
      "ouk": 9140,
      "iti": 9141,
      "itness": 9142,
      "roo": 9143,
      "toda": 9144,
      "2033": 9145,
      "ential": 9146,
      "emen": 9147,
      "ucines": 9148,
      "osing": 9149,
      "osen": 9150,
      "adze": 9151,
      "ushi": 9152,
      "Church": 9153,
      "eti": 9154,
      "etimes": 9155,
      "Sting": 9156,
      "Stur": 9157,
      "Stage": 9158,
      "Stark": 9159,
      "Stones": 9160,
      "oved": 9161,
      "iman": 9162,
      "phrey": 9163,
      "illing": 9164,
      "Items": 9165,
      "owski": 9166,
      "ieves": 9167,
      "estab": 9168,
      "ianc": 9169,
      "cks": 9170,
      "cket": 9171,
      "secut": 9172,
      "nez": 9173,
      "avi": 9174,
      "whouse": 9175,
      "ako": 9176,
      "icher": 9177,
      "Filmfare": 9178,
      "Shang": 9179,
      "Shark": 9180,
      "eller": 9181,
      "Inch": 9182,
      "actions": 9183,
      "actually": 9184,
      "dead": 9185,
      "istani": 9186,
      "rano": 9187,
      "ranked": 9188,
      "Alpert": 9189,
      "Deut": 9190,
      "Lei": 9191,
      "Leban": 9192,
      "plan": 9193,
      "open": 9194,
      "Sek": 9195,
      "sche": 9196,
      "uder": 9197,
      "Arc": 9198,
      "Arne": 9199,
      "Arna": 9200,
      "ikar": 9201,
      "quina": 9202,
      "quette": 9203,
      "Lovely": 9204,
      "conne": 9205,
      "concl": 9206,
      "Caribbe": 9207,
      "Spiel": 9208,
      "Enzo": 9209,
      "Reuters": 9210,
      "oodle": 9211,
      "Lovebird": 9212,
      "ipelago": 9213,
      "associ": 9214,
      "ickard": 9215,
      "area": 9216,
      "Scent": 9217,
      "Scot": 9218,
      "Scanner": 9219,
      "incident": 9220,
      "Adele": 9221,
      "Adano": 9222,
      "exists": 9223,
      "mean": 9224,
      "peal": 9225,
      "pected": 9226,
      "Hee": 9227,
      "weig": 9228,
      "service": 9229,
      "Convent": 9230,
      "complete": 9231,
      "storyline": 9232,
      "Williamson": 9233,
      "Guild": 9234,
      "Guilla": 9235,
      "1812": 9236,
      "izza": 9237,
      "Weis": 9238,
      "Weiss": 9239,
      "offer": 9240,
      "offers": 9241,
      "McDonald": 9242,
      "Ames": 9243,
      "Blas": 9244,
      "Bloss": 9245,
      "227": 9246,
      "Foley": 9247,
      "Brony": 9248,
      "Performan": 9249,
      "Meters": 9250,
      "Matsu": 9251,
      "Moran": 9252,
      "ensive": 9253,
      "Barber": 9254,
      "Barrel": 9255,
      "Colleen": 9256,
      "Whore": 9257,
      "Dreams": 9258,
      "Neumann": 9259,
      "keep": 9260,
      "Gentry": 9261,
      "Tribute": 9262,
      "Triumph": 9263,
      "Glen": 9264,
      "Glimming": 9265,
      "partment": 9266,
      "Darkly": 9267,
      "Merrill": 9268,
      "Swickard": 9269,
      "Series": 9270,
      "rigan": 9271,
      "maid": 9272,
      "Hoof": 9273,
      "Janet": 9274,
      "Garner": 9275,
      "Loyal": 9276,
      "relig": 9277,
      "doing": 9278,
      "Sheen": 9279,
      "Sheffield": 9280,
      "Belgian": 9281,
      "Madge": 9282,
      "Novel": 9283,
      "leads": 9284,
      "cari": 9285,
      "posed": 9286,
      "iversary": 9287,
      "Poly": 9288,
      "hao": 9289,
      "haus": 9290,
      "Lucien": 9291,
      "Josef": 9292,
      "Terra": 9293,
      "marily": 9294,
      "Disapproval": 9295,
      "Bait": 9296,
      "Freddie": 9297,
      "Luther": 9298,
      "Keen": 9299,
      "Soon": 9300,
      "Momo": 9301,
      "Aravind": 9302,
      "efforts": 9303,
      "chetti": 9304,
      "licated": 9305,
      "Reddy": 9306,
      "Redgrave": 9307,
      "Said": 9308,
      "Touchdown": 9309,
      "Bread": 9310,
      "primarily": 9311,
      "ABCs": 9312,
      "background": 9313,
      "Angels": 9314,
      "baum": 9315,
      "Freeman": 9316,
      "Prairie": 9317,
      "opera": 9318,
      "operation": 9319,
      "Antony": 9320,
      "réd": 9321,
      "Walls": 9322,
      "Raju": 9323,
      "Headed": 9324,
      "Distributing": 9325,
      "centres": 9326,
      "Earthquake": 9327,
      "Capucines": 9328,
      "boyfriend": 9329,
      "Lyud": 9330,
      "Showtime": 9331,
      "Plays": 9332,
      "Bolt": 9333,
      "Trogi": 9334,
      "Buddy": 9335,
      "Ricketts": 9336,
      "large": 9337,
      "Dalmat": 9338,
      "relationships": 9339,
      "Honorable": 9340,
      "Lynch": 9341,
      "concert": 9342,
      "portrayal": 9343,
      "college": 9344,
      "Originally": 9345,
      "middle": 9346,
      "Archipelago": 9347,
      "Bhag": 9348,
      "Reynold": 9349,
      "longer": 9350,
      "1870": 9351,
      "Narayan": 9352,
      "escape": 9353,
      "Lasse": 9354,
      "stitution": 9355,
      "ormal": 9356,
      "programme": 9357,
      "Chandler": 9358,
      "digit": 9359,
      "Dubarry": 9360,
      "Gustaf": 9361,
      "Paying": 9362,
      "Frozen": 9363,
      "Mortensen": 9364,
      "Purviance": 9365,
      "bellion": 9366,
      "returning": 9367,
      "Jihad": 9368,
      "Satur": 9369,
      "Fulci": 9370,
      "pseud": 9371,
      "Against": 9372,
      "Bosworth": 9373,
      "Circle": 9374,
      "Bedroom": 9375,
      "County": 9376,
      "Humphrey": 9377,
      "Ohio": 9378,
      "driver": 9379,
      "Nothin": 9380,
      "initial": 9381,
      "Vinod": 9382,
      "ehus": 9383,
      "stock": 9384,
      "Drive": 9385,
      "Austria": 9386,
      "Audience": 9387,
      "Sentimental": 9388,
      "Bowery": 9389,
      "Bava": 9390,
      "Cigarette": 9391,
      "Enrico": 9392,
      "Mukesh": 9393,
      "Bessie": 9394,
      "Valeria": 9395,
      "Events": 9396,
      "example": 9397,
      "ABBA": 9398,
      "Porter": 9399,
      "onymous": 9400,
      "Petersburg": 9401,
      "Dagger": 9402,
      "Mongol": 9403,
      "frequ": 9404,
      "Fabian": 9405,
      "sources": 9406,
      "Innocence": 9407,
      "Isabelle": 9408,
      "towards": 9409,
      "Afghanistan": 9410,
      "whether": 9411,
      "Girard": 9412,
      "Moroccan": 9413,
      "Maximilian": 9414,
      "regarded": 9415,
      "Borders": 9416,
      "Nacht": 9417,
      "Olymp": 9418,
      "detail": 9419,
      "máquina": 9420,
      "industri": 9421,
      "Mahmoud": 9422,
      "Quartet": 9423,
      "Prabhu": 9424,
      "Autumns": 9425,
      "Friggin": 9426,
      "detective": 9427,
      "Poitier": 9428,
      "Bewildered": 9429,
      "Ltd": 9430,
      "Oblomov": 9431,
      "especially": 9432,
      "Endymion": 9433,
      "Rebecca": 9434,
      "Adolphe": 9435,
      "Garibaldian": 9436,
      "3x3D": 9437,
      "3faltig": 9438,
      "EVIL": 9439,
      "pivotal": 9440,
      "Caribbean": 9441,
      "Guillaume": 9442,
      "Performance": 9443,
      "Glimmingehus": 9444,
      "Dalmatians": 9445,
      "Reynolds": 9446,
      "\"),": 9447,
      "(\"": 9448,
      "62": 9449,
      "80": 9450,
      "90": 9451,
      "Ach": 9452,
      "Atten": 9453,
      "Bak": 9454,
      "Bly": 9455,
      "Bast": 9456,
      "Ces": 9457,
      "Cory": 9458,
      "Cake": 9459,
      "Cron": 9460,
      "Cube": 9461,
      "Cotta": 9462,
      "Dict": 9463,
      "Dandy": 9464,
      "Fi": 9465,
      "Fon": 9466,
      "Fay": 9467,
      "Fig": 9468,
      "Fong": 9469,
      "Foc": 9470,
      "Fisch": 9471,
      "Gn": 9472,
      "Gad": 9473,
      "Gross": 9474,
      "Gator": 9475,
      "Hi": 9476,
      "Iz": 9477,
      "Jing": 9478,
      "Jester": 9479,
      "Journal": 9480,
      "Jitney": 9481,
      "Kä": 9482,
      "Kil": 9483,
      "Kit": 9484,
      "Kig": 9485,
      "Kern": 9486,
      "Kob": 9487,
      "Kille": 9488,
      "Kief": 9489,
      "Kauf": 9490,
      "Lup": 9491,
      "Lola": 9492,
      "Lulu": 9493,
      "Mister": 9494,
      "Ned": 9495,
      "Nino": 9496,
      "OL": 9497,
      "Oph": 9498,
      "Oba": 9499,
      "Others": 9500,
      "Ró": 9501,
      "Rap": 9502,
      "Rip": 9503,
      "Rach": 9504,
      "Ransom": 9505,
      "Say": 9506,
      "Siv": 9507,
      "Sins": 9508,
      "Sword": 9509,
      "Till": 9510,
      "Tong": 9511,
      "Tina": 9512,
      "Tatts": 9513,
      "Tennes": 9514,
      "Usel": 9515,
      "Vale": 9516,
      "Wies": 9517,
      "Were": 9518,
      "Wide": 9519,
      "Yak": 9520,
      "Yue": 9521,
      "Zav": 9522,
      "Zah": 9523,
      "Zhao": 9524,
      "aam": 9525,
      "ault": 9526,
      "base": 9527,
      "block": 9528,
      "buster": 9529,
      "cis": 9530,
      "cited": 9531,
      "celebr": 9532,
      "double": 9533,
      "eau": 9534,
      "gos": 9535,
      "gens": 9536,
      "gave": 9537,
      "hun": 9538,
      "hart": 9539,
      "kes": 9540,
      "lam": 9541,
      "mot": 9542,
      "makers": 9543,
      "ping": 9544,
      "pand": 9545,
      "pic": 9546,
      "pir": 9547,
      "pson": 9548,
      "qvist": 9549,
      "rone": 9550,
      "sam": 9551,
      "semi": 9552,
      "vé": 9553,
      "vamp": 9554,
      "än": 9555,
      "ко": 9556,
      "inian": 9557,
      "inness": 9558,
      "instein": 9559,
      "instead": 9560,
      "anu": 9561,
      "anor": 9562,
      "arer": 9563,
      "ils": 9564,
      "ilous": 9565,
      "online": 9566,
      "reels": 9567,
      "enk": 9568,
      "alov": 9569,
      "alone": 9570,
      "islav": 9571,
      "asu": 9572,
      "asy": 9573,
      "asar": 9574,
      "ringer": 9575,
      "ringhee": 9576,
      "dith": 9577,
      "omy": 9578,
      "elm": 9579,
      "eley": 9580,
      "amar": 9581,
      "itled": 9582,
      "heart": 9583,
      "heaux": 9584,
      "rather": 9585,
      "entitled": 9586,
      "olin": 9587,
      "ayam": 9588,
      "adan": 9589,
      "ador": 9590,
      "adop": 9591,
      "channel": 9592,
      "chosen": 9593,
      "usive": 9594,
      "Channing": 9595,
      "illi": 9596,
      "oted": 9597,
      "otter": 9598,
      "lain": 9599,
      "cken": 9600,
      "seok": 9601,
      "Marks": 9602,
      "Companion": 9603,
      "neighbor": 9604,
      "sha": 9605,
      "ević": 9606,
      "Shay": 9607,
      "Shine": 9608,
      "earlie": 9609,
      "comment": 9610,
      "bec": 9611,
      "decl": 9612,
      "Aldo": 9613,
      "agi": 9614,
      "agan": 9615,
      "Department": 9616,
      "Lec": 9617,
      "esses": 9618,
      "plier": 9619,
      "ugal": 9620,
      "ughn": 9621,
      "ousine": 9622,
      "qui": 9623,
      "oreograph": 9624,
      "oche": 9625,
      "concept": 9626,
      "conceived": 9627,
      "Carp": 9628,
      "Carson": 9629,
      "Cartoon": 9630,
      "Carats": 9631,
      "Spray": 9632,
      "outside": 9633,
      "owner": 9634,
      "owned": 9635,
      "Reich": 9636,
      "Reward": 9637,
      "anniversary": 9638,
      "Harro": 9639,
      "Both": 9640,
      "Boom": 9641,
      "Geisha": 9642,
      "text": 9643,
      "olds": 9644,
      "Broked": 9645,
      "cox": 9646,
      "cock": 9647,
      "Parish": 9648,
      "Parody": 9649,
      "Scene": 9650,
      "Scroo": 9651,
      "heri": 9652,
      "Eli": 9653,
      "Elena": 9654,
      "Elvey": 9655,
      "Clover": 9656,
      "Climate": 9657,
      "Monogram": 9658,
      "125": 9659,
      "serv": 9660,
      "Andheri": 9661,
      "Cons": 9662,
      "Conquest": 9663,
      "McIn": 9664,
      "Blank": 9665,
      "Blades": 9666,
      "ilda": 9667,
      "22Pimpernel": 9668,
      "otten": 9669,
      "Mohan": 9670,
      "Moham": 9671,
      "portance": 9672,
      "211": 9673,
      "Cohn": 9674,
      "Perilous": 9675,
      "Meh": 9676,
      "Mecca": 9677,
      "Barrie": 9678,
      "Scho": 9679,
      "Schro": 9680,
      "Schlesinger": 9681,
      "Colt": 9682,
      "Colle": 9683,
      "Colony": 9684,
      "Corbin": 9685,
      "Goldman": 9686,
      "aja": 9687,
      "Chinoy": 9688,
      "Provid": 9689,
      "Norbert": 9690,
      "Farm": 9691,
      "Farthings": 9692,
      "Greater": 9693,
      "Erin": 9694,
      "Karin": 9695,
      "Foxe": 9696,
      "Singer": 9697,
      "Summers": 9698,
      "Hoot": 9699,
      "Holy": 9700,
      "spaper": 9701,
      "travels": 9702,
      "Garrel": 9703,
      "Loew": 9704,
      "1492": 9705,
      "Wayans": 9706,
      "Melvin": 9707,
      "rising": 9708,
      "Marker": 9709,
      "Plum": 9710,
      "club": 9711,
      "versation": 9712,
      "Shea": 9713,
      "Shearer": 9714,
      "hired": 9715,
      "Raúl": 9716,
      "Grave": 9717,
      "Graceland": 9718,
      "suicide": 9719,
      "Lucio": 9720,
      "Deva": 9721,
      "Heroes": 9722,
      "animator": 9723,
      "1612": 9724,
      "Order": 9725,
      "Wilcox": 9726,
      "Calvo": 9727,
      "Disappeared": 9728,
      "Genie": 9729,
      "Doyle": 9730,
      "Kee": 9731,
      "Veron": 9732,
      "quez": 9733,
      "Blackie": 9734,
      "consists": 9735,
      "sequels": 9736,
      "Sidd": 9737,
      "Outlaw": 9738,
      "Outstanding": 9739,
      "Cries": 9740,
      "Trump": 9741,
      "Directors": 9742,
      "Importance": 9743,
      "Sharmeen": 9744,
      "Jerome": 9745,
      "Fresh": 9746,
      "Fools": 9747,
      "Griffin": 9748,
      "Prakash": 9749,
      "Montmart": 9750,
      "singing": 9751,
      "Renzo": 9752,
      "Aftermath": 9753,
      "Eastwood": 9754,
      "Friendly": 9755,
      "Selzer": 9756,
      "contemporary": 9757,
      "Twelve": 9758,
      "Nineties": 9759,
      "Gregg": 9760,
      "uros": 9761,
      "yeon": 9762,
      "commission": 9763,
      "Runs": 9764,
      "girls": 9765,
      "Lama": 9766,
      "Albertina": 9767,
      "Capital": 9768,
      "Slaves": 9769,
      "Castro": 9770,
      "Castell": 9771,
      "Damon": 9772,
      "ghost": 9773,
      "graphic": 9774,
      "Function": 9775,
      "Katharine": 9776,
      "teenager": 9777,
[...]
