{
  "version": "1.0",
  "truncation": null,
  "padding": null,
  "added_tokens": [
    {
      "id": 0,
      "content": "<UNK>",
      "single_word": false,
      "lstrip": false,
      "rstrip": false,
      "normalized": false,
      "special": true
    },
    {
      "id": 1,
      "content": "<PAD>",
      "single_word": false,
      "lstrip": false,
      "rstrip": false,
      "normalized": false,
      "special": true
    },
    {
      "id": 2,
      "content": "<MASK>",
      "single_word": false,
      "lstrip": false,
      "rstrip": false,
      "normalized": false,
      "special": true
    },
    {
      "id": 3,
      "content": "<SOS>",
      "single_word": false,
      "lstrip": false,
      "rstrip": false,
      "normalized": false,
      "special": true
    },
    {
      "id": 4,
      "content": "<EOS>",
      "single_word": false,
      "lstrip": false,
      "rstrip": false,
      "normalized": false,
      "special": true
    },
    {
      "id": 5,
      "content": "<SOT>",
      "single_word": false,
      "lstrip": false,
      "rstrip": false,
      "normalized": false,
      "special": true
    },
    {
      "id": 6,
      "content": "<EOT>",
      "single_word": false,
      "lstrip": false,
      "rstrip": false,
      "normalized": false,
      "special": true
    },
    {
      "id": 7,
      "content": "<SUBJ>",
      "single_word": false,
      "lstrip": false,
      "rstrip": false,
      "normalized": false,
      "special": true
    },
    {
      "id": 8,
      "content": "<PRED>",
      "single_word": false,
      "lstrip": false,
      "rstrip": false,
      "normalized": false,
      "special": true
    },
    {
      "id": 9,
      "content": "<OBJ>",
      "single_word": false,
      "lstrip": false,
      "rstrip": false,
      "normalized": false,
      "special": true
    },
    {
      "id": 10,
      "content": "<Text2RDF>",
      "single_word": false,
      "lstrip": false,
      "rstrip": false,
      "normalized": false,
      "special": true
    },
    {
      "id": 11,
      "content": "<RDF2Text>",
      "single_word": false,
      "lstrip": false,
      "rstrip": false,
      "normalized": false,
      "special": true
    },
    {
      "id": 12,
      "content": "<CONTINUERDF>",
      "single_word": false,
      "lstrip": false,
      "rstrip": false,
      "normalized": false,
      "special": true
    },
    {
      "id": 13,
      "content": "<MASKTASK>",
      "single_word": false,
      "lstrip": false,
      "rstrip": false,
      "normalized": false,
      "special": true
    }
  ],
  "normalizer": null,
  "pre_tokenizer": {
    "type": "Sequence",
    "pretokenizers": [
      {
        "type": "Split",
        "pattern": {
          "String": "_"
        },
        "behavior": "Removed",
        "invert": false
      },
      {
        "type": "Whitespace"
      }
    ]
  },
  "post_processor": null,
  "decoder": null,
  "model": {
    "type": "BPE",
    "dropout": null,
    "unk_token": "<UNK>",
    "continuing_subword_prefix": null,
    "end_of_word_suffix": null,
    "fuse_unk": false,
    "byte_fallback": false,
    "ignore_merges": false,
    "vocab": {
      "<UNK>": 0,
      "<PAD>": 1,
      "<MASK>": 2,
      "<SOS>": 3,
      "<EOS>": 4,
      "<SOT>": 5,
      "<EOT>": 6,
      "<SUBJ>": 7,
      "<PRED>": 8,
      "<OBJ>": 9,
      "<Text2RDF>": 10,
      "<RDF2Text>": 11,
      "<CONTINUERDF>": 12,
      "<MASKTASK>": 13,
      "!": 14,
      "\"": 15,
      "$": 16,
      "%": 17,
      "&": 18,
      "'": 19,
      "(": 20,
      ")": 21,
      ",": 22,
      "-": 23,
      ".": 24,
      "0": 25,
      "1": 26,
      "2": 27,
      "3": 28,
      "4": 29,
      "5": 30,
      "6": 31,
      "7": 32,
      "8": 33,
      "9": 34,
      ":": 35,
      ";": 36,
      "<": 37,
      ">": 38,
      "?": 39,
      "A": 40,
      "B": 41,
      "C": 42,
      "D": 43,
      "E": 44,
      "F": 45,
      "G": 46,
      "H": 47,
      "I": 48,
      "J": 49,
      "K": 50,
      "L": 51,
      "M": 52,
      "N": 53,
      "O": 54,
      "P": 55,
      "Q": 56,
      "R": 57,
      "S": 58,
      "T": 59,
      "U": 60,
      "V": 61,
      "W": 62,
      "X": 63,
      "Y": 64,
      "Z": 65,
      "a": 66,
      "b": 67,
      "c": 68,
      "d": 69,
      "e": 70,
      "f": 71,
      "g": 72,
      "h": 73,
      "i": 74,
      "j": 75,
      "k": 76,
      "l": 77,
      "m": 78,
      "n": 79,
      "o": 80,
      "p": 81,
      "q": 82,
      "r": 83,
      "s": 84,
      "t": 85,
      "u": 86,
      "v": 87,
      "w": 88,
      "x": 89,
      "y": 90,
      "z": 91,
      "è": 92,
      "é": 93,
      "ó": 94,
      "ù": 95,
      "ü": 96,
      "–": 97,
      "₹": 98,
      "db": 99,
      "BJ": 100,
      "OT": 101,
      "dbr": 102,
      "in": 103,
      "ar": 104,
      "er": 105,
      "an": 106,
      "ED": 107,
      "EOT": 108,
      "OBJ": 109,
      "PR": 110,
      "SU": 111,
      "SOT": 112,
      "dbo": 113,
      "PRED": 114,
      "SUBJ": 115,
      "st": 116,
      "on": 117,
      "il": 118,
      "th": 119,
      "or": 120,
      "re": 121,
      "ing": 122,
      "en": 123,
      "at": 124,
      "ed": 125,
      ":'": 126,
      "ilm": 127,
      "ct": 128,
      "it": 129,
      "star": 130,
      "ring": 131,
      "di": 132,
      "al": 133,
      "the": 134,
      "starring": 135,
      "es": 136,
      "film": 137,
      "is": 138,
      "ic": 139,
      "and": 140,
      "ro": 141,
      "as": 142,
      "22": 143,
      "ra": 144,
      "ll": 145,
      "00": 146,
      "he": 147,
      "ion": 148,
      "om": 149,
      "rect": 150,
      "direct": 151,
      "by": 152,
      "un": 153,
      "ri": 154,
      "le": 155,
      "li": 156,
      "llo": 157,
      ":$": 158,
      "of": 159,
      "uc": 160,
      "Allo": 161,
      "us": 162,
      "rit": 163,
      "am": 164,
      "el": 165,
      "os": 166,
      ":%": 167,
      "mi": 168,
      "pro": 169,
      "ard": 170,
      "The": 171,
      "ut": 172,
      "writ": 173,
      "ent": 174,
      "19": 175,
      "ath": 176,
      "ge": 177,
      "director": 178,
      "was": 179,
      "prod": 180,
      "em": 181,
      "ay": 182,
      "im": 183,
      "ol": 184,
      "produc": 185,
      "ha": 186,
      "ir": 187,
      "eath": 188,
      "id": 189,
      "se": 190,
      "to": 191,
      "000": 192,
      "20": 193,
      "ly": 194,
      "ver": 195,
      "for": 196,
      "res": 197,
      "..": 198,
      "ato": 199,
      "directed": 200,
      "but": 201,
      "ur": 202,
      "writer": 203,
      "ph": 204,
      "Re": 205,
      "We": 206,
      "ac": 207,
      "io": 208,
      "producer": 209,
      "so": 210,
      "ort": 211,
      "3F": 212,
      "Com": 213,
      "It": 214,
      "mer": 215,
      "ow": 216,
      "Ra": 217,
      "ies": 218,
      "ok": 219,
      "stri": 220,
      "Ma": 221,
      "act": 222,
      "be": 223,
      "iv": 224,
      "ot": 225,
      "illi": 226,
      "distri": 227,
      "distribut": 228,
      "71": 229,
      "ce": 230,
      "ian": 231,
      "la": 232,
      "man": 233,
      "ter": 234,
      "art": 235,
      "Film": 236,
      "In": 237,
      "Neath": 238,
      "ber": 239,
      "ov": 240,
      "ward": 241,
      "distributor": 242,
      "gra": 243,
      "ict": 244,
      "ma": 245,
      "per": 246,
      "te": 247,
      "ang": 248,
      "all": 249,
      "Al": 250,
      "av": 251,
      "com": 252,
      "mus": 253,
      "po": 254,
      "port": 255,
      "are": 256,
      "ank": 257,
      "music": 258,
      "Til": 259,
      "ch": 260,
      "oun": 261,
      "ation": 262,
      "Mar": 263,
      "Se": 264,
      "pra": 265,
      "sh": 266,
      "ue": 267,
      "ul": 268,
      "Jo": 269,
      "che": 270,
      "ka": 271,
      "pos": 272,
      "son": 273,
      "Ar": 274,
      "ab": 275,
      "fare": 276,
      "ig": 277,
      "ures": 278,
      "ased": 279,
      "Amer": 280,
      "Ch": 281,
      "age": 282,
      "con": 283,
      "pi": 284,
      "ene": 285,
      "ich": 286,
      "ican": 287,
      "phy": 288,
      "Compos": 289,
      "musicCompos": 290,
      "musicComposer": 291,
      ":!": 292,
      "An": 293,
      "Cio": 294,
      "FF": 295,
      "Pos": 296,
      "Pict": 297,
      "SS": 298,
      "ast": 299,
      "bene": 300,
      "cin": 301,
      "den": 302,
      "ie": 303,
      "ip": 304,
      "non": 305,
      "oi": 306,
      "um": 307,
      "ust": 308,
      "uoi": 309,
      "vuoi": 310,
      "wh": 311,
      "rele": 312,
      "hai": 313,
      "...": 314,
      "sopra": 315,
      "illipo": 316,
      "portato": 317,
      "American": 318,
      "più": 319,
      "Cioè": 320,
      "Posillipo": 321,
      ".%": 322,
      "Ba": 323,
      "Be": 324,
      "Cat": 325,
      "lo": 326,
      "ry": 327,
      "ten": 328,
      "wi": 329,
      "22FF": 330,
      "ird": 331,
      "201": 332,
      "own": 333,
      "actor": 334,
      "Pictures": 335,
      "Yank": 336,
      "ad": 337,
      "eo": 338,
      "ne": 339,
      "nel": 340,
      "pl": 341,
      "ser": 342,
      "uage": 343,
      "rom": 344,
      "emato": 345,
      "ovic": 346,
      "graphy": 347,
      "anguage": 348,
      "cinemato": 349,
      "Yankovic": 350,
      "Er": 351,
      "Sk": 352,
      "de": 353,
      "dra": 354,
      "from": 355,
      "language": 356,
      "sc": 357,
      "ill": 358,
      "ore": 359,
      "uch": 360,
      "Weird": 361,
      "released": 362,
      "cinematography": 363,
      "Skies": 364,
      "Bl": 365,
      "Gat": 366,
      "Oka": 367,
      "Pim": 368,
      "St": 369,
      "To": 370,
      "Tok": 371,
      "pe": 372,
      "ary": 373,
      "ilent": 374,
      "ish": 375,
      "written": 376,
      "pernel": 377,
      "with": 378,
      "drama": 379,
      "Pimpernel": 380,
      "Tokat": 381,
      "Bro": 382,
      "Do": 383,
      "Dav": 384,
      "Fr": 385,
      "Ro": 386,
      "Smi": 387,
      "down": 388,
      "fe": 389,
      "ist": 390,
      "ine": 391,
      "one": 392,
      "edit": 393,
      "ction": 394,
      "Bait": 395,
      "Smith": 396,
      "17": 397,
      "30": 398,
      "Death": 399,
      "Fra": 400,
      "Jac": 401,
      "Part": 402,
      "Us": 403,
      "cl": 404,
      "gh": 405,
      "hn": 406,
      "ris": 407,
      "up": 408,
      "vol": 409,
      "enn": 410,
      "22Pimpernel": 411,
      "idy": 412,
      "Reward": 413,
      "ount": 414,
      "uchdown": 415,
      "Gator": 416,
      "Touchdown": 417,
      "Fraidy": 418,
      "10": 419,
      "49": 420,
      "50": 421,
      "Bla": 422,
      "Ho": 423,
      "Jon": 424,
      "King": 425,
      "Me": 426,
      "dom": 427,
      "dge": 428,
      "ek": 429,
      "fo": 430,
      "his": 431,
      "ud": 432,
      "wden": 433,
      "zes": 434,
      "ert": 435,
      "oni": 436,
      "red": 437,
      "ise": 438,
      "22Weird": 439,
      "Rawden": 440,
      "Raise": 441,
      "ive": 442,
      "John": 443,
      "series": 444,
      "Blue": 445,
      "editing": 446,
      "Blazes": 447,
      "Jononi": 448,
      "99": 449,
      "Bri": 450,
      "De": 451,
      "Fe": 452,
      "Har": 453,
      "Le": 454,
      "Ros": 455,
      "Vi": 456,
      "co": 457,
      "du": 458,
      "don": 459,
      "et": 460,
      "ws": 461,
      "–'": 462,
      "ong": 463,
      "reen": 464,
      "its": 465,
      "dian": 466,
      "lyn": 467,
      "Come": 468,
      "oklyn": 469,
      "Brooklyn": 470,
      "Kingdom": 471,
      "Bridge": 472,
      "Bo": 473,
      "Pa": 474,
      "Ph": 475,
      "Xm": 476,
      "gan": 477,
      "ke": 478,
      "ld": 479,
      "ral": 480,
      "udi": 481,
      "ilip": 482,
      "ally": 483,
      "und": 484,
      "lie": 485,
      "193": 486,
      "ideo": 487,
      "West": 488,
      "bert": 489,
      "enna": 490,
      "Xmas": 491,
      ":&": 492,
      "Co": 493,
      "Car": 494,
      "Can": 495,
      "How": 496,
      "Jim": 497,
      "Willi": 498,
      "aj": 499,
      "bast": 500,
      "ia": 501,
      "king": 502,
      "od": 503,
      "pt": 504,
      "sit": 505,
      "silent": 506,
      "tw": 507,
      "zo": 508,
      "ern": 509,
      "ord": 510,
      "enzo": 511,
      "ate": 512,
      "ated": 513,
      "also": 514,
      "ice": 515,
      "ical": 516,
      "off": 517,
      "produced": 518,
      "Week": 519,
      "Sebast": 520,
      "Jack": 521,
      "William": 522,
      "Sebastian": 523,
      "38": 524,
      "Ab": 525,
      "Aust": 526,
      "Ge": 527,
      "II": 528,
      "Is": 529,
      "Nor": 530,
      "Sh": 531,
      "Un": 532,
      "air": 533,
      "ces": 534,
      "me": 535,
      "oc": 536,
      "ou": 537,
      "qu": 538,
      "ru": 539,
      "si": 540,
      "tit": 541,
      "tim": 542,
      "ve": 543,
      "ina": 544,
      "ind": 545,
      "that": 546,
      "orld": 547,
      "ren": 548,
      "omen": 549,
      "riz": 550,
      "ley": 551,
      "ution": 552,
      "198": 553,
      "ember": 554,
      "fore": 555,
      "Revol": 556,
      "mant": 557,
      "Art": 558,
      "which": 559,
      "Fran": 560,
      "ght": 561,
      "Vienna": 562,
      "Philip": 563,
      "Austral": 564,
      "Revolution": 565,
      "200": 566,
      "76": 567,
      "96": 568,
      "Ariz": 569,
      "Brit": 570,
      "Con": 571,
      "Caj": 572,
      "En": 573,
      "Gil": 574,
      "Ha": 575,
      "Just": 576,
      "Mon": 577,
      "Rich": 578,
      "Renzo": 579,
      "Sc": 580,
      "Ste": 581,
      "Women": 582,
      "ag": 583,
      "ain": 584,
      "bore": 585,
      "ck": 586,
      "ear": 587,
      "ever": 588,
      "led": 589,
      "pent": 590,
      "uk": 591,
      "ves": 592,
      "yn": 593,
      "ino": 594,
      "incl": 595,
      "ere": 596,
      "erson": 597,
      "ant": 598,
      "stiv": 599,
      "ona": 600,
      "ory": 601,
      "rece": 602,
      "stars": 603,
      "lle": 604,
      "right": 605,
      "aye": 606,
      "verly": 607,
      "ress": 608,
      "gram": 609,
      "comed": 610,
      "ound": 611,
      "Mark": 612,
      "Arbore": 613,
      "able": 614,
      "Beverly": 615,
      "David": 616,
      "feat": 617,
      "Festiv": 618,
      "title": 619,
      "Arizona": 620,
      "British": 621,
      "Cajun": 622,
      "Justice": 623,
      "Richard": 624,
      "includ": 625,
      "receiv": 626,
      "Festival": 627,
      ").": 628,
      "68": 629,
      "Bra": 630,
      "Cro": 631,
      "Cla": 632,
      "Fer": 633,
      "Fall": 634,
      "Gu": 635,
      "Hart": 636,
      "If": 637,
      "Je": 638,
      "May": 639,
      "Mur": 640,
      "On": 641,
      "Par": 642,
      "Pro": 643,
      "Ric": 644,
      "Silent": 645,
      "TV": 646,
      "Th": 647,
      "Wr": 648,
      "War": 649,
      "Wright": 650,
      "af": 651,
      "count": 652,
      "doc": 653,
      "ft": 654,
      "hist": 655,
      "ial": 656,
      "iver": 657,
      "mon": 658,
      "nation": 659,
      "op": 660,
      "ous": 661,
      "pre": 662,
      "rill": 663,
      "ts": 664,
      "vis": 665,
      "vie": 666,
      "yo": 667,
      "around": 668,
      "ann": 669,
      "ther": 670,
      "ork": 671,
      "orge": 672,
      "ale": 673,
      "ray": 674,
      "amil": 675,
      "entary": 676,
      "194": 677,
      "ford": 678,
      "ious": 679,
      "Inter": 680,
      "Indon": 681,
      "iction": 682,
      "Joe": 683,
      "igh": 684,
      "umentary": 685,
      "Before": 686,
      "loy": 687,
      "play": 688,
      "screen": 689,
      "during": 690,
      "Paul": 691,
      "Western": 692,
      "sitcom": 693,
      "George": 694,
      "received": 695,
      "Croft": 696,
      "Only": 697,
      "Wrong": 698,
      "documentary": 699,
      "Indones": 700,
      "Ag": 701,
      "Bert": 702,
      "Ed": 703,
      "Fair": 704,
      "Ger": 705,
      "Gor": 706,
      "Her": 707,
      "Hall": 708,
      "Jr": 709,
      "Jam": 710,
      "Jos": 711,
      "Ker": 712,
      "Leo": 713,
      "Lyn": 714,
      "Lloy": 715,
      "Per": 716,
      "Que": 717,
      "Sto": 718,
      "Ul": 719,
      "Video": 720,
      "World": 721,
      "ao": 722,
      "award": 723,
      "adian": 724,
      "bin": 725,
      "bank": 726,
      "cis": 727,
      "cast": 728,
      "des": 729,
      "del": 730,
      "day": 731,
      "een": 732,
      "eph": 733,
      "ff": 734,
      "her": 735,
      "hit": 736,
      "hand": 737,
      "ib": 738,
      "ire": 739,
      "ky": 740,
      "mat": 741,
      "ning": 742,
      "ple": 743,
      "ran": 744,
      "ror": 745,
      "ras": 746,
      "run": 747,
      "suc": 748,
      "spe": 749,
      "ted": 750,
      "tra": 751,
      "ug": 752,
      "uth": 753,
      "video": 754,
      "wo": 755,
      "win": 756,
      "year": 757,
      "eri": 758,
      "ers": 759,
      "any": 760,
      "stion": 761,
      "story": 762,
      "ons": 763,
      "tha": 764,
      "thrill": 765,
      "orror": 766,
      "ings": 767,
      "enth": 768,
      "ald": 769,
      "their": 770,
      "eson": 771,
      "rou": 772,
      "ung": 773,
      "amount": 774,
      "eman": 775,
      "had": 776,
      "ural": 777,
      "phen": 778,
      "being": 779,
      "betw": 780,
      "shman": 781,
      "ult": 782,
      "ign": 783,
      "And": 784,
      "Ann": 785,
      "Cates": 786,
      "loc": 787,
      "Studi": 788,
      "Robert": 789,
      "follo": 790,
      "Harry": 791,
      "Leeson": 792,
      "Colle": 793,
      "Canadian": 794,
      "Howard": 795,
      "Abel": 796,
      "cess": 797,
      "ques": 798,
      "timate": 799,
      "mantyo": 800,
      "Stephen": 801,
      "Bramantyo": 802,
      "Paramount": 803,
      "country": 804,
      "histor": 805,
      "national": 806,
      "Fairbank": 807,
      "German": 808,
      "Hershman": 809,
      "James": 810,
      "Joseph": 811,
      "Lynn": 812,
      "Lloyd": 813,
      "Question": 814,
      "Ultimate": 815,
      "success": 816,
      "thriller": 817,
      "between": 818,
      "Collection": 819,
      "Fairbanks": 820,
      "!:": 821,
      "51": 822,
      "Award": 823,
      "Ben": 824,
      "Bur": 825,
      "Bald": 826,
      "Cor": 827,
      "Cli": 828,
      "DV": 829,
      "Del": 830,
      "El": 831,
      "Fo": 832,
      "Fiction": 833,
      "Gl": 834,
      "Gib": 835,
      "Hen": 836,
      "Hoff": 837,
      "Iz": 838,
      "La": 839,
      "Les": 840,
      "Live": 841,
      "Long": 842,
      "Man": 843,
      "Meri": 844,
      "Oj": 845,
      "Pi": 846,
      "Pre": 847,
      "Rus": 848,
      "Ray": 849,
      "Su": 850,
      "San": 851,
      "Sus": 852,
      "Sam": 853,
      "Tris": 854,
      "Zo": 855,
      "ai": 856,
      "ak": 857,
      "ap": 858,
      "ball": 859,
      "cor": 860,
      "cre": 861,
      "crit": 862,
      "cam": 863,
      "cord": 864,
      "cial": 865,
      "ex": 866,
      "ell": 867,
      "five": 868,
      "gs": 869,
      "gro": 870,
      "has": 871,
      "ham": 872,
      "horror": 873,
      "ker": 874,
      "les": 875,
      "men": 876,
      "more": 877,
      "not": 878,
      "out": 879,
      "ogram": 880,
      "pr": 881,
      "ps": 882,
      "par": 883,
      "sal": 884,
      "sion": 885,
      "tt": 886,
      "ure": 887,
      "uction": 888,
      "val": 889,
      "vent": 890,
      "wn": 891,
      "wu": 892,
      "won": 893,
      "za": 894,
      "zi": 895,
      "inter": 896,
      "ara": 897,
      "arlie": 898,
      "ony": 899,
      "ile": 900,
      "throu": 901,
      "oration": 902,
      "reli": 903,
      "revol": 904,
      "ates": 905,
      "ali": 906,
      "ica": 907,
      "ics": 908,
      "ass": 909,
      "ason": 910,
      "omin": 911,
      "ript": 912,
      "life": 913,
      "elt": 914,
      "191": 915,
      "197": 916,
      "athi": 917,
      "production": 918,
      "olo": 919,
      "irst": 920,
      "ide": 921,
      "former": 922,
      "Making": 923,
      "action": 924,
      "actress": 925,
      "otball": 926,
      "Films": 927,
      "Indian": 928,
      "team": 929,
      "ship": 930,
      "ules": 931,
      "Chris": 932,
      "Charlie": 933,
      "conc": 934,
      "cond": 935,
      "umar": 936,
      "who": 937,
      "while": 938,
      "2011": 939,
      "2014": 940,
      "script": 941,
      "Star": 942,
      "Rosenth": 943,
      "1935": 944,
      "However": 945,
      "Univer": 946,
      "Francis": 947,
      "Haw": 948,
      "Monogram": 949,
      "ukwu": 950,
      "comedy": 951,
      "including": 952,
      "Ferr": 953,
      "after": 954,
      "views": 955,
      "International": 956,
      "Indonesian": 957,
      "handled": 958,
      "wood": 959,
      "years": 960,
      "historical": 961,
      "Baldwin": 962,
      "DVD": 963,
      "Gibson": 964,
      "Hoffman": 965,
      "Izu": 966,
      "Leslie": 967,
      "Merika": 968,
      "Ojukwu": 969,
      "Pierson": 970,
      "Trisha": 971,
      "Zoo": 972,
      "through": 973,
      "relig": 974,
      "Rosenthal": 975,
      "\".": 976,
      "24": 977,
      "Ad": 978,
      "Af": 979,
      "Ak": 980,
      "Apr": 981,
      "BB": 982,
      "Bes": 983,
      "Bang": 984,
      "Dig": 985,
      "Dons": 986,
      "Deman": 987,
      "Gir": 988,
      "Gov": 989,
      "Han": 990,
      "Hay": 991,
      "Jer": 992,
      "Jan": 993,
      "Jun": 994,
      "Jules": 995,
      "Kar": 996,
      "Ken": 997,
      "Kim": 998,
      "Luc": 999,
      "Lou": 1000,
      "Mc": 1001,
      "Mi": 1002,
      "Mor": 1003,
      "Mic": 1004,
      "Mart": 1005,
      "Oct": 1006,
      "Ruth": 1007,
      "She": 1008,
      "Tu": 1009,
      "Tat": 1010,
      "Tro": 1011,
      "This": 1012,
      "Taye": 1013,
      "Tamil": 1014,
      "Way": 1015,
      "Wall": 1016,
      "Whit": 1017,
      "aking": 1018,
      "bru": 1019,
      "ca": 1020,
      "can": 1021,
      "cri": 1022,
      "cus": 1023,
      "cla": 1024,
      "cember": 1025,
      "ep": 1026,
      "ele": 1027,
      "famil": 1028,
      "fford": 1029,
      "felt": 1030,
      "first": 1031,
      "han": 1032,
      "je": 1033,
      "ki": 1034,
      "ks": 1035,
      "kes": 1036,
      "lon": 1037,
      "ling": 1038,
      "land": 1039,
      "my": 1040,
      "mil": 1041,
      "ment": 1042,
      "nu": 1043,
      "nine": 1044,
      "nomin": 1045,
      "over": 1046,
      "ober": 1047,
      "ped": 1048,
      "pany": 1049,
      "poration": 1050,
      "que": 1051,
      "su": 1052,
      "sur": 1053,
      "ting": 1054,
      "ull": 1055,
      "ually": 1056,
      "vy": 1057,
      "van": 1058,
      "ving": 1059,
      "ven": 1060,
      "ved": 1061,
      "wing": 1062,
      "wed": 1063,
      "world": 1064,
      "were": 1065,
      "work": 1066,
      "ze": 1067,
      "aract": 1068,
      "ered": 1069,
      "erry": 1070,
      "ani": 1071,
      "stand": 1072,
      "ila": 1073,
      "ild": 1074,
      "than": 1075,
      "thor": 1076,
      "thur": 1077,
      "thup": 1078,
      "reg": 1079,
      "reun": 1080,
      "end": 1081,
      "att": 1082,
      "ater": 1083,
      "ited": 1084,
      "itary": 1085,
      "starred": 1086,
      "diff": 1087,
      "they": 1088,
      "ess": 1089,
      "filmma": 1090,
      "anda": 1091,
      "role": 1092,
      "romant": 1093,
      "roles": 1094,
      "ase": 1095,
      "rigan": 1096,
      "lead": 1097,
      "levis": 1098,
      "ame": 1099,
      "program": 1100,
      "1920": 1101,
      "gets": 1102,
      "emy": 1103,
      "sever": 1104,
      "2020": 1105,
      "format": 1106,
      "resc": 1107,
      "Reza": 1108,
      "ace": 1109,
      "orton": 1110,
      "3FO": 1111,
      "merous": 1112,
      "began": 1113,
      "otion": 1114,
      "distributed": 1115,
      "lades": 1116,
      "Filming": 1117,
      "perfor": 1118,
      "televis": 1119,
      "avvy": 1120,
      "portray": 1121,
      "charact": 1122,
      "Marques": 1123,
      "Second": 1124,
      "Sethup": 1125,
      "short": 1126,
      "shot": 1127,
      "Joy": 1128,
      "Arthur": 1129,
      "about": 1130,
      "cont": 1131,
      "umb": 1132,
      "uston": 1133,
      "release": 1134,
      "2017": 1135,
      "ney": 1136,
      "nell": 1137,
      "plural": 1138,
      "scar": 1139,
      "States": 1140,
      "pear": 1141,
      "Brown": 1142,
      "Davao": 1143,
      "Robin": 1144,
      "ctions": 1145,
      "Houston": 1146,
      "football": 1147,
      "December": 1148,
      "Febru": 1149,
      "Harve": 1150,
      "Lee": 1151,
      "ductions": 1152,
      "Bob": 1153,
      "udia": 1154,
      "Carl": 1155,
      "two": 1156,
      "offic": 1157,
      "North": 1158,
      "Norbert": 1159,
      "United": 1160,
      "six": 1161,
      "time": 1162,
      "France": 1163,
      "Philipp": 1164,
      "2001": 1165,
      "Connell": 1166,
      "Eng": 1167,
      "Screen": 1168,
      "every": 1169,
      "featu": 1170,
      "features": 1171,
      "Claudia": 1172,
      "Productions": 1173,
      "Ricky": 1174,
      "Thom": 1175,
      "mond": 1176,
      "1946": 1177,
      "Edward": 1178,
      "Keret": 1179,
      "Stokes": 1180,
      "Studio": 1181,
      "follows": 1182,
      "Awards": 1183,
      "Corporation": 1184,
      "Clifford": 1185,
      "Elfelt": 1186,
      "Fox": 1187,
      "Longford": 1188,
      "Prem": 1189,
      "Raymond": 1190,
      "Susan": 1191,
      "aired": 1192,
      "appear": 1193,
      "created": 1194,
      "ventually": 1195,
      "revolves": 1196,
      "Universal": 1197,
      "Francisco": 1198,
      "Hawthor": 1199,
      "Ferrara": 1200,
      "religious": 1201,
      "April": 1202,
      "BBC": 1203,
      "Besser": 1204,
      "Banglades": 1205,
      "Diggs": 1206,
      "Demange": 1207,
      "Girard": 1208,
      "Govind": 1209,
      "Hanung": 1210,
      "June": 1211,
      "October": 1212,
      "Tatia": 1213,
      "Wayne": 1214,
      "White": 1215,
      "claim": 1216,
      "numerous": 1217,
      "reunion": 1218,
      "filmmaker": 1219,
      "romantic": 1220,
      "programme": 1221,
      "several": 1222,
      "television": 1223,
      "character": 1224,
      "Sethupathi": 1225,
      "February": 1226,
      "Harvey": 1227,
      "Hawthorne": 1228,
      "Bangladesh": 1229,
      "0s": 1230,
      "16": 1231,
      "21": 1232,
      "9th": 1233,
      "?\"": 1234,
      "AB": 1235,
      "Ac": 1236,
      "All": 1237,
      "Aun": 1238,
      "BN": 1239,
      "Bar": 1240,
      "Bel": 1241,
      "Bol": 1242,
      "Bres": 1243,
      "Bow": 1244,
      "Based": 1245,
      "Bish": 1246,
      "Bud": 1247,
      "Brun": 1248,
      "Cl": 1249,
      "Col": 1250,
      "Care": 1251,
      "Cru": 1252,
      "Cresc": 1253,
      "CBN": 1254,
      "Dy": 1255,
      "Dor": 1256,
      "Die": 1257,
      "Dine": 1258,
      "Et": 1259,
      "Eu": 1260,
      "Est": 1261,
      "Ever": 1262,
      "East": 1263,
      "Eason": 1264,
      "FL": 1265,
      "Far": 1266,
      "Frit": 1267,
      "Filip": 1268,
      "Ford": 1269,
      "Fren": 1270,
      "Gw": 1271,
      "Gol": 1272,
      "Gab": 1273,
      "Gert": 1274,
      "Green": 1275,
      "Greg": 1276,
      "Hun": 1277,
      "Hung": 1278,
      "Horton": 1279,
      "Ilon": 1280,
      "Ja": 1281,
      "Jenn": 1282,
      "Jason": 1283,
      "Kun": 1284,
      "Kaye": 1285,
      "Kumar": 1286,
      "Khan": 1287,
      "Lon": 1288,
      "Lus": 1289,
      "Mat": 1290,
      "Mus": 1291,
      "Na": 1292,
      "Ne": 1293,
      "Nig": 1294,
      "Nip": 1295,
      "Nou": 1296,
      "NFL": 1297,
      "Ocam": 1298,
      "Oscar": 1299,
      "Pl": 1300,
      "Pal": 1301,
      "Port": 1302,
      "Pie": 1303,
      "Ral": 1304,
      "Ram": 1305,
      "Rio": 1306,
      "Raye": 1307,
      "Sin": 1308,
      "Sil": 1309,
      "Sha": 1310,
      "Sch": 1311,
      "Spra": 1312,
      "Tom": 1313,
      "Tem": 1314,
      "Terry": 1315,
      "US": 1316,
      "Uy": 1317,
      "Ver": 1318,
      "Vas": 1319,
      "Vol": 1320,
      "Vill": 1321,
      "Wi": 1322,
      "Wilm": 1323,
      "Ward": 1324,
      "Wol": 1325,
      "Year": 1326,
      "Yann": 1327,
      "York": 1328,
      "Ze": 1329,
      "Zin": 1330,
      "ah": 1331,
      "aard": 1332,
      "ba": 1333,
      "bo": 1334,
      "bon": 1335,
      "ble": 1336,
      "bol": 1337,
      "bac": 1338,
      "based": 1339,
      "bill": 1340,
      "bje": 1341,
      "cli": 1342,
      "card": 1343,
      "cent": 1344,
      "cur": 1345,
      "cred": 1346,
      "cable": 1347,
      "cult": 1348,
      "death": 1349,
      "dale": 1350,
      "dhit": 1351,
      "dling": 1352,
      "eac": 1353,
      "eves": 1354,
      "eventually": 1355,
      "fg": 1356,
      "fund": 1357,
      "fiction": 1358,
      "gn": 1359,
      "go": 1360,
      "gin": 1361,
      "gar": 1362,
      "gen": 1363,
      "gli": 1364,
      "gday": 1365,
      "gky": 1366,
      "gaard": 1367,
      "ho": 1368,
      "hen": 1369,
      "hom": 1370,
      "hard": 1371,
      "hman": 1372,
      "hart": 1373,
      "hum": 1374,
      "hind": 1375,
      "high": 1376,
      "jo": 1377,
      "jay": 1378,
      "kn": 1379,
      "kin": 1380,
      "kat": 1381,
      "kumar": 1382,
      "lin": 1383,
      "ler": 1384,
      "lit": 1385,
      "lam": 1386,
      "low": 1387,
      "lation": 1388,
      "lish": 1389,
      "later": 1390,
      "ms": 1391,
      "med": 1392,
      "mis": 1393,
      "may": 1394,
      "mov": 1395,
      "mina": 1396,
      "member": 1397,
      "no": 1398,
      "nor": 1399,
      "nard": 1400,
      "nov": 1401,
      "nigh": 1402,
      "oel": 1403,
      "ool": 1404,
      "oto": 1405,
      "ogaard": 1406,
      "pil": 1407,
      "pres": 1408,
      "pris": 1409,
      "ss": 1410,
      "sy": 1411,
      "sor": 1412,
      "she": 1413,
      "sol": 1414,
      "sch": 1415,
      "ski": 1416,
      "tal": 1417,
      "tis": 1418,
      "tur": 1419,
      "ui": 1420,
      "uj": 1421,
      "ude": 1422,
      "vi": 1423,
      "var": 1424,
      "vino": 1425,
      "wa": 1426,
      "war": 1427,
      "wan": 1428,
      "wro": 1429,
      "wom": 1430,
      "went": 1431,
      "wren": 1432,
      "well": 1433,
      "wide": 1434,
      "xie": 1435,
      "yam": 1436,
      "ück": 1437,
      "ini": 1438,
      "ins": 1439,
      "inst": 1440,
      "ined": 1441,
      "into": 1442,
      "arian": 1443,
      "araj": 1444,
      "aroel": 1445,
      "ery": 1446,
      "erian": 1447,
      "erally": 1448,
      "anu": 1449,
      "ance": 1450,
      "annel": 1451,
      "antha": 1452,
      "ste": 1453,
      "ston": 1454,
      "sted": 1455,
      "stud": 1456,
      "studi": 1457,
      "onam": 1458,
      "thre": 1459,
      "third": 1460,
      "thony": 1461,
      "orig": 1462,
      "rea": 1463,
      "rey": 1464,
      "reel": 1465,
      "rema": 1466,
      "reviews": 1467,
      "reformat": 1468,
      "relation": 1469,
      "enber": 1470,
      "atch": 1471,
      "ative": 1472,
      "eda": 1473,
      "ity": 1474,
      "itge": 1475,
      "itral": 1476,
      "dier": 1477,
      "ales": 1478,
      "alver": 1479,
      "thews": 1480,
      "esday": 1481,
      "films": 1482,
      "ism": 1483,
      "ision": 1484,
      "ico": 1485,
      "rope": 1486,
      "round": 1487,
      "ash": 1488,
      "aser": 1489,
      "radi": 1490,
      "raham": 1491,
      "hel": 1492,
      "iong": 1493,
      "direction": 1494,
      "rie": 1495,
      "rist": 1496,
      "leg": 1497,
      "let": 1498,
      "lex": 1499,
      "lim": 1500,
      "lika": 1501,
      "live": 1502,
      "use": 1503,
      "used": 1504,
      "usion": 1505,
      "amp": 1506,
      "miere": 1507,
      "199": 1508,
      "1971": 1509,
      "1917": 1510,
      "1951": 1511,
      "gelika": 1512,
      "ement": 1513,
      "ime": 1514,
      "old": 1515,
      "olen": 1516,
      "hadian": 1517,
      "having": 1518,
      "irley": 1519,
      "idro": 1520,
      "set": 1521,
      "sell": 1522,
      "section": 1523,
      "sequ": 1524,
      "sett": 1525,
      "2021": 1526,
      "vera": 1527,
      "vers": 1528,
      "verse": 1529,
      "urch": 1530,
      "pher": 1531,
      "phras": 1532,
      "photo": 1533,
      "Record": 1534,
      "Reval": 1535,
      "Reeves": 1536,
      "iod": 1537,
      "Company": 1538,
      "Its": 1539,
      "mercial": 1540,
      "Raj": 1541,
      "Rahman": 1542,
      "Rahadian": 1543,
      "Madel": 1544,
      "Magday": 1545,
      "Maude": 1546,
      "Mathews": 1547,
      "best": 1548,
      "been": 1549,
      "becom": 1550,
      "ott": 1551,
      "cept": 1552,
      "iano": 1553,
      "laeman": 1554,
      "berto": 1555,
      "period": 1556,
      "tein": 1557,
      "tecor": 1558,
      "Alan": 1559,
      "Also": 1560,
      "Albert": 1561,
      "commis": 1562,
      "commercial": 1563,
      "porting": 1564,
      "musician": 1565,
      "child": 1566,
      "ounc": 1567,
      "ations": 1568,
      "Marion": 1569,
      "March": 1570,
      "Marsh": 1571,
      "Martha": 1572,
      "Set": 1573,
      "Sean": 1574,
      "Sept": 1575,
      "prais": 1576,
      "shtein": 1577,
      "Chenna": 1578,
      "Chitral": 1579,
      "Chiong": 1580,
      "Christ": 1581,
      "Church": 1582,
      "concl": 1583,
      "icho": 1584,
      "Anthony": 1585,
      "Angelika": 1586,
      "cinski": 1587,
      "where": 1588,
      "Best": 1589,
      "Behind": 1590,
      "lost": 1591,
      "wife": 1592,
      "2018": 1593,
      "actors": 1594,
      "ademy": 1595,
      "nest": 1596,
      "plac": 1597,
      "plot": 1598,
      "Eric": 1599,
      "Ernest": 1600,
      "Blore": 1601,
      "Daves": 1602,
      "Frank": 1603,
      "Fraser": 1604,
      "Roberto": 1605,
      "ists": 1606,
      "editor": 1607,
      "Jacques": 1608,
      "Jaccard": 1609,
      "upporting": 1610,
      "Hoot": 1611,
      "Hogan": 1612,
      "Hoxie": 1613,
      "ekha": 1614,
      "focus": 1615,
      "Johnson": 1616,
      "Dewan": 1617,
      "Harris": 1618,
      "Rosina": 1619,
      "Rosales": 1620,
      "Vijay": 1621,
      "ett": 1622,
      "ette": 1623,
      "Bost": 1624,
      "Boogaard": 1625,
      "Paolo": 1626,
      "Pagli": 1627,
      "under": 1628,
      "1934": 1629,
      "1939": 1630,
      "Cook": 1631,
      "Carmen": 1632,
      "Carmina": 1633,
      "Carrie": 1634,
      "Cann": 1635,
      "Canal": 1636,
      "sity": 1637,
      "order": 1638,
      "offrey": 1639,
      "Abraham": 1640,
      "Geoffrey": 1641,
      "Isra": 1642,
      "Islam": 1643,
      "Isidro": 1644,
      "Shyam": 1645,
      "Shirley": 1646,
      "rude": 1647,
      "1984": 1648,
      "1988": 1649,
      "Australian": 1650,
      "Contis": 1651,
      "Enter": 1652,
      "Endhit": 1653,
      "Montecor": 1654,
      "again": 1655,
      "ckdale": 1656,
      "anta": 1657,
      "comedian": 1658,
      "included": 1659,
      "Claire": 1660,
      "Ferd": 1661,
      "Guy": 1662,
      "Guho": 1663,
      "Jeep": 1664,
      "Maya": 1665,
      "Maynard": 1666,
      "Murphy": 1667,
      "Murray": 1668,
      "Rica": 1669,
      "Warren": 1670,
      "month": 1671,
      "pregn": 1672,
      "premiere": 1673,
      "alejo": 1674,
      "Intertitle": 1675,
      "players": 1676,
      "screened": 1677,
      "screenwriter": 1678,
      "Pauline": 1679,
      "sitcoms": 1680,
      "Indonesia": 1681,
      "Agus": 1682,
      "Agot": 1683,
      "Berton": 1684,
      "Gorden": 1685,
      "Gordon": 1686,
      "Kerrigan": 1687,
      "Peralejo": 1688,
      "Stockdale": 1689,
      "awards": 1690,
      "descri": 1691,
      "special": 1692,
      "speaking": 1693,
      "igni": 1694,
      "Anderson": 1695,
      "Annie": 1696,
      "local": 1697,
      "Studios": 1698,
      "Abeleda": 1699,
      "Stephens": 1700,
      "Benigni": 1701,
      "Burke": 1702,
      "Dela": 1703,
      "Delmer": 1704,
      "Glen": 1705,
      "Glück": 1706,
      "Henry": 1707,
      "Hengky": 1708,
      "Lawren": 1709,
      "LaPagli": 1710,
      "Manio": 1711,
      "Rush": 1712,
      "Russell": 1713,
      "Sulaeman": 1714,
      "coro": 1715,
      "critical": 1716,
      "critics": 1717,
      "cording": 1718,
      "exper": 1719,
      "group": 1720,
      "tti": 1721,
      "interviews": 1722,
      "1918": 1723,
      "1974": 1724,
      "1970s": 1725,
      "concert": 1726,
      "Starke": 1727,
      "woods": 1728,
      "Adam": 1729,
      "After": 1730,
      "Akter": 1731,
      "Hayward": 1732,
      "Jericho": 1733,
      "Karen": 1734,
      "Luciano": 1735,
      "McKim": 1736,
      "Mike": 1737,
      "Morley": 1738,
      "Miche": 1739,
      "Sheila": 1740,
      "Tuesday": 1741,
      "Troen": 1742,
      "Wallace": 1743,
      "cano": 1744,
      "family": 1745,
      "military": 1746,
      "nominated": 1747,
      "subje": 1748,
      "surround": 1749,
      "tingco": 1750,
      "zeh": 1751,
      "performan": 1752,
      "portrayed": 1753,
      "Joyce": 1754,
      "umbia": 1755,
      "pluralism": 1756,
      "Bobby": 1757,
      "officer": 1758,
      "Northern": 1759,
      "Philippine": 1760,
      "English": 1761,
      "featured": 1762,
      "Thomas": 1763,
      "StudioCanal": 1764,
      "Premkumar": 1765,
      "ABS": 1766,
      "Academy": 1767,
      "Aunor": 1768,
      "Boles": 1769,
      "Breslow": 1770,
      "Bishop": 1771,
      "Brunette": 1772,
      "Columbia": 1773,
      "Carey": 1774,
      "Cruz": 1775,
      "Crescenzo": 1776,
      "Dyer": 1777,
      "Dormer": 1778,
      "Diether": 1779,
      "Dinehart": 1780,
      "Etgar": 1781,
      "Europe": 1782,
      "Esther": 1783,
      "Everett": 1784,
      "Fritzi": 1785,
      "Filipino": 1786,
      "French": 1787,
      "Gwen": 1788,
      "Gertrude": 1789,
      "Gregory": 1790,
      "Hungarian": 1791,
      "Ilonzeh": 1792,
      "Jaanu": 1793,
      "Jennings": 1794,
      "Kuncoro": 1795,
      "London": 1796,
      "Luscinski": 1797,
      "Muslim": 1798,
      "Nazi": 1799,
      "New": 1800,
      "Nigerian": 1801,
      "Nipun": 1802,
      "Ocampo": 1803,
      "Play": 1804,
      "Palma": 1805,
      "Portes": 1806,
      "Pietra": 1807,
      "Ralston": 1808,
      "Siner": 1809,
      "Silvera": 1810,
      "Spradling": 1811,
      "Temat": 1812,
      "Uytingco": 1813,
      "Vasantha": 1814,
      "Volcano": 1815,
      "Villaroel": 1816,
      "Wilmot": 1817,
      "Warde": 1818,
      "Wolfg": 1819,
      "Zeitge": 1820,
      "Zinshtein": 1821,
      "bonus": 1822,
      "clips": 1823,
      "credits": 1824,
      "cultural": 1825,
      "each": 1826,
      "home": 1827,
      "known": 1828,
      "kinson": 1829,
      "members": 1830,
      "novel": 1831,
      "pilot": 1832,
      "soldier": 1833,
      "various": 1834,
      "wrote": 1835,
      "woman": 1836,
      "araju": 1837,
      "student": 1838,
      "studio": 1839,
      "three": 1840,
      "origin": 1841,
      "relationship": 1842,
      "enberg": 1843,
      "sequel": 1844,
      "Records": 1845,
      "Revalina": 1846,
      "Madeline": 1847,
      "Magdayao": 1848,
      "commission": 1849,
      "Marshall": 1850,
      "September": 1851,
      "Chennai": 1852,
      "Chitralekha": 1853,
      "Churchill": 1854,
      "conclusion": 1855,
      "Behindwoods": 1856,
      "focuses": 1857,
      "Dewanto": 1858,
      "Endhita": 1859,
      "Montecorvino": 1860,
      "against": 1861,
      "Jeepney": 1862,
      "pregnant": 1863,
      "Lawrence": 1864,
      "LaPaglia": 1865,
      "subject": 1866,
      "Wolfgang": 1867,
      "Zeitgeist": 1868,
      "!)": 1869,
      "!,": 1870,
      "\",": 1871,
      "\"...": 1872,
      "\").": 1873,
      "\"?\"": 1874,
      "',": 1875,
      "($": 1876,
      "),": 1877,
      ".\"": 1878,
      "04": 1879,
      "12": 1880,
      "14": 1881,
      "18": 1882,
      "150": 1883,
      "29": 1884,
      "2000": 1885,
      "39th": 1886,
      "40": 1887,
      "4th": 1888,
      "416": 1889,
      "56": 1890,
      "550": 1891,
      "59th": 1892,
      "600": 1893,
      "64th": 1894,
      "78": 1895,
      "?:": 1896,
      "As": 1897,
      "Au": 1898,
      "Act": 1899,
      "Aad": 1900,
      "Auch": 1901,
      "Adon": 1902,
      "Asi": 1903,
      "Aug": 1904,
      "Amy": 1905,
      "Alex": 1906,
      "Ber": 1907,
      "Bil": 1908,
      "Bem": 1909,
      "Bank": 1910,
      "Bru": 1911,
      "Bran": 1912,
      "Belt": 1913,
      "Batt": 1914,
      "Border": 1915,
      "Ci": 1916,
      "Cin": 1917,
      "Cre": 1918,
      "Cit": 1919,
      "Cun": 1920,
      "Cut": 1921,
      "Cent": 1922,
      "Cath": 1923,
      "Cur": 1924,
      "Cort": 1925,
      "Civ": 1926,
      "Cine": 1927,
      "Count": 1928,
      "Cert": 1929,
      "Cras": 1930,
      "Cult": 1931,
      "Cali": 1932,
      "Calver": 1933,
      "Counc": 1934,
      "DJ": 1935,
      "Der": 1936,
      "Dal": 1937,
      "Dim": 1938,
      "Dul": 1939,
      "Dann": 1940,
      "Dray": 1941,
      "Domin": 1942,
      "Dani": 1943,
      "Drea": 1944,
      "ES": 1945,
      "Em": 1946,
      "Es": 1947,
      "Ex": 1948,
      "Edi": 1949,
      "Eche": 1950,
      "Emon": 1951,
      "Emil": 1952,
      "Eventually": 1953,
      "FW": 1954,
      "Fi": 1955,
      "For": 1956,
      "Fre": 1957,
      "Fis": 1958,
      "Fab": 1959,
      "Flo": 1960,
      "Fore": 1961,
      "Fred": 1962,
      "Fame": 1963,
      "Ga": 1964,
      "Go": 1965,
      "Gr": 1966,
      "Gé": 1967,
      "Gen": 1968,
      "Gav": 1969,
      "Gig": 1970,
      "Gag": 1971,
      "Gino": 1972,
      "Grun": 1973,
      "Gons": 1974,
      "Hin": 1975,
      "Hil": 1976,
      "Hol": 1977,
      "Hill": 1978,
      "Hale": 1979,
      "Huth": 1980,
      "Horror": 1981,
      "Hull": 1982,
      "Ib": 1983,
      "Im": 1984,
      "Ian": 1985,
      "Ire": 1986,
      "Ice": 1987,
      "Icon": 1988,
      "Ibin": 1989,
      "Ji": 1990,
      "Ju": 1991,
      "Jay": 1992,
      "Jord": 1993,
      "Jess": 1994,
      "Kr": 1995,
      "Kat": 1996,
      "Kit": 1997,
      "Kra": 1998,
      "Kath": 1999,
      "Kay": 2000,
      "Kol": 2001,
      "Kir": 2002,
      "Kid": 2003,
      "Killi": 2004,
      "Kov": 2005,
      "Kab": 2006,
      "Kenn": 2007,
      "Kann": 2008,
      "Kell": 2009,
      "Kirst": 2010,
      "Kull": 2011,
      "Kumb": 2012,
      "Ly": 2013,
      "Lar": 2014,
      "Lan": 2015,
      "Lil": 2016,
      "Lal": 2017,
      "Lion": 2018,
      "Lle": 2019,
      "Lip": 2020,
      "Language": 2021,
      "Lone": 2022,
      "Lind": 2023,
      "Liver": 2024,
      "Later": 2025,
      "Lui": 2026,
      "Lott": 2027,
      "MA": 2028,
      "Mo": 2029,
      "My": 2030,
      "Mil": 2031,
      "Men": 2032,
      "Mes": 2033,
      "Mut": 2034,
      "Math": 2035,
      "Mid": 2036,
      "Mac": 2037,
      "Mok": 2038,
      "Mig": 2039,
      "Much": 2040,
      "Mist": 2041,
      "Mount": 2042,
      "Muk": 2043,
      "Mali": 2044,
      "Mila": 2045,
      "Motion": 2046,
      "Muj": 2047,
      "Minst": 2048,
      "Malver": 2049,
      "Nar": 2050,
      "Nan": 2051,
      "Nov": 2052,
      "Nation": 2053,
      "Nich": 2054,
      "Nino": 2055,
      "Norton": 2056,
      "Nico": 2057,
      "Oa": 2058,
      "Or": 2059,
      "Oll": 2060,
      "Ori": 2061,
      "Oli": 2062,
      "Owi": 2063,
      "Old": 2064,
      "Oyo": 2065,
      "Oran": 2066,
      "Owing": 2067,
      "Overse": 2068,
      "OFW": 2069,
      "PN": 2070,
      "Pe": 2071,
      "Pr": 2072,
      "Pon": 2073,
      "Pat": 2074,
      "Path": 2075,
      "Pet": 2076,
      "Pras": 2077,
      "Rp": 2078,
      "Ron": 2079,
      "Rit": 2080,
      "Res": 2081,
      "Righ": 2082,
      "Sa": 2083,
      "Sw": 2084,
      "Sal": 2085,
      "Sem": 2086,
      "Say": 2087,
      "Sid": 2088,
      "Sac": 2089,
      "Sue": 2090,
      "Sund": 2091,
      "SII": 2092,
      "Sou": 2093,
      "Sag": 2094,
      "Solo": 2095,
      "Side": 2096,
      "Swed": 2097,
      "Sonam": 2098,
      "Supporting": 2099,
      "Santa": 2100,
      "Te": 2101,
      "Tor": 2102,
      "Tri": 2103,
      "Tel": 2104,
      "Tol": 2105,
      "Tany": 2106,
      "Trou": 2107,
      "Tak": 2108,
      "Tony": 2109,
      "Tele": 2110,
      "Tanda": 2111,
      "Time": 2112,
      "UK": 2113,
      "Ud": 2114,
      "Ule": 2115,
      "Vic": 2116,
      "Vand": 2117,
      "Vict": 2118,
      "Vani": 2119,
      "Vision": 2120,
      "Wy": 2121,
      "Wes": 2122,
      "Was": 2123,
      "Work": 2124,
      "Ya": 2125,
      "Yo": 2126,
      "You": 2127,
      "Yash": 2128,
      "Zion": 2129,
      "Zamp": 2130,
      "au": 2131,
      "ail": 2132,
      "ael": 2133,
      "ape": 2134,
      "ake": 2135,
      "bb": 2136,
      "bl": 2137,
      "bar": 2138,
      "bor": 2139,
      "bre": 2140,
      "bed": 2141,
      "band": 2142,
      "bro": 2143,
      "bur": 2144,
      "bann": 2145,
      "bles": 2146,
      "bara": 2147,
      "batch": 2148,
      "cr": 2149,
      "cen": 2150,
      "ced": 2151,
      "cal": 2152,
      "cato": 2153,
      "civ": 2154,
      "call": 2155,
      "coun": 2156,
      "cie": 2157,
      "cip": 2158,
      "cup": 2159,
      "caf": 2160,
      "catch": 2161,
      "cash": 2162,
      "dd": 2163,
      "dil": 2164,
      "dit": 2165,
      "das": 2166,
      "dle": 2167,
      "duc": 2168,
      "due": 2169,
      "done": 2170,
      "dhist": 2171,
      "dras": 2172,
      "dates": 2173,
      "dkinson": 2174,
      "eb": 2175,
      "ez": 2176,
      "eth": 2177,
      "ees": 2178,
      "eli": 2179,
      "ebe": 2180,
      "east": 2181,
      "fi": 2182,
      "fs": 2183,
      "fu": 2184,
      "fan": 2185,
      "fli": 2186,
      "fut": 2187,
      "fath": 2188,
      "fem": 2189,
      "fur": 2190,
      "fac": 2191,
      "fav": 2192,
      "ful": 2193,
      "fast": 2194,
      "flo": 2195,
      "fair": 2196,
      "find": 2197,
      "found": 2198,
      "faking": 2199,
      "full": 2200,
      "fend": 2201,
      "fini": 2202,
      "flex": 2203,
      "factors": 2204,
      "fael": 2205,
      "ger": 2206,
      "gic": 2207,
      "gel": 2208,
      "gard": 2209,
      "gir": 2210,
      "gall": 2211,
      "gav": 2212,
      "gert": 2213,
      "gical": 2214,
      "gag": 2215,
      "gain": 2216,
      "gali": 2217,
      "gui": 2218,
      "hus": 2219,
      "hay": 2220,
      "him": 2221,
      "hla": 2222,
      "hous": 2223,
      "hfu": 2224,
      "iz": 2225,
      "ien": 2226,
      "idi": 2227,
      "iel": 2228,
      "ired": 2229,
      "ially": 2230,
      "ique": 2231,
      "jk": 2232,
      "joc": 2233,
      "jah": 2234,
      "kert": 2235,
      "kgro": 2236,
      "kbur": 2237,
      "lor": 2238,
      "las": 2239,
      "lus": 2240,
      "line": 2241,
      "lated": 2242,
      "lers": 2243,
      "mo": 2244,
      "mar": 2245,
      "mal": 2246,
      "mes": 2247,
      "mel": 2248,
      "mem": 2249,
      "milli": 2250,
      "mill": 2251,
      "mone": 2252,
      "mate": 2253,
      "mple": 2254,
      "mug": 2255,
      "mess": 2256,
      "motion": 2257,
      "mbol": 2258,
      "na": 2259,
      "ni": 2260,
      "ny": 2261,
      "ner": 2262,
      "nan": 2263,
      "nur": 2264,
      "now": 2265,
      "nia": 2266,
      "nica": 2267,
      "name": 2268,
      "oil": 2269,
      "our": 2270,
      "oper": 2271,
      "oul": 2272,
      "odrama": 2273,
      "oice": 2274,
      "other": 2275,
      "opher": 2276,
      "pm": 2277,
      "pu": 2278,
      "ping": 2279,
      "pen": 2280,
      "put": 2281,
      "part": 2282,
      "pper": 2283,
      "pson": 2284,
      "peo": 2285,
      "pong": 2286,
      "pair": 2287,
      "pag": 2288,
      "pain": 2289,
      "press": 2290,
      "ploy": 2291,
      "pple": 2292,
      "pped": 2293,
      "pani": 2294,
      "rat": 2295,
      "rard": 2296,
      "ration": 2297,
      "rican": 2298,
      "rated": 2299,
      "rical": 2300,
      "rics": 2301,
      "rules": 2302,
      "sel": 2303,
      "sim": 2304,
      "sid": 2305,
      "sav": 2306,
      "such": 2307,
      "sical": 2308,
      "same": 2309,
      "supporting": 2310,
      "slated": 2311,
      "tz": 2312,
      "ton": 2313,
      "til": 2314,
      "tle": 2315,
      "tly": 2316,
      "tain": 2317,
      "tran": 2318,
      "take": 2319,
      "ued": 2320,
      "uring": 2321,
      "ual": 2322,
      "uel": 2323,
      "uary": 2324,
      "uish": 2325,
      "ufe": 2326,
      "uable": 2327,
      "vit": 2328,
      "vion": 2329,
      "vel": 2330,
      "vver": 2331,
      "viv": 2332,
      "vad": 2333,
      "vice": 2334,
      "vious": 2335,
      "venth": 2336,
      "vide": 2337,
      "vative": 2338,
      "voice": 2339,
      "wis": 2340,
      "whe": 2341,
      "wel": 2342,
      "way": 2343,
      "wart": 2344,
      "wche": 2345,
      "wab": 2346,
      "will": 2347,
      "wish": 2348,
      "women": 2349,
      "wyn": 2350,
      "wald": 2351,
      "web": 2352,
      "xed": 2353,
      "xac": 2354,
      "xwell": 2355,
      "xico": 2356,
      "yle": 2357,
      "ych": 2358,
      "youn": 2359,
      "yson": 2360,
      "yet": 2361,
      "zur": 2362,
      "zman": 2363,
      "és": 2364,
      "ónica": 2365,
      "int": 2366,
      "init": 2367,
      "ines": 2368,
      "ince": 2369,
      "ination": 2370,
      "inum": 2371,
      "inist": 2372,
      "invol": 2373,
      "indu": 2374,
      "incip": 2375,
      "inued": 2376,
      "invit": 2377,
      "ark": 2378,
      "aram": 2379,
      "arly": 2380,
      "arang": 2381,
      "arch": 2382,
      "arsh": 2383,
      "arlet": 2384,
      "era": 2385,
      "eral": 2386,
      "erent": 2387,
      "erved": 2388,
      "anor": 2389,
      "aning": 2390,
      "anat": 2391,
      "ange": 2392,
      "anim": 2393,
      "anza": 2394,
      "anvi": 2395,
      "anhous": 2396,
      "anmug": 2397,
      "stor": 2398,
      "stre": 2399,
      "sting": 2400,
      "stit": 2401,
      "stal": 2402,
      "stra": 2403,
      "stage": 2404,
      "stant": 2405,
      "stop": 2406,
      "stings": 2407,
      "stery": 2408,
      "stolen": 2409,
      "ont": 2410,
      "only": 2411,
      "ily": 2412,
      "iled": 2413,
      "thag": 2414,
      "thous": 2415,
      "ors": 2416,
      "ored": 2417,
      "ores": 2418,
      "organ": 2419,
      "orate": 2420,
      "orable": 2421,
      "orous": 2422,
      "rew": 2423,
      "real": 2424,
      "reas": 2425,
      "requ": 2426,
      "reproduction": 2427,
      "reconc": 2428,
      "repres": 2429,
      "repris": 2430,
      "retur": 2431,
      "reverse": 2432,
      "replac": 2433,
      "recording": 2434,
      "ening": 2435,
      "ension": 2436,
      "atrical": 2437,
      "atinum": 2438,
      "ators": 2439,
      "eds": 2440,
      "edy": 2441,
      "edings": 2442,
      "ctable": 2443,
      "ctees": 2444,
      "itive": 2445,
      "itled": 2446,
      "itress": 2447,
      "itted": 2448,
      "started": 2449,
      "die": 2450,
      "dich": 2451,
      "dish": 2452,
      "dipl": 2453,
      "disc": 2454,
      "diran": 2455,
      "disting": 2456,
      "als": 2457,
      "aling": 2458,
      "alli": 2459,
      "alam": 2460,
      "alian": 2461,
      "alone": 2462,
      "them": 2463,
      "these": 2464,
      "theme": 2465,
      "theatrical": 2466,
      "esim": 2467,
      "esca": 2468,
      "filming": 2469,
      "filmed": 2470,
      "isan": 2471,
      "isul": 2472,
      "isod": 2473,
      "issu": 2474,
      "issor": 2475,
      "icul": 2476,
      "icult": 2477,
      "ands": 2478,
      "andra": 2479,
      "roe": 2480,
      "roo": 2481,
      "rover": 2482,
      "ross": 2483,
      "assi": 2484,
      "22Cras": 2485,
      "race": 2486,
      "rather": 2487,
      "racis": 2488,
      "rable": 2489,
      "lla": 2490,
      "lli": 2491,
      "lls": 2492,
      "llor": 2493,
      "lling": 2494,
      "lles": 2495,
      "lliv": 2496,
      "llab": 2497,
      "llina": 2498,
      "llins": 2499,
      "heard": 2500,
      "heav": 2501,
      "held": 2502,
      "heigh": 2503,
      "omat": 2504,
      "omitted": 2505,
      "directing": 2506,
      "unit": 2507,
      "unse": 2508,
      "unch": 2509,
      "unreleased": 2510,
      "unod": 2511,
      "univer": 2512,
      "unted": 2513,
      "unsuccess": 2514,
      "unity": 2515,
      "unique": 2516,
      "until": 2517,
      "unheard": 2518,
      "riam": 2519,
      "riel": 2520,
      "ribut": 2521,
      "riot": 2522,
      "riwa": 2523,
      "riflex": 2524,
      "leav": 2525,
      "leased": 2526,
      "level": 2527,
      "lix": 2528,
      "list": 2529,
      "lius": 2530,
      "ligh": 2531,
      "like": 2532,
      "light": 2533,
      "living": 2534,
      "listed": 2535,
      "often": 2536,
      "user": 2537,
      "usive": 2538,
      "aman": 2539,
      "aming": 2540,
      "amation": 2541,
      "elab": 2542,
      "osh": 2543,
      "oss": 2544,
      "mixed": 2545,
      "prote": 2546,
      "proval": 2547,
      "proble": 2548,
      "propag": 2549,
      "ute": 2550,
      "writing": 2551,
      "enty": 2552,
      "ented": 2553,
      "ental": 2554,
      "entang": 2555,
      "entry": 2556,
      "entire": 2557,
      "entration": 2558,
      "entitled": 2559,
      "1949": 2560,
      "1999": 2561,
      "1976": 2562,
      "1996": 2563,
      "1968": 2564,
      "1924": 2565,
      "1904": 2566,
      "1956": 2567,
      "athlet": 2568,
      "gest": 2569,
      "directorial": 2570,
      "ema": 2571,
      "eme": 2572,
      "emma": 2573,
      "empt": 2574,
      "emotion": 2575,
      "employ": 2576,
      "ayed": 2577,
      "imental": 2578,
      "olic": 2579,
      "olas": 2580,
      "olve": 2581,
      "haw": 2582,
      "hael": 2583,
      "haka": 2584,
      "have": 2585,
      "haped": 2586,
      "haunted": 2587,
      "idur": 2588,
      "sek": 2589,
      "sey": 2590,
      "separ": 2591,
      "second": 2592,
      "seven": 2593,
      "too": 2594,
      "tour": 2595,
      "took": 2596,
      "town": 2597,
      "2019": 2598,
      "lyrics": 2599,
      "version": 2600,
      "forth": 2601,
      "fornia": 2602,
      "resul": 2603,
      "respe": 2604,
      "resolve": 2605,
      "reshaped": 2606,
      "atole": 2607,
      "Rez": 2608,
      "Reid": 2609,
      "Retur": 2610,
      "Regard": 2611,
      "Released": 2612,
      "acs": 2613,
      "accom": 2614,
      "account": 2615,
      "accus": 2616,
      "acclaim": 2617,
      "accent": 2618,
      "according": 2619,
      "ackbur": 2620,
      "across": 2621,
      "producers": 2622,
      "sohn": 2623,
      "sound": 2624,
      "socie": 2625,
      "Italian": 2626,
      "Rafael": 2627,
      "Raoul": 2628,
      "strian": 2629,
      "Mahen": 2630,
      "Madras": 2631,
      "Mahfu": 2632,
      "Maxwell": 2633,
      "Maanvi": 2634,
      "Mahaka": 2635,
      "belie": 2636,
      "before": 2637,
      "beca": 2638,
      "begin": 2639,
      "otage": 2640,
      "otland": 2641,
      "cey": 2642,
      "cealing": 2643,
      "cella": 2644,
      "ians": 2645,
      "ianet": 2646,
      "last": 2647,
      "launch": 2648,
      "artists": 2649,
      "Film4": 2650,
      "Filmfare": 2651,
      "Ince": 2652,
      "Inde": 2653,
      "Inste": 2654,
      "Instit": 2655,
      "beresim": 2656,
      "ovation": 2657,
      "gradu": 2658,
      "grapher": 2659,
      "made": 2660,
      "making": 2661,
      "pert": 2662,
      "peranza": 2663,
      "teo": 2664,
      "tells": 2665,
      "angan": 2666,
      "allment": 2667,
      "Alam": 2668,
      "Aless": 2669,
      "Alwyn": 2670,
      "avision": 2671,
      "avail": 2672,
      "compos": 2673,
      "compe": 2674,
      "comple": 2675,
      "commen": 2676,
      "company": 2677,
      "pool": 2678,
      "point": 2679,
      "postings": 2680,
      "pollina": 2681,
      "portunity": 2682,
      "chke": 2683,
      "channel": 2684,
      "change": 2685,
      "Mary": 2686,
      "Marin": 2687,
      "Mario": 2688,
      "Marche": 2689,
      "Marner": 2690,
      "Secre": 2691,
      "Seven": 2692,
      "show": 2693,
      "shire": 2694,
      "uld": 2695,
      "ulich": 2696,
      "Joel": 2697,
      "positive": 2698,
      "songs": 2699,
      "Army": 2700,
      "Argo": 2701,
      "Arriflex": 2702,
      "abi": 2703,
      "abo": 2704,
      "abel": 2705,
      "abusive": 2706,
      "America": 2707,
      "Channel": 2708,
      "Chidi": 2709,
      "conser": 2710,
      "concept": 2711,
      "confli": 2712,
      "consid": 2713,
      "constant": 2714,
      "concealing": 2715,
      "pire": 2716,
      "eneck": 2717,
      "ichés": 2718,
      "physical": 2719,
      "Ang": 2720,
      "Ananda": 2721,
      "Ansch": 2722,
      "Anisul": 2723,
      "Anatole": 2724,
      "Picture": 2725,
      "asthan": 2726,
      "dence": 2727,
      "ietti": 2728,
      "ipold": 2729,
      "umal": 2730,
      "when": 2731,
      "Bain": 2732,
      "Baby": 2733,
      "Baker": 2734,
      "Bagav": 2735,
      "Beebe": 2736,
      "load": 2737,
      "lovers": 2738,
      "ryn": 2739,
      "rymple": 2740,
      "tens": 2741,
      "2010": 2742,
      "2012": 2743,
      "2013": 2744,
      "2015": 2745,
      "2016": 2746,
      "owner": 2747,
      "ada": 2748,
      "adan": 2749,
      "adcast": 2750,
      "adult": 2751,
      "advent": 2752,
      "addit": 2753,
      "adoss": 2754,
      "neth": 2755,
      "news": 2756,
      "place": 2757,
      "plores": 2758,
      "platinum": 2759,
      "serves": 2760,
      "cinematographer": 2761,
      "debut": 2762,
      "decl": 2763,
      "devis": 2764,
      "device": 2765,
      "deals": 2766,
      "dramat": 2767,
      "score": 2768,
      "scale": 2769,
      "Blackbur": 2770,
      "Gate": 2771,
      "Gates": 2772,
      "State": 2773,
      "Todd": 2774,
      "Touring": 2775,
      "pez": 2776,
      "ishnan": 2777,
      "within": 2778,
      "without": 2779,
      "Doug": 2780,
      "Dave": 2781,
      "Davis": 2782,
      "Frass": 2783,
      "Front": 2784,
      "Roco": 2785,
      "Roze": 2786,
      "Roger": 2787,
      "Royle": 2788,
      "download": 2789,
      "istance": 2790,
      "inelli": 2791,
      "onest": 2792,
      "classi": 2793,
      "clamation": 2794,
      "clichés": 2795,
      "upon": 2796,
      "updates": 2797,
      "Hodge": 2798,
      "House": 2799,
      "Hodkinson": 2800,
      "Mexico": 2801,
      "Mellor": 2802,
      "domain": 2803,
      "four": 2804,
      "footage": 2805,
      "udino": 2806,
      "Johnny": 2807,
      "Dell": 2808,
      "Defend": 2809,
      "Devad": 2810,
      "Felix": 2811,
      "Harold": 2812,
      "Lewis": 2813,
      "Leeds": 2814,
      "Leipold": 2815,
      "Rose": 2816,
      "Rossi": 2817,
      "Rossy": 2818,
      "Vikat": 2819,
      "coup": 2820,
      "covers": 2821,
      "collab": 2822,
      "ets": 2823,
      "Both": 2824,
      "Boden": 2825,
      "Bolles": 2826,
      "Phill": 2827,
      "Phanta": 2828,
      "gandi": 2829,
      "key": 2830,
      "1937": 2831,
      "1938": 2832,
      "Cole": 2833,
      "Collins": 2834,
      "ods": 2835,
      "ody": 2836,
      "sites": 2837,
      "twenty": 2838,
      "Jackson": 2839,
      "Abangan": 2840,
      "Island": 2841,
      "Isabel": 2842,
      "Nora": 2843,
      "Norway": 2844,
      "Shuk": 2845,
      "Shony": 2846,
      "Shuj": 2847,
      "Shanmug": 2848,
      "airmen": 2849,
      "cesca": 2850,
      "meter": 2851,
      "meant": 2852,
      "meaning": 2853,
      "occup": 2854,
      "ourable": 2855,
      "sial": 2856,
      "tition": 2857,
      "inder": 2858,
      "rently": 2859,
      "rizio": 2860,
      "1982": 2861,
      "1983": 2862,
      "1986": 2863,
      "1987": 2864,
      "foreign": 2865,
      "Artisan": 2866,
      "Francesca": 2867,
      "Australia": 2868,
      "Revolutionary": 2869,
      "2002": 2870,
      "2007": 2871,
      "2008": 2872,
      "2009": 2873,
      "Contra": 2874,
      "Connor": 2875,
      "Haig": 2876,
      "Haque": 2877,
      "Hauser": 2878,
      "Monroe": 2879,
      "Scott": 2880,
      "Scarlet": 2881,
      "Scissor": 2882,
      "Scotland": 2883,
      "Steve": 2884,
      "Steven": 2885,
      "cks": 2886,
      "ukalam": 2887,
      "anti": 2888,
      "comedies": 2889,
      "feature": 2890,
      "Richards": 2891,
      "includes": 2892,
      "receiving": 2893,
      "Braun": 2894,
      "Clair": 2895,
      "Guild": 2896,
      "Gubb": 2897,
      "Hartman": 2898,
      "Hartley": 2899,
      "Jean": 2900,
      "Jews": 2901,
      "Jeff": 2902,
      "Jewish": 2903,
      "Murug": 2904,
      "Murtal": 2905,
      "Parkinson": 2906,
      "Produc": 2907,
      "Proietti": 2908,
      "Rickert": 2909,
      "Then": 2910,
      "That": 2911,
      "Thanhous": 2912,
      "affair": 2913,
      "nationally": 2914,
      "opal": 2915,
      "opening": 2916,
      "opportunity": 2917,
      "previous": 2918,
      "visit": 2919,
      "visual": 2920,
      "viewing": 2921,
      "viewed": 2922,
      "announc": 2923,
      "1941": 2924,
      "1942": 2925,
      "1945": 2926,
      "played": 2927,
      "screenplay": 2928,
      "Agun": 2929,
      "Edgert": 2930,
      "Eddie": 2931,
      "Gorcey": 2932,
      "Percept": 2933,
      "Perumal": 2934,
      "Worldwide": 2935,
      "awarded": 2936,
      "delves": 2937,
      "delayed": 2938,
      "delsohn": 2939,
      "days": 2940,
      "ffiel": 2941,
      "herje": 2942,
      "handling": 2943,
      "ibur": 2944,
      "matter": 2945,
      "ningham": 2946,
      "running": 2947,
      "spelling": 2948,
      "trapped": 2949,
      "tracks": 2950,
      "ugu": 2951,
      "uthi": 2952,
      "would": 2953,
      "winning": 2954,
      "ignored": 2955,
      "Andrea": 2956,
      "Andrew": 2957,
      "Andaman": 2958,
      "location": 2959,
      "locate": 2960,
      "locations": 2961,
      "following": 2962,
      "followed": 2963,
      "historians": 2964,
      "nationality": 2965,
      "Bengali": 2966,
      "Burl": 2967,
      "Burton": 2968,
      "Corrigan": 2969,
      "Clipper": 2970,
      "Elan": 2971,
      "Football": 2972,
      "Longeneck": 2973,
      "Mansi": 2974,
      "Manali": 2975,
      "Preeth": 2976,
      "Sulliv": 2977,
      "Sugandi": 2978,
      "Susunod": 2979,
      "Samuel": 2980,
      "aijah": 2981,
      "ako": 2982,
      "akup": 2983,
      "akonam": 2984,
      "approval": 2985,
      "camps": 2986,
      "camera": 2987,
      "explores": 2988,
      "exclamation": 2989,
      "gross": 2990,
      "hammed": 2991,
      "notable": 2992,
      "princip": 2993,
      "psych": 2994,
      "parlor": 2995,
      "paranor": 2996,
      "parody": 2997,
      "sales": 2998,
      "valuable": 2999,
      "interaction": 3000,
      "internationally": 3001,
      "revolved": 3002,
      "assics": 3003,
      "assass": 3004,
      "1913": 3005,
      "1915": 3006,
      "ological": 3007,
      "formerly": 3008,
      "ships": 3009,
      "concentration": 3010,
      "scripts": 3011,
      "Starring": 3012,
      "University": 3013,
      "Hawks": 3014,
      "Ferreri": 3015,
      "religion": 3016,
      "Adler": 3017,
      "African": 3018,
      "Akhla": 3019,
      "Hayes": 3020,
      "Jeremy": 3021,
      "Jane": 3022,
      "Janson": 3023,
      "January": 3024,
      "Karvan": 3025,
      "Kenneth": 3026,
      "Lucio": 3027,
      "Louis": 3028,
      "McCann": 3029,
      "Miriam": 3030,
      "Morris": 3031,
      "Michael": 3032,
      "Martin": 3033,
      "Martufe": 3034,
      "Martinelli": 3035,
      "Sheffiel": 3036,
      "Tube": 3037,
      "Tropez": 3038,
      "Wallenberg": 3039,
      "crime": 3040,
      "episod": 3041,
      "element": 3042,
      "eleventh": 3043,
      "families": 3044,
      "longest": 3045,
      "mystery": 3046,
      "nominations": 3047,
      "overarch": 3048,
      "surviv": 3049,
      "worldwide": 3050,
      "works": 3051,
      "standing": 3052,
      "region": 3053,
      "ending": 3054,
      "attempt": 3055,
      "differed": 3056,
      "different": 3057,
      "difficult": 3058,
      "leading": 3059,
      "formats": 3060,
      "rescue": 3061,
      "perform": 3062,
      "portrayal": 3063,
      "continued": 3064,
      "controver": 3065,
      "contribut": 3066,
      "pluralist": 3067,
      "scared": 3068,
      "Brownste": 3069,
      "Robinne": 3070,
      "official": 3071,
      "Philippines": 3072,
      "Engel": 3073,
      "featuring": 3074,
      "Thompson": 3075,
      "appeared": 3076,
      "BBC1": 3077,
      "Govindaraju": 3078,
      "Bangladeshi": 3079,
      "Allyson": 3080,
      "Barber": 3081,
      "Barbara": 3082,
      "Belbin": 3083,
      "Belfast": 3084,
      "Bowl": 3085,
      "Bowen": 3086,
      "Budape": 3087,
      "Buddhist": 3088,
      "Clark": 3089,
      "Classics": 3090,
      "Farno": 3091,
      "Faridur": 3092,
      "Golden": 3093,
      "Golod": 3094,
      "Gabby": 3095,
      "Gabriel": 3096,
      "Greenwood": 3097,
      "Greenba": 3098,
      "Hunter": 3099,
      "Huntz": 3100,
      "Matson": 3101,
      "Matteo": 3102,
      "Nouah": 3103,
      "Nouvion": 3104,
      "Ramsey": 3105,
      "Shah": 3106,
      "Shaina": 3107,
      "School": 3108,
      "Schwab": 3109,
      "USA": 3110,
      "Verrill": 3111,
      "Verónica": 3112,
      "With": 3113,
      "Wien": 3114,
      "Yearbo": 3115,
      "Yorkshire": 3116,
      "boy": 3117,
      "backing": 3118,
      "backgro": 3119,
      "billed": 3120,
      "billion": 3121,
      "centered": 3122,
      "curators": 3123,
      "currently": 3124,
      "deaths": 3125,
      "funded": 3126,
      "fictional": 3127,
      "going": 3128,
      "ginally": 3129,
      "genre": 3130,
      "generally": 3131,
      "hence": 3132,
      "hardships": 3133,
      "humour": 3134,
      "humorous": 3135,
      "highlight": 3136,
      "kata": 3137,
      "lines": 3138,
      "literally": 3139,
      "little": 3140,
      "medley": 3141,
      "movie": 3142,
      "movement": 3143,
      "nostal": 3144,
      "norms": 3145,
      "night": 3146,
      "nights": 3147,
      "preserved": 3148,
      "prises": 3149,
      "symbol": 3150,
      "sorship": 3151,
      "school": 3152,
      "violen": 3153,
      "waitress": 3154,
      "inspire": 3155,
      "installment": 3156,
      "reels": 3157,
      "remade": 3158,
      "remainder": 3159,
      "reformatted": 3160,
      "radio": 3161,
      "radical": 3162,
      "helped": 3163,
      "legal": 3164,
      "legally": 3165,
      "1992": 3166,
      "1997": 3167,
      "setting": 3168,
      "settlers": 3169,
      "phrase": 3170,
      "phrases": 3171,
      "photography": 3172,
      "Rajni": 3173,
      "Rajasthan": 3174,
      "become": 3175,
      "becomes": 3176,
      "children": 3177,
      "praising": 3178,
      "praised": 3179,
      "Christian": 3180,
      "Christopher": 3181,
      "places": 3182,
      "Frankau": 3183,
      "Bostic": 3184,
      "Bostrom": 3185,
      "undergoing": 3186,
      "Cooke": 3187,
      "Cannes": 3188,
      "Israel": 3189,
      "Israeli": 3190,
      "Islamic": 3191,
      "Entertain": 3192,
      "Enterprises": 3193,
      "months": 3194,
      "describe": 3195,
      "described": 3196,
      "experien": 3197,
      "experimental": 3198,
      "groups": 3199,
      "Adams": 3200,
      "Michele": 3201,
      "Michelle": 3202,
      "surrounding": 3203,
      "performance": 3204,
      "performances": 3205,
      "European": 3206,
      "Playmate": 3207,
      "Playboy": 3208,
      "students": 3209,
      "original": 3210,
      "originally": 3211,
      "commissioner": 3212,
      "commissioned": 3213,
      "!);": 3214,
      "1878": 3215,
      "Asianet": 3216,
      "Austrian": 3217,
      "Actress": 3218,
      "Aadukalam": 3219,
      "Adonaijah": 3220,
      "Asiavision": 3221,
      "August": 3222,
      "Berlin": 3223,
      "Billy": 3224,
      "Bembol": 3225,
      "Bruvver": 3226,
      "Brancato": 3227,
      "Battsek": 3228,
      "Cipollina": 3229,
      "Cinema": 3230,
      "Creative": 3231,
      "Citra": 3232,
      "Cunningham": 3233,
      "Cutler": 3234,
      "Center": 3235,
      "Catholic": 3236,
      "Curwood": 3237,
      "Cortez": 3238,
      "Civic": 3239,
      "Cineart": 3240,
      "County": 3241,
      "Certain": 3242,
      "California": 3243,
      "Calvert": 3244,
      "Council": 3245,
      "Derek": 3246,
      "Dalrymple": 3247,
      "Dimension": 3248,
      "Dulu": 3249,
      "Danny": 3250,
      "Draya": 3251,
      "Dominic": 3252,
      "Daniel": 3253,
      "ESPN": 3254,
      "Emman": 3255,
      "Esperanza": 3256,
      "Exchange": 3257,
      "Edison": 3258,
      "Echegui": 3259,
      "Emilio": 3260,
      "Fiberesim": 3261,
      "Freulich": 3262,
      "Fiscella": 3263,
      "Fabrizio": 3264,
      "Floum": 3265,
      "Foreign": 3266,
      "Gaudino": 3267,
      "Goedings": 3268,
      "Grund": 3269,
      "Gérard": 3270,
      "General": 3271,
      "Gavin": 3272,
      "Gigi": 3273,
      "Gagroo": 3274,
      "Grunwald": 3275,
      "Gonshaw": 3276,
      "Hindi": 3277,
      "Hilary": 3278,
      "Holmes": 3279,
      "Haley": 3280,
      "Ibadan": 3281,
      "Impress": 3282,
      "Ireland": 3283,
      "Ibinabo": 3284,
      "Jiro": 3285,
      "Julius": 3286,
      "Jayaraju": 3287,
      "Jordan": 3288,
      "Jessica": 3289,
      "Krishnan": 3290,
      "Katzman": 3291,
      "Kitter": 3292,
      "Krawche": 3293,
      "Kathryn": 3294,
      "Kolkata": 3295,
      "Kiron": 3296,
      "Kids": 3297,
      "Killian": 3298,
      "Kovacs": 3299,
      "Kabanat": 3300,
      "Kennedy": 3301,
      "Kannada": 3302,
      "Kelly": 3303,
      "Kirsten": 3304,
      "Kullu": 3305,
      "Kumbakonam": 3306,
      "Lyell": 3307,
      "Largel": 3308,
      "Lancash": 3309,
      "Lillo": 3310,
      "Lalit": 3311,
      "Lions": 3312,
      "Llewel": 3313,
      "Lippert": 3314,
      "Lindley": 3315,
      "Liverpool": 3316,
      "Luijk": 3317,
      "Lottie": 3318,
      "Mohammed": 3319,
      "Myers": 3320,
      "Military": 3321,
      "Mendelsohn": 3322,
      "Mesa": 3323,
      "Mutz": 3324,
      "Mathis": 3325,
      "Middle": 3326,
      "Macdone": 3327,
      "Mokeme": 3328,
      "Mighel": 3329,
      "Mister": 3330,
      "Mounties": 3331,
      "Mukherje": 3332,
      "Malik": 3333,
      "Mujibur": 3334,
      "Minster": 3335,
      "Malvern": 3336,
      "Narrated": 3337,
      "Nanthag": 3338,
      "November": 3339,
      "National": 3340,
      "Nicholas": 3341,
      "Nicobar": 3342,
      "Oaxac": 3343,
      "Orfini": 3344,
      "Ollie": 3345,
      "Originally": 3346,
      "Oliver": 3347,
      "Owiriwa": 3348,
      "Orange": 3349,
      "Overseas": 3350,
      "Pete": 3351,
      "Prince": 3352,
      "Pondich": 3353,
      "Patel": 3354,
      "Pathé": 3355,
      "Petra": 3356,
      "Prasad": 3357,
      "Rita": 3358,
      "Resistance": 3359,
      "Rights": 3360,
      "Saha": 3361,
      "Swamp": 3362,
      "Sallie": 3363,
      "Semarang": 3364,
      "Sayuthi": 3365,
      "Sidney": 3366,
      "Sacks": 3367,
      "Sundaram": 3368,
      "SIIMA": 3369,
      "South": 3370,
      "Sagor": 3371,
      "Swedish": 3372,
      "Teun": 3373,
      "Torabi": 3374,
      "Tripple": 3375,
      "Telugu": 3376,
      "Toler": 3377,
      "Tanya": 3378,
      "Troubles": 3379,
      "Takot": 3380,
      "Tonye": 3381,
      "Telefilms": 3382,
      "Udhay": 3383,
      "Ulema": 3384,
      "Vicki": 3385,
      "Vandenberg": 3386,
      "Victor": 3387,
      "Vanitha": 3388,
      "Wyatt": 3389,
      "Wesley": 3390,
      "Waschke": 3391,
      "Worker": 3392,
      "Yadi": 3393,
      "Yoba": 3394,
      "YouTube": 3395,
      "Zionists": 3396,
      "Zampa": 3397,
      "blic": 3398,
      "born": 3399,
      "breakup": 3400,
      "broadcast": 3401,
      "banner": 3402,
      "crore": 3403,
      "censorship": 3404,
      "civil": 3405,
      "called": 3406,
      "counter": 3407,
      "café": 3408,
      "catchphrases": 3409,
      "dilemma": 3410,
      "eastern": 3411,
      "fied": 3412,
      "fans": 3413,
      "future": 3414,
      "father": 3415,
      "feminist": 3416,
      "further": 3417,
      "facets": 3418,
      "favourable": 3419,
      "floods": 3420,
      "finding": 3421,
      "girl": 3422,
      "gallery": 3423,
      "gags": 3424,
      "gained": 3425,
      "husband": 3426,
      "himsel": 3427,
      "ized": 3428,
      "jockey": 3429,
      "luss": 3430,
      "most": 3431,
      "marks": 3432,
      "melodrama": 3433,
      "memorable": 3434,
      "millimeter": 3435,
      "million": 3436,
      "money": 3437,
      "message": 3438,
      "nurse": 3439,
      "operation": 3440,
      "public": 3441,
      "pendence": 3442,
      "particul": 3443,
      "people": 3444,
      "painting": 3445,
      "panied": 3446,
      "ratings": 3447,
      "simple": 3448,
      "saved": 3449,
      "translated": 3450,
      "videos": 3451,
      "whether": 3452,
      "wartime": 3453,
      "young": 3454,
      "initially": 3455,
      "involved": 3456,
      "inductees": 3457,
      "invitation": 3458,
      "arshini": 3459,
      "animated": 3460,
      "stories": 3461,
      "streaming": 3462,
      "strained": 3463,
      "thousands": 3464,
      "organized": 3465,
      "reasons": 3466,
      "required": 3467,
      "reproductions": 3468,
      "reconciled": 3469,
      "represented": 3470,
      "reprise": 3471,
      "returning": 3472,
      "replacing": 3473,
      "dishonest": 3474,
      "diplomat": 3475,
      "distinguish": 3476,
      "alliance": 3477,
      "escape": 3478,
      "issues": 3479,
      "22Crash": 3480,
      "racism": 3481,
      "heavily": 3482,
      "height": 3483,
      "unseen": 3484,
      "university": 3485,
      "unsuccessful": 3486,
      "leave": 3487,
      "lighter": 3488,
      "elaborate": 3489,
      "protested": 3490,
      "problems": 3491,
      "propaganda": 3492,
      "entangled": 3493,
      "athletic": 3494,
      "emotional": 3495,
      "employed": 3496,
      "separated": 3497,
      "versions": 3498,
      "results": 3499,
      "respectable": 3500,
      "Return": 3501,
      "accompanied": 3502,
      "accused": 3503,
      "accents": 3504,
      "societal": 3505,
      "Mahendiran": 3506,
      "Mahfuzur": 3507,
      "beliefs": 3508,
      "because": 3509,
      "beginning": 3510,
      "launched": 3511,
      "Independence": 3512,
      "Instead": 3513,
      "Institute": 3514,
      "graduation": 3515,
      "Alessandra": 3516,
      "available": 3517,
      "composed": 3518,
      "competition": 3519,
      "completed": 3520,
      "commenced": 3521,
      "Marchetti": 3522,
      "Secret": 3523,
      "conservative": 3524,
      "conflict": 3525,
      "considered": 3526,
      "Anschluss": 3527,
      "Bagavathi": 3528,
      "adventure": 3529,
      "addition": 3530,
      "declined": 3531,
      "devised": 3532,
      "dramatic": 3533,
      "Blackburn": 3534,
      "Douglas": 3535,
      "Frassica": 3536,
      "Rozelle": 3537,
      "downloaded": 3538,
      "classified": 3539,
      "Defenders": 3540,
      "Devadarshini": 3541,
      "Vikatan": 3542,
      "collaboration": 3543,
      "Islands": 3544,
      "Shuken": 3545,
      "Shujeo": 3546,
      "Shanmuga": 3547,
      "occupation": 3548,
      "Contract": 3549,
      "Scissors": 3550,
      "Gubbi": 3551,
      "Jefferson": 3552,
      "Murugadoss": 3553,
      "Murtala": 3554,
      "Produced": 3555,
      "Thanhouser": 3556,
      "affairs": 3557,
      "announcement": 3558,
      "Edgerton": 3559,
      "Longenecker": 3560,
      "Preetham": 3561,
      "Sullivan": 3562,
      "grossing": 3563,
      "principal": 3564,
      "psychological": 3565,
      "paranormal": 3566,
      "interactions": 3567,
      "assassination": 3568,
      "Akhlaque": 3569,
      "Martufello": 3570,
      "Sheffield": 3571,
      "episodes": 3572,
      "elements": 3573,
      "overarching": 3574,
      "survives": 3575,
      "attempts": 3576,
      "difficulty": 3577,
      "controversial": 3578,
      "contributing": 3579,
      "Brownstein": 3580,
      "Budapest": 3581,
      "Farnoosh": 3582,
      "Greenbaum": 3583,
      "Schooly": 3584,
      "Yearbook": 3585,
      "background": 3586,
      "nostalgic": 3587,
      "violence": 3588,
      "waitresses": 3589,
      "Entertainment": 3590,
      "experiences": 3591,
      "Fiberesima": 3592,
      "Krawcheck": 3593,
      "Kabanata": 3594,
      "Largely": 3595,
      "Lancashire": 3596,
      "Llewelyn": 3597,
      "Luijkx": 3598,
      "Macdonell": 3599,
      "Mukherjee": 3600,
      "Nanthagopal": 3601,
      "Oaxaca": 3602,
      "Princewill": 3603,
      "Pondicherry": 3604,
      "Trippletake": 3605,
      "Udhaya": 3606,
      "himself": 3607,
      "particularly": 3608
    },
    "merges": [
      [
        "d",
        "b"
      ],
      [
        "B",
        "J"
      ],
      [
        "O",
        "T"
      ],
      [
        "db",
        "r"
      ],
      [
        "i",
        "n"
      ],
      [
        "a",
        "r"
      ],
      [
        "e",
        "r"
      ],
      [
        "a",
        "n"
      ],
      [
        "E",
        "D"
      ],
      [
        "E",
        "OT"
      ],
      [
        "O",
        "BJ"
      ],
      [
        "P",
        "R"
      ],
      [
        "S",
        "U"
      ],
      [
        "S",
        "OT"
      ],
      [
        "db",
        "o"
      ],
      [
        "PR",
        "ED"
      ],
      [
        "SU",
        "BJ"
      ],
      [
        "s",
        "t"
      ],
      [
        "o",
        "n"
      ],
      [
        "i",
        "l"
      ],
      [
        "t",
        "h"
      ],
      [
        "o",
        "r"
      ],
      [
        "r",
        "e"
      ],
      [
        "in",
        "g"
      ],
      [
        "e",
        "n"
      ],
      [
        "a",
        "t"
      ],
      [
        "e",
        "d"
      ],
      [
        ":",
        "'"
      ],
      [
        "il",
        "m"
      ],
      [
        "c",
        "t"
      ],
      [
        "i",
        "t"
      ],
      [
        "st",
        "ar"
      ],
      [
        "r",
        "ing"
      ],
      [
        "d",
        "i"
      ],
      [
        "a",
        "l"
      ],
      [
        "th",
        "e"
      ],
      [
        "star",
        "ring"
      ],
      [
        "e",
        "s"
      ],
      [
        "f",
        "ilm"
      ],
      [
        "i",
        "s"
      ],
      [
        "i",
        "c"
      ],
      [
        "an",
        "d"
      ],
      [
        "r",
        "o"
      ],
      [
        "a",
        "s"
      ],
      [
        "2",
        "2"
      ],
      [
        "r",
        "a"
      ],
      [
        "l",
        "l"
      ],
      [
        "0",
        "0"
      ],
      [
        "h",
        "e"
      ],
      [
        "i",
        "on"
      ],
      [
        "o",
        "m"
      ],
      [
        "re",
        "ct"
      ],
      [
        "di",
        "rect"
      ],
      [
        "b",
        "y"
      ],
      [
        "u",
        "n"
      ],
      [
        "r",
        "i"
      ],
      [
        "l",
        "e"
      ],
      [
        "l",
        "i"
      ],
      [
        "ll",
        "o"
      ],
      [
        ":",
        "$"
      ],
      [
        "o",
        "f"
      ],
      [
        "u",
        "c"
      ],
      [
        "A",
        "llo"
      ],
      [
        "u",
        "s"
      ],
      [
        "r",
        "it"
      ],
      [
        "a",
        "m"
      ],
      [
        "e",
        "l"
      ],
      [
        "o",
        "s"
      ],
      [
        ":",
        "%"
      ],
      [
        "m",
        "i"
      ],
      [
        "p",
        "ro"
      ],
      [
        "ar",
        "d"
      ],
      [
        "T",
        "he"
      ],
      [
        "u",
        "t"
      ],
      [
        "w",
        "rit"
      ],
      [
        "en",
        "t"
      ],
      [
        "1",
        "9"
      ],
      [
        "a",
        "th"
      ],
      [
        "g",
        "e"
      ],
      [
        "direct",
        "or"
      ],
      [
        "w",
        "as"
      ],
      [
        "pro",
        "d"
      ],
      [
        "e",
        "m"
      ],
      [
        "a",
        "y"
      ],
      [
        "i",
        "m"
      ],
      [
        "o",
        "l"
      ],
      [
        "prod",
        "uc"
      ],
      [
        "h",
        "a"
      ],
      [
        "i",
        "r"
      ],
      [
        "e",
        "ath"
      ],
      [
        "i",
        "d"
      ],
      [
        "s",
        "e"
      ],
      [
        "t",
        "o"
      ],
      [
        "00",
        "0"
      ],
      [
        "2",
        "0"
      ],
      [
        "l",
        "y"
      ],
      [
        "v",
        "er"
      ],
      [
        "f",
        "or"
      ],
      [
        "re",
        "s"
      ],
      [
        ".",
        "."
      ],
      [
        "at",
        "o"
      ],
      [
        "direct",
        "ed"
      ],
      [
        "b",
        "ut"
      ],
      [
        "u",
        "r"
      ],
      [
        "writ",
        "er"
      ],
      [
        "p",
        "h"
      ],
      [
        "R",
        "e"
      ],
      [
        "W",
        "e"
      ],
      [
        "a",
        "c"
      ],
      [
        "i",
        "o"
      ],
      [
        "produc",
        "er"
      ],
      [
        "s",
        "o"
      ],
      [
        "or",
        "t"
      ],
      [
        "3",
        "F"
      ],
      [
        "C",
        "om"
      ],
      [
        "I",
        "t"
      ],
      [
        "m",
        "er"
      ],
      [
        "o",
        "w"
      ],
      [
        "R",
        "a"
      ],
      [
        "i",
        "es"
      ],
      [
        "o",
        "k"
      ],
      [
        "st",
        "ri"
      ],
      [
        "M",
        "a"
      ],
      [
        "a",
        "ct"
      ],
      [
        "b",
        "e"
      ],
      [
        "i",
        "v"
      ],
      [
        "o",
        "t"
      ],
      [
        "il",
        "li"
      ],
      [
        "di",
        "stri"
      ],
      [
        "distri",
        "but"
      ],
      [
        "7",
        "1"
      ],
      [
        "c",
        "e"
      ],
      [
        "i",
        "an"
      ],
      [
        "l",
        "a"
      ],
      [
        "m",
        "an"
      ],
      [
        "t",
        "er"
      ],
      [
        "ar",
        "t"
      ],
      [
        "F",
        "ilm"
      ],
      [
        "I",
        "n"
      ],
      [
        "N",
        "eath"
      ],
      [
        "b",
        "er"
      ],
      [
        "o",
        "v"
      ],
      [
        "w",
        "ard"
      ],
      [
        "distribut",
        "or"
      ],
      [
        "g",
        "ra"
      ],
      [
        "i",
        "ct"
      ],
      [
        "m",
        "a"
      ],
      [
        "p",
        "er"
      ],
      [
        "t",
        "e"
      ],
      [
        "an",
        "g"
      ],
      [
        "al",
        "l"
      ],
      [
        "A",
        "l"
      ],
      [
        "a",
        "v"
      ],
      [
        "c",
        "om"
      ],
      [
        "m",
        "us"
      ],
      [
        "p",
        "o"
      ],
      [
        "p",
        "ort"
      ],
      [
        "ar",
        "e"
      ],
      [
        "an",
        "k"
      ],
      [
        "mus",
        "ic"
      ],
      [
        "T",
        "il"
      ],
      [
        "c",
        "h"
      ],
      [
        "o",
        "un"
      ],
      [
        "at",
        "ion"
      ],
      [
        "M",
        "ar"
      ],
      [
        "S",
        "e"
      ],
      [
        "p",
        "ra"
      ],
      [
        "s",
        "h"
      ],
      [
        "u",
        "e"
      ],
      [
        "u",
        "l"
      ],
      [
        "J",
        "o"
      ],
      [
        "c",
        "he"
      ],
      [
        "k",
        "a"
      ],
      [
        "p",
        "os"
      ],
      [
        "s",
        "on"
      ],
      [
        "A",
        "r"
      ],
      [
        "a",
        "b"
      ],
      [
        "f",
        "are"
      ],
      [
        "i",
        "g"
      ],
      [
        "u",
        "res"
      ],
      [
        "as",
        "ed"
      ],
      [
        "A",
        "mer"
      ],
      [
        "C",
        "h"
      ],
      [
        "a",
        "ge"
      ],
      [
        "c",
        "on"
      ],
      [
        "p",
        "i"
      ],
      [
        "en",
        "e"
      ],
      [
        "ic",
        "h"
      ],
      [
        "ic",
        "an"
      ],
      [
        "ph",
        "y"
      ],
      [
        "Com",
        "pos"
      ],
      [
        "music",
        "Compos"
      ],
      [
        "musicCompos",
        "er"
      ],
      [
        ":",
        "!"
      ],
      [
        "A",
        "n"
      ],
      [
        "C",
        "io"
      ],
      [
        "F",
        "F"
      ],
      [
        "P",
        "os"
      ],
      [
        "P",
        "ict"
      ],
      [
        "S",
        "S"
      ],
      [
        "a",
        "st"
      ],
      [
        "b",
        "ene"
      ],
      [
        "c",
        "in"
      ],
      [
        "d",
        "en"
      ],
      [
        "i",
        "e"
      ],
      [
        "i",
        "p"
      ],
      [
        "n",
        "on"
      ],
      [
        "o",
        "i"
      ],
      [
        "u",
        "m"
      ],
      [
        "u",
        "st"
      ],
      [
        "u",
        "oi"
      ],
      [
        "v",
        "uoi"
      ],
      [
        "w",
        "h"
      ],
      [
        "re",
        "le"
      ],
      [
        "ha",
        "i"
      ],
      [
        "..",
        "."
      ],
      [
        "so",
        "pra"
      ],
      [
        "illi",
        "po"
      ],
      [
        "port",
        "ato"
      ],
      [
        "Amer",
        "ican"
      ],
      [
        "pi",
        "ù"
      ],
      [
        "Cio",
        "è"
      ],
      [
        "Pos",
        "illipo"
      ],
      [
        ".",
        "%"
      ],
      [
        "B",
        "a"
      ],
      [
        "B",
        "e"
      ],
      [
        "C",
        "at"
      ],
      [
        "l",
        "o"
      ],
      [
        "r",
        "y"
      ],
      [
        "t",
        "en"
      ],
      [
        "w",
        "i"
      ],
      [
        "22",
        "FF"
      ],
      [
        "ir",
        "d"
      ],
      [
        "20",
        "1"
      ],
      [
        "ow",
        "n"
      ],
      [
        "act",
        "or"
      ],
      [
        "Pict",
        "ures"
      ],
      [
        "Y",
        "ank"
      ],
      [
        "a",
        "d"
      ],
      [
        "e",
        "o"
      ],
      [
        "n",
        "e"
      ],
      [
        "n",
        "el"
      ],
      [
        "p",
        "l"
      ],
      [
        "s",
        "er"
      ],
      [
        "u",
        "age"
      ],
      [
        "ro",
        "m"
      ],
      [
        "em",
        "ato"
      ],
      [
        "ov",
        "ic"
      ],
      [
        "gra",
        "phy"
      ],
      [
        "ang",
        "uage"
      ],
      [
        "cin",
        "emato"
      ],
      [
        "Yank",
        "ovic"
      ],
      [
        "E",
        "r"
      ],
      [
        "S",
        "k"
      ],
      [
        "d",
        "e"
      ],
      [
        "d",
        "ra"
      ],
      [
        "f",
        "rom"
      ],
      [
        "l",
        "anguage"
      ],
      [
        "s",
        "c"
      ],
      [
        "il",
        "l"
      ],
      [
        "or",
        "e"
      ],
      [
        "uc",
        "h"
      ],
      [
        "We",
        "ird"
      ],
      [
        "rele",
        "ased"
      ],
      [
        "cinemato",
        "graphy"
      ],
      [
        "Sk",
        "ies"
      ],
      [
        "B",
        "l"
      ],
      [
        "G",
        "at"
      ],
      [
        "O",
        "ka"
      ],
      [
        "P",
        "im"
      ],
      [
        "S",
        "t"
      ],
      [
        "T",
        "o"
      ],
      [
        "T",
        "ok"
      ],
      [
        "p",
        "e"
      ],
      [
        "ar",
        "y"
      ],
      [
        "il",
        "ent"
      ],
      [
        "is",
        "h"
      ],
      [
        "writ",
        "ten"
      ],
      [
        "per",
        "nel"
      ],
      [
        "wi",
        "th"
      ],
      [
        "dra",
        "ma"
      ],
      [
        "Pim",
        "pernel"
      ],
      [
        "Tok",
        "at"
      ],
      [
        "B",
        "ro"
      ],
      [
        "D",
        "o"
      ],
      [
        "D",
        "av"
      ],
      [
        "F",
        "r"
      ],
      [
        "R",
        "o"
      ],
      [
        "S",
        "mi"
      ],
      [
        "d",
        "own"
      ],
      [
        "f",
        "e"
      ],
      [
        "i",
        "st"
      ],
      [
        "in",
        "e"
      ],
      [
        "on",
        "e"
      ],
      [
        "ed",
        "it"
      ],
      [
        "ct",
        "ion"
      ],
      [
        "Ba",
        "it"
      ],
      [
        "Smi",
        "th"
      ],
      [
        "1",
        "7"
      ],
      [
        "3",
        "0"
      ],
      [
        "D",
        "eath"
      ],
      [
        "F",
        "ra"
      ],
      [
        "J",
        "ac"
      ],
      [
        "P",
        "art"
      ],
      [
        "U",
        "s"
      ],
      [
        "c",
        "l"
      ],
      [
        "g",
        "h"
      ],
      [
        "h",
        "n"
      ],
      [
        "r",
        "is"
      ],
      [
        "u",
        "p"
      ],
      [
        "v",
        "ol"
      ],
      [
        "en",
        "n"
      ],
      [
        "22",
        "Pimpernel"
      ],
      [
        "id",
        "y"
      ],
      [
        "Re",
        "ward"
      ],
      [
        "oun",
        "t"
      ],
      [
        "uch",
        "down"
      ],
      [
        "Gat",
        "or"
      ],
      [
        "To",
        "uchdown"
      ],
      [
        "Fra",
        "idy"
      ],
      [
        "1",
        "0"
      ],
      [
        "4",
        "9"
      ],
      [
        "5",
        "0"
      ],
      [
        "B",
        "la"
      ],
      [
        "H",
        "o"
      ],
      [
        "J",
        "on"
      ],
      [
        "K",
        "ing"
      ],
      [
        "M",
        "e"
      ],
      [
        "d",
        "om"
      ],
      [
        "d",
        "ge"
      ],
      [
        "e",
        "k"
      ],
      [
        "f",
        "o"
      ],
      [
        "h",
        "is"
      ],
      [
        "u",
        "d"
      ],
      [
        "w",
        "den"
      ],
      [
        "z",
        "es"
      ],
      [
        "er",
        "t"
      ],
      [
        "on",
        "i"
      ],
      [
        "re",
        "d"
      ],
      [
        "is",
        "e"
      ],
      [
        "22",
        "Weird"
      ],
      [
        "Ra",
        "wden"
      ],
      [
        "Ra",
        "ise"
      ],
      [
        "iv",
        "e"
      ],
      [
        "Jo",
        "hn"
      ],
      [
        "ser",
        "ies"
      ],
      [
        "Bl",
        "ue"
      ],
      [
        "edit",
        "ing"
      ],
      [
        "Bla",
        "zes"
      ],
      [
        "Jon",
        "oni"
      ],
      [
        "9",
        "9"
      ],
      [
        "B",
        "ri"
      ],
      [
        "D",
        "e"
      ],
      [
        "F",
        "e"
      ],
      [
        "H",
        "ar"
      ],
      [
        "L",
        "e"
      ],
      [
        "R",
        "os"
      ],
      [
        "V",
        "i"
      ],
      [
        "c",
        "o"
      ],
      [
        "d",
        "u"
      ],
      [
        "d",
        "on"
      ],
      [
        "e",
        "t"
      ],
      [
        "w",
        "s"
      ],
      [
        "–",
        "'"
      ],
      [
        "on",
        "g"
      ],
      [
        "re",
        "en"
      ],
      [
        "it",
        "s"
      ],
      [
        "di",
        "an"
      ],
      [
        "ly",
        "n"
      ],
      [
        "Com",
        "e"
      ],
      [
        "ok",
        "lyn"
      ],
      [
        "Bro",
        "oklyn"
      ],
      [
        "King",
        "dom"
      ],
      [
        "Bri",
        "dge"
      ],
      [
        "B",
        "o"
      ],
      [
        "P",
        "a"
      ],
      [
        "P",
        "h"
      ],
      [
        "X",
        "m"
      ],
      [
        "g",
        "an"
      ],
      [
        "k",
        "e"
      ],
      [
        "l",
        "d"
      ],
      [
        "r",
        "al"
      ],
      [
        "u",
        "di"
      ],
      [
        "il",
        "ip"
      ],
      [
        "al",
        "ly"
      ],
      [
        "un",
        "d"
      ],
      [
        "li",
        "e"
      ],
      [
        "19",
        "3"
      ],
      [
        "id",
        "eo"
      ],
      [
        "We",
        "st"
      ],
      [
        "ber",
        "t"
      ],
      [
        "enn",
        "a"
      ],
      [
        "Xm",
        "as"
      ],
      [
        ":",
        "&"
      ],
      [
        "C",
        "o"
      ],
      [
        "C",
        "ar"
      ],
      [
        "C",
        "an"
      ],
      [
        "H",
        "ow"
      ],
      [
        "J",
        "im"
      ],
      [
        "W",
        "illi"
      ],
      [
        "a",
        "j"
      ],
      [
        "b",
        "ast"
      ],
      [
        "i",
        "a"
      ],
      [
        "k",
        "ing"
      ],
      [
        "o",
        "d"
      ],
      [
        "p",
        "t"
      ],
      [
        "s",
        "it"
      ],
      [
        "s",
        "ilent"
      ],
      [
        "t",
        "w"
      ],
      [
        "z",
        "o"
      ],
      [
        "er",
        "n"
      ],
      [
        "or",
        "d"
      ],
      [
        "en",
        "zo"
      ],
      [
        "at",
        "e"
      ],
      [
        "at",
        "ed"
      ],
      [
        "al",
        "so"
      ],
      [
        "ic",
        "e"
      ],
      [
        "ic",
        "al"
      ],
      [
        "of",
        "f"
      ],
      [
        "produc",
        "ed"
      ],
      [
        "We",
        "ek"
      ],
      [
        "Se",
        "bast"
      ],
      [
        "Jac",
        "k"
      ],
      [
        "Willi",
        "am"
      ],
      [
        "Sebast",
        "ian"
      ],
      [
        "3",
        "8"
      ],
      [
        "A",
        "b"
      ],
      [
        "A",
        "ust"
      ],
      [
        "G",
        "e"
      ],
      [
        "I",
        "I"
      ],
      [
        "I",
        "s"
      ],
      [
        "N",
        "or"
      ],
      [
        "S",
        "h"
      ],
      [
        "U",
        "n"
      ],
      [
        "a",
        "ir"
      ],
      [
        "c",
        "es"
      ],
      [
        "m",
        "e"
      ],
      [
        "o",
        "c"
      ],
      [
        "o",
        "u"
      ],
      [
        "q",
        "u"
      ],
      [
        "r",
        "u"
      ],
      [
        "s",
        "i"
      ],
      [
        "t",
        "it"
      ],
      [
        "t",
        "im"
      ],
      [
        "v",
        "e"
      ],
      [
        "in",
        "a"
      ],
      [
        "in",
        "d"
      ],
      [
        "th",
        "at"
      ],
      [
        "or",
        "ld"
      ],
      [
        "re",
        "n"
      ],
      [
        "om",
        "en"
      ],
      [
        "ri",
        "z"
      ],
      [
        "le",
        "y"
      ],
      [
        "ut",
        "ion"
      ],
      [
        "19",
        "8"
      ],
      [
        "em",
        "ber"
      ],
      [
        "for",
        "e"
      ],
      [
        "Re",
        "vol"
      ],
      [
        "man",
        "t"
      ],
      [
        "Ar",
        "t"
      ],
      [
        "wh",
        "ich"
      ],
      [
        "Fr",
        "an"
      ],
      [
        "gh",
        "t"
      ],
      [
        "Vi",
        "enna"
      ],
      [
        "Ph",
        "ilip"
      ],
      [
        "Aust",
        "ral"
      ],
      [
        "Revol",
        "ution"
      ],
      [
        "2",
        "00"
      ],
      [
        "7",
        "6"
      ],
      [
        "9",
        "6"
      ],
      [
        "A",
        "riz"
      ],
      [
        "B",
        "rit"
      ],
      [
        "C",
        "on"
      ],
      [
        "C",
        "aj"
      ],
      [
        "E",
        "n"
      ],
      [
        "G",
        "il"
      ],
      [
        "H",
        "a"
      ],
      [
        "J",
        "ust"
      ],
      [
        "M",
        "on"
      ],
      [
        "R",
        "ich"
      ],
      [
        "R",
        "enzo"
      ],
      [
        "S",
        "c"
      ],
      [
        "S",
        "te"
      ],
      [
        "W",
        "omen"
      ],
      [
        "a",
        "g"
      ],
      [
        "a",
        "in"
      ],
      [
        "b",
        "ore"
      ],
      [
        "c",
        "k"
      ],
      [
        "e",
        "ar"
      ],
      [
        "e",
        "ver"
      ],
      [
        "l",
        "ed"
      ],
      [
        "p",
        "ent"
      ],
      [
        "u",
        "k"
      ],
      [
        "v",
        "es"
      ],
      [
        "y",
        "n"
      ],
      [
        "in",
        "o"
      ],
      [
        "in",
        "cl"
      ],
      [
        "er",
        "e"
      ],
      [
        "er",
        "son"
      ],
      [
        "an",
        "t"
      ],
      [
        "st",
        "iv"
      ],
      [
        "on",
        "a"
      ],
      [
        "or",
        "y"
      ],
      [
        "re",
        "ce"
      ],
      [
        "star",
        "s"
      ],
      [
        "ll",
        "e"
      ],
      [
        "ri",
        "ght"
      ],
      [
        "ay",
        "e"
      ],
      [
        "ver",
        "ly"
      ],
      [
        "res",
        "s"
      ],
      [
        "gra",
        "m"
      ],
      [
        "com",
        "ed"
      ],
      [
        "oun",
        "d"
      ],
      [
        "Mar",
        "k"
      ],
      [
        "Ar",
        "bore"
      ],
      [
        "ab",
        "le"
      ],
      [
        "Be",
        "verly"
      ],
      [
        "Dav",
        "id"
      ],
      [
        "fe",
        "at"
      ],
      [
        "Fe",
        "stiv"
      ],
      [
        "tit",
        "le"
      ],
      [
        "Ariz",
        "ona"
      ],
      [
        "Brit",
        "ish"
      ],
      [
        "Caj",
        "un"
      ],
      [
        "Just",
        "ice"
      ],
      [
        "Rich",
        "ard"
      ],
      [
        "incl",
        "ud"
      ],
      [
        "rece",
        "iv"
      ],
      [
        "Festiv",
        "al"
      ],
      [
        ")",
        "."
      ],
      [
        "6",
        "8"
      ],
      [
        "B",
        "ra"
      ],
      [
        "C",
        "ro"
      ],
      [
        "C",
        "la"
      ],
      [
        "F",
        "er"
      ],
      [
        "F",
        "all"
      ],
      [
        "G",
        "u"
      ],
      [
        "H",
        "art"
      ],
      [
        "I",
        "f"
      ],
      [
        "J",
        "e"
      ],
      [
        "M",
        "ay"
      ],
      [
        "M",
        "ur"
      ],
      [
        "O",
        "n"
      ],
      [
        "P",
        "ar"
      ],
      [
        "P",
        "ro"
      ],
      [
        "R",
        "ic"
      ],
      [
        "S",
        "ilent"
      ],
      [
        "T",
        "V"
      ],
      [
        "T",
        "h"
      ],
      [
        "W",
        "r"
      ],
      [
        "W",
        "ar"
      ],
      [
        "W",
        "right"
      ],
      [
        "a",
        "f"
      ],
      [
        "c",
        "ount"
      ],
      [
        "d",
        "oc"
      ],
      [
        "f",
        "t"
      ],
      [
        "h",
        "ist"
      ],
      [
        "i",
        "al"
      ],
      [
        "i",
        "ver"
      ],
      [
        "m",
        "on"
      ],
      [
        "n",
        "ation"
      ],
      [
        "o",
        "p"
      ],
      [
        "o",
        "us"
      ],
      [
        "p",
        "re"
      ],
      [
        "r",
        "ill"
      ],
      [
        "t",
        "s"
      ],
      [
        "v",
        "is"
      ],
      [
        "v",
        "ie"
      ],
      [
        "y",
        "o"
      ],
      [
        "ar",
        "ound"
      ],
      [
        "an",
        "n"
      ],
      [
        "th",
        "er"
      ],
      [
        "or",
        "k"
      ],
      [
        "or",
        "ge"
      ],
      [
        "al",
        "e"
      ],
      [
        "ra",
        "y"
      ],
      [
        "am",
        "il"
      ],
      [
        "ent",
        "ary"
      ],
      [
        "19",
        "4"
      ],
      [
        "for",
        "d"
      ],
      [
        "io",
        "us"
      ],
      [
        "In",
        "ter"
      ],
      [
        "In",
        "don"
      ],
      [
        "ict",
        "ion"
      ],
      [
        "Jo",
        "e"
      ],
      [
        "ig",
        "h"
      ],
      [
        "um",
        "entary"
      ],
      [
        "Be",
        "fore"
      ],
      [
        "lo",
        "y"
      ],
      [
        "pl",
        "ay"
      ],
      [
        "sc",
        "reen"
      ],
      [
        "du",
        "ring"
      ],
      [
        "Pa",
        "ul"
      ],
      [
        "West",
        "ern"
      ],
      [
        "sit",
        "com"
      ],
      [
        "Ge",
        "orge"
      ],
      [
        "receiv",
        "ed"
      ],
      [
        "Cro",
        "ft"
      ],
      [
        "On",
        "ly"
      ],
      [
        "Wr",
        "ong"
      ],
      [
        "doc",
        "umentary"
      ],
      [
        "Indon",
        "es"
      ],
      [
        "A",
        "g"
      ],
      [
        "B",
        "ert"
      ],
      [
        "E",
        "d"
      ],
      [
        "F",
        "air"
      ],
      [
        "G",
        "er"
      ],
      [
        "G",
        "or"
      ],
      [
        "H",
        "er"
      ],
      [
        "H",
        "all"
      ],
      [
        "J",
        "r"
      ],
      [
        "J",
        "am"
      ],
      [
        "J",
        "os"
      ],
      [
        "K",
        "er"
      ],
      [
        "L",
        "eo"
      ],
      [
        "L",
        "yn"
      ],
      [
        "L",
        "loy"
      ],
      [
        "P",
        "er"
      ],
      [
        "Q",
        "ue"
      ],
      [
        "S",
        "to"
      ],
      [
        "U",
        "l"
      ],
      [
        "V",
        "ideo"
      ],
      [
        "W",
        "orld"
      ],
      [
        "a",
        "o"
      ],
      [
        "a",
        "ward"
      ],
      [
        "a",
        "dian"
      ],
      [
        "b",
        "in"
      ],
      [
        "b",
        "ank"
      ],
      [
        "c",
        "is"
      ],
      [
        "c",
        "ast"
      ],
      [
        "d",
        "es"
      ],
      [
        "d",
        "el"
      ],
      [
        "d",
        "ay"
      ],
      [
        "e",
        "en"
      ],
      [
        "e",
        "ph"
      ],
      [
        "f",
        "f"
      ],
      [
        "h",
        "er"
      ],
      [
        "h",
        "it"
      ],
      [
        "h",
        "and"
      ],
      [
        "i",
        "b"
      ],
      [
        "i",
        "re"
      ],
      [
        "k",
        "y"
      ],
      [
        "m",
        "at"
      ],
      [
        "n",
        "ing"
      ],
      [
        "p",
        "le"
      ],
      [
        "r",
        "an"
      ],
      [
        "r",
        "or"
      ],
      [
        "r",
        "as"
      ],
      [
        "r",
        "un"
      ],
      [
        "s",
        "uc"
      ],
      [
        "s",
        "pe"
      ],
      [
        "t",
        "ed"
      ],
      [
        "t",
        "ra"
      ],
      [
        "u",
        "g"
      ],
      [
        "u",
        "th"
      ],
      [
        "v",
        "ideo"
      ],
      [
        "w",
        "o"
      ],
      [
        "w",
        "in"
      ],
      [
        "y",
        "ear"
      ],
      [
        "er",
        "i"
      ],
      [
        "er",
        "s"
      ],
      [
        "an",
        "y"
      ],
      [
        "st",
        "ion"
      ],
      [
        "st",
        "ory"
      ],
      [
        "on",
        "s"
      ],
      [
        "th",
        "a"
      ],
      [
        "th",
        "rill"
      ],
      [
        "or",
        "ror"
      ],
      [
        "ing",
        "s"
      ],
      [
        "en",
        "th"
      ],
      [
        "al",
        "d"
      ],
      [
        "the",
        "ir"
      ],
      [
        "es",
        "on"
      ],
      [
        "ro",
        "u"
      ],
      [
        "un",
        "g"
      ],
      [
        "am",
        "ount"
      ],
      [
        "em",
        "an"
      ],
      [
        "ha",
        "d"
      ],
      [
        "ur",
        "al"
      ],
      [
        "ph",
        "en"
      ],
      [
        "be",
        "ing"
      ],
      [
        "be",
        "tw"
      ],
      [
        "sh",
        "man"
      ],
      [
        "ul",
        "t"
      ],
      [
        "ig",
        "n"
      ],
      [
        "An",
        "d"
      ],
      [
        "An",
        "n"
      ],
      [
        "Cat",
        "es"
      ],
      [
        "lo",
        "c"
      ],
      [
        "St",
        "udi"
      ],
      [
        "Ro",
        "bert"
      ],
      [
        "fo",
        "llo"
      ],
      [
        "Har",
        "ry"
      ],
      [
        "Le",
        "eson"
      ],
      [
        "Co",
        "lle"
      ],
      [
        "Can",
        "adian"
      ],
      [
        "How",
        "ard"
      ],
      [
        "Ab",
        "el"
      ],
      [
        "ces",
        "s"
      ],
      [
        "qu",
        "es"
      ],
      [
        "tim",
        "ate"
      ],
      [
        "mant",
        "yo"
      ],
      [
        "Ste",
        "phen"
      ],
      [
        "Bra",
        "mantyo"
      ],
      [
        "Par",
        "amount"
      ],
      [
        "count",
        "ry"
      ],
      [
        "hist",
        "or"
      ],
      [
        "nation",
        "al"
      ],
      [
        "Fair",
        "bank"
      ],
      [
        "Ger",
        "man"
      ],
      [
        "Her",
        "shman"
      ],
      [
        "Jam",
        "es"
      ],
      [
        "Jos",
        "eph"
      ],
      [
        "Lyn",
        "n"
      ],
      [
        "Lloy",
        "d"
      ],
      [
        "Que",
        "stion"
      ],
      [
        "Ul",
        "timate"
      ],
      [
        "suc",
        "cess"
      ],
      [
        "thrill",
        "er"
      ],
      [
        "betw",
        "een"
      ],
      [
        "Colle",
        "ction"
      ],
      [
        "Fairbank",
        "s"
      ],
      [
        "!",
        ":"
      ],
      [
        "5",
        "1"
      ],
      [
        "A",
        "ward"
      ],
      [
        "B",
        "en"
      ],
      [
        "B",
        "ur"
      ],
      [
        "B",
        "ald"
      ],
      [
        "C",
        "or"
      ],
      [
        "C",
        "li"
      ],
      [
        "D",
        "V"
      ],
      [
        "D",
        "el"
      ],
      [
        "E",
        "l"
      ],
      [
        "F",
        "o"
      ],
      [
        "F",
        "iction"
      ],
      [
        "G",
        "l"
      ],
      [
        "G",
        "ib"
      ],
      [
        "H",
        "en"
      ],
      [
        "H",
        "off"
      ],
      [
        "I",
        "z"
      ],
      [
        "L",
        "a"
      ],
      [
        "L",
        "es"
      ],
      [
        "L",
        "ive"
      ],
      [
        "L",
        "ong"
      ],
      [
        "M",
        "an"
      ],
      [
        "M",
        "eri"
      ],
      [
        "O",
        "j"
      ],
      [
        "P",
        "i"
      ],
      [
        "P",
        "re"
      ],
      [
        "R",
        "us"
      ],
      [
        "R",
        "ay"
      ],
      [
        "S",
        "u"
      ],
      [
        "S",
        "an"
      ],
      [
        "S",
        "us"
      ],
      [
        "S",
        "am"
      ],
      [
        "T",
        "ris"
      ],
      [
        "Z",
        "o"
      ],
      [
        "a",
        "i"
      ],
      [
        "a",
        "k"
      ],
      [
        "a",
        "p"
      ],
      [
        "b",
        "all"
      ],
      [
        "c",
        "or"
      ],
      [
        "c",
        "re"
      ],
      [
        "c",
        "rit"
      ],
      [
        "c",
        "am"
      ],
      [
        "c",
        "ord"
      ],
      [
        "c",
        "ial"
      ],
      [
        "e",
        "x"
      ],
      [
        "e",
        "ll"
      ],
      [
        "f",
        "ive"
      ],
      [
        "g",
        "s"
      ],
      [
        "g",
        "ro"
      ],
      [
        "h",
        "as"
      ],
      [
        "h",
        "am"
      ],
      [
        "h",
        "orror"
      ],
      [
        "k",
        "er"
      ],
      [
        "l",
        "es"
      ],
      [
        "m",
        "en"
      ],
      [
        "m",
        "ore"
      ],
      [
        "n",
        "ot"
      ],
      [
        "o",
        "ut"
      ],
      [
        "o",
        "gram"
      ],
      [
        "p",
        "r"
      ],
      [
        "p",
        "s"
      ],
      [
        "p",
        "ar"
      ],
      [
        "s",
        "al"
      ],
      [
        "s",
        "ion"
      ],
      [
        "t",
        "t"
      ],
      [
        "u",
        "re"
      ],
      [
        "u",
        "ction"
      ],
      [
        "v",
        "al"
      ],
      [
        "v",
        "ent"
      ],
      [
        "w",
        "n"
      ],
      [
        "w",
        "u"
      ],
      [
        "w",
        "on"
      ],
      [
        "z",
        "a"
      ],
      [
        "z",
        "i"
      ],
      [
        "in",
        "ter"
      ],
      [
        "ar",
        "a"
      ],
      [
        "ar",
        "lie"
      ],
      [
        "on",
        "y"
      ],
      [
        "il",
        "e"
      ],
      [
        "th",
        "rou"
      ],
      [
        "or",
        "ation"
      ],
      [
        "re",
        "li"
      ],
      [
        "re",
        "vol"
      ],
      [
        "at",
        "es"
      ],
      [
        "al",
        "i"
      ],
      [
        "ic",
        "a"
      ],
      [
        "ic",
        "s"
      ],
      [
        "as",
        "s"
      ],
      [
        "as",
        "on"
      ],
      [
        "om",
        "in"
      ],
      [
        "ri",
        "pt"
      ],
      [
        "li",
        "fe"
      ],
      [
        "el",
        "t"
      ],
      [
        "19",
        "1"
      ],
      [
        "19",
        "7"
      ],
      [
        "ath",
        "i"
      ],
      [
        "prod",
        "uction"
      ],
      [
        "ol",
        "o"
      ],
      [
        "ir",
        "st"
      ],
      [
        "id",
        "e"
      ],
      [
        "for",
        "mer"
      ],
      [
        "Ma",
        "king"
      ],
      [
        "act",
        "ion"
      ],
      [
        "act",
        "ress"
      ],
      [
        "ot",
        "ball"
      ],
      [
        "Film",
        "s"
      ],
      [
        "In",
        "dian"
      ],
      [
        "te",
        "am"
      ],
      [
        "sh",
        "ip"
      ],
      [
        "ul",
        "es"
      ],
      [
        "Ch",
        "ris"
      ],
      [
        "Ch",
        "arlie"
      ],
      [
        "con",
        "c"
      ],
      [
        "con",
        "d"
      ],
      [
        "um",
        "ar"
      ],
      [
        "wh",
        "o"
      ],
      [
        "wh",
        "ile"
      ],
      [
        "201",
        "1"
      ],
      [
        "201",
        "4"
      ],
      [
        "sc",
        "ript"
      ],
      [
        "St",
        "ar"
      ],
      [
        "Ros",
        "enth"
      ],
      [
        "193",
        "5"
      ],
      [
        "How",
        "ever"
      ],
      [
        "Un",
        "iver"
      ],
      [
        "Fran",
        "cis"
      ],
      [
        "Ha",
        "w"
      ],
      [
        "Mon",
        "ogram"
      ],
      [
        "uk",
        "wu"
      ],
      [
        "comed",
        "y"
      ],
      [
        "includ",
        "ing"
      ],
      [
        "Fer",
        "r"
      ],
      [
        "af",
        "ter"
      ],
      [
        "vie",
        "ws"
      ],
      [
        "Inter",
        "national"
      ],
      [
        "Indones",
        "ian"
      ],
      [
        "hand",
        "led"
      ],
      [
        "wo",
        "od"
      ],
      [
        "year",
        "s"
      ],
      [
        "histor",
        "ical"
      ],
      [
        "Bald",
        "win"
      ],
      [
        "DV",
        "D"
      ],
      [
        "Gib",
        "son"
      ],
      [
        "Hoff",
        "man"
      ],
      [
        "Iz",
        "u"
      ],
      [
        "Les",
        "lie"
      ],
      [
        "Meri",
        "ka"
      ],
      [
        "Oj",
        "ukwu"
      ],
      [
        "Pi",
        "erson"
      ],
      [
        "Tris",
        "ha"
      ],
      [
        "Zo",
        "o"
      ],
      [
        "throu",
        "gh"
      ],
      [
        "reli",
        "g"
      ],
      [
        "Rosenth",
        "al"
      ],
      [
        "\"",
        "."
      ],
      [
        "2",
        "4"
      ],
      [
        "A",
        "d"
      ],
      [
        "A",
        "f"
      ],
      [
        "A",
        "k"
      ],
      [
        "A",
        "pr"
      ],
      [
        "B",
        "B"
      ],
      [
        "B",
        "es"
      ],
      [
        "B",
        "ang"
      ],
      [
        "D",
        "ig"
      ],
      [
        "D",
        "ons"
      ],
      [
        "D",
        "eman"
      ],
      [
        "G",
        "ir"
      ],
      [
        "G",
        "ov"
      ],
      [
        "H",
        "an"
      ],
      [
        "H",
        "ay"
      ],
      [
        "J",
        "er"
      ],
      [
        "J",
        "an"
      ],
      [
        "J",
        "un"
      ],
      [
        "J",
        "ules"
      ],
      [
        "K",
        "ar"
      ],
      [
        "K",
        "en"
      ],
      [
        "K",
        "im"
      ],
      [
        "L",
        "uc"
      ],
      [
        "L",
        "ou"
      ],
      [
        "M",
        "c"
      ],
      [
        "M",
        "i"
      ],
      [
        "M",
        "or"
      ],
      [
        "M",
        "ic"
      ],
      [
        "M",
        "art"
      ],
      [
        "O",
        "ct"
      ],
      [
        "R",
        "uth"
      ],
      [
        "S",
        "he"
      ],
      [
        "T",
        "u"
      ],
      [
        "T",
        "at"
      ],
      [
        "T",
        "ro"
      ],
      [
        "T",
        "his"
      ],
      [
        "T",
        "aye"
      ],
      [
        "T",
        "amil"
      ],
      [
        "W",
        "ay"
      ],
      [
        "W",
        "all"
      ],
      [
        "W",
        "hit"
      ],
      [
        "a",
        "king"
      ],
      [
        "b",
        "ru"
      ],
      [
        "c",
        "a"
      ],
      [
        "c",
        "an"
      ],
      [
        "c",
        "ri"
      ],
      [
        "c",
        "us"
      ],
      [
        "c",
        "la"
      ],
      [
        "c",
        "ember"
      ],
      [
        "e",
        "p"
      ],
      [
        "e",
        "le"
      ],
      [
        "f",
        "amil"
      ],
      [
        "f",
        "ford"
      ],
      [
        "f",
        "elt"
      ],
      [
        "f",
        "irst"
      ],
      [
        "h",
        "an"
      ],
      [
        "j",
        "e"
      ],
      [
        "k",
        "i"
      ],
      [
        "k",
        "s"
      ],
      [
        "k",
        "es"
      ],
      [
        "l",
        "on"
      ],
      [
        "l",
        "ing"
      ],
      [
        "l",
        "and"
      ],
      [
        "m",
        "y"
      ],
      [
        "m",
        "il"
      ],
      [
        "m",
        "ent"
      ],
      [
        "n",
        "u"
      ],
      [
        "n",
        "ine"
      ],
      [
        "n",
        "omin"
      ],
      [
        "o",
        "ver"
      ],
      [
        "o",
        "ber"
      ],
      [
        "p",
        "ed"
      ],
      [
        "p",
        "any"
      ],
      [
        "p",
        "oration"
      ],
      [
        "q",
        "ue"
      ],
      [
        "s",
        "u"
      ],
      [
        "s",
        "ur"
      ],
      [
        "t",
        "ing"
      ],
      [
        "u",
        "ll"
      ],
      [
        "u",
        "ally"
      ],
      [
        "v",
        "y"
      ],
      [
        "v",
        "an"
      ],
      [
        "v",
        "ing"
      ],
      [
        "v",
        "en"
      ],
      [
        "v",
        "ed"
      ],
      [
        "w",
        "ing"
      ],
      [
        "w",
        "ed"
      ],
      [
        "w",
        "orld"
      ],
      [
        "w",
        "ere"
      ],
      [
        "w",
        "ork"
      ],
      [
        "z",
        "e"
      ],
      [
        "ar",
        "act"
      ],
      [
        "er",
        "ed"
      ],
      [
        "er",
        "ry"
      ],
      [
        "an",
        "i"
      ],
      [
        "st",
        "and"
      ],
      [
        "il",
        "a"
      ],
      [
        "il",
        "d"
      ],
      [
        "th",
        "an"
      ],
      [
        "th",
        "or"
      ],
      [
        "th",
        "ur"
      ],
      [
        "th",
        "up"
      ],
      [
        "re",
        "g"
      ],
      [
        "re",
        "un"
      ],
      [
        "en",
        "d"
      ],
      [
        "at",
        "t"
      ],
      [
        "at",
        "er"
      ],
      [
        "it",
        "ed"
      ],
      [
        "it",
        "ary"
      ],
      [
        "star",
        "red"
      ],
      [
        "di",
        "ff"
      ],
      [
        "the",
        "y"
      ],
      [
        "es",
        "s"
      ],
      [
        "film",
        "ma"
      ],
      [
        "and",
        "a"
      ],
      [
        "ro",
        "le"
      ],
      [
        "ro",
        "mant"
      ],
      [
        "ro",
        "les"
      ],
      [
        "as",
        "e"
      ],
      [
        "ri",
        "gan"
      ],
      [
        "le",
        "ad"
      ],
      [
        "le",
        "vis"
      ],
      [
        "am",
        "e"
      ],
      [
        "pro",
        "gram"
      ],
      [
        "19",
        "20"
      ],
      [
        "ge",
        "ts"
      ],
      [
        "em",
        "y"
      ],
      [
        "se",
        "ver"
      ],
      [
        "20",
        "20"
      ],
      [
        "for",
        "mat"
      ],
      [
        "res",
        "c"
      ],
      [
        "Re",
        "za"
      ],
      [
        "ac",
        "e"
      ],
      [
        "ort",
        "on"
      ],
      [
        "3F",
        "O"
      ],
      [
        "mer",
        "ous"
      ],
      [
        "be",
        "gan"
      ],
      [
        "ot",
        "ion"
      ],
      [
        "distribut",
        "ed"
      ],
      [
        "la",
        "des"
      ],
      [
        "Film",
        "ing"
      ],
      [
        "per",
        "for"
      ],
      [
        "te",
        "levis"
      ],
      [
        "av",
        "vy"
      ],
      [
        "port",
        "ray"
      ],
      [
        "ch",
        "aract"
      ],
      [
        "Mar",
        "ques"
      ],
      [
        "Se",
        "cond"
      ],
      [
        "Se",
        "thup"
      ],
      [
        "sh",
        "ort"
      ],
      [
        "sh",
        "ot"
      ],
      [
        "Jo",
        "y"
      ],
      [
        "Ar",
        "thur"
      ],
      [
        "ab",
        "out"
      ],
      [
        "con",
        "t"
      ],
      [
        "um",
        "b"
      ],
      [
        "ust",
        "on"
      ],
      [
        "rele",
        "ase"
      ],
      [
        "201",
        "7"
      ],
      [
        "ne",
        "y"
      ],
      [
        "ne",
        "ll"
      ],
      [
        "pl",
        "ural"
      ],
      [
        "sc",
        "ar"
      ],
      [
        "St",
        "ates"
      ],
      [
        "pe",
        "ar"
      ],
      [
        "Bro",
        "wn"
      ],
      [
        "Dav",
        "ao"
      ],
      [
        "Ro",
        "bin"
      ],
      [
        "ction",
        "s"
      ],
      [
        "Ho",
        "uston"
      ],
      [
        "fo",
        "otball"
      ],
      [
        "De",
        "cember"
      ],
      [
        "Fe",
        "bru"
      ],
      [
        "Har",
        "ve"
      ],
      [
        "Le",
        "e"
      ],
      [
        "du",
        "ctions"
      ],
      [
        "Bo",
        "b"
      ],
      [
        "udi",
        "a"
      ],
      [
        "Car",
        "l"
      ],
      [
        "tw",
        "o"
      ],
      [
        "off",
        "ic"
      ],
      [
        "Nor",
        "th"
      ],
      [
        "Nor",
        "bert"
      ],
      [
        "Un",
        "ited"
      ],
      [
        "si",
        "x"
      ],
      [
        "tim",
        "e"
      ],
      [
        "Fran",
        "ce"
      ],
      [
        "Philip",
        "p"
      ],
      [
        "200",
        "1"
      ],
      [
        "Con",
        "nell"
      ],
      [
        "En",
        "g"
      ],
      [
        "Sc",
        "reen"
      ],
      [
        "ever",
        "y"
      ],
      [
        "feat",
        "u"
      ],
      [
        "feat",
        "ures"
      ],
      [
        "Cla",
        "udia"
      ],
      [
        "Pro",
        "ductions"
      ],
      [
        "Ric",
        "ky"
      ],
      [
        "Th",
        "om"
      ],
      [
        "mon",
        "d"
      ],
      [
        "194",
        "6"
      ],
      [
        "Ed",
        "ward"
      ],
      [
        "Ker",
        "et"
      ],
      [
        "Sto",
        "kes"
      ],
      [
        "Studi",
        "o"
      ],
      [
        "follo",
        "ws"
      ],
      [
        "Award",
        "s"
      ],
      [
        "Cor",
        "poration"
      ],
      [
        "Cli",
        "fford"
      ],
      [
        "El",
        "felt"
      ],
      [
        "Fo",
        "x"
      ],
      [
        "Long",
        "ford"
      ],
      [
        "Pre",
        "m"
      ],
      [
        "Ray",
        "mond"
      ],
      [
        "Sus",
        "an"
      ],
      [
        "ai",
        "red"
      ],
      [
        "ap",
        "pear"
      ],
      [
        "cre",
        "ated"
      ],
      [
        "vent",
        "ually"
      ],
      [
        "revol",
        "ves"
      ],
      [
        "Univer",
        "sal"
      ],
      [
        "Francis",
        "co"
      ],
      [
        "Haw",
        "thor"
      ],
      [
        "Ferr",
        "ara"
      ],
      [
        "relig",
        "ious"
      ],
      [
        "Apr",
        "il"
      ],
      [
        "BB",
        "C"
      ],
      [
        "Bes",
        "ser"
      ],
      [
        "Bang",
        "lades"
      ],
      [
        "Dig",
        "gs"
      ],
      [
        "Deman",
        "ge"
      ],
      [
        "Gir",
        "ard"
      ],
      [
        "Gov",
        "ind"
      ],
      [
        "Han",
        "ung"
      ],
      [
        "Jun",
        "e"
      ],
      [
        "Oct",
        "ober"
      ],
      [
        "Tat",
        "ia"
      ],
      [
        "Way",
        "ne"
      ],
      [
        "Whit",
        "e"
      ],
      [
        "cla",
        "im"
      ],
      [
        "nu",
        "merous"
      ],
      [
        "reun",
        "ion"
      ],
      [
        "filmma",
        "ker"
      ],
      [
        "romant",
        "ic"
      ],
      [
        "program",
        "me"
      ],
      [
        "sever",
        "al"
      ],
      [
        "televis",
        "ion"
      ],
      [
        "charact",
        "er"
      ],
      [
        "Sethup",
        "athi"
      ],
      [
        "Febru",
        "ary"
      ],
      [
        "Harve",
        "y"
      ],
      [
        "Hawthor",
        "ne"
      ],
      [
        "Banglades",
        "h"
      ],
      [
        "0",
        "s"
      ],
      [
        "1",
        "6"
      ],
      [
        "2",
        "1"
      ],
      [
        "9",
        "th"
      ],
      [
        "?",
        "\""
      ],
      [
        "A",
        "B"
      ],
      [
        "A",
        "c"
      ],
      [
        "A",
        "ll"
      ],
      [
        "A",
        "un"
      ],
      [
        "B",
        "N"
      ],
      [
        "B",
        "ar"
      ],
      [
        "B",
        "el"
      ],
      [
        "B",
        "ol"
      ],
      [
        "B",
        "res"
      ],
      [
        "B",
        "ow"
      ],
      [
        "B",
        "ased"
      ],
      [
        "B",
        "ish"
      ],
      [
        "B",
        "ud"
      ],
      [
        "B",
        "run"
      ],
      [
        "C",
        "l"
      ],
      [
        "C",
        "ol"
      ],
      [
        "C",
        "are"
      ],
      [
        "C",
        "ru"
      ],
      [
        "C",
        "resc"
      ],
      [
        "C",
        "BN"
      ],
      [
        "D",
        "y"
      ],
      [
        "D",
        "or"
      ],
      [
        "D",
        "ie"
      ],
      [
        "D",
        "ine"
      ],
      [
        "E",
        "t"
      ],
      [
        "E",
        "u"
      ],
      [
        "E",
        "st"
      ],
      [
        "E",
        "ver"
      ],
      [
        "E",
        "ast"
      ],
      [
        "E",
        "ason"
      ],
      [
        "F",
        "L"
      ],
      [
        "F",
        "ar"
      ],
      [
        "F",
        "rit"
      ],
      [
        "F",
        "ilip"
      ],
      [
        "F",
        "ord"
      ],
      [
        "F",
        "ren"
      ],
      [
        "G",
        "w"
      ],
      [
        "G",
        "ol"
      ],
      [
        "G",
        "ab"
      ],
      [
        "G",
        "ert"
      ],
      [
        "G",
        "reen"
      ],
      [
        "G",
        "reg"
      ],
      [
        "H",
        "un"
      ],
      [
        "H",
        "ung"
      ],
      [
        "H",
        "orton"
      ],
      [
        "I",
        "lon"
      ],
      [
        "J",
        "a"
      ],
      [
        "J",
        "enn"
      ],
      [
        "J",
        "ason"
      ],
      [
        "K",
        "un"
      ],
      [
        "K",
        "aye"
      ],
      [
        "K",
        "umar"
      ],
      [
        "K",
        "han"
      ],
      [
        "L",
        "on"
      ],
      [
        "L",
        "us"
      ],
      [
        "M",
        "at"
      ],
      [
        "M",
        "us"
      ],
      [
        "N",
        "a"
      ],
      [
        "N",
        "e"
      ],
      [
        "N",
        "ig"
      ],
      [
        "N",
        "ip"
      ],
      [
        "N",
        "ou"
      ],
      [
        "N",
        "FL"
      ],
      [
        "O",
        "cam"
      ],
      [
        "O",
        "scar"
      ],
      [
        "P",
        "l"
      ],
      [
        "P",
        "al"
      ],
      [
        "P",
        "ort"
      ],
      [
        "P",
        "ie"
      ],
      [
        "R",
        "al"
      ],
      [
        "R",
        "am"
      ],
      [
        "R",
        "io"
      ],
      [
        "R",
        "aye"
      ],
      [
        "S",
        "in"
      ],
      [
        "S",
        "il"
      ],
      [
        "S",
        "ha"
      ],
      [
        "S",
        "ch"
      ],
      [
        "S",
        "pra"
      ],
      [
        "T",
        "om"
      ],
      [
        "T",
        "em"
      ],
      [
        "T",
        "erry"
      ],
      [
        "U",
        "S"
      ],
      [
        "U",
        "y"
      ],
      [
        "V",
        "er"
      ],
      [
        "V",
        "as"
      ],
      [
        "V",
        "ol"
      ],
      [
        "V",
        "ill"
      ],
      [
        "W",
        "i"
      ],
      [
        "W",
        "ilm"
      ],
      [
        "W",
        "ard"
      ],
      [
        "W",
        "ol"
      ],
      [
        "Y",
        "ear"
      ],
      [
        "Y",
        "ann"
      ],
      [
        "Y",
        "ork"
      ],
      [
        "Z",
        "e"
      ],
      [
        "Z",
        "in"
      ],
      [
        "a",
        "h"
      ],
      [
        "a",
        "ard"
      ],
      [
        "b",
        "a"
      ],
      [
        "b",
        "o"
      ],
      [
        "b",
        "on"
      ],
      [
        "b",
        "le"
      ],
      [
        "b",
        "ol"
      ],
      [
        "b",
        "ac"
      ],
      [
        "b",
        "ased"
      ],
      [
        "b",
        "ill"
      ],
      [
        "b",
        "je"
      ],
      [
        "c",
        "li"
      ],
      [
        "c",
        "ard"
      ],
      [
        "c",
        "ent"
      ],
      [
        "c",
        "ur"
      ],
      [
        "c",
        "red"
      ],
      [
        "c",
        "able"
      ],
      [
        "c",
        "ult"
      ],
      [
        "d",
        "eath"
      ],
      [
        "d",
        "ale"
      ],
      [
        "d",
        "hit"
      ],
      [
        "d",
        "ling"
      ],
      [
        "e",
        "ac"
      ],
      [
        "e",
        "ves"
      ],
      [
        "e",
        "ventually"
      ],
      [
        "f",
        "g"
      ],
      [
        "f",
        "und"
      ],
      [
        "f",
        "iction"
      ],
      [
        "g",
        "n"
      ],
      [
        "g",
        "o"
      ],
      [
        "g",
        "in"
      ],
      [
        "g",
        "ar"
      ],
      [
        "g",
        "en"
      ],
      [
        "g",
        "li"
      ],
      [
        "g",
        "day"
      ],
      [
        "g",
        "ky"
      ],
      [
        "g",
        "aard"
      ],
      [
        "h",
        "o"
      ],
      [
        "h",
        "en"
      ],
      [
        "h",
        "om"
      ],
      [
        "h",
        "ard"
      ],
      [
        "h",
        "man"
      ],
      [
        "h",
        "art"
      ],
      [
        "h",
        "um"
      ],
      [
        "h",
        "ind"
      ],
      [
        "h",
        "igh"
      ],
      [
        "j",
        "o"
      ],
      [
        "j",
        "ay"
      ],
      [
        "k",
        "n"
      ],
      [
        "k",
        "in"
      ],
      [
        "k",
        "at"
      ],
      [
        "k",
        "umar"
      ],
      [
        "l",
        "in"
      ],
      [
        "l",
        "er"
      ],
      [
        "l",
        "it"
      ],
      [
        "l",
        "am"
      ],
      [
        "l",
        "ow"
      ],
      [
        "l",
        "ation"
      ],
      [
        "l",
        "ish"
      ],
      [
        "l",
        "ater"
      ],
      [
        "m",
        "s"
      ],
      [
        "m",
        "ed"
      ],
      [
        "m",
        "is"
      ],
      [
        "m",
        "ay"
      ],
      [
        "m",
        "ov"
      ],
      [
        "m",
        "ina"
      ],
      [
        "m",
        "ember"
      ],
      [
        "n",
        "o"
      ],
      [
        "n",
        "or"
      ],
      [
        "n",
        "ard"
      ],
      [
        "n",
        "ov"
      ],
      [
        "n",
        "igh"
      ],
      [
        "o",
        "el"
      ],
      [
        "o",
        "ol"
      ],
      [
        "o",
        "to"
      ],
      [
        "o",
        "gaard"
      ],
      [
        "p",
        "il"
      ],
      [
        "p",
        "res"
      ],
      [
        "p",
        "ris"
      ],
      [
        "s",
        "s"
      ],
      [
        "s",
        "y"
      ],
      [
        "s",
        "or"
      ],
      [
        "s",
        "he"
      ],
      [
        "s",
        "ol"
      ],
      [
        "s",
        "ch"
      ],
      [
        "s",
        "ki"
      ],
      [
        "t",
        "al"
      ],
      [
        "t",
        "is"
      ],
      [
        "t",
        "ur"
      ],
      [
        "u",
        "i"
      ],
      [
        "u",
        "j"
      ],
      [
        "u",
        "de"
      ],
      [
        "v",
        "i"
      ],
      [
        "v",
        "ar"
      ],
      [
        "v",
        "ino"
      ],
      [
        "w",
        "a"
      ],
      [
        "w",
        "ar"
      ],
      [
        "w",
        "an"
      ],
      [
        "w",
        "ro"
      ],
      [
        "w",
        "om"
      ],
      [
        "w",
        "ent"
      ],
      [
        "w",
        "ren"
      ],
      [
        "w",
        "ell"
      ],
      [
        "w",
        "ide"
      ],
      [
        "x",
        "ie"
      ],
      [
        "y",
        "am"
      ],
      [
        "ü",
        "ck"
      ],
      [
        "in",
        "i"
      ],
      [
        "in",
        "s"
      ],
      [
        "in",
        "st"
      ],
      [
        "in",
        "ed"
      ],
      [
        "in",
        "to"
      ],
      [
        "ar",
        "ian"
      ],
      [
        "ar",
        "aj"
      ],
      [
        "ar",
        "oel"
      ],
      [
        "er",
        "y"
      ],
      [
        "er",
        "ian"
      ],
      [
        "er",
        "ally"
      ],
      [
        "an",
        "u"
      ],
      [
        "an",
        "ce"
      ],
      [
        "an",
        "nel"
      ],
      [
        "an",
        "tha"
      ],
      [
        "st",
        "e"
      ],
      [
        "st",
        "on"
      ],
      [
        "st",
        "ed"
      ],
      [
        "st",
        "ud"
      ],
      [
        "st",
        "udi"
      ],
      [
        "on",
        "am"
      ],
      [
        "th",
        "re"
      ],
      [
        "th",
        "ird"
      ],
      [
        "th",
        "ony"
      ],
      [
        "or",
        "ig"
      ],
      [
        "re",
        "a"
      ],
      [
        "re",
        "y"
      ],
      [
        "re",
        "el"
      ],
      [
        "re",
        "ma"
      ],
      [
        "re",
        "views"
      ],
      [
        "re",
        "format"
      ],
      [
        "re",
        "lation"
      ],
      [
        "en",
        "ber"
      ],
      [
        "at",
        "ch"
      ],
      [
        "at",
        "ive"
      ],
      [
        "ed",
        "a"
      ],
      [
        "it",
        "y"
      ],
      [
        "it",
        "ge"
      ],
      [
        "it",
        "ral"
      ],
      [
        "di",
        "er"
      ],
      [
        "al",
        "es"
      ],
      [
        "al",
        "ver"
      ],
      [
        "the",
        "ws"
      ],
      [
        "es",
        "day"
      ],
      [
        "film",
        "s"
      ],
      [
        "is",
        "m"
      ],
      [
        "is",
        "ion"
      ],
      [
        "ic",
        "o"
      ],
      [
        "ro",
        "pe"
      ],
      [
        "ro",
        "und"
      ],
      [
        "as",
        "h"
      ],
      [
        "as",
        "er"
      ],
      [
        "ra",
        "di"
      ],
      [
        "ra",
        "ham"
      ],
      [
        "he",
        "l"
      ],
      [
        "ion",
        "g"
      ],
      [
        "direct",
        "ion"
      ],
      [
        "ri",
        "e"
      ],
      [
        "ri",
        "st"
      ],
      [
        "le",
        "g"
      ],
      [
        "le",
        "t"
      ],
      [
        "le",
        "x"
      ],
      [
        "li",
        "m"
      ],
      [
        "li",
        "ka"
      ],
      [
        "li",
        "ve"
      ],
      [
        "us",
        "e"
      ],
      [
        "us",
        "ed"
      ],
      [
        "us",
        "ion"
      ],
      [
        "am",
        "p"
      ],
      [
        "mi",
        "ere"
      ],
      [
        "19",
        "9"
      ],
      [
        "19",
        "71"
      ],
      [
        "19",
        "17"
      ],
      [
        "19",
        "51"
      ],
      [
        "ge",
        "lika"
      ],
      [
        "em",
        "ent"
      ],
      [
        "im",
        "e"
      ],
      [
        "ol",
        "d"
      ],
      [
        "ol",
        "en"
      ],
      [
        "ha",
        "dian"
      ],
      [
        "ha",
        "ving"
      ],
      [
        "ir",
        "ley"
      ],
      [
        "id",
        "ro"
      ],
      [
        "se",
        "t"
      ],
      [
        "se",
        "ll"
      ],
      [
        "se",
        "ction"
      ],
      [
        "se",
        "qu"
      ],
      [
        "se",
        "tt"
      ],
      [
        "20",
        "21"
      ],
      [
        "ver",
        "a"
      ],
      [
        "ver",
        "s"
      ],
      [
        "ver",
        "se"
      ],
      [
        "ur",
        "ch"
      ],
      [
        "ph",
        "er"
      ],
      [
        "ph",
        "ras"
      ],
      [
        "ph",
        "oto"
      ],
      [
        "Re",
        "cord"
      ],
      [
        "Re",
        "val"
      ],
      [
        "Re",
        "eves"
      ],
      [
        "io",
        "d"
      ],
      [
        "Com",
        "pany"
      ],
      [
        "It",
        "s"
      ],
      [
        "mer",
        "cial"
      ],
      [
        "Ra",
        "j"
      ],
      [
        "Ra",
        "hman"
      ],
      [
        "Ra",
        "hadian"
      ],
      [
        "Ma",
        "del"
      ],
      [
        "Ma",
        "gday"
      ],
      [
        "Ma",
        "ude"
      ],
      [
        "Ma",
        "thews"
      ],
      [
        "be",
        "st"
      ],
      [
        "be",
        "en"
      ],
      [
        "be",
        "com"
      ],
      [
        "ot",
        "t"
      ],
      [
        "ce",
        "pt"
      ],
      [
        "ian",
        "o"
      ],
      [
        "la",
        "eman"
      ],
      [
        "ber",
        "to"
      ],
      [
        "per",
        "iod"
      ],
      [
        "te",
        "in"
      ],
      [
        "te",
        "cor"
      ],
      [
        "Al",
        "an"
      ],
      [
        "Al",
        "so"
      ],
      [
        "Al",
        "bert"
      ],
      [
        "com",
        "mis"
      ],
      [
        "com",
        "mercial"
      ],
      [
        "port",
        "ing"
      ],
      [
        "music",
        "ian"
      ],
      [
        "ch",
        "ild"
      ],
      [
        "oun",
        "c"
      ],
      [
        "ation",
        "s"
      ],
      [
        "Mar",
        "ion"
      ],
      [
        "Mar",
        "ch"
      ],
      [
        "Mar",
        "sh"
      ],
      [
        "Mar",
        "tha"
      ],
      [
        "Se",
        "t"
      ],
      [
        "Se",
        "an"
      ],
      [
        "Se",
        "pt"
      ],
      [
        "pra",
        "is"
      ],
      [
        "sh",
        "tein"
      ],
      [
        "Ch",
        "enna"
      ],
      [
        "Ch",
        "itral"
      ],
      [
        "Ch",
        "iong"
      ],
      [
        "Ch",
        "rist"
      ],
      [
        "Ch",
        "urch"
      ],
      [
        "con",
        "cl"
      ],
      [
        "ich",
        "o"
      ],
      [
        "An",
        "thony"
      ],
      [
        "An",
        "gelika"
      ],
      [
        "cin",
        "ski"
      ],
      [
        "wh",
        "ere"
      ],
      [
        "Be",
        "st"
      ],
      [
        "Be",
        "hind"
      ],
      [
        "lo",
        "st"
      ],
      [
        "wi",
        "fe"
      ],
      [
        "201",
        "8"
      ],
      [
        "actor",
        "s"
      ],
      [
        "ad",
        "emy"
      ],
      [
        "ne",
        "st"
      ],
      [
        "pl",
        "ac"
      ],
      [
        "pl",
        "ot"
      ],
      [
        "Er",
        "ic"
      ],
      [
        "Er",
        "nest"
      ],
      [
        "Bl",
        "ore"
      ],
      [
        "Dav",
        "es"
      ],
      [
        "Fr",
        "ank"
      ],
      [
        "Fr",
        "aser"
      ],
      [
        "Ro",
        "berto"
      ],
      [
        "ist",
        "s"
      ],
      [
        "edit",
        "or"
      ],
      [
        "Jac",
        "ques"
      ],
      [
        "Jac",
        "card"
      ],
      [
        "up",
        "porting"
      ],
      [
        "Ho",
        "ot"
      ],
      [
        "Ho",
        "gan"
      ],
      [
        "Ho",
        "xie"
      ],
      [
        "ek",
        "ha"
      ],
      [
        "fo",
        "cus"
      ],
      [
        "John",
        "son"
      ],
      [
        "De",
        "wan"
      ],
      [
        "Har",
        "ris"
      ],
      [
        "Ros",
        "ina"
      ],
      [
        "Ros",
        "ales"
      ],
      [
        "Vi",
        "jay"
      ],
      [
        "et",
        "t"
      ],
      [
        "et",
        "te"
      ],
      [
        "Bo",
        "st"
      ],
      [
        "Bo",
        "ogaard"
      ],
      [
        "Pa",
        "olo"
      ],
      [
        "Pa",
        "gli"
      ],
      [
        "und",
        "er"
      ],
      [
        "193",
        "4"
      ],
      [
        "193",
        "9"
      ],
      [
        "Co",
        "ok"
      ],
      [
        "Car",
        "men"
      ],
      [
        "Car",
        "mina"
      ],
      [
        "Car",
        "rie"
      ],
      [
        "Can",
        "n"
      ],
      [
        "Can",
        "al"
      ],
      [
        "sit",
        "y"
      ],
      [
        "ord",
        "er"
      ],
      [
        "off",
        "rey"
      ],
      [
        "Ab",
        "raham"
      ],
      [
        "Ge",
        "offrey"
      ],
      [
        "Is",
        "ra"
      ],
      [
        "Is",
        "lam"
      ],
      [
        "Is",
        "idro"
      ],
      [
        "Sh",
        "yam"
      ],
      [
        "Sh",
        "irley"
      ],
      [
        "ru",
        "de"
      ],
      [
        "198",
        "4"
      ],
      [
        "198",
        "8"
      ],
      [
        "Austral",
        "ian"
      ],
      [
        "Con",
        "tis"
      ],
      [
        "En",
        "ter"
      ],
      [
        "En",
        "dhit"
      ],
      [
        "Mon",
        "tecor"
      ],
      [
        "ag",
        "ain"
      ],
      [
        "ck",
        "dale"
      ],
      [
        "ant",
        "a"
      ],
      [
        "comed",
        "ian"
      ],
      [
        "includ",
        "ed"
      ],
      [
        "Cla",
        "ire"
      ],
      [
        "Fer",
        "d"
      ],
      [
        "Gu",
        "y"
      ],
      [
        "Gu",
        "ho"
      ],
      [
        "Je",
        "ep"
      ],
      [
        "May",
        "a"
      ],
      [
        "May",
        "nard"
      ],
      [
        "Mur",
        "phy"
      ],
      [
        "Mur",
        "ray"
      ],
      [
        "Ric",
        "a"
      ],
      [
        "War",
        "ren"
      ],
      [
        "mon",
        "th"
      ],
      [
        "pre",
        "gn"
      ],
      [
        "pre",
        "miere"
      ],
      [
        "ale",
        "jo"
      ],
      [
        "Inter",
        "title"
      ],
      [
        "play",
        "ers"
      ],
      [
        "screen",
        "ed"
      ],
      [
        "screen",
        "writer"
      ],
      [
        "Paul",
        "ine"
      ],
      [
        "sitcom",
        "s"
      ],
      [
        "Indones",
        "ia"
      ],
      [
        "Ag",
        "us"
      ],
      [
        "Ag",
        "ot"
      ],
      [
        "Bert",
        "on"
      ],
      [
        "Gor",
        "den"
      ],
      [
        "Gor",
        "don"
      ],
      [
        "Ker",
        "rigan"
      ],
      [
        "Per",
        "alejo"
      ],
      [
        "Sto",
        "ckdale"
      ],
      [
        "award",
        "s"
      ],
      [
        "des",
        "cri"
      ],
      [
        "spe",
        "cial"
      ],
      [
        "spe",
        "aking"
      ],
      [
        "ign",
        "i"
      ],
      [
        "And",
        "erson"
      ],
      [
        "Ann",
        "ie"
      ],
      [
        "loc",
        "al"
      ],
      [
        "Studi",
        "os"
      ],
      [
        "Abel",
        "eda"
      ],
      [
        "Stephen",
        "s"
      ],
      [
        "Ben",
        "igni"
      ],
      [
        "Bur",
        "ke"
      ],
      [
        "Del",
        "a"
      ],
      [
        "Del",
        "mer"
      ],
      [
        "Gl",
        "en"
      ],
      [
        "Gl",
        "ück"
      ],
      [
        "Hen",
        "ry"
      ],
      [
        "Hen",
        "gky"
      ],
      [
        "La",
        "wren"
      ],
      [
        "La",
        "Pagli"
      ],
      [
        "Man",
        "io"
      ],
      [
        "Rus",
        "h"
      ],
      [
        "Rus",
        "sell"
      ],
      [
        "Su",
        "laeman"
      ],
      [
        "cor",
        "o"
      ],
      [
        "crit",
        "ical"
      ],
      [
        "crit",
        "ics"
      ],
      [
        "cord",
        "ing"
      ],
      [
        "ex",
        "per"
      ],
      [
        "gro",
        "up"
      ],
      [
        "tt",
        "i"
      ],
      [
        "inter",
        "views"
      ],
      [
        "191",
        "8"
      ],
      [
        "197",
        "4"
      ],
      [
        "197",
        "0s"
      ],
      [
        "conc",
        "ert"
      ],
      [
        "Star",
        "ke"
      ],
      [
        "wood",
        "s"
      ],
      [
        "Ad",
        "am"
      ],
      [
        "Af",
        "ter"
      ],
      [
        "Ak",
        "ter"
      ],
      [
        "Hay",
        "ward"
      ],
      [
        "Jer",
        "icho"
      ],
      [
        "Kar",
        "en"
      ],
      [
        "Luc",
        "iano"
      ],
      [
        "Mc",
        "Kim"
      ],
      [
        "Mi",
        "ke"
      ],
      [
        "Mor",
        "ley"
      ],
      [
        "Mic",
        "he"
      ],
      [
        "She",
        "ila"
      ],
      [
        "Tu",
        "esday"
      ],
      [
        "Tro",
        "en"
      ],
      [
        "Wall",
        "ace"
      ],
      [
        "can",
        "o"
      ],
      [
        "famil",
        "y"
      ],
      [
        "mil",
        "itary"
      ],
      [
        "nomin",
        "ated"
      ],
      [
        "su",
        "bje"
      ],
      [
        "sur",
        "round"
      ],
      [
        "ting",
        "co"
      ],
      [
        "ze",
        "h"
      ],
      [
        "perfor",
        "man"
      ],
      [
        "portray",
        "ed"
      ],
      [
        "Joy",
        "ce"
      ],
      [
        "umb",
        "ia"
      ],
      [
        "plural",
        "ism"
      ],
      [
        "Bob",
        "by"
      ],
      [
        "offic",
        "er"
      ],
      [
        "North",
        "ern"
      ],
      [
        "Philipp",
        "ine"
      ],
      [
        "Eng",
        "lish"
      ],
      [
        "featu",
        "red"
      ],
      [
        "Thom",
        "as"
      ],
      [
        "Studio",
        "Canal"
      ],
      [
        "Prem",
        "kumar"
      ],
      [
        "AB",
        "S"
      ],
      [
        "Ac",
        "ademy"
      ],
      [
        "Aun",
        "or"
      ],
      [
        "Bol",
        "es"
      ],
      [
        "Bres",
        "low"
      ],
      [
        "Bish",
        "op"
      ],
      [
        "Brun",
        "ette"
      ],
      [
        "Col",
        "umbia"
      ],
      [
        "Care",
        "y"
      ],
      [
        "Cru",
        "z"
      ],
      [
        "Cresc",
        "enzo"
      ],
      [
        "Dy",
        "er"
      ],
      [
        "Dor",
        "mer"
      ],
      [
        "Die",
        "ther"
      ],
      [
        "Dine",
        "hart"
      ],
      [
        "Et",
        "gar"
      ],
      [
        "Eu",
        "rope"
      ],
      [
        "Est",
        "her"
      ],
      [
        "Ever",
        "ett"
      ],
      [
        "Frit",
        "zi"
      ],
      [
        "Filip",
        "ino"
      ],
      [
        "Fren",
        "ch"
      ],
      [
        "Gw",
        "en"
      ],
      [
        "Gert",
        "rude"
      ],
      [
        "Greg",
        "ory"
      ],
      [
        "Hung",
        "arian"
      ],
      [
        "Ilon",
        "zeh"
      ],
      [
        "Ja",
        "anu"
      ],
      [
        "Jenn",
        "ings"
      ],
      [
        "Kun",
        "coro"
      ],
      [
        "Lon",
        "don"
      ],
      [
        "Lus",
        "cinski"
      ],
      [
        "Mus",
        "lim"
      ],
      [
        "Na",
        "zi"
      ],
      [
        "Ne",
        "w"
      ],
      [
        "Nig",
        "erian"
      ],
      [
        "Nip",
        "un"
      ],
      [
        "Ocam",
        "po"
      ],
      [
        "Pl",
        "ay"
      ],
      [
        "Pal",
        "ma"
      ],
      [
        "Port",
        "es"
      ],
      [
        "Pie",
        "tra"
      ],
      [
        "Ral",
        "ston"
      ],
      [
        "Sin",
        "er"
      ],
      [
        "Sil",
        "vera"
      ],
      [
        "Spra",
        "dling"
      ],
      [
        "Tem",
        "at"
      ],
      [
        "Uy",
        "tingco"
      ],
      [
        "Vas",
        "antha"
      ],
      [
        "Vol",
        "cano"
      ],
      [
        "Vill",
        "aroel"
      ],
      [
        "Wilm",
        "ot"
      ],
      [
        "Ward",
        "e"
      ],
      [
        "Wol",
        "fg"
      ],
      [
        "Ze",
        "itge"
      ],
      [
        "Zin",
        "shtein"
      ],
      [
        "bon",
        "us"
      ],
      [
        "cli",
        "ps"
      ],
      [
        "cred",
        "its"
      ],
      [
        "cult",
        "ural"
      ],
      [
        "eac",
        "h"
      ],
      [
        "hom",
        "e"
      ],
      [
        "kn",
        "own"
      ],
      [
        "kin",
        "son"
      ],
      [
        "member",
        "s"
      ],
      [
        "nov",
        "el"
      ],
      [
        "pil",
        "ot"
      ],
      [
        "sol",
        "dier"
      ],
      [
        "var",
        "ious"
      ],
      [
        "wro",
        "te"
      ],
      [
        "wom",
        "an"
      ],
      [
        "araj",
        "u"
      ],
      [
        "stud",
        "ent"
      ],
      [
        "studi",
        "o"
      ],
      [
        "thre",
        "e"
      ],
      [
        "orig",
        "in"
      ],
      [
        "relation",
        "ship"
      ],
      [
        "enber",
        "g"
      ],
      [
        "sequ",
        "el"
      ],
      [
        "Record",
        "s"
      ],
      [
        "Reval",
        "ina"
      ],
      [
        "Madel",
        "ine"
      ],
      [
        "Magday",
        "ao"
      ],
      [
        "commis",
        "sion"
      ],
      [
        "Marsh",
        "all"
      ],
      [
        "Sept",
        "ember"
      ],
      [
        "Chenna",
        "i"
      ],
      [
        "Chitral",
        "ekha"
      ],
      [
        "Church",
        "ill"
      ],
      [
        "concl",
        "usion"
      ],
      [
        "Behind",
        "woods"
      ],
      [
        "focus",
        "es"
      ],
      [
        "Dewan",
        "to"
      ],
      [
        "Endhit",
        "a"
      ],
      [
        "Montecor",
        "vino"
      ],
      [
        "again",
        "st"
      ],
      [
        "Jeep",
        "ney"
      ],
      [
        "pregn",
        "ant"
      ],
      [
        "Lawren",
        "ce"
      ],
      [
        "LaPagli",
        "a"
      ],
      [
        "subje",
        "ct"
      ],
      [
        "Wolfg",
        "ang"
      ],
      [
        "Zeitge",
        "ist"
      ],
      [
        "!",
        ")"
      ],
      [
        "!",
        ","
      ],
      [
        "\"",
        ","
      ],
      [
        "\"",
        "..."
      ],
      [
        "\"",
        ")."
      ],
      [
        "\"",
        "?\""
      ],
      [
        "'",
        ","
      ],
      [
        "(",
        "$"
      ],
      [
        ")",
        ","
      ],
      [
        ".",
        "\""
      ],
      [
        "0",
        "4"
      ],
      [
        "1",
        "2"
      ],
      [
        "1",
        "4"
      ],
      [
        "1",
        "8"
      ],
      [
        "1",
        "50"
      ],
      [
        "2",
        "9"
      ],
      [
        "2",
        "000"
      ],
      [
        "3",
        "9th"
      ],
      [
        "4",
        "0"
      ],
      [
        "4",
        "th"
      ],
      [
        "4",
        "16"
      ],
      [
        "5",
        "6"
      ],
      [
        "5",
        "50"
      ],
      [
        "5",
        "9th"
      ],
      [
        "6",
        "00"
      ],
      [
        "6",
        "4th"
      ],
      [
        "7",
        "8"
      ],
      [
        "?",
        ":"
      ],
      [
        "A",
        "s"
      ],
      [
        "A",
        "u"
      ],
      [
        "A",
        "ct"
      ],
      [
        "A",
        "ad"
      ],
      [
        "A",
        "uch"
      ],
      [
        "A",
        "don"
      ],
      [
        "A",
        "si"
      ],
      [
        "A",
        "ug"
      ],
      [
        "A",
        "my"
      ],
      [
        "A",
        "lex"
      ],
      [
        "B",
        "er"
      ],
      [
        "B",
        "il"
      ],
      [
        "B",
        "em"
      ],
      [
        "B",
        "ank"
      ],
      [
        "B",
        "ru"
      ],
      [
        "B",
        "ran"
      ],
      [
        "B",
        "elt"
      ],
      [
        "B",
        "att"
      ],
      [
        "B",
        "order"
      ],
      [
        "C",
        "i"
      ],
      [
        "C",
        "in"
      ],
      [
        "C",
        "re"
      ],
      [
        "C",
        "it"
      ],
      [
        "C",
        "un"
      ],
      [
        "C",
        "ut"
      ],
      [
        "C",
        "ent"
      ],
      [
        "C",
        "ath"
      ],
      [
        "C",
        "ur"
      ],
      [
        "C",
        "ort"
      ],
      [
        "C",
        "iv"
      ],
      [
        "C",
        "ine"
      ],
      [
        "C",
        "ount"
      ],
      [
        "C",
        "ert"
      ],
      [
        "C",
        "ras"
      ],
      [
        "C",
        "ult"
      ],
      [
        "C",
        "ali"
      ],
      [
        "C",
        "alver"
      ],
      [
        "C",
        "ounc"
      ],
      [
        "D",
        "J"
      ],
      [
        "D",
        "er"
      ],
      [
        "D",
        "al"
      ],
      [
        "D",
        "im"
      ],
      [
        "D",
        "ul"
      ],
      [
        "D",
        "ann"
      ],
      [
        "D",
        "ray"
      ],
      [
        "D",
        "omin"
      ],
      [
        "D",
        "ani"
      ],
      [
        "D",
        "rea"
      ],
      [
        "E",
        "S"
      ],
      [
        "E",
        "m"
      ],
      [
        "E",
        "s"
      ],
      [
        "E",
        "x"
      ],
      [
        "E",
        "di"
      ],
      [
        "E",
        "che"
      ],
      [
        "E",
        "mon"
      ],
      [
        "E",
        "mil"
      ],
      [
        "E",
        "ventually"
      ],
      [
        "F",
        "W"
      ],
      [
        "F",
        "i"
      ],
      [
        "F",
        "or"
      ],
      [
        "F",
        "re"
      ],
      [
        "F",
        "is"
      ],
      [
        "F",
        "ab"
      ],
      [
        "F",
        "lo"
      ],
      [
        "F",
        "ore"
      ],
      [
        "F",
        "red"
      ],
      [
        "F",
        "ame"
      ],
      [
        "G",
        "a"
      ],
      [
        "G",
        "o"
      ],
      [
        "G",
        "r"
      ],
      [
        "G",
        "é"
      ],
      [
        "G",
        "en"
      ],
      [
        "G",
        "av"
      ],
      [
        "G",
        "ig"
      ],
      [
        "G",
        "ag"
      ],
      [
        "G",
        "ino"
      ],
      [
        "G",
        "run"
      ],
      [
        "G",
        "ons"
      ],
      [
        "H",
        "in"
      ],
      [
        "H",
        "il"
      ],
      [
        "H",
        "ol"
      ],
      [
        "H",
        "ill"
      ],
      [
        "H",
        "ale"
      ],
      [
        "H",
        "uth"
      ],
      [
        "H",
        "orror"
      ],
      [
        "H",
        "ull"
      ],
      [
        "I",
        "b"
      ],
      [
        "I",
        "m"
      ],
      [
        "I",
        "an"
      ],
      [
        "I",
        "re"
      ],
      [
        "I",
        "ce"
      ],
      [
        "I",
        "con"
      ],
      [
        "I",
        "bin"
      ],
      [
        "J",
        "i"
      ],
      [
        "J",
        "u"
      ],
      [
        "J",
        "ay"
      ],
      [
        "J",
        "ord"
      ],
      [
        "J",
        "ess"
      ],
      [
        "K",
        "r"
      ],
      [
        "K",
        "at"
      ],
      [
        "K",
        "it"
      ],
      [
        "K",
        "ra"
      ],
      [
        "K",
        "ath"
      ],
      [
        "K",
        "ay"
      ],
      [
        "K",
        "ol"
      ],
      [
        "K",
        "ir"
      ],
      [
        "K",
        "id"
      ],
      [
        "K",
        "illi"
      ],
      [
        "K",
        "ov"
      ],
      [
        "K",
        "ab"
      ],
      [
        "K",
        "enn"
      ],
      [
        "K",
        "ann"
      ],
      [
        "K",
        "ell"
      ],
      [
        "K",
        "irst"
      ],
      [
        "K",
        "ull"
      ],
      [
        "K",
        "umb"
      ],
      [
        "L",
        "y"
      ],
      [
        "L",
        "ar"
      ],
      [
        "L",
        "an"
      ],
      [
        "L",
        "il"
      ],
      [
        "L",
        "al"
      ],
      [
        "L",
        "ion"
      ],
      [
        "L",
        "le"
      ],
      [
        "L",
        "ip"
      ],
      [
        "L",
        "anguage"
      ],
      [
        "L",
        "one"
      ],
      [
        "L",
        "ind"
      ],
      [
        "L",
        "iver"
      ],
      [
        "L",
        "ater"
      ],
      [
        "L",
        "ui"
      ],
      [
        "L",
        "ott"
      ],
      [
        "M",
        "A"
      ],
      [
        "M",
        "o"
      ],
      [
        "M",
        "y"
      ],
      [
        "M",
        "il"
      ],
      [
        "M",
        "en"
      ],
      [
        "M",
        "es"
      ],
      [
        "M",
        "ut"
      ],
      [
        "M",
        "ath"
      ],
      [
        "M",
        "id"
      ],
      [
        "M",
        "ac"
      ],
      [
        "M",
        "ok"
      ],
      [
        "M",
        "ig"
      ],
      [
        "M",
        "uch"
      ],
      [
        "M",
        "ist"
      ],
      [
        "M",
        "ount"
      ],
      [
        "M",
        "uk"
      ],
      [
        "M",
        "ali"
      ],
      [
        "M",
        "ila"
      ],
      [
        "M",
        "otion"
      ],
      [
        "M",
        "uj"
      ],
      [
        "M",
        "inst"
      ],
      [
        "M",
        "alver"
      ],
      [
        "N",
        "ar"
      ],
      [
        "N",
        "an"
      ],
      [
        "N",
        "ov"
      ],
      [
        "N",
        "ation"
      ],
      [
        "N",
        "ich"
      ],
      [
        "N",
        "ino"
      ],
      [
        "N",
        "orton"
      ],
      [
        "N",
        "ico"
      ],
      [
        "O",
        "a"
      ],
      [
        "O",
        "r"
      ],
      [
        "O",
        "ll"
      ],
      [
        "O",
        "ri"
      ],
      [
        "O",
        "li"
      ],
      [
        "O",
        "wi"
      ],
      [
        "O",
        "ld"
      ],
      [
        "O",
        "yo"
      ],
      [
        "O",
        "ran"
      ],
      [
        "O",
        "wing"
      ],
      [
        "O",
        "verse"
      ],
      [
        "O",
        "FW"
      ],
      [
        "P",
        "N"
      ],
      [
        "P",
        "e"
      ],
      [
        "P",
        "r"
      ],
      [
        "P",
        "on"
      ],
      [
        "P",
        "at"
      ],
      [
        "P",
        "ath"
      ],
      [
        "P",
        "et"
      ],
      [
        "P",
        "ras"
      ],
      [
        "R",
        "p"
      ],
      [
        "R",
        "on"
      ],
      [
        "R",
        "it"
      ],
      [
        "R",
        "es"
      ],
      [
        "R",
        "igh"
      ],
      [
        "S",
        "a"
      ],
      [
        "S",
        "w"
      ],
      [
        "S",
        "al"
      ],
      [
        "S",
        "em"
      ],
      [
        "S",
        "ay"
      ],
      [
        "S",
        "id"
      ],
      [
        "S",
        "ac"
      ],
      [
        "S",
        "ue"
      ],
      [
        "S",
        "und"
      ],
      [
        "S",
        "II"
      ],
      [
        "S",
        "ou"
      ],
      [
        "S",
        "ag"
      ],
      [
        "S",
        "olo"
      ],
      [
        "S",
        "ide"
      ],
      [
        "S",
        "wed"
      ],
      [
        "S",
        "onam"
      ],
      [
        "S",
        "upporting"
      ],
      [
        "S",
        "anta"
      ],
      [
        "T",
        "e"
      ],
      [
        "T",
        "or"
      ],
      [
        "T",
        "ri"
      ],
      [
        "T",
        "el"
      ],
      [
        "T",
        "ol"
      ],
      [
        "T",
        "any"
      ],
      [
        "T",
        "rou"
      ],
      [
        "T",
        "ak"
      ],
      [
        "T",
        "ony"
      ],
      [
        "T",
        "ele"
      ],
      [
        "T",
        "anda"
      ],
      [
        "T",
        "ime"
      ],
      [
        "U",
        "K"
      ],
      [
        "U",
        "d"
      ],
      [
        "U",
        "le"
      ],
      [
        "V",
        "ic"
      ],
      [
        "V",
        "and"
      ],
      [
        "V",
        "ict"
      ],
      [
        "V",
        "ani"
      ],
      [
        "V",
        "ision"
      ],
      [
        "W",
        "y"
      ],
      [
        "W",
        "es"
      ],
      [
        "W",
        "as"
      ],
      [
        "W",
        "ork"
      ],
      [
        "Y",
        "a"
      ],
      [
        "Y",
        "o"
      ],
      [
        "Y",
        "ou"
      ],
      [
        "Y",
        "ash"
      ],
      [
        "Z",
        "ion"
      ],
      [
        "Z",
        "amp"
      ],
      [
        "a",
        "u"
      ],
      [
        "a",
        "il"
      ],
      [
        "a",
        "el"
      ],
      [
        "a",
        "pe"
      ],
      [
        "a",
        "ke"
      ],
      [
        "b",
        "b"
      ],
      [
        "b",
        "l"
      ],
      [
        "b",
        "ar"
      ],
      [
        "b",
        "or"
      ],
      [
        "b",
        "re"
      ],
      [
        "b",
        "ed"
      ],
      [
        "b",
        "and"
      ],
      [
        "b",
        "ro"
      ],
      [
        "b",
        "ur"
      ],
      [
        "b",
        "ann"
      ],
      [
        "b",
        "les"
      ],
      [
        "b",
        "ara"
      ],
      [
        "b",
        "atch"
      ],
      [
        "c",
        "r"
      ],
      [
        "c",
        "en"
      ],
      [
        "c",
        "ed"
      ],
      [
        "c",
        "al"
      ],
      [
        "c",
        "ato"
      ],
      [
        "c",
        "iv"
      ],
      [
        "c",
        "all"
      ],
      [
        "c",
        "oun"
      ],
      [
        "c",
        "ie"
      ],
      [
        "c",
        "ip"
      ],
      [
        "c",
        "up"
      ],
      [
        "c",
        "af"
      ],
      [
        "c",
        "atch"
      ],
      [
        "c",
        "ash"
      ],
      [
        "d",
        "d"
      ],
      [
        "d",
        "il"
      ],
      [
        "d",
        "it"
      ],
      [
        "d",
        "as"
      ],
      [
        "d",
        "le"
      ],
      [
        "d",
        "uc"
      ],
      [
        "d",
        "ue"
      ],
      [
        "d",
        "one"
      ],
      [
        "d",
        "hist"
      ],
      [
        "d",
        "ras"
      ],
      [
        "d",
        "ates"
      ],
      [
        "d",
        "kinson"
      ],
      [
        "e",
        "b"
      ],
      [
        "e",
        "z"
      ],
      [
        "e",
        "th"
      ],
      [
        "e",
        "es"
      ],
      [
        "e",
        "li"
      ],
      [
        "e",
        "be"
      ],
      [
        "e",
        "ast"
      ],
      [
        "f",
        "i"
      ],
      [
        "f",
        "s"
      ],
      [
        "f",
        "u"
      ],
      [
        "f",
        "an"
      ],
      [
        "f",
        "li"
      ],
      [
        "f",
        "ut"
      ],
      [
        "f",
        "ath"
      ],
      [
        "f",
        "em"
      ],
      [
        "f",
        "ur"
      ],
      [
        "f",
        "ac"
      ],
      [
        "f",
        "av"
      ],
      [
        "f",
        "ul"
      ],
      [
        "f",
        "ast"
      ],
      [
        "f",
        "lo"
      ],
      [
        "f",
        "air"
      ],
      [
        "f",
        "ind"
      ],
      [
        "f",
        "ound"
      ],
      [
        "f",
        "aking"
      ],
      [
        "f",
        "ull"
      ],
      [
        "f",
        "end"
      ],
      [
        "f",
        "ini"
      ],
      [
        "f",
        "lex"
      ],
      [
        "f",
        "actors"
      ],
      [
        "f",
        "ael"
      ],
      [
        "g",
        "er"
      ],
      [
        "g",
        "ic"
      ],
      [
        "g",
        "el"
      ],
      [
        "g",
        "ard"
      ],
      [
        "g",
        "ir"
      ],
      [
        "g",
        "all"
      ],
      [
        "g",
        "av"
      ],
      [
        "g",
        "ert"
      ],
      [
        "g",
        "ical"
      ],
      [
        "g",
        "ag"
      ],
      [
        "g",
        "ain"
      ],
      [
        "g",
        "ali"
      ],
      [
        "g",
        "ui"
      ],
      [
        "h",
        "us"
      ],
      [
        "h",
        "ay"
      ],
      [
        "h",
        "im"
      ],
      [
        "h",
        "la"
      ],
      [
        "h",
        "ous"
      ],
      [
        "h",
        "fu"
      ],
      [
        "i",
        "z"
      ],
      [
        "i",
        "en"
      ],
      [
        "i",
        "di"
      ],
      [
        "i",
        "el"
      ],
      [
        "i",
        "red"
      ],
      [
        "i",
        "ally"
      ],
      [
        "i",
        "que"
      ],
      [
        "j",
        "k"
      ],
      [
        "j",
        "oc"
      ],
      [
        "j",
        "ah"
      ],
      [
        "k",
        "ert"
      ],
      [
        "k",
        "gro"
      ],
      [
        "k",
        "bur"
      ],
      [
        "l",
        "or"
      ],
      [
        "l",
        "as"
      ],
      [
        "l",
        "us"
      ],
      [
        "l",
        "ine"
      ],
      [
        "l",
        "ated"
      ],
      [
        "l",
        "ers"
      ],
      [
        "m",
        "o"
      ],
      [
        "m",
        "ar"
      ],
      [
        "m",
        "al"
      ],
      [
        "m",
        "es"
      ],
      [
        "m",
        "el"
      ],
      [
        "m",
        "em"
      ],
      [
        "m",
        "illi"
      ],
      [
        "m",
        "ill"
      ],
      [
        "m",
        "one"
      ],
      [
        "m",
        "ate"
      ],
      [
        "m",
        "ple"
      ],
      [
        "m",
        "ug"
      ],
      [
        "m",
        "ess"
      ],
      [
        "m",
        "otion"
      ],
      [
        "m",
        "bol"
      ],
      [
        "n",
        "a"
      ],
      [
        "n",
        "i"
      ],
      [
        "n",
        "y"
      ],
      [
        "n",
        "er"
      ],
      [
        "n",
        "an"
      ],
      [
        "n",
        "ur"
      ],
      [
        "n",
        "ow"
      ],
      [
        "n",
        "ia"
      ],
      [
        "n",
        "ica"
      ],
      [
        "n",
        "ame"
      ],
      [
        "o",
        "il"
      ],
      [
        "o",
        "ur"
      ],
      [
        "o",
        "per"
      ],
      [
        "o",
        "ul"
      ],
      [
        "o",
        "drama"
      ],
      [
        "o",
        "ice"
      ],
      [
        "o",
        "ther"
      ],
      [
        "o",
        "pher"
      ],
      [
        "p",
        "m"
      ],
      [
        "p",
        "u"
      ],
      [
        "p",
        "ing"
      ],
      [
        "p",
        "en"
      ],
      [
        "p",
        "ut"
      ],
      [
        "p",
        "art"
      ],
      [
        "p",
        "per"
      ],
      [
        "p",
        "son"
      ],
      [
        "p",
        "eo"
      ],
      [
        "p",
        "ong"
      ],
      [
        "p",
        "air"
      ],
      [
        "p",
        "ag"
      ],
      [
        "p",
        "ain"
      ],
      [
        "p",
        "ress"
      ],
      [
        "p",
        "loy"
      ],
      [
        "p",
        "ple"
      ],
      [
        "p",
        "ped"
      ],
      [
        "p",
        "ani"
      ],
      [
        "r",
        "at"
      ],
      [
        "r",
        "ard"
      ],
      [
        "r",
        "ation"
      ],
      [
        "r",
        "ican"
      ],
      [
        "r",
        "ated"
      ],
      [
        "r",
        "ical"
      ],
      [
        "r",
        "ics"
      ],
      [
        "r",
        "ules"
      ],
      [
        "s",
        "el"
      ],
      [
        "s",
        "im"
      ],
      [
        "s",
        "id"
      ],
      [
        "s",
        "av"
      ],
      [
        "s",
        "uch"
      ],
      [
        "s",
        "ical"
      ],
      [
        "s",
        "ame"
      ],
      [
        "s",
        "upporting"
      ],
      [
        "s",
        "lated"
      ],
      [
        "t",
        "z"
      ],
      [
        "t",
        "on"
      ],
      [
        "t",
        "il"
      ],
      [
        "t",
        "le"
      ],
      [
        "t",
        "ly"
      ],
      [
        "t",
        "ain"
      ],
      [
        "t",
        "ran"
      ],
      [
        "t",
        "ake"
      ],
      [
        "u",
        "ed"
      ],
      [
        "u",
        "ring"
      ],
      [
        "u",
        "al"
      ],
      [
        "u",
        "el"
      ],
      [
        "u",
        "ary"
      ],
      [
        "u",
        "ish"
      ],
      [
        "u",
        "fe"
      ],
      [
        "u",
        "able"
      ],
      [
        "v",
        "it"
      ],
      [
        "v",
        "ion"
      ],
      [
        "v",
        "el"
      ],
      [
        "v",
        "ver"
      ],
      [
        "v",
        "iv"
      ],
      [
        "v",
        "ad"
      ],
      [
        "v",
        "ice"
      ],
      [
        "v",
        "ious"
      ],
      [
        "v",
        "enth"
      ],
      [
        "v",
        "ide"
      ],
      [
        "v",
        "ative"
      ],
      [
        "v",
        "oice"
      ],
      [
        "w",
        "is"
      ],
      [
        "w",
        "he"
      ],
      [
        "w",
        "el"
      ],
      [
        "w",
        "ay"
      ],
      [
        "w",
        "art"
      ],
      [
        "w",
        "che"
      ],
      [
        "w",
        "ab"
      ],
      [
        "w",
        "ill"
      ],
      [
        "w",
        "ish"
      ],
      [
        "w",
        "omen"
      ],
      [
        "w",
        "yn"
      ],
      [
        "w",
        "ald"
      ],
      [
        "w",
        "eb"
      ],
      [
        "x",
        "ed"
      ],
      [
        "x",
        "ac"
      ],
      [
        "x",
        "well"
      ],
      [
        "x",
        "ico"
      ],
      [
        "y",
        "le"
      ],
      [
        "y",
        "ch"
      ],
      [
        "y",
        "oun"
      ],
      [
        "y",
        "son"
      ],
      [
        "y",
        "et"
      ],
      [
        "z",
        "ur"
      ],
      [
        "z",
        "man"
      ],
      [
        "é",
        "s"
      ],
      [
        "ó",
        "nica"
      ],
      [
        "in",
        "t"
      ],
      [
        "in",
        "it"
      ],
      [
        "in",
        "es"
      ],
      [
        "in",
        "ce"
      ],
      [
        "in",
        "ation"
      ],
      [
        "in",
        "um"
      ],
      [
        "in",
        "ist"
      ],
      [
        "in",
        "vol"
      ],
      [
        "in",
        "du"
      ],
      [
        "in",
        "cip"
      ],
      [
        "in",
        "ued"
      ],
      [
        "in",
        "vit"
      ],
      [
        "ar",
        "k"
      ],
      [
        "ar",
        "am"
      ],
      [
        "ar",
        "ly"
      ],
      [
        "ar",
        "ang"
      ],
      [
        "ar",
        "ch"
      ],
      [
        "ar",
        "sh"
      ],
      [
        "ar",
        "let"
      ],
      [
        "er",
        "a"
      ],
      [
        "er",
        "al"
      ],
      [
        "er",
        "ent"
      ],
      [
        "er",
        "ved"
      ],
      [
        "an",
        "or"
      ],
      [
        "an",
        "ing"
      ],
      [
        "an",
        "at"
      ],
      [
        "an",
        "ge"
      ],
      [
        "an",
        "im"
      ],
      [
        "an",
        "za"
      ],
      [
        "an",
        "vi"
      ],
      [
        "an",
        "hous"
      ],
      [
        "an",
        "mug"
      ],
      [
        "st",
        "or"
      ],
      [
        "st",
        "re"
      ],
      [
        "st",
        "ing"
      ],
      [
        "st",
        "it"
      ],
      [
        "st",
        "al"
      ],
      [
        "st",
        "ra"
      ],
      [
        "st",
        "age"
      ],
      [
        "st",
        "ant"
      ],
      [
        "st",
        "op"
      ],
      [
        "st",
        "ings"
      ],
      [
        "st",
        "ery"
      ],
      [
        "st",
        "olen"
      ],
      [
        "on",
        "t"
      ],
      [
        "on",
        "ly"
      ],
      [
        "il",
        "y"
      ],
      [
        "il",
        "ed"
      ],
      [
        "th",
        "ag"
      ],
      [
        "th",
        "ous"
      ],
      [
        "or",
        "s"
      ],
      [
        "or",
        "ed"
      ],
      [
        "or",
        "es"
      ],
      [
        "or",
        "gan"
      ],
      [
        "or",
        "ate"
      ],
      [
        "or",
        "able"
      ],
      [
        "or",
        "ous"
      ],
      [
        "re",
        "w"
      ],
      [
        "re",
        "al"
      ],
      [
        "re",
        "as"
      ],
      [
        "re",
        "qu"
      ],
      [
        "re",
        "production"
      ],
      [
        "re",
        "conc"
      ],
      [
        "re",
        "pres"
      ],
      [
        "re",
        "pris"
      ],
      [
        "re",
        "tur"
      ],
      [
        "re",
        "verse"
      ],
      [
        "re",
        "plac"
      ],
      [
        "re",
        "cording"
      ],
      [
        "en",
        "ing"
      ],
      [
        "en",
        "sion"
      ],
      [
        "at",
        "rical"
      ],
      [
        "at",
        "inum"
      ],
      [
        "at",
        "ors"
      ],
      [
        "ed",
        "s"
      ],
      [
        "ed",
        "y"
      ],
      [
        "ed",
        "ings"
      ],
      [
        "ct",
        "able"
      ],
      [
        "ct",
        "ees"
      ],
      [
        "it",
        "ive"
      ],
      [
        "it",
        "led"
      ],
      [
        "it",
        "ress"
      ],
      [
        "it",
        "ted"
      ],
      [
        "star",
        "ted"
      ],
      [
        "di",
        "e"
      ],
      [
        "di",
        "ch"
      ],
      [
        "di",
        "sh"
      ],
      [
        "di",
        "pl"
      ],
      [
        "di",
        "sc"
      ],
      [
        "di",
        "ran"
      ],
      [
        "di",
        "sting"
      ],
      [
        "al",
        "s"
      ],
      [
        "al",
        "ing"
      ],
      [
        "al",
        "li"
      ],
      [
        "al",
        "am"
      ],
      [
        "al",
        "ian"
      ],
      [
        "al",
        "one"
      ],
      [
        "the",
        "m"
      ],
      [
        "the",
        "se"
      ],
      [
        "the",
        "me"
      ],
      [
        "the",
        "atrical"
      ],
      [
        "es",
        "im"
      ],
      [
        "es",
        "ca"
      ],
      [
        "film",
        "ing"
      ],
      [
        "film",
        "ed"
      ],
      [
        "is",
        "an"
      ],
      [
        "is",
        "ul"
      ],
      [
        "is",
        "od"
      ],
      [
        "is",
        "su"
      ],
      [
        "is",
        "sor"
      ],
      [
        "ic",
        "ul"
      ],
      [
        "ic",
        "ult"
      ],
      [
        "and",
        "s"
      ],
      [
        "and",
        "ra"
      ],
      [
        "ro",
        "e"
      ],
      [
        "ro",
        "o"
      ],
      [
        "ro",
        "ver"
      ],
      [
        "ro",
        "ss"
      ],
      [
        "as",
        "si"
      ],
      [
        "22",
        "Cras"
      ],
      [
        "ra",
        "ce"
      ],
      [
        "ra",
        "ther"
      ],
      [
        "ra",
        "cis"
      ],
      [
        "ra",
        "ble"
      ],
      [
        "ll",
        "a"
      ],
      [
        "ll",
        "i"
      ],
      [
        "ll",
        "s"
      ],
      [
        "ll",
        "or"
      ],
      [
        "ll",
        "ing"
      ],
      [
        "ll",
        "es"
      ],
      [
        "ll",
        "iv"
      ],
      [
        "ll",
        "ab"
      ],
      [
        "ll",
        "ina"
      ],
      [
        "ll",
        "ins"
      ],
      [
        "he",
        "ard"
      ],
      [
        "he",
        "av"
      ],
      [
        "he",
        "ld"
      ],
      [
        "he",
        "igh"
      ],
      [
        "om",
        "at"
      ],
      [
        "om",
        "itted"
      ],
      [
        "direct",
        "ing"
      ],
      [
        "un",
        "it"
      ],
      [
        "un",
        "se"
      ],
      [
        "un",
        "ch"
      ],
      [
        "un",
        "released"
      ],
      [
        "un",
        "od"
      ],
      [
        "un",
        "iver"
      ],
      [
        "un",
        "ted"
      ],
      [
        "un",
        "success"
      ],
      [
        "un",
        "ity"
      ],
      [
        "un",
        "ique"
      ],
      [
        "un",
        "til"
      ],
      [
        "un",
        "heard"
      ],
      [
        "ri",
        "am"
      ],
      [
        "ri",
        "el"
      ],
      [
        "ri",
        "but"
      ],
      [
        "ri",
        "ot"
      ],
      [
        "ri",
        "wa"
      ],
      [
        "ri",
        "flex"
      ],
      [
        "le",
        "av"
      ],
      [
        "le",
        "ased"
      ],
      [
        "le",
        "vel"
      ],
      [
        "li",
        "x"
      ],
      [
        "li",
        "st"
      ],
      [
        "li",
        "us"
      ],
      [
        "li",
        "gh"
      ],
      [
        "li",
        "ke"
      ],
      [
        "li",
        "ght"
      ],
      [
        "li",
        "ving"
      ],
      [
        "li",
        "sted"
      ],
      [
        "of",
        "ten"
      ],
      [
        "us",
        "er"
      ],
      [
        "us",
        "ive"
      ],
      [
        "am",
        "an"
      ],
      [
        "am",
        "ing"
      ],
      [
        "am",
        "ation"
      ],
      [
        "el",
        "ab"
      ],
      [
        "os",
        "h"
      ],
      [
        "os",
        "s"
      ],
      [
        "mi",
        "xed"
      ],
      [
        "pro",
        "te"
      ],
      [
        "pro",
        "val"
      ],
      [
        "pro",
        "ble"
      ],
      [
        "pro",
        "pag"
      ],
      [
        "ut",
        "e"
      ],
      [
        "writ",
        "ing"
      ],
      [
        "ent",
        "y"
      ],
      [
        "ent",
        "ed"
      ],
      [
        "ent",
        "al"
      ],
      [
        "ent",
        "ang"
      ],
      [
        "ent",
        "ry"
      ],
      [
        "ent",
        "ire"
      ],
      [
        "ent",
        "ration"
      ],
      [
        "ent",
        "itled"
      ],
      [
        "19",
        "49"
      ],
      [
        "19",
        "99"
      ],
      [
        "19",
        "76"
      ],
      [
        "19",
        "96"
      ],
      [
        "19",
        "68"
      ],
      [
        "19",
        "24"
      ],
      [
        "19",
        "04"
      ],
      [
        "19",
        "56"
      ],
      [
        "ath",
        "let"
      ],
      [
        "ge",
        "st"
      ],
      [
        "director",
        "ial"
      ],
      [
        "em",
        "a"
      ],
      [
        "em",
        "e"
      ],
      [
        "em",
        "ma"
      ],
      [
        "em",
        "pt"
      ],
      [
        "em",
        "otion"
      ],
      [
        "em",
        "ploy"
      ],
      [
        "ay",
        "ed"
      ],
      [
        "im",
        "ental"
      ],
      [
        "ol",
        "ic"
      ],
      [
        "ol",
        "as"
      ],
      [
        "ol",
        "ve"
      ],
      [
        "ha",
        "w"
      ],
      [
        "ha",
        "el"
      ],
      [
        "ha",
        "ka"
      ],
      [
        "ha",
        "ve"
      ],
      [
        "ha",
        "ped"
      ],
      [
        "ha",
        "unted"
      ],
      [
        "id",
        "ur"
      ],
      [
        "se",
        "k"
      ],
      [
        "se",
        "y"
      ],
      [
        "se",
        "par"
      ],
      [
        "se",
        "cond"
      ],
      [
        "se",
        "ven"
      ],
      [
        "to",
        "o"
      ],
      [
        "to",
        "ur"
      ],
      [
        "to",
        "ok"
      ],
      [
        "to",
        "wn"
      ],
      [
        "20",
        "19"
      ],
      [
        "ly",
        "rics"
      ],
      [
        "ver",
        "sion"
      ],
      [
        "for",
        "th"
      ],
      [
        "for",
        "nia"
      ],
      [
        "res",
        "ul"
      ],
      [
        "res",
        "pe"
      ],
      [
        "res",
        "olve"
      ],
      [
        "res",
        "haped"
      ],
      [
        "ato",
        "le"
      ],
      [
        "Re",
        "z"
      ],
      [
        "Re",
        "id"
      ],
      [
        "Re",
        "tur"
      ],
      [
        "Re",
        "gard"
      ],
      [
        "Re",
        "leased"
      ],
      [
        "ac",
        "s"
      ],
      [
        "ac",
        "com"
      ],
      [
        "ac",
        "count"
      ],
      [
        "ac",
        "cus"
      ],
      [
        "ac",
        "claim"
      ],
      [
        "ac",
        "cent"
      ],
      [
        "ac",
        "cording"
      ],
      [
        "ac",
        "kbur"
      ],
      [
        "ac",
        "ross"
      ],
      [
        "producer",
        "s"
      ],
      [
        "so",
        "hn"
      ],
      [
        "so",
        "und"
      ],
      [
        "so",
        "cie"
      ],
      [
        "It",
        "alian"
      ],
      [
        "Ra",
        "fael"
      ],
      [
        "Ra",
        "oul"
      ],
      [
        "stri",
        "an"
      ],
      [
        "Ma",
        "hen"
      ],
      [
        "Ma",
        "dras"
      ],
      [
        "Ma",
        "hfu"
      ],
      [
        "Ma",
        "xwell"
      ],
      [
        "Ma",
        "anvi"
      ],
      [
        "Ma",
        "haka"
      ],
      [
        "be",
        "lie"
      ],
      [
        "be",
        "fore"
      ],
      [
        "be",
        "ca"
      ],
      [
        "be",
        "gin"
      ],
      [
        "ot",
        "age"
      ],
      [
        "ot",
        "land"
      ],
      [
        "ce",
        "y"
      ],
      [
        "ce",
        "aling"
      ],
      [
        "ce",
        "lla"
      ],
      [
        "ian",
        "s"
      ],
      [
        "ian",
        "et"
      ],
      [
        "la",
        "st"
      ],
      [
        "la",
        "unch"
      ],
      [
        "art",
        "ists"
      ],
      [
        "Film",
        "4"
      ],
      [
        "Film",
        "fare"
      ],
      [
        "In",
        "ce"
      ],
      [
        "In",
        "de"
      ],
      [
        "In",
        "ste"
      ],
      [
        "In",
        "stit"
      ],
      [
        "ber",
        "esim"
      ],
      [
        "ov",
        "ation"
      ],
      [
        "gra",
        "du"
      ],
      [
        "gra",
        "pher"
      ],
      [
        "ma",
        "de"
      ],
      [
        "ma",
        "king"
      ],
      [
        "per",
        "t"
      ],
      [
        "per",
        "anza"
      ],
      [
        "te",
        "o"
      ],
      [
        "te",
        "lls"
      ],
      [
        "ang",
        "an"
      ],
      [
        "all",
        "ment"
      ],
      [
        "Al",
        "am"
      ],
      [
        "Al",
        "ess"
      ],
      [
        "Al",
        "wyn"
      ],
      [
        "av",
        "ision"
      ],
      [
        "av",
        "ail"
      ],
      [
        "com",
        "pos"
      ],
      [
        "com",
        "pe"
      ],
      [
        "com",
        "ple"
      ],
      [
        "com",
        "men"
      ],
      [
        "com",
        "pany"
      ],
      [
        "po",
        "ol"
      ],
      [
        "po",
        "int"
      ],
      [
        "po",
        "stings"
      ],
      [
        "po",
        "llina"
      ],
      [
        "port",
        "unity"
      ],
      [
        "ch",
        "ke"
      ],
      [
        "ch",
        "annel"
      ],
      [
        "ch",
        "ange"
      ],
      [
        "Mar",
        "y"
      ],
      [
        "Mar",
        "in"
      ],
      [
        "Mar",
        "io"
      ],
      [
        "Mar",
        "che"
      ],
      [
        "Mar",
        "ner"
      ],
      [
        "Se",
        "cre"
      ],
      [
        "Se",
        "ven"
      ],
      [
        "sh",
        "ow"
      ],
      [
        "sh",
        "ire"
      ],
      [
        "ul",
        "d"
      ],
      [
        "ul",
        "ich"
      ],
      [
        "Jo",
        "el"
      ],
      [
        "pos",
        "itive"
      ],
      [
        "son",
        "gs"
      ],
      [
        "Ar",
        "my"
      ],
      [
        "Ar",
        "go"
      ],
      [
        "Ar",
        "riflex"
      ],
      [
        "ab",
        "i"
      ],
      [
        "ab",
        "o"
      ],
      [
        "ab",
        "el"
      ],
      [
        "ab",
        "usive"
      ],
      [
        "Amer",
        "ica"
      ],
      [
        "Ch",
        "annel"
      ],
      [
        "Ch",
        "idi"
      ],
      [
        "con",
        "ser"
      ],
      [
        "con",
        "cept"
      ],
      [
        "con",
        "fli"
      ],
      [
        "con",
        "sid"
      ],
      [
        "con",
        "stant"
      ],
      [
        "con",
        "cealing"
      ],
      [
        "pi",
        "re"
      ],
      [
        "ene",
        "ck"
      ],
      [
        "ich",
        "és"
      ],
      [
        "phy",
        "sical"
      ],
      [
        "An",
        "g"
      ],
      [
        "An",
        "anda"
      ],
      [
        "An",
        "sch"
      ],
      [
        "An",
        "isul"
      ],
      [
        "An",
        "atole"
      ],
      [
        "Pict",
        "ure"
      ],
      [
        "ast",
        "han"
      ],
      [
        "den",
        "ce"
      ],
      [
        "ie",
        "tti"
      ],
      [
        "ip",
        "old"
      ],
      [
        "um",
        "al"
      ],
      [
        "wh",
        "en"
      ],
      [
        "Ba",
        "in"
      ],
      [
        "Ba",
        "by"
      ],
      [
        "Ba",
        "ker"
      ],
      [
        "Ba",
        "gav"
      ],
      [
        "Be",
        "ebe"
      ],
      [
        "lo",
        "ad"
      ],
      [
        "lo",
        "vers"
      ],
      [
        "ry",
        "n"
      ],
      [
        "ry",
        "mple"
      ],
      [
        "ten",
        "s"
      ],
      [
        "201",
        "0"
      ],
      [
        "201",
        "2"
      ],
      [
        "201",
        "3"
      ],
      [
        "201",
        "5"
      ],
      [
        "201",
        "6"
      ],
      [
        "own",
        "er"
      ],
      [
        "ad",
        "a"
      ],
      [
        "ad",
        "an"
      ],
      [
        "ad",
        "cast"
      ],
      [
        "ad",
        "ult"
      ],
      [
        "ad",
        "vent"
      ],
      [
        "ad",
        "dit"
      ],
      [
        "ad",
        "oss"
      ],
      [
        "ne",
        "th"
      ],
      [
        "ne",
        "ws"
      ],
      [
        "pl",
        "ace"
      ],
      [
        "pl",
        "ores"
      ],
      [
        "pl",
        "atinum"
      ],
      [
        "ser",
        "ves"
      ],
      [
        "cinemato",
        "grapher"
      ],
      [
        "de",
        "but"
      ],
      [
        "de",
        "cl"
      ],
      [
        "de",
        "vis"
      ],
      [
        "de",
        "vice"
      ],
      [
        "de",
        "als"
      ],
      [
        "dra",
        "mat"
      ],
      [
        "sc",
        "ore"
      ],
      [
        "sc",
        "ale"
      ],
      [
        "Bl",
        "ackbur"
      ],
      [
        "Gat",
        "e"
      ],
      [
        "Gat",
        "es"
      ],
      [
        "St",
        "ate"
      ],
      [
        "To",
        "dd"
      ],
      [
        "To",
        "uring"
      ],
      [
        "pe",
        "z"
      ],
      [
        "ish",
        "nan"
      ],
      [
        "with",
        "in"
      ],
      [
        "with",
        "out"
      ],
      [
        "Do",
        "ug"
      ],
      [
        "Dav",
        "e"
      ],
      [
        "Dav",
        "is"
      ],
      [
        "Fr",
        "ass"
      ],
      [
        "Fr",
        "ont"
      ],
      [
        "Ro",
        "co"
      ],
      [
        "Ro",
        "ze"
      ],
      [
        "Ro",
        "ger"
      ],
      [
        "Ro",
        "yle"
      ],
      [
        "down",
        "load"
      ],
      [
        "ist",
        "ance"
      ],
      [
        "ine",
        "lli"
      ],
      [
        "one",
        "st"
      ],
      [
        "cl",
        "assi"
      ],
      [
        "cl",
        "amation"
      ],
      [
        "cl",
        "ichés"
      ],
      [
        "up",
        "on"
      ],
      [
        "up",
        "dates"
      ],
      [
        "Ho",
        "dge"
      ],
      [
        "Ho",
        "use"
      ],
      [
        "Ho",
        "dkinson"
      ],
      [
        "Me",
        "xico"
      ],
      [
        "Me",
        "llor"
      ],
      [
        "dom",
        "ain"
      ],
      [
        "fo",
        "ur"
      ],
      [
        "fo",
        "otage"
      ],
      [
        "ud",
        "ino"
      ],
      [
        "John",
        "ny"
      ],
      [
        "De",
        "ll"
      ],
      [
        "De",
        "fend"
      ],
      [
        "De",
        "vad"
      ],
      [
        "Fe",
        "lix"
      ],
      [
        "Har",
        "old"
      ],
      [
        "Le",
        "wis"
      ],
      [
        "Le",
        "eds"
      ],
      [
        "Le",
        "ipold"
      ],
      [
        "Ros",
        "e"
      ],
      [
        "Ros",
        "si"
      ],
      [
        "Ros",
        "sy"
      ],
      [
        "Vi",
        "kat"
      ],
      [
        "co",
        "up"
      ],
      [
        "co",
        "vers"
      ],
      [
        "co",
        "llab"
      ],
      [
        "et",
        "s"
      ],
      [
        "Bo",
        "th"
      ],
      [
        "Bo",
        "den"
      ],
      [
        "Bo",
        "lles"
      ],
      [
        "Ph",
        "ill"
      ],
      [
        "Ph",
        "anta"
      ],
      [
        "gan",
        "di"
      ],
      [
        "ke",
        "y"
      ],
      [
        "193",
        "7"
      ],
      [
        "193",
        "8"
      ],
      [
        "Co",
        "le"
      ],
      [
        "Co",
        "llins"
      ],
      [
        "od",
        "s"
      ],
      [
        "od",
        "y"
      ],
      [
        "sit",
        "es"
      ],
      [
        "tw",
        "enty"
      ],
      [
        "Jack",
        "son"
      ],
      [
        "Ab",
        "angan"
      ],
      [
        "Is",
        "land"
      ],
      [
        "Is",
        "abel"
      ],
      [
        "Nor",
        "a"
      ],
      [
        "Nor",
        "way"
      ],
      [
        "Sh",
        "uk"
      ],
      [
        "Sh",
        "ony"
      ],
      [
        "Sh",
        "uj"
      ],
      [
        "Sh",
        "anmug"
      ],
      [
        "air",
        "men"
      ],
      [
        "ces",
        "ca"
      ],
      [
        "me",
        "ter"
      ],
      [
        "me",
        "ant"
      ],
      [
        "me",
        "aning"
      ],
      [
        "oc",
        "cup"
      ],
      [
        "ou",
        "rable"
      ],
      [
        "si",
        "al"
      ],
      [
        "tit",
        "ion"
      ],
      [
        "ind",
        "er"
      ],
      [
        "ren",
        "tly"
      ],
      [
        "riz",
        "io"
      ],
      [
        "198",
        "2"
      ],
      [
        "198",
        "3"
      ],
      [
        "198",
        "6"
      ],
      [
        "198",
        "7"
      ],
      [
        "fore",
        "ign"
      ],
      [
        "Art",
        "isan"
      ],
      [
        "Fran",
        "cesca"
      ],
      [
        "Austral",
        "ia"
      ],
      [
        "Revolution",
        "ary"
      ],
      [
        "200",
[...]
