{
  "version": "1.0",
  "truncation": null,
  "padding": null,
  "added_tokens": [
    {
      "id": 0,
      "content": "<UNK>",
      "single_word": false,
      "lstrip": false,
      "rstrip": false,
      "normalized": false,
      "special": true
    },
    {
      "id": 1,
      "content": "<PAD>",
      "single_word": false,
      "lstrip": false,
      "rstrip": false,
      "normalized": false,
      "special": true
    },
    {
      "id": 2,
      "content": "<MASK>",
      "single_word": false,
      "lstrip": false,
      "rstrip": false,
      "normalized": false,
      "special": true
    },
    {
      "id": 3,
      "content": "<SOS>",
      "single_word": false,
      "lstrip": false,
      "rstrip": false,
      "normalized": false,
      "special": true
    },
    {
      "id": 4,
      "content": "<EOS>",
      "single_word": false,
      "lstrip": false,
      "rstrip": false,
      "normalized": false,
      "special": true
    },
    {
      "id": 5,
      "content": "<SOT>",
      "single_word": false,
      "lstrip": false,
      "rstrip": false,
      "normalized": false,
      "special": true
    },
    {
      "id": 6,
      "content": "<EOT>",
      "single_word": false,
      "lstrip": false,
      "rstrip": false,
      "normalized": false,
      "special": true
    },
    {
      "id": 7,
      "content": "<SUBJ>",
      "single_word": false,
      "lstrip": false,
      "rstrip": false,
      "normalized": false,
      "special": true
    },
    {
      "id": 8,
      "content": "<PRED>",
      "single_word": false,
      "lstrip": false,
      "rstrip": false,
      "normalized": false,
      "special": true
    },
    {
      "id": 9,
      "content": "<OBJ>",
      "single_word": false,
      "lstrip": false,
      "rstrip": false,
      "normalized": false,
      "special": true
    },
    {
      "id": 10,
      "content": "<Text2RDF>",
      "single_word": false,
      "lstrip": false,
      "rstrip": false,
      "normalized": false,
      "special": true
    },
    {
      "id": 11,
      "content": "<RDF2Text>",
      "single_word": false,
      "lstrip": false,
      "rstrip": false,
      "normalized": false,
      "special": true
    },
    {
      "id": 12,
      "content": "<CONTINUERDF>",
      "single_word": false,
      "lstrip": false,
      "rstrip": false,
      "normalized": false,
      "special": true
    },
    {
      "id": 13,
      "content": "<MASKTASK>",
      "single_word": false,
      "lstrip": false,
      "rstrip": false,
      "normalized": false,
      "special": true
    }
  ],
  "normalizer": null,
  "pre_tokenizer": {
    "type": "Sequence",
    "pretokenizers": [
      {
        "type": "Split",
        "pattern": {
          "String": "_"
        },
        "behavior": "Removed",
        "invert": false
      },
      {
        "type": "Whitespace"
      }
    ]
  },
  "post_processor": null,
  "decoder": null,
  "model": {
    "type": "BPE",
    "dropout": null,
    "unk_token": "<UNK>",
    "continuing_subword_prefix": null,
    "end_of_word_suffix": null,
    "fuse_unk": false,
    "byte_fallback": false,
    "ignore_merges": false,
    "vocab": {
      "<UNK>": 0,
      "<PAD>": 1,
      "<MASK>": 2,
      "<SOS>": 3,
      "<EOS>": 4,
      "<SOT>": 5,
      "<EOT>": 6,
      "<SUBJ>": 7,
      "<PRED>": 8,
      "<OBJ>": 9,
      "<Text2RDF>": 10,
      "<RDF2Text>": 11,
      "<CONTINUERDF>": 12,
      "<MASKTASK>": 13,
      "!": 14,
      "\"": 15,
      "$": 16,
      "%": 17,
      "&": 18,
      "'": 19,
      "(": 20,
      ")": 21,
      "*": 22,
      "+": 23,
      ",": 24,
      "-": 25,
      ".": 26,
      "/": 27,
      "0": 28,
      "1": 29,
      "2": 30,
      "3": 31,
      "4": 32,
      "5": 33,
      "6": 34,
      "7": 35,
      "8": 36,
      "9": 37,
      ":": 38,
      ";": 39,
      "<": 40,
      ">": 41,
      "?": 42,
      "A": 43,
      "B": 44,
      "C": 45,
      "D": 46,
      "E": 47,
      "F": 48,
      "G": 49,
      "H": 50,
      "I": 51,
      "J": 52,
      "K": 53,
      "L": 54,
      "M": 55,
      "N": 56,
      "O": 57,
      "P": 58,
      "Q": 59,
      "R": 60,
      "S": 61,
      "T": 62,
      "U": 63,
      "V": 64,
      "W": 65,
      "X": 66,
      "Y": 67,
      "Z": 68,
      "[": 69,
      "]": 70,
      "a": 71,
      "b": 72,
      "c": 73,
      "d": 74,
      "e": 75,
      "f": 76,
      "g": 77,
      "h": 78,
      "i": 79,
      "j": 80,
      "k": 81,
      "l": 82,
      "m": 83,
      "n": 84,
      "o": 85,
      "p": 86,
      "q": 87,
      "r": 88,
      "s": 89,
      "t": 90,
      "u": 91,
      "v": 92,
      "w": 93,
      "x": 94,
      "y": 95,
      "z": 96,
      "à": 97,
      "á": 98,
      "è": 99,
      "é": 100,
      "í": 101,
      "î": 102,
      "ñ": 103,
      "ó": 104,
      "ö": 105,
      "ø": 106,
      "ù": 107,
      "ú": 108,
      "ü": 109,
      "ō": 110,
      "ū": 111,
      "И": 112,
      "а": 113,
      "г": 114,
      "д": 115,
      "е": 116,
      "и": 117,
      "л": 118,
      "н": 119,
      "о": 120,
      "р": 121,
      "у": 122,
      "ф": 123,
      "ц": 124,
      "ы": 125,
      "ь": 126,
      "א": 127,
      "ב": 128,
      "ג": 129,
      "ד": 130,
      "ה": 131,
      "ו": 132,
      "י": 133,
      "ך": 134,
      "ל": 135,
      "ם": 136,
      "מ": 137,
      "פ": 138,
      "ר": 139,
      "–": 140,
      "—": 141,
      "₹": 142,
      "う": 143,
      "こ": 144,
      "と": 145,
      "に": 146,
      "の": 147,
      "イ": 148,
      "カ": 149,
      "ク": 150,
      "セ": 151,
      "チ": 152,
      "ッ": 153,
      "ト": 154,
      "ド": 155,
      "ハ": 156,
      "ミ": 157,
      "リ": 158,
      "不": 159,
      "僕": 160,
      "向": 161,
      "夏": 162,
      "天": 163,
      "妻": 164,
      "寒": 165,
      "愛": 166,
      "應": 167,
      "效": 168,
      "爱": 169,
      "物": 170,
      "疯": 171,
      "瘋": 172,
      "的": 173,
      "能": 174,
      "蟬": 175,
      "語": 176,
      "说": 177,
      "아": 178,
      "엔": 179,
      "이": 180,
      "지": 181,
      "db": 182,
      "BJ": 183,
      "OT": 184,
      "dbr": 185,
      "er": 186,
      "in": 187,
      "an": 188,
      "ar": 189,
      "ED": 190,
      "EOT": 191,
      "OBJ": 192,
      "PR": 193,
      "SU": 194,
      "SOT": 195,
      "dbo": 196,
      "PRED": 197,
      "SUBJ": 198,
      "il": 199,
      "st": 200,
      "or": 201,
      "th": 202,
      "on": 203,
      "re": 204,
      "ing": 205,
      "en": 206,
      "ed": 207,
      "ilm": 208,
      "the": 209,
      "al": 210,
      "at": 211,
      "ct": 212,
      "it": 213,
      "film": 214,
      "as": 215,
      "di": 216,
      "..": 217,
      "star": 218,
      "is": 219,
      "ring": 220,
      "es": 221,
      "starring": 222,
      "and": 223,
      "ic": 224,
      "00": 225,
      "ro": 226,
      "he": 227,
      "rect": 228,
      "direct": 229,
      ":'": 230,
      "am": 231,
      "el": 232,
      "ion": 233,
      "om": 234,
      "by": 235,
      "...": 236,
      "of": 237,
      "ou": 238,
      "ri": 239,
      "le": 240,
      "The": 241,
      "os": 242,
      "rit": 243,
      "us": 244,
      "ra": 245,
      "ut": 246,
      "ol": 247,
      "writ": 248,
      ":...": 249,
      "Al": 250,
      "ch": 251,
      "was": 252,
      "director": 253,
      "em": 254,
      "un": 255,
      "lo": 256,
      "to": 257,
      "ge": 258,
      "ent": 259,
      "du": 260,
      "ha": 261,
      "22": 262,
      "writer": 263,
      "000": 264,
      "ay": 265,
      "li": 266,
      "19": 267,
      "10": 268,
      "id": 269,
      "pro": 270,
      "ir": 271,
      "directed": 272,
      "for": 273,
      "An": 274,
      "im": 275,
      "It": 276,
      "et": 277,
      "produ": 278,
      "og": 279,
      "ard": 280,
      "produc": 281,
      "iv": 282,
      "ov": 283,
      "ig": 284,
      "ur": 285,
      "ad": 286,
      "but": 287,
      "ies": 288,
      "ation": 289,
      "man": 290,
      "ak": 291,
      "ang": 292,
      "res": 293,
      "ph": 294,
      "ce": 295,
      "ter": 296,
      "ck": 297,
      "20": 298,
      "la": 299,
      "stri": 300,
      "ber": 301,
      "ev": 302,
      "usic": 303,
      "Com": 304,
      "music": 305,
      "est": 306,
      "producer": 307,
      "Mar": 308,
      "ne": 309,
      "act": 310,
      "mi": 311,
      "pos": 312,
      "distri": 313,
      "distribut": 314,
      "Ch": 315,
      "ly": 316,
      "ie": 317,
      "per": 318,
      "wh": 319,
      ":$": 320,
      "ers": 321,
      "Allo": 322,
      "distributor": 323,
      "com": 324,
      "And": 325,
      "poser": 326,
      "St": 327,
      "ot": 328,
      "se": 329,
      "ased": 330,
      "Composer": 331,
      "musicComposer": 332,
      "ath": 333,
      "mer": 334,
      "art": 335,
      "Th": 336,
      ":.": 337,
      "Re": 338,
      "Se": 339,
      "cin": 340,
      "ow": 341,
      "ere": 342,
      ":%": 343,
      "Til": 344,
      "um": 345,
      "ian": 346,
      "ril": 347,
      "ich": 348,
      "oun": 349,
      "io": 350,
      "ser": 351,
      "ort": 352,
      "200": 353,
      "age": 354,
      "ht": 355,
      "so": 356,
      "ul": 357,
      "ict": 358,
      "rele": 359,
      "phy": 360,
      "Film": 361,
      "Ja": 362,
      "fe": 363,
      "ry": 364,
      "cinem": 365,
      "ast": 366,
      "201": 367,
      "In": 368,
      "pp": 369,
      "de": 370,
      "ary": 371,
      "atog": 372,
      "cinematog": 373,
      "cinematogra": 374,
      "be": 375,
      "lang": 376,
      "uage": 377,
      "We": 378,
      "qu": 379,
      "all": 380,
      "Da": 381,
      "Me": 382,
      "ram": 383,
      "sh": 384,
      "ican": 385,
      "language": 386,
      "ag": 387,
      "ain": 388,
      "ten": 389,
      "ish": 390,
      "released": 391,
      "cinematography": 392,
      "Jo": 393,
      "oc": 394,
      "ok": 395,
      "ward": 396,
      "De": 397,
      "ore": 398,
      "ia": 399,
      ":(": 400,
      "Amer": 401,
      "ab": 402,
      "sc": 403,
      "ures": 404,
      "hack": 405,
      "Ra": 406,
      "su": 407,
      "ther": 408,
      "edit": 409,
      "ight": 410,
      "//": 411,
      "eo": 412,
      "ial": 413,
      "All": 414,
      "con": 415,
      "red": 416,
      "series": 417,
      "American": 418,
      "15": 419,
      "3F": 420,
      "Ap": 421,
      "illi": 422,
      "ount": 423,
      "Ar": 424,
      "pl": 425,
      "ust": 426,
      "vid": 427,
      "written": 428,
      "Pict": 429,
      "ai": 430,
      "ff": 431,
      "one": 432,
      "editing": 433,
      "ka": 434,
      "pt": 435,
      "ran": 436,
      "wi": 437,
      "pan": 438,
      "actor": 439,
      "30": 440,
      "Ne": 441,
      "Ro": 442,
      "Un": 443,
      "Us": 444,
      "ud": 445,
      "enn": 446,
      "rom": 447,
      "ird": 448,
      "ive": 449,
      "Pictures": 450,
      "08": 451,
      "Do": 452,
      "Wh": 453,
      "dram": 454,
      "son": 455,
      "te": 456,
      "ine": 457,
      "ill": 458,
      "ord": 459,
      "ice": 460,
      "with": 461,
      "71": 462,
      "Be": 463,
      "ist": 464,
      "ld": 465,
      "po": 466,
      "ant": 467,
      "ato": 468,
      "drama": 469,
      "En": 470,
      "Le": 471,
      "ke": 472,
      "are": 473,
      "ell": 474,
      "irst": 475,
      "Har": 476,
      "Ma": 477,
      "Was": 478,
      "che": 479,
      "from": 480,
      "hn": 481,
      "les": 482,
      "od": 483,
      "April": 484,
      "Ag": 485,
      "az": 486,
      "ip": 487,
      "pe": 488,
      "wor": 489,
      "ali": 490,
      "own": 491,
      "Sh": 492,
      "War": 493,
      "tit": 494,
      "ver": 495,
      "ember": 496,
      "Neath": 497,
      "Ba": 498,
      "Cor": 499,
      "Ger": 500,
      "ear": 501,
      "min": 502,
      "ern": 503,
      "ile": 504,
      "reen": 505,
      "ate": 506,
      "out": 507,
      "play": 508,
      "45": 509,
      "Bo": 510,
      "May": 511,
      "co": 512,
      "count": 513,
      "port": 514,
      "ank": 515,
      "ated": 516,
      "our": 517,
      "ake": 518,
      "ever": 519,
      "Er": 520,
      "Ge": 521,
      "au": 522,
      "bor": 523,
      "pra": 524,
      "ann": 525,
      "ction": 526,
      "comed": 527,
      "Bro": 528,
      "Bla": 529,
      "Jan": 530,
      "Just": 531,
      "Nor": 532,
      "Twas": 533,
      "ru": 534,
      "ve": 535,
      "ind": 536,
      "ara": 537,
      "ory": 538,
      "that": 539,
      "ren": 540,
      "ene": 541,
      "ess": 542,
      "ovie": 543,
      "John": 544,
      "Go": 545,
      "Je": 546,
      "Mo": 547,
      "Pa": 548,
      "oi": 549,
      "pi": 550,
      "pre": 551,
      "ily": 552,
      "ity": 553,
      "stars": 554,
      "ese": 555,
      "German": 556,
      "country": 557,
      "Bl": 558,
      "Ha": 559,
      "Nation": 560,
      "Part": 561,
      "bene": 562,
      "fare": 563,
      "led": 564,
      "uk": 565,
      "ure": 566,
      "van": 567,
      "ws": 568,
      "ilent": 569,
      "also": 570,
      "ical": 571,
      "lie": 572,
      "produced": 573,
      "Sex": 574,
      "Again": 575,
      "Geor": 576,
      "BC": 577,
      "ac": 578,
      "cam": 579,
      "non": 580,
      "ue": 581,
      "ug": 582,
      "ona": 583,
      "ens": 584,
      "ale": 585,
      "its": 586,
      "und": 587,
      "193": 588,
      "ime": 589,
      "ival": 590,
      "bert": 591,
      "estival": 592,
      "David": 593,
      "comedy": 594,
      "Justice": 595,
      "George": 596,
      ":!": 597,
      "Cat": 598,
      "Cio": 599,
      "FF": 600,
      "No": 601,
      "Night": 602,
      "Oper": 603,
      "Pos": 604,
      "SS": 605,
      "Sch": 606,
      "af": 607,
      "cl": 608,
      "den": 609,
      "hil": 610,
      "ls": 611,
      "mas": 612,
      "uoi": 613,
      "vuoi": 614,
      "ana": 615,
      "ous": 616,
      "ley": 617,
      "entary": 618,
      "hai": 619,
      "ogy": 620,
      "umentary": 621,
      "rilogy": 622,
      "sopra": 623,
      "feat": 624,
      "ocumentary": 625,
      "illipo": 626,
      "portato": 627,
      "più": 628,
      "Cioè": 629,
      "Posillipo": 630,
      ".%": 631,
      "03": 632,
      "2000": 633,
      "77": 634,
      "Ab": 635,
      "Car": 636,
      "Fran": 637,
      "Jon": 638,
      "documentary": 639,
      "his": 640,
      "je": 641,
      "ment": 642,
      "up": 643,
      "ert": 644,
      "thqu": 645,
      "ision": 646,
      "22FF": 647,
      "who": 648,
      "which": 649,
      "Japan": 650,
      "25": 651,
      "Col": 652,
      "Festival": 653,
      "Jos": 654,
      "TV": 655,
      "West": 656,
      "You": 657,
      "Yank": 658,
      "bre": 659,
      "eph": 660,
      "gl": 661,
      "me": 662,
      "ts": 663,
      "inal": 664,
      "oni": 665,
      "ass": 666,
      "dian": 667,
      "ick": 668,
      "off": 669,
      "ovic": 670,
      "screen": 671,
      "Yankovic": 672,
      ").": 673,
      "Cy": 674,
      "He": 675,
      "My": 676,
      "Mur": 677,
      "Our": 678,
      "Par": 679,
      "Pim": 680,
      "Sk": 681,
      "She": 682,
      "Sha": 683,
      "Tou": 684,
      "Tok": 685,
      "Trilogy": 686,
      "Wor": 687,
      "Way": 688,
      "av": 689,
      "gan": 690,
      "ler": 691,
      "uary": 692,
      "wo": 693,
      "yn": 694,
      "story": 695,
      "ong": 696,
      "rece": 697,
      "ator": 698,
      "icial": 699,
      "ame": 700,
      "rid": 701,
      "tern": 702,
      "Jack": 703,
      "Weird": 704,
      "title": 705,
      "borg": 706,
      "January": 707,
      "thquake": 708,
      "Skies": 709,
      "06": 710,
      "50": 711,
      "As": 712,
      "Award": 713,
      "Cali": 714,
      "King": 715,
      "Oka": 716,
      "Willi": 717,
      "cc": 718,
      "has": 719,
      "nel": 720,
      "op": 721,
      "udi": 722,
      "xter": 723,
      "alian": 724,
      "ited": 725,
      "ise": 726,
      "009": 727,
      "elev": 728,
      "chi": 729,
      "unn": 730,
      "fore": 731,
      "ress": 732,
      "Chile": 733,
      "pernel": 734,
      "Meet": 735,
      "short": 736,
      "Cyborg": 737,
      "Pimpernel": 738,
      "Tokat": 739,
      "World": 740,
      "receiv": 741,
      "William": 742,
      "05": 743,
      "17": 744,
      "Ear": 745,
      "Ever": 746,
      "Give": 747,
      "One": 748,
      "Ros": 749,
      "Smi": 750,
      "Vi": 751,
      "based": 752,
      "bles": 753,
      "cial": 754,
      "dom": 755,
      "down": 756,
      "ex": 757,
      "gel": 758,
      "ma": 759,
      "night": 760,
      "ob": 761,
      "ost": 762,
      "we": 763,
      "were": 764,
      "ys": 765,
      "yam": 766,
      "eries": 767,
      "ins": 768,
      "their": 769,
      "aly": 770,
      "ica": 771,
      "una": 772,
      "ational": 773,
      "where": 774,
      "Third": 775,
      "Daily": 776,
      "Robert": 777,
      "enna": 778,
      "Engl": 779,
      "work": 780,
      "Bait": 781,
      "Paul": 782,
      "Japanese": 783,
      "elevision": 784,
      "received": 785,
      "Earthquake": 786,
      "Smith": 787,
      "English": 788,
      "Au": 789,
      "Brid": 790,
      "Dut": 791,
      "Fra": 792,
      "Gi": 793,
      "Gator": 794,
      "Mor": 795,
      "Mat": 796,
      "On": 797,
      "Ram": 798,
      "Rev": 799,
      "bo": 800,
      "first": 801,
      "iro": 802,
      "mon": 803,
      "ris": 804,
      "spe": 805,
      "silent": 806,
      "television": 807,
      "ves": 808,
      "wa": 809,
      "zes": 810,
      "ero": 811,
      "ino": 812,
      "incl": 813,
      "aract": 814,
      "ories": 815,
      "ates": 816,
      "iseries": 817,
      "amed": 818,
      "ione": 819,
      "outh": 820,
      "rig": 821,
      "chdown": 822,
      "charact": 823,
      "had": 824,
      "22Pimpernel": 825,
      "194": 826,
      "198": 827,
      "199": 828,
      "idy": 829,
      "ider": 830,
      "ign": 831,
      "There": 832,
      "Reward": 833,
      "iction": 834,
      "ppe": 835,
      "Death": 836,
      "United": 837,
      "azione": 838,
      "miniseries": 839,
      "premi": 840,
      "Schne": 841,
      "Touchdown": 842,
      "Kingdom": 843,
      "Fraidy": 844,
      "Best": 845,
      "Con": 846,
      "Ed": 847,
      "First": 848,
      "Jim": 849,
      "Luna": 850,
      "Mc": 851,
      "Mil": 852,
      "Movie": 853,
      "Pro": 854,
      "Phil": 855,
      "Sc": 856,
      "Sun": 857,
      "Ver": 858,
      "Wi": 859,
      "bet": 860,
      "ca": 861,
      "cast": 862,
      "fol": 863,
      "ik": 864,
      "ious": 865,
      "lar": 866,
      "pag": 867,
      "ual": 868,
      "val": 869,
      "wden": 870,
      "year": 871,
      "zo": 872,
      "ina": 873,
      "ans": 874,
      "ree": 875,
      "end": 876,
      "ence": 877,
      "002": 878,
      "ution": 879,
      "ents": 880,
      "22Weird": 881,
      "197": 882,
      "Marbles": 883,
      "ney": 884,
      "Sept": 885,
      "2009": 886,
      "2014": 887,
      "able": 888,
      "Raise": 889,
      "Rawden": 890,
      "video": 891,
      "aired": 892,
      "Before": 893,
      "Lee": 894,
      "Boys": 895,
      "Blazes": 896,
      "Blue": 897,
      "Happ": 898,
      "778": 899,
      "Jononi": 900,
      "Param": 901,
      "ternational": 902,
      "Dutch": 903,
      "includ": 904,
      "Schneider": 905,
      "follo": 906,
      "September": 907,
      "34": 908,
      "49": 909,
      "Ad": 910,
      "Dig": 911,
      "Gang": 912,
      "Hour": 913,
      "Lu": 914,
      "Lov": 915,
      "Mic": 916,
      "Ot": 917,
      "Other": 918,
      "Off": 919,
      "Ols": 920,
      "Rich": 921,
      "Sa": 922,
      "Tis": 923,
      "Tom": 924,
      "Yo": 925,
      "aj": 926,
      "ein": 927,
      "my": 928,
      "movie": 929,
      "oo": 930,
      "oper": 931,
      "sit": 932,
      "tin": 933,
      "ub": 934,
      "won": 935,
      "–'": 936,
      "ered": 937,
      "ance": 938,
      "orig": 939,
      "eng": 940,
      "ald": 941,
      "att": 942,
      "ely": 943,
      "rist": 944,
      "emy": 945,
      "Italian": 946,
      "akes": 947,
      "Come": 948,
      "Mark": 949,
      "Char": 950,
      "Christ": 951,
      "lyn": 952,
      "erson": 953,
      "Thus": 954,
      "ound": 955,
      "ult": 956,
      "oklyn": 957,
      "When": 958,
      "Harm": 959,
      "titled": 960,
      "Brooklyn": 961,
      "ugh": 962,
      "Operazione": 963,
      "icials": 964,
      "Calibre": 965,
      "yama": 966,
      "Bridge": 967,
      "Happens": 968,
      "Hours": 969,
      "Love": 970,
      "Otto": 971,
      "Officials": 972,
      "Olsen": 973,
      "original": 974,
      "99": 975,
      ":-": 976,
      "Ari": 977,
      "But": 978,
      "Dan": 979,
      "How": 980,
      "II": 981,
      "Is": 982,
      "Pity": 983,
      "South": 984,
      "Xmas": 985,
      "ces": 986,
      "der": 987,
      "ek": 988,
      "ep": 989,
      "hist": 990,
      "if": 991,
      "km": 992,
      "mad": 993,
      "ror": 994,
      "sy": 995,
      "set": 996,
      "uf": 997,
      "vie": 998,
      "za": 999,
      "zi": 1000,
      "ori": 1001,
      "ital": 1002,
      "ase": 1003,
      "008": 1004,
      "roman": 1005,
      "ames": 1006,
      "ele": 1007,
      "elo": 1008,
      "use": 1009,
      "195": 1010,
      "aking": 1011,
      "action": 1012,
      "Stories": 1013,
      "States": 1014,
      "2004": 1015,
      "dep": 1016,
      "ocaly": 1017,
      "Dead": 1018,
      "Art": 1019,
      "Whore": 1020,
      "Corp": 1021,
      "after": 1022,
      "Vienna": 1023,
      "ween": 1024,
      "character": 1025,
      "Wife": 1026,
      "between": 1027,
      "Paramount": 1028,
      "Richard": 1029,
      "made": 1030,
      ":&": 1031,
      "Aust": 1032,
      "Aval": 1033,
      "Brit": 1034,
      "Bever": 1035,
      "Cla": 1036,
      "Del": 1037,
      "El": 1038,
      "Fe": 1039,
      "Gol": 1040,
      "Ichi": 1041,
      "La": 1042,
      "Leo": 1043,
      "Mer": 1044,
      "Mon": 1045,
      "Mad": 1046,
      "Ray": 1047,
      "Rog": 1048,
      "Span": 1049,
      "bast": 1050,
      "cember": 1051,
      "don": 1052,
      "her": 1053,
      "iet": 1054,
      "ika": 1055,
      "kn": 1056,
      "lin": 1057,
      "land": 1058,
      "nur": 1059,
      "not": 1060,
      "pse": 1061,
      "ral": 1062,
      "ting": 1063,
      "tra": 1064,
      "time": 1065,
      "two": 1066,
      "erg": 1067,
      "reg": 1068,
      "reated": 1069,
      "enzo": 1070,
      "ason": 1071,
      "ics": 1072,
      "amil": 1073,
      "omen": 1074,
      "osh": 1075,
      "ray": 1076,
      "ung": 1077,
      "loy": 1078,
      "ide": 1079,
      "Angel": 1080,
      "actress": 1081,
      "Steph": 1082,
      "Sebast": 1083,
      "umar": 1084,
      "Films": 1085,
      "2011": 1086,
      "International": 1087,
      "Week": 1088,
      "ship": 1089,
      "December": 1090,
      "Apocaly": 1091,
      "Wasn": 1092,
      "Jeff": 1093,
      "Mother": 1094,
      "campag": 1095,
      "1935": 1096,
      "features": 1097,
      "Western": 1098,
      "udio": 1099,
      "Austri": 1100,
      "Revol": 1101,
      "special": 1102,
      "right": 1103,
      "British": 1104,
      "Beverly": 1105,
      "Spanish": 1106,
      "known": 1107,
      "Sebastian": 1108,
      "Apocalypse": 1109,
      "campagne": 1110,
      "01": 1111,
      "38": 1112,
      "Ac": 1113,
      "Af": 1114,
      "Age": 1115,
      "Ben": 1116,
      "Bert": 1117,
      "Bunn": 1118,
      "Dol": 1119,
      "Exter": 1120,
      "Ford": 1121,
      "Ka": 1122,
      "Kom": 1123,
      "Man": 1124,
      "Mal": 1125,
      "Mas": 1126,
      "Ni": 1127,
      "Op": 1128,
      "Oct": 1129,
      "Rom": 1130,
      "Silent": 1131,
      "Ter": 1132,
      "Wang": 1133,
      "Women": 1134,
      "Wright": 1135,
      "air": 1136,
      "bin": 1137,
      "eu": 1138,
      "ft": 1139,
      "foc": 1140,
      "four": 1141,
      "fiction": 1142,
      "gh": 1143,
      "gen": 1144,
      "hand": 1145,
      "ham": 1146,
      "him": 1147,
      "ire": 1148,
      "ki": 1149,
      "lt": 1150,
      "lit": 1151,
      "los": 1152,
      "lation": 1153,
      "most": 1154,
      "nom": 1155,
      "ober": 1156,
      "oot": 1157,
      "other": 1158,
      "ple": 1159,
      "ras": 1160,
      "run": 1161,
      "tic": 1162,
      "ved": 1163,
      "vol": 1164,
      "vers": 1165,
      "well": 1166,
      "yo": 1167,
      "ón": 1168,
      "ödi": 1169,
      "inn": 1170,
      "inter": 1171,
      "tha": 1172,
      "thro": 1173,
      "thril": 1174,
      "ref": 1175,
      "rem": 1176,
      "ret": 1177,
      "ings": 1178,
      "films": 1179,
      "ism": 1180,
      "ros": 1181,
      "roft": 1182,
      "hel": 1183,
      "olf": 1184,
      "hael": 1185,
      "form": 1186,
      "ivers": 1187,
      "ural": 1188,
      "ademy": 1189,
      "ott": 1190,
      "Thom": 1191,
      "2006": 1192,
      "release": 1193,
      "feeu": 1194,
      "Indian": 1195,
      "303": 1196,
      "Untitled": 1197,
      "song": 1198,
      "Corona": 1199,
      "minate": 1200,
      "ctions": 1201,
      "Operation": 1202,
      "ject": 1203,
      "Colle": 1204,
      "Shafeeu": 1205,
      "premiere": 1206,
      "Produ": 1207,
      "years": 1208,
      "Digital": 1209,
      "Michael": 1210,
      "Christmas": 1211,
      "Revolution": 1212,
      "Academy": 1213,
      "Bunny": 1214,
      "Exterminate": 1215,
      "Komödi": 1216,
      "October": 1217,
      "Romance": 1218,
      "focus": 1219,
      "thriller": 1220,
      "Komödiant": 1221,
      "\".": 1222,
      "68": 1223,
      "76": 1224,
      "Ale": 1225,
      "Appe": 1226,
      "Bar": 1227,
      "Bel": 1228,
      "Blo": 1229,
      "Bur": 1230,
      "Call": 1231,
      "Cana": 1232,
      "Caj": 1233,
      "DV": 1234,
      "Em": 1235,
      "Gil": 1236,
      "Gog": 1237,
      "Gord": 1238,
      "Gelo": 1239,
      "Hel": 1240,
      "Hiro": 1241,
      "Jr": 1242,
      "Jun": 1243,
      "Ken": 1244,
      "Kid": 1245,
      "Kim": 1246,
      "Lau": 1247,
      "Lyn": 1248,
      "Mi": 1249,
      "Min": 1250,
      "Renzo": 1251,
      "US": 1252,
      "ah": 1253,
      "ap": 1254,
      "award": 1255,
      "bur": 1256,
      "bore": 1257,
      "can": 1258,
      "crit": 1259,
      "cord": 1260,
      "fd": 1261,
      "game": 1262,
      "hor": 1263,
      "hman": 1264,
      "ix": 1265,
      "iel": 1266,
      "no": 1267,
      "ner": 1268,
      "now": 1269,
      "pa": 1270,
      "pent": 1271,
      "pres": 1272,
      "ti": 1273,
      "uj": 1274,
      "wan": 1275,
      "wis": 1276,
      "zona": 1277,
      "és": 1278,
      "anim": 1279,
      "anime": 1280,
      "around": 1281,
      "ston": 1282,
      "stand": 1283,
      "ony": 1284,
      "rey": 1285,
      "relation": 1286,
      "atr": 1287,
      "isual": 1288,
      "esh": 1289,
      "roles": 1290,
      "ome": 1291,
      "lead": 1292,
      "Theo": 1293,
      "osuf": 1294,
      "ute": 1295,
      "unt": 1296,
      "during": 1297,
      "lif": 1298,
      "ford": 1299,
      "etje": 1300,
      "over": 1301,
      "add": 1302,
      "berto": 1303,
      "comm": 1304,
      "artist": 1305,
      "ull": 1306,
      "2013": 1307,
      "2017": 1308,
      "being": 1309,
      "Joe": 1310,
      "about": 1311,
      "Raj": 1312,
      "succ": 1313,
      "cond": 1314,
      "Arbore": 1315,
      "oney": 1316,
      "Beetje": 1317,
      "Enter": 1318,
      "Harry": 1319,
      "Baxter": 1320,
      "Black": 1321,
      "Moore": 1322,
      "uki": 1323,
      "liefd": 1324,
      "Nowhere": 1325,
      "Nights": 1326,
      "033": 1327,
      "Joseph": 1328,
      "Awards": 1329,
      "Edward": 1330,
      "Philip": 1331,
      "Verliefd": 1332,
      "lars": 1333,
      "including": 1334,
      "follows": 1335,
      "Luc": 1336,
      "Saak": 1337,
      "Yoosuf": 1338,
      "Arizona": 1339,
      "histor": 1340,
      "romantic": 1341,
      "Stephen": 1342,
      "Nihil": 1343,
      "nomin": 1344,
      "through": 1345,
      "ross": 1346,
      "Thomas": 1347,
      "Productions": 1348,
      "Appeal": 1349,
      "Blooper": 1350,
      "Canadian": 1351,
      "Cajun": 1352,
      "DVD": 1353,
      "Gogh": 1354,
      "Geloof": 1355,
      "Kids": 1356,
      "relationship": 1357,
      "success": 1358,
      "18": 1359,
      "21": 1360,
      "41": 1361,
      "96": 1362,
      "Bern": 1363,
      "Co": 1364,
      "Cur": 1365,
      "Created": 1366,
      "Croft": 1367,
      "Don": 1368,
      "Dis": 1369,
      "Dem": 1370,
      "Fer": 1371,
      "Far": 1372,
      "Fall": 1373,
      "Fren": 1374,
      "Gu": 1375,
      "God": 1376,
      "Greg": 1377,
      "Ham": 1378,
      "Hol": 1379,
      "Hart": 1380,
      "Hero": 1381,
      "Hans": 1382,
      "If": 1383,
      "Jor": 1384,
      "James": 1385,
      "Ker": 1386,
      "Lar": 1387,
      "Lev": 1388,
      "Men": 1389,
      "Makes": 1390,
      "Named": 1391,
      "Oh": 1392,
      "Oj": 1393,
      "Pi": 1394,
      "Per": 1395,
      "So": 1396,
      "Su": 1397,
      "Sal": 1398,
      "Sus": 1399,
      "Tamil": 1400,
      "Vid": 1401,
      "Wr": 1402,
      "Ward": 1403,
      "ao": 1404,
      "app": 1405,
      "bb": 1406,
      "bru": 1407,
      "cor": 1408,
      "cri": 1409,
      "call": 1410,
      "day": 1411,
      "find": 1412,
      "gd": 1413,
      "go": 1414,
      "han": 1415,
      "ling": 1416,
      "line": 1417,
      "mut": 1418,
      "ness": 1419,
      "ool": 1420,
      "par": 1421,
      "pen": 1422,
      "pol": 1423,
      "pla": 1424,
      "part": 1425,
      "ron": 1426,
      "sol": 1427,
      "tle": 1428,
      "tain": 1429,
      "uel": 1430,
      "ura": 1431,
      "ured": 1432,
      "wed": 1433,
      "án": 1434,
      "én": 1435,
      "één": 1436,
      "eral": 1437,
      "iner": 1438,
      "inst": 1439,
      "into": 1440,
      "inese": 1441,
      "ani": 1442,
      "studio": 1443,
      "real": 1444,
      "ales": 1445,
      "ition": 1446,
      "dis": 1447,
      "iss": 1448,
      "issu": 1449,
      "role": 1450,
      "elf": 1451,
      "ript": 1452,
      "leg": 1453,
      "Them": 1454,
      "osum": 1455,
      "raham": 1456,
      "loc": 1457,
      "lot": 1458,
      "gets": 1459,
      "1977": 1460,
      "forman": 1461,
      "Ann": 1462,
      "ada": 1463,
      "resc": 1464,
      "pher": 1465,
      "berg": 1466,
      "even": 1467,
      "Marie": 1468,
      "Marqu": 1469,
      "Chinese": 1470,
      "when": 1471,
      "while": 1472,
      "ots": 1473,
      "2002": 1474,
      "2008": 1475,
      "Jagd": 1476,
      "2015": 1477,
      "Indon": 1478,
      "pport": 1479,
      "been": 1480,
      "quel": 1481,
      "Job": 1482,
      "Joy": 1483,
      "script": 1484,
      "suyama": 1485,
      "Univers": 1486,
      "What": 1487,
      "team": 1488,
      "order": 1489,
      "world": 1490,
      "auf": 1491,
      "Norman": 1492,
      "Goes": 1493,
      "Jean": 1494,
      "alek": 1495,
      "Abraham": 1496,
      "Murphy": 1497,
      "Murder": 1498,
      "exper": 1499,
      "Giuse": 1500,
      "Matsuyama": 1501,
      "Once": 1502,
      "Only": 1503,
      "Ramón": 1504,
      "Adam": 1505,
      "sitcom": 1506,
      "Howard": 1507,
      "epis": 1508,
      "views": 1509,
      "Corpus": 1510,
      "Austral": 1511,
      "Febru": 1512,
      "Madness": 1513,
      "Austria": 1514,
      "Dollars": 1515,
      "refers": 1516,
      "Collection": 1517,
      "focuses": 1518,
      "Callosum": 1519,
      "Minute": 1520,
      "Entertain": 1521,
      "French": 1522,
      "Joris": 1523,
      "Video": 1524,
      "Wrong": 1525,
      "called": 1526,
      "polit": 1527,
      "Marieke": 1528,
      "Indones": 1529,
      "Giuseppe": 1530,
      "February": 1531,
      "Entertainment": 1532,
      "24": 1533,
      "Am": 1534,
      "Bing": 1535,
      "Bos": 1536,
      "Bram": 1537,
      "Bud": 1538,
      "Cop": 1539,
      "Des": 1540,
      "Ex": 1541,
      "East": 1542,
      "For": 1543,
      "Fish": 1544,
      "Fred": 1545,
      "Fair": 1546,
      "Green": 1547,
      "Han": 1548,
      "Hen": 1549,
      "Hou": 1550,
      "Hers": 1551,
      "Hall": 1552,
      "Hob": 1553,
      "Il": 1554,
      "Jason": 1555,
      "Kar": 1556,
      "Kem": 1557,
      "Kirst": 1558,
      "Kumar": 1559,
      "Les": 1560,
      "Lou": 1561,
      "Los": 1562,
      "Laf": 1563,
      "Lloy": 1564,
      "Mus": 1565,
      "Mast": 1566,
      "Mali": 1567,
      "Nic": 1568,
      "Naz": 1569,
      "Oli": 1570,
      "Pl": 1571,
      "Qu": 1572,
      "Rit": 1573,
      "Rus": 1574,
      "Ser": 1575,
      "Sam": 1576,
      "Sto": 1577,
      "Sid": 1578,
      "Sak": 1579,
      "Sart": 1580,
      "Snow": 1581,
      "Tor": 1582,
      "Tak": 1583,
      "Tai": 1584,
      "Ult": 1585,
      "Vol": 1586,
      "Wolf": 1587,
      "ble": 1588,
      "ball": 1589,
      "bank": 1590,
      "bject": 1591,
      "ci": 1592,
      "ced": 1593,
      "cat": 1594,
      "cent": 1595,
      "foot": 1596,
      "gang": 1597,
      "hit": 1598,
      "iz": 1599,
      "ied": 1600,
      "ipp": 1601,
      "iyama": 1602,
      "ji": 1603,
      "ks": 1604,
      "ky": 1605,
      "kat": 1606,
      "men": 1607,
      "na": 1608,
      "nov": 1609,
      "name": 1610,
      "ox": 1611,
      "oice": 1612,
      "pon": 1613,
      "rat": 1614,
      "sa": 1615,
      "sch": 1616,
      "six": 1617,
      "self": 1618,
      "tal": 1619,
      "tru": 1620,
      "uer": 1621,
      "uth": 1622,
      "upt": 1623,
      "ucc": 1624,
      "venn": 1625,
      "voice": 1626,
      "wn": 1627,
      "win": 1628,
      "wing": 1629,
      "wro": 1630,
      "went": 1631,
      "will": 1632,
      "yl": 1633,
      "ze": 1634,
      "zu": 1635,
      "inson": 1636,
      "ange": 1637,
      "ari": 1638,
      "illa": 1639,
      "thor": 1640,
      "thal": 1641,
      "three": 1642,
      "reli": 1643,
      "revol": 1644,
      "ite": 1645,
      "itt": 1646,
      "die": 1647,
      "starred": 1648,
      "eson": 1649,
      "round": 1650,
      "ello": 1651,
      "usion": 1652,
      "raz": 1653,
      "old": 1654,
      "oland": 1655,
      "olog": 1656,
      "have": 1657,
      "aye": 1658,
      "life": 1659,
      "idere": 1660,
      "iment": 1661,
      "imate": 1662,
      "eter": 1663,
      "ette": 1664,
      "iger": 1665,
      "adcast": 1666,
      "ations": 1667,
      "2010": 1668,
      "estion": 1669,
      "Marc": 1670,
      "distributed": 1671,
      "Chris": 1672,
      "sequel": 1673,
      "merich": 1674,
      "2001": 1675,
      "2003": 1676,
      "Jaco": 1677,
      "2012": 1678,
      "Webb": 1679,
      "quatt": 1680,
      "Mex": 1681,
      "again": 1682,
      "such": 1683,
      "subject": 1684,
      "Army": 1685,
      "pany": 1686,
      "Robin": 1687,
      "Roots": 1688,
      "antyo": 1689,
      "Leeson": 1690,
      "pect": 1691,
      "worth": 1692,
      "Ern": 1693,
      "annel": 1694,
      "Haw": 1695,
      "Cates": 1696,
      "Abel": 1697,
      "mental": 1698,
      "José": 1699,
      "official": 1700,
      "screened": 1701,
      "screenwriter": 1702,
      "screenplay": 1703,
      "wood": 1704,
      "Rosen": 1705,
      "Morgan": 1706,
      "mond": 1707,
      "premiered": 1708,
      "Miles": 1709,
      "Philipp": 1710,
      "Charlie": 1711,
      "Roger": 1712,
      "Angeles": 1713,
      "handled": 1714,
      "Emmerich": 1715,
      "Gordon": 1716,
      "Helge": 1717,
      "June": 1718,
      "Lynn": 1719,
      "cording": 1720,
      "horror": 1721,
      "present": 1722,
      "nominated": 1723,
      "Ohio": 1724,
      "appear": 1725,
      "Joyce": 1726,
      "Universal": 1727,
      "political": 1728,
      "Bosworth": 1729,
      "Bramantyo": 1730,
      "Fisher": 1731,
      "Fairbank": 1732,
      "Henry": 1733,
      "Hershman": 1734,
      "Hobart": 1735,
      "Leslie": 1736,
      "Lloyd": 1737,
      "Oliver": 1738,
      "Question": 1739,
      "Serge": 1740,
      "Sidney": 1741,
      "Sartana": 1742,
      "Taiwan": 1743,
      "Ultimate": 1744,
      "Wolfgang": 1745,
      "novel": 1746,
      "uccidere": 1747,
      "vennero": 1748,
      "wrote": 1749,
      "quattro": 1750,
      "against": 1751,
      "Fairbanks": 1752,
      "!:": 1753,
      "),": 1754,
      "11": 1755,
      "23": 1756,
      "900": 1757,
      "Ak": 1758,
      "Act": 1759,
      "Ber": 1760,
      "Band": 1761,
      "Bang": 1762,
      "BBC": 1763,
      "Bald": 1764,
      "Cin": 1765,
      "Can": 1766,
      "Cast": 1767,
      "Cann": 1768,
      "Cru": 1769,
      "Di": 1770,
      "Du": 1771,
      "Dor": 1772,
      "Dud": 1773,
      "Eu": 1774,
      "Els": 1775,
      "Fil": 1776,
      "Fre": 1777,
      "Fiction": 1778,
      "Gh": 1779,
      "Gl": 1780,
      "Gr": 1781,
      "Gar": 1782,
      "Gov": 1783,
      "Her": 1784,
      "Hon": 1785,
      "Hill": 1786,
      "Hell": 1787,
      "Hoff": 1788,
      "Im": 1789,
      "Izu": 1790,
      "Jess": 1791,
      "Kol": 1792,
      "Kore": 1793,
      "Kaz": 1794,
      "Lang": 1795,
      "Lie": 1796,
      "Lenn": 1797,
      "Live": 1798,
      "Long": 1799,
      "Met": 1800,
      "Making": 1801,
      "Nat": 1802,
      "Nag": 1803,
      "Niger": 1804,
      "OV": 1805,
      "Pad": 1806,
      "Patr": 1807,
      "Rud": 1808,
      "Rick": 1809,
      "Roland": 1810,
      "San": 1811,
      "Sil": 1812,
      "Sara": 1813,
      "Senna": 1814,
      "Sign": 1815,
      "Tro": 1816,
      "Tri": 1817,
      "Tsu": 1818,
      "Tris": 1819,
      "Viv": 1820,
      "Wal": 1821,
      "Zoo": 1822,
      "ach": 1823,
      "bon": 1824,
      "band": 1825,
      "bro": 1826,
      "bson": 1827,
      "bara": 1828,
      "car": 1829,
      "cis": 1830,
      "dev": 1831,
      "fut": 1832,
      "five": 1833,
      "gun": 1834,
      "gde": 1835,
      "gram": 1836,
      "games": 1837,
      "hy": 1838,
      "hard": 1839,
      "hov": 1840,
      "home": 1841,
      "ience": 1842,
      "ko": 1843,
      "ker": 1844,
      "med": 1845,
      "mal": 1846,
      "more": 1847,
      "muj": 1848,
      "nf": 1849,
      "nia": 1850,
      "nine": 1851,
      "named": 1852,
      "oto": 1853,
      "ode": 1854,
      "peo": 1855,
      "pub": 1856,
      "psy": 1857,
      "plot": 1858,
      "rins": 1859,
      "sha": 1860,
      "sur": 1861,
      "sever": 1862,
      "tri": 1863,
      "tran": 1864,
      "tti": 1865,
      "var": 1866,
      "vent": 1867,
      "via": 1868,
      "vious": 1869,
      "visual": 1870,
      "wu": 1871,
      "wen": 1872,
      "wyn": 1873,
      "yuki": 1874,
      "ñana": 1875,
      "era": 1876,
      "eres": 1877,
      "erman": 1878,
      "ini": 1879,
      "int": 1880,
      "ane": 1881,
      "any": 1882,
      "anth": 1883,
      "arren": 1884,
      "ila": 1885,
      "ild": 1886,
      "illy": 1887,
      "ster": 1888,
      "oration": 1889,
      "thou": 1890,
      "only": 1891,
      "they": 1892,
      "theme": 1893,
      "ater": 1894,
      "ities": 1895,
      "itution": 1896,
      "disc": 1897,
      "diff": 1898,
      "ised": 1899,
      "held": 1900,
      "amer": 1901,
      "amir": 1902,
      "ould": 1903,
      "ried": 1904,
      "let": 1905,
      "rad": 1906,
      "rain": 1907,
      "rael": 1908,
      "chine": 1909,
      "ema": 1910,
      "unori": 1911,
      "too": 1912,
      "geve": 1913,
      "entry": 1914,
      "lim": 1915,
      "lier": 1916,
      "1971": 1917,
      "former": 1918,
      "fornia": 1919,
      "Anim": 1920,
      "Anne": 1921,
      "Its": 1922,
      "ett": 1923,
      "etwork": 1924,
      "ogram": 1925,
      "ively": 1926,
      "ovich": 1927,
      "aker": 1928,
      "respon": 1929,
      "respect": 1930,
      "cept": 1931,
      "2021": 1932,
      "lack": 1933,
      "events": 1934,
      "Company": 1935,
      "March": 1936,
      "Martin": 1937,
      "Martha": 1938,
      "posed": 1939,
      "comes": 1940,
      "composed": 1941,
      "Andre": 1942,
      "Anderson": 1943,
      "Star": 1944,
      "otto": 1945,
      "seen": 1946,
      "second": 1947,
      "athi": 1948,
      "This": 1949,
      "Rey": 1950,
      "Sean": 1951,
      "Seth": 1952,
      "cino": 1953,
      "umb": 1954,
      "iano": 1955,
      "ichi": 1956,
      "serán": 1957,
      "ules": 1958,
      "Filming": 1959,
      "Jac": 1960,
      "astro": 1961,
      "2016": 1962,
      "debut": 1963,
      "cinematographer": 1964,
      "began": 1965,
      "Dav": 1966,
      "shi": 1967,
      "shot": 1968,
      "show": 1969,
      "agi": 1970,
      "scar": 1971,
      "editor": 1972,
      "ially": 1973,
      "actors": 1974,
      "White": 1975,
      "Bee": 1976,
      "Lewis": 1977,
      "ipino": 1978,
      "Shamir": 1979,
      "Warren": 1980,
      "Warner": 1981,
      "iley": 1982,
      "players": 1983,
      "every": 1984,
      "auw": 1985,
      "Bros": 1986,
      "Blaauw": 1987,
      "Janis": 1988,
      "Pacino": 1989,
      "previous": 1990,
      "ukwu": 1991,
      "across": 1992,
      "came": 1993,
      "under": 1994,
      "1939": 1995,
      "feature": 1996,
      "featured": 1997,
      "Carlos": 1998,
      "Francis": 1999,
      "Jones": 2000,
      "Hegde": 2001,
      "Shay": 2002,
      "Asia": 2003,
      "California": 2004,
      "mañana": 2005,
      "machine": 2006,
      "Gibson": 2007,
      "speaking": 2008,
      "1984": 2009,
      "1997": 2010,
      "Conn": 2011,
      "Screen": 2012,
      "Yoav": 2013,
      "However": 2014,
      "Israel": 2015,
      "Corporation": 2016,
      "Merika": 2017,
      "Monogram": 2018,
      "Raye": 2019,
      "Roggeve": 2020,
      "lands": 2021,
      "oshi": 2022,
      "loyed": 2023,
      "Manuel": 2024,
      "Mashim": 2025,
      "Oprins": 2026,
      "himself": 2027,
      "innie": 2028,
      "Hiroshi": 2029,
      "Kenji": 2030,
      "critics": 2031,
      "pace": 2032,
      "animated": 2033,
      "standard": 2034,
      "historical": 2035,
      "Bernal": 2036,
      "Ferr": 2037,
      "Larraz": 2038,
      "Ojukwu": 2039,
      "Pierson": 2040,
      "crime": 2041,
      "soldi": 2042,
      "institution": 2043,
      "alekha": 2044,
      "Abrahams": 2045,
      "experiment": 2046,
      "episode": 2047,
      "Indonesian": 2048,
      "Lafia": 2049,
      "catastro": 2050,
      "upta": 2051,
      "relig": 2052,
      "revolves": 2053,
      "ological": 2054,
      "Rosenthal": 2055,
      "Berlin": 2056,
      "Bandai": 2057,
      "Baldwin": 2058,
      "Cinema": 2059,
      "Dudley": 2060,
      "Elsie": 2061,
      "Filipino": 2062,
      "Govind": 2063,
      "Hellmut": 2064,
      "Hoffman": 2065,
      "Kazunori": 2066,
      "Lennon": 2067,
      "OVA": 2068,
      "Padilla": 2069,
      "Sarah": 2070,
      "Trisha": 2071,
      "broadcast": 2072,
      "future": 2073,
      "mujeres": 2074,
      "people": 2075,
      "publ": 2076,
      "several": 2077,
      "trans": 2078,
      "Roggeveen": 2079,
      "Mashimo": 2080,
      "14": 2081,
      "7th": 2082,
      "9th": 2083,
      ":*": 2084,
      "Ara": 2085,
      "Ace": 2086,
      "BI": 2087,
      "BS": 2088,
      "Bes": 2089,
      "Bol": 2090,
      "Bie": 2091,
      "Bow": 2092,
      "Bren": 2093,
      "Berg": 2094,
      "Brun": 2095,
      "Bresc": 2096,
      "Billy": 2097,
      "Blier": 2098,
      "Cent": 2099,
      "Clif": 2100,
      "Dal": 2101,
      "Dou": 2102,
      "Frit": 2103,
      "Fid": 2104,
      "Fab": 2105,
      "Fuk": 2106,
      "Fox": 2107,
      "FBI": 2108,
      "Gri": 2109,
      "Gir": 2110,
      "Gary": 2111,
      "Gab": 2112,
      "Hil": 2113,
      "Has": 2114,
      "Hay": 2115,
      "Hir": 2116,
      "Hung": 2117,
      "Hunt": 2118,
      "Ian": 2119,
      "Iri": 2120,
      "Ju": 2121,
      "Jer": 2122,
      "Jules": 2123,
      "Kn": 2124,
      "Kō": 2125,
      "Kam": 2126,
      "Kus": 2127,
      "Kra": 2128,
      "Kann": 2129,
      "Kub": 2130,
      "Kool": 2131,
      "Len": 2132,
      "Lies": 2133,
      "Lind": 2134,
      "MG": 2135,
      "Mu": 2136,
      "Mom": 2137,
      "Nov": 2138,
      "Nable": 2139,
      "Network": 2140,
      "Orig": 2141,
      "Oscar": 2142,
      "Ph": 2143,
      "Pal": 2144,
      "Poi": 2145,
      "Prem": 2146,
      "Ral": 2147,
      "Rand": 2148,
      "Ruth": 2149,
      "Sut": 2150,
      "Sir": 2151,
      "Sov": 2152,
      "Sant": 2153,
      "Tu": 2154,
      "Tat": 2155,
      "Tir": 2156,
      "Tru": 2157,
      "Taye": 2158,
      "UK": 2159,
      "Ub": 2160,
      "Um": 2161,
      "Vick": 2162,
      "Visual": 2163,
      "Yuki": 2164,
      "Zu": 2165,
      "ba": 2166,
      "best": 2167,
      "boc": 2168,
      "bac": 2169,
      "black": 2170,
      "cil": 2171,
      "cre": 2172,
      "cas": 2173,
      "cur": 2174,
      "cla": 2175,
      "cred": 2176,
      "cult": 2177,
      "created": 2178,
      "clif": 2179,
      "des": 2180,
      "del": 2181,
      "dwyn": 2182,
      "ef": 2183,
      "each": 2184,
      "fel": 2185,
      "fem": 2186,
      "flo": 2187,
      "festival": 2188,
      "final": 2189,
      "gn": 2190,
      "gs": 2191,
      "gra": 2192,
      "giv": 2193,
      "ho": 2194,
      "hw": 2195,
      "hol": 2196,
      "hig": 2197,
      "hind": 2198,
      "jo": 2199,
      "jay": 2200,
      "king": 2201,
      "kes": 2202,
      "kch": 2203,
      "kill": 2204,
      "lad": 2205,
      "later": 2206,
      "mm": 2207,
      "mar": 2208,
      "mat": 2209,
      "main": 2210,
      "mill": 2211,
      "mod": 2212,
      "member": 2213,
      "maker": 2214,
      "ni": 2215,
      "nu": 2216,
      "ny": 2217,
      "num": 2218,
      "never": 2219,
      "pr": 2220,
      "ps": 2221,
      "ped": 2222,
      "pass": 2223,
      "rand": 2224,
      "ric": 2225,
      "rass": 2226,
      "ralian": 2227,
      "runn": 2228,
      "rés": 2229,
      "sing": 2230,
      "sim": 2231,
      "same": 2232,
      "side": 2233,
      "some": 2234,
      "ton": 2235,
      "tre": 2236,
      "tis": 2237,
      "tro": 2238,
      "tut": 2239,
      "tara": 2240,
      "trilogy": 2241,
      "uring": 2242,
      "ulo": 2243,
      "uation": 2244,
      "uke": 2245,
      "va": 2246,
      "vi": 2247,
      "vy": 2248,
      "von": 2249,
      "ving": 2250,
      "ven": 2251,
      "war": 2252,
      "way": 2253,
      "yan": 2254,
      "zman": 2255,
      "erot": 2256,
      "inz": 2257,
      "indi": 2258,
      "international": 2259,
      "anagi": 2260,
      "aro": 2261,
      "arian": 2262,
      "ilo": 2263,
      "illo": 2264,
      "ork": 2265,
      "ors": 2266,
      "orak": 2267,
      "than": 2268,
      "thur": 2269,
      "third": 2270,
      "ones": 2271,
      "reun": 2272,
      "reviews": 2273,
      "ening": 2274,
      "edy": 2275,
      "theatr": 2276,
      "als": 2277,
      "alam": 2278,
      "ative": 2279,
      "cted": 2280,
      "itary": 2281,
      "itive": 2282,
      "filmed": 2283,
      "filmmaker": 2284,
      "dio": 2285,
      "esca": 2286,
      "anda": 2287,
      "ander": 2288,
      "andar": 2289,
      "roup": 2290,
      "direction": 2291,
      "amily": 2292,
      "els": 2293,
      "elli": 2294,
      "ella": 2295,
      "eline": 2296,
      "ions": 2297,
      "ofilo": 2298,
      "oul": 2299,
      "rie": 2300,
      "rik": 2301,
      "rier": 2302,
      "rigan": 2303,
      "ose": 2304,
      "used": 2305,
      "oli": 2306,
      "olo": 2307,
      "olla": 2308,
      "Alan": 2309,
      "Albert": 2310,
      "cher": 2311,
      "chart": 2312,
      "child": 2313,
      "chological": 2314,
      "eman": 2315,
      "ement": 2316,
      "low": 2317,
      "lost": 2318,
      "duo": 2319,
      "lives": 2320,
      "196": 2321,
      "1920": 2322,
      "1915": 2323,
      "program": 2324,
      "Ang": 2325,
      "Anato": 2326,
      "Antara": 2327,
      "Italy": 2328,
      "production": 2329,
      "overs": 2330,
      "urn": 2331,
      "ury": 2332,
      "advent": 2333,
      "mante": 2334,
      "ako": 2335,
      "term": 2336,
      "cks": 2337,
      "2020": 2338,
      "last": 2339,
      "musician": 2340,
      "esty": 2341,
      "positive": 2342,
      "Chi": 2343,
      "China": 2344,
      "Channel": 2345,
      "performan": 2346,
      "whose": 2347,
      "commer": 2348,
      "Andrés": 2349,
      "Studio": 2350,
      "Steven": 2351,
      "otion": 2352,
      "section": 2353,
      "ather": 2354,
      "merous": 2355,
      "Reg": 2356,
      "Reza": 2357,
      "Second": 2358,
      "umet": 2359,
      "oung": 2360,
      "serves": 2361,
      "orton": 2362,
      "soci": 2363,
      "ular": 2364,
      "ults": 2365,
      "aster": 2366,
      "Ing": 2367,
      "Indep": 2368,
      "beca": 2369,
      "became": 2370,
      "que": 2371,
      "ques": 2372,
      "Megan": 2373,
      "oko": 2374,
      "America": 2375,
      "score": 2376,
      "science": 2377,
      "Raha": 2378,
      "support": 2379,
      "therlands": 2380,
      "cons": 2381,
      "contin": 2382,
      "3FO": 2383,
      "Arts": 2384,
      "Arthur": 2385,
      "plural": 2386,
      "Picture": 2387,
      "ffi": 2388,
      "range": 2389,
      "Netherlands": 2390,
      "Roberto": 2391,
      "ists": 2392,
      "Engel": 2393,
      "ells": 2394,
      "Harve": 2395,
      "Mac": 2396,
      "Mah": 2397,
      "Mau": 2398,
      "less": 2399,
      "azar": 2400,
      "player": 2401,
      "played": 2402,
      "Bob": 2403,
      "Bohw": 2404,
      "portray": 2405,
      "born": 2406,
      "comedian": 2407,
      "Broad": 2408,
      "Brown": 2409,
      "Justin": 2410,
      "North": 2411,
      "Norbert": 2412,
      "Jewis": 2413,
      "Germany": 2414,
      "Blu": 2415,
      "ically": 2416,
      "camera": 2417,
      "About": 2418,
      "Carl": 2419,
      "Frank": 2420,
      "France": 2421,
      "Franco": 2422,
      "upation": 2423,
      "upathi": 2424,
      "Coliz": 2425,
      "Columb": 2426,
      "Josh": 2427,
      "glas": 2428,
      "assin": 2429,
      "assassin": 2430,
      "Heinz": 2431,
      "Parker": 2432,
      "Wayne": 2433,
      "avvy": 2434,
      "ternet": 2435,
      "Asch": 2436,
      "opening": 2437,
      "udia": 2438,
      "Everett": 2439,
      "Ross": 2440,
      "Vijay": 2441,
      "Morales": 2442,
      "Ramesh": 2443,
      "month": 2444,
      "characters": 2445,
      "1946": 2446,
      "Scott": 2447,
      "Sunil": 2448,
      "ually": 2449,
      "endent": 2450,
      "1979": 2451,
      "includes": 2452,
      "following": 2453,
      "Diggs": 2454,
      "situation": 2455,
      "aldo": 2456,
      "Charles": 2457,
      "originally": 2458,
      "Ariely": 2459,
      "zawa": 2460,
      "election": 2461,
      "1954": 2462,
      "depict": 2463,
      "deployed": 2464,
      "Australian": 2465,
      "Claus": 2466,
      "Claudia": 2467,
      "Elfel": 2468,
      "Golden": 2469,
      "Goldwyn": 2470,
      "Law": 2471,
      "Raymond": 2472,
      "lines": 2473,
      "Jefferson": 2474,
      "Jeffrey": 2475,
      "Austrian": 2476,
      "Afr": 2477,
      "After": 2478,
      "Bertrand": 2479,
      "Kawas": 2480,
      "Maloney": 2481,
      "Terry": 2482,
      "Terence": 2483,
      "fourth": 2484,
      "fictional": 2485,
      "general": 2486,
      "little": 2487,
      "inning": 2488,
      "interviews": 2489,
      "format": 2490,
      "Alex": 2491,
      "awards": 2492,
      "burn": 2493,
      "ield": 2494,
      "animation": 2495,
      "until": 2496,
      "addition": 2497,
      "commiss": 2498,
      "Lucio": 2499,
      "Luciano": 2500,
      "Cole": 2501,
      "Curtin": 2502,
      "Dons": 2503,
      "Disney": 2504,
      "Demange": 2505,
      "Demofilo": 2506,
      "Holm": 2507,
      "Keret": 2508,
      "Levinson": 2509,
      "Suman": 2510,
      "Salazar": 2511,
      "Susan": 2512,
      "place": 2513,
      "reality": 2514,
      "issues": 2515,
      "legal": 2516,
      "Marques": 2517,
      "Marqués": 2518,
      "Desai": 2519,
      "Hanung": 2520,
      "Houston": 2521,
      "Ilse": 2522,
      "Kempen": 2523,
      "Muslim": 2524,
      "Mastorak": 2525,
      "Nazi": 2526,
      "Play": 2527,
      "Russ": 2528,
      "Stokes": 2529,
      "football": 2530,
      "kata": 2531,
      "thorne": 2532,
      "Marcet": 2533,
      "Jacobo": 2534,
      "Mexican": 2535,
      "Ernst": 2536,
      "Hawthorne": 2537,
      "Philippine": 2538,
      "presented": 2539,
      "Banglad": 2540,
      "Cannes": 2541,
      "Direct": 2542,
      "Honesty": 2543,
      "Jessica": 2544,
      "Kolkata": 2545,
      "Longford": 2546,
      "Metro": 2547,
      "Nigerian": 2548,
      "Patroni": 2549,
      "Ricky": 2550,
      "Tripp": 2551,
      "bonus": 2552,
      "hoven": 2553,
      "psychological": 2554,
      "various": 2555,
      "Sethupathi": 2556,
      "Jacques": 2557,
      "Davao": 2558,
      "Francisco": 2559,
      "Connell": 2560,
      "Ferrara": 2561,
      "soldier": 2562,
      "experimental": 2563,
      "religious": 2564,
      "transl": 2565,
      "Besser": 2566,
      "Bieber": 2567,
      "Brescia": 2568,
      "Clifford": 2569,
      "Douglas": 2570,
      "Fidani": 2571,
      "Griffi": 2572,
      "Girard": 2573,
      "Haseo": 2574,
      "Knut": 2575,
      "Kamiyama": 2576,
      "Kusanagi": 2577,
      "Kannada": 2578,
      "Koolhoven": 2579,
      "Lenzi": 2580,
      "Momoko": 2581,
      "November": 2582,
      "Original": 2583,
      "Poirier": 2584,
      "Sutclif": 2585,
      "Soviet": 2586,
      "Tatia": 2587,
      "Tirulo": 2588,
      "Truth": 2589,
      "Ubaldo": 2590,
      "Umberto": 2591,
      "Vicki": 2592,
      "bocca": 2593,
      "bacio": 2594,
      "claim": 2595,
      "cultural": 2596,
      "kchandar": 2597,
      "members": 2598,
      "numerous": 2599,
      "number": 2600,
      "tremante": 2601,
      "tutto": 2602,
      "reunion": 2603,
      "programme": 2604,
      "Anatole": 2605,
      "adventure": 2606,
      "commercial": 2607,
      "because": 2608,
      "continu": 2609,
      "Harvey": 2610,
      "Bohwim": 2611,
      "Jewison": 2612,
      "Colizzi": 2613,
      "Columbia": 2614,
      "Elfelt": 2615,
      "commission": 2616,
      "Mastorakis": 2617,
      "Bangladesh": 2618,
      "Sutcliffe": 2619,
      "Tirulokchandar": 2620,
      "!)": 2621,
      "\",": 2622,
      "\").": 2623,
      "')": 2624,
      ".\"": 2625,
      "0s": 2626,
      "13": 2627,
      "16": 2628,
      "100": 2629,
      "1778": 2630,
      "27": 2631,
      "29": 2632,
      "39th": 2633,
      "51": 2634,
      "55": 2635,
      "?\"": 2636,
      "At": 2637,
      "Ay": 2638,
      "Aar": 2639,
      "Ais": 2640,
      "Ach": 2641,
      "Aun": 2642,
      "ABC": 2643,
      "Aug": 2644,
      "ABS": 2645,
      "BN": 2646,
      "By": 2647,
      "Bá": 2648,
      "Ban": 2649,
      "Bre": 2650,
      "Bal": 2651,
      "Bri": 2652,
      "Bra": 2653,
      "Bir": 2654,
      "Bres": 2655,
      "Based": 2656,
      "Bart": 2657,
      "Bry": 2658,
      "Bish": 2659,
      "Bok": 2660,
      "Bab": 2661,
      "Billi": 2662,
      "Bill": 2663,
      "Buk": 2664,
      "Beng": 2665,
      "CG": 2666,
      "Ca": 2667,
      "Cl": 2668,
      "Cic": 2669,
      "Cle": 2670,
      "Cli": 2671,
      "Cusic": 2672,
      "Coun": 2673,
      "Cab": 2674,
      "Count": 2675,
      "Cran": 2676,
      "Care": 2677,
      "Cert": 2678,
      "Cost": 2679,
      "Clar": 2680,
      "Cub": 2681,
      "Cult": 2682,
      "Camil": 2683,
      "Cresc": 2684,
      "CBN": 2685,
      "Dy": 2686,
      "Der": 2687,
      "Das": 2688,
      "Dion": 2689,
      "Dom": 2690,
      "Die": 2691,
      "Dul": 2692,
      "Dine": 2693,
      "Due": 2694,
      "Dyl": 2695,
      "Darren": 2696,
      "Dotto": 2697,
      "Eg": 2698,
      "Et": 2699,
      "Est": 2700,
      "Eion": 2701,
      "Ele": 2702,
      "Edu": 2703,
      "Eason": 2704,
      "FL": 2705,
      "Fl": 2706,
      "Fü": 2707,
      "Fal": 2708,
      "Fel": 2709,
      "Fort": 2710,
      "Ful": 2711,
      "Fore": 2712,
      "From": 2713,
      "Fern": 2714,
      "Fras": 2715,
      "Fron": 2716,
      "Ga": 2717,
      "Gor": 2718,
      "Gen": 2719,
      "Gal": 2720,
      "Gem": 2721,
      "Gunn": 2722,
      "Gub": 2723,
      "Gide": 2724,
      "Gwen": 2725,
      "Gould": 2726,
      "Hu": 2727,
      "Hö": 2728,
      "Hal": 2729,
      "Hog": 2730,
      "Hard": 2731,
      "Hak": 2732,
      "Hod": 2733,
      "Hue": 2734,
      "Heng": 2735,
      "Hoot": 2736,
      "Hox": 2737,
      "Hindi": 2738,
      "Horton": 2739,
      "Ito": 2740,
      "Icon": 2741,
      "Jay": 2742,
      "Jov": 2743,
      "Jenn": 2744,
      "Jord": 2745,
      "Jury": 2746,
      "Ke": 2747,
      "Kh": 2748,
      "Kr": 2749,
      "Ku": 2750,
      "Kö": 2751,
      "Kat": 2752,
      "Kun": 2753,
      "Kins": 2754,
      "Kaj": 2755,
      "Klos": 2756,
      "Kull": 2757,
      "Khan": 2758,
      "Kaye": 2759,
      "Li": 2760,
      "Lo": 2761,
      "Ly": 2762,
      "Lon": 2763,
      "Lit": 2764,
      "Land": 2765,
      "Lus": 2766,
      "Lol": 2767,
      "Lai": 2768,
      "Loff": 2769,
      "Lumet": 2770,
      "Mü": 2771,
      "Med": 2772,
      "Mam": 2773,
      "Mel": 2774,
      "Mid": 2775,
      "Mag": 2776,
      "Muk": 2777,
      "Mans": 2778,
      "Na": 2779,
      "Nar": 2780,
      "Nou": 2781,
      "Nay": 2782,
      "Nir": 2783,
      "Nim": 2784,
      "Nich": 2785,
      "Nast": 2786,
      "Nip": 2787,
      "Nick": 2788,
      "Naj": 2789,
      "Null": 2790,
      "NFL": 2791,
      "OC": 2792,
      "OR": 2793,
      "Or": 2794,
      "Ore": 2795,
      "Ober": 2796,
      "Oke": 2797,
      "Ocam": 2798,
      "Owen": 2799,
      "Po": 2800,
      "Ped": 2801,
      "Pat": 2802,
      "Pri": 2803,
      "Pet": 2804,
      "Port": 2805,
      "Pry": 2806,
      "Pag": 2807,
      "Poo": 2808,
      "Piet": 2809,
      "Palek": 2810,
      "Puer": 2811,
      "Peter": 2812,
      "Rio": 2813,
      "Rican": 2814,
      "Rica": 2815,
      "Rele": 2816,
      "Rolf": 2817,
      "Ryan": 2818,
      "Sp": 2819,
      "Sw": 2820,
      "Sing": 2821,
      "Sas": 2822,
      "Sis": 2823,
      "Sim": 2824,
      "Set": 2825,
      "Spe": 2826,
      "Spra": 2827,
      "Sug": 2828,
      "Sund": 2829,
      "Spag": 2830,
      "Smy": 2831,
      "Soo": 2832,
      "Seng": 2833,
      "Semy": 2834,
      "Serg": 2835,
      "Spen": 2836,
      "Sán": 2837,
      "Siner": 2838,
      "Syl": 2839,
      "Sini": 2840,
      "Space": 2841,
      "Srik": 2842,
      "Te": 2843,
      "To": 2844,
      "Ty": 2845,
      "Tar": 2846,
      "Ten": 2847,
      "Tam": 2848,
      "Tol": 2849,
      "Tem": 2850,
      "Test": 2851,
      "Take": 2852,
      "Tob": 2853,
      "Tiro": 2854,
      "Tony": 2855,
      "Train": 2856,
      "Uy": 2857,
      "Uke": 2858,
      "Van": 2859,
      "Val": 2860,
      "Vas": 2861,
      "Vict": 2862,
      "Vill": 2863,
      "Vitt": 2864,
      "Vinnie": 2865,
      "Wer": 2866,
      "Win": 2867,
      "Wil": 2868,
      "Wilm": 2869,
      "Wall": 2870,
      "Wern": 2871,
      "Wale": 2872,
      "Winnie": 2873,
      "Ya": 2874,
      "Yū": 2875,
      "Year": 2876,
      "Yann": 2877,
      "Yosh": 2878,
      "York": 2879,
      "Ze": 2880,
      "Zins": 2881,
      "ax": 2882,
      "adu": 2883,
      "aard": 2884,
      "aff": 2885,
      "br": 2886,
      "bs": 2887,
      "bol": 2888,
      "bill": 2889,
      "barren": 2890,
      "cr": 2891,
      "cer": 2892,
      "cal": 2893,
      "cou": 2894,
      "cli": 2895,
      "coun": 2896,
      "cio": 2897,
      "cul": 2898,
      "cust": 2899,
      "cali": 2900,
      "cour": 2901,
      "city": 2902,
      "cens": 2903,
      "cert": 2904,
      "cable": 2905,
      "cori": 2906,
      "ciet": 2907,
      "cism": 2908,
      "croft": 2909,
      "cover": 2910,
      "colla": 2911,
      "cupation": 2912,
      "da": 2913,
      "dr": 2914,
      "ding": 2915,
      "dem": 2916,
      "dag": 2917,
      "denn": 2918,
      "dale": 2919,
      "dling": 2920,
      "dhit": 2921,
      "eight": 2922,
      "fa": 2923,
      "far": 2924,
      "fad": 2925,
      "ful": 2926,
      "fight": 2927,
      "fund": 2928,
      "fans": 2929,
      "free": 2930,
      "fif": 2931,
      "family": 2932,
      "field": 2933,
      "gar": 2934,
      "gas": 2935,
      "ges": 2936,
      "gov": 2937,
      "gian": 2938,
      "ght": 2939,
      "gress": 2940,
      "gital": 2941,
      "gross": 2942,
      "gupta": 2943,
      "group": 2944,
      "hl": 2945,
      "hring": 2946,
      "hart": 2947,
      "hum": 2948,
      "hamed": 2949,
      "hence": 2950,
      "ij": 2951,
      "ias": 2952,
      "ira": 2953,
      "ired": 2954,
      "ients": 2955,
      "iura": 2956,
      "ja": 2957,
      "ju": 2958,
      "jand": 2959,
      "jung": 2960,
      "ku": 2961,
      "kar": 2962,
      "kas": 2963,
      "kins": 2964,
      "kumar": 2965,
      "kinson": 2966,
      "lam": 2967,
      "ller": 2968,
      "leng": 2969,
      "ms": 2970,
      "mil": 2971,
      "mor": 2972,
      "mem": 2973,
      "may": 2974,
      "mov": 2975,
      "mess": 2976,
      "mona": 2977,
      "mund": 2978,
      "mick": 2979,
      "mult": 2980,
      "mott": 2981,
      "money": 2982,
      "nar": 2983,
      "nor": 2984,
      "nard": 2985,
      "nio": 2986,
      "nill": 2987,
      "oth": 2988,
      "opport": 2989,
      "pil": 2990,
      "por": 2991,
      "pat": 2992,
      "phe": 2993,
      "piv": 2994,
      "pad": 2995,
      "pot": 2996,
      "pular": 2997,
      "pburn": 2998,
      "rú": 2999,
      "ration": 3000,
      "rone": 3001,
      "rural": 3002,
      "rtle": 3003,
      "rbara": 3004,
      "ralekha": 3005,
      "sin": 3006,
      "sat": 3007,
      "she": 3008,
      "slang": 3009,
      "ski": 3010,
      "sah": 3011,
      "seven": 3012,
      "salekha": 3013,
      "tar": 3014,
      "ted": 3015,
      "tim": 3016,
      "test": 3017,
      "trey": 3018,
      "tells": 3019,
      "trú": 3020,
      "ui": 3021,
      "umi": 3022,
      "uka": 3023,
      "uche": 3024,
      "uchi": 3025,
      "uyuki": 3026,
      "vil": 3027,
      "vet": 3028,
      "viv": 3029,
      "vak": 3030,
      "vind": 3031,
      "vino": 3032,
      "wom": 3033,
      "west": 3034,
      "wide": 3035,
      "winning": 3036,
      "yen": 3037,
      "yli": 3038,
      "yne": 3039,
      "ypt": 3040,
      "youth": 3041,
      "yoshi": 3042,
      "young": 3043,
      "zer": 3044,
      "zed": 3045,
      "zio": 3046,
      "zones": 3047,
      "ía": 3048,
      "ñas": 3049,
      "ück": 3050,
      "иц": 3051,
      "ック": 3052,
      "ット": 3053,
      "ドット": 3054,
      "ハック": 3055,
      "dberg": 3056,
      "erent": 3057,
      "erid": 3058,
      "erie": 3059,
      "erick": 3060,
      "error": 3061,
      "init": 3062,
      "ines": 3063,
      "informan": 3064,
      "internet": 3065,
      "anh": 3066,
      "ano": 3067,
      "anu": 3068,
      "antha": 3069,
      "anovich": 3070,
      "aram": 3071,
      "arch": 3072,
      "arath": 3073,
      "arna": 3074,
      "iled": 3075,
      "sting": 3076,
      "stage": 3077,
      "stud": 3078,
      "stru": 3079,
      "stories": 3080,
      "styli": 3081,
      "oru": 3082,
      "ores": 3083,
      "orio": 3084,
      "thing": 3085,
      "this": 3086,
      "there": 3087,
      "thony": 3088,
      "onam": 3089,
      "onto": 3090,
      "online": 3091,
      "onze": 3092,
      "rest": 3093,
      "ream": 3094,
      "rene": 3095,
      "requ": 3096,
      "remade": 3097,
      "reason": 3098,
      "recording": 3099,
      "ences": 3100,
      "enberg": 3101,
      "enced": 3102,
      "eda": 3103,
      "eds": 3104,
      "edman": 3105,
      "them": 3106,
      "thew": 3107,
      "these": 3108,
      "thews": 3109,
      "aled": 3110,
      "alia": 3111,
      "along": 3112,
      "alina": 3113,
      "ata": 3114,
      "atin": 3115,
      "atch": 3116,
      "atto": 3117,
      "ature": 3118,
      "ctron": 3119,
      "itge": 3120,
      "itralekha": 3121,
      "itzer": 3122,
      "ash": 3123,
      "aser": 3124,
      "asche": 3125,
      "dix": 3126,
      "divid": 3127,
      "digital": 3128,
      "ison": 3129,
      "isit": 3130,
      "rings": 3131,
      "esday": 3132,
      "ando": 3133,
      "andr": 3134,
      "andra": 3135,
      "ico": 3136,
      "icer": 3137,
      "rope": 3138,
      "heard": 3139,
      "heav": 3140,
      "hetti": 3141,
      "elem": 3142,
      "elop": 3143,
      "iong": 3144,
      "omon": 3145,
      "often": 3146,
      "ough": 3147,
      "rif": 3148,
      "ries": 3149,
      "riel": 3150,
      "rika": 3151,
      "rizio": 3152,
      "lehor": 3153,
      "They": 3154,
      "osely": 3155,
      "osmona": 3156,
      "ush": 3157,
      "uss": 3158,
      "user": 3159,
      "rait": 3160,
      "olz": 3161,
      "olas": 3162,
      "ollet": 3163,
      "Ali": 3164,
      "Alli": 3165,
      "Also": 3166,
      "Alice": 3167,
      "Alcori": 3168,
      "Aldr": 3169,
      "cha": 3170,
      "chard": 3171,
      "chill": 3172,
      "chke": 3173,
      "change": 3174,
      "directorial": 3175,
      "empt": 3176,
      "emble": 3177,
      "unity": 3178,
      "unseen": 3179,
      "log": 3180,
      "lovers": 3181,
      "loosely": 3182,
      "toon": 3183,
      "toge": 3184,
      "took": 3185,
      "town": 3186,
      "get": 3187,
      "entered": 3188,
      "entially": 3189,
      "entually": 3190,
      "due": 3191,
      "having": 3192,
      "ayalam": 3193,
      "lia": 3194,
      "list": 3195,
      "liot": 3196,
      "live": 3197,
      "1945": 3198,
      "1950": 3199,
      "1917": 3200,
      "1968": 3201,
      "1918": 3202,
      "idro": 3203,
      "iday": 3204,
      "provid": 3205,
      "irt": 3206,
      "irley": 3207,
      "Anant": 3208,
      "Anthony": 3209,
      "Itō": 3210,
      "ets": 3211,
      "ogaard": 3212,
      "ardo": 3213,
      "ards": 3214,
      "urchill": 3215,
      "adan": 3216,
      "many": 3217,
      "manag": 3218,
      "manuf": 3219,
      "aki": 3220,
      "result": 3221,
      "results": 3222,
      "phic": 3223,
      "photo": 3224,
      "tertitle": 3225,
      "ckerman": 3226,
      "ckdale": 3227,
      "2019": 3228,
      "lace": 3229,
      "laeman": 3230,
      "eve": 3231,
      "eves": 3232,
      "eventually": 3233,
      "musical": 3234,
      "Mart": 3235,
      "Marion": 3236,
      "Mario": 3237,
      "Marsh": 3238,
      "Maria": 3239,
      "Marley": 3240,
      "Marsha": 3241,
      "neg": 3242,
      "need": 3243,
      "news": 3244,
      "actured": 3245,
      "mik": 3246,
      "Chenn": 3247,
      "Chatto": 3248,
      "Chitralekha": 3249,
      "Chiong": 3250,
      "Churchill": 3251,
      "perio": 3252,
      "why": 3253,
      "come": 3254,
      "composer": 3255,
      "common": 3256,
      "Andō": 3257,
      "Ste": 3258,
      "Studi": 3259,
      "Stras": 3260,
      "Strange": 3261,
      "Stedman": 3262,
      "Strait": 3263,
      "Steve": 3264,
      "otal": 3265,
      "otten": 3266,
      "aths": 3267,
      "athan": 3268,
      "That": 3269,
      "Thand": 3270,
      "Three": 3271,
      "Record": 3272,
      "Reeves": 3273,
      "cinski": 3274,
      "owtime": 3275,
      "umura": 3276,
      "icho": 3277,
      "serv": 3278,
      "served": 3279,
      "htein": 3280,
      "sook": 3281,
      "societ": 3282,
      "Jacc": 3283,
      "Jaanu": 3284,
      "fected": 3285,
      "cinemas": 3286,
      "2018": 3287,
      "Inst": 3288,
      "Intertitle": 3289,
      "ppin": 3290,
      "pped": 3291,
      "def": 3292,
      "bey": 3293,
      "before": 3294,
      "quant": 3295,
      "allment": 3296,
      "Dave": 3297,
      "Daves": 3298,
      "Daugh": 3299,
      "Meara": 3300,
      "shika": 3301,
      "ages": 3302,
      "ished": 3303,
      "oco": 3304,
      "occupation": 3305,
      "Dewan": 3306,
      "scale": 3307,
      "Rae": 3308,
      "Rahman": 3309,
      "thern": 3310,
      "conf": 3311,
      "concl": 3312,
      "concent": 3313,
      "concept": 3314,
      "contro": 3315,
      "concert": 3316,
      "Arnf": 3317,
      "Aranovich": 3318,
      "pling": 3319,
      "plores": 3320,
      "aij": 3321,
      "kawa": 3322,
      "ranil": 3323,
      "wife": 3324,
      "New": 3325,
      "uda": 3326,
      "teen": 3327,
      "tecor": 3328,
      "within": 3329,
      "without": 3330,
      "Bear": 3331,
      "Beau": 3332,
      "Behind": 3333,
      "poor": 3334,
      "point": 3335,
      "popular": 3336,
      "atope": 3337,
      "Endhit": 3338,
      "Ennio": 3339,
      "Leif": 3340,
      "Leeds": 3341,
      "elling": 3342,
      "Harris": 3343,
      "Harald": 3344,
      "Harold": 3345,
      "Harshika": 3346,
      "Mathews": 3347,
      "Mappin": 3348,
      "chez": 3349,
      "chetti": 3350,
      "odd": 3351,
      "ods": 3352,
      "ody": 3353,
      "odes": 3354,
      "Agus": 3355,
      "Agent": 3356,
      "Agot": 3357,
      "worst": 3358,
      "Short": 3359,
      "Shyam": 3360,
      "Sherman": 3361,
      "Sherid": 3362,
      "Shirley": 3363,
      "Showtime": 3364,
      "vera": 3365,
      "Bailey": 3366,
      "Corr": 3367,
      "Corbet": 3368,
      "Cormick": 3369,
      "Gertru": 3370,
      "Gertrú": 3371,
      "earthqu": 3372,
      "earthquake": 3373,
      "mina": 3374,
      "ernment": 3375,
      "outside": 3376,
      "Bost": 3377,
      "Boos": 3378,
      "Boogaard": 3379,
      "Maya": 3380,
      "Mayer": 3381,
      "Maynard": 3382,
      "Mayumura": 3383,
      "coast": 3384,
      "countries": 3385,
      "Eric": 3386,
      "Erich": 3387,
      "Erick": 3388,
      "Geoff": 3389,
      "author": 3390,
      "boration": 3391,
      "praised": 3392,
      "anner": 3393,
      "Norwe": 3394,
      "Norik": 3395,
      "Norway": 3396,
      "Northern": 3397,
      "rug": 3398,
      "veiled": 3399,
      "indo": 3400,
      "araju": 3401,
      "rence": 3402,
      "Johnson": 3403,
      "Johnny": 3404,
      "Good": 3405,
      "Godis": 3406,
      "Jeep": 3407,
      "Mohamed": 3408,
      "Paolo": 3409,
      "pire": 3410,
      "prehistor": 3411,
      "pregn": 3412,
      "Blan": 3413,
      "Blore": 3414,
      "Blake": 3415,
      "National": 3416,
      "beneiner": 3417,
      "wski": 3418,
      "acc": 3419,
      "according": 3420,
      "onacha": 3421,
      "ensemble": 3422,
      "aley": 3423,
      "alejo": 3424,
      "1934": 3425,
      "1936": 3426,
      "affected": 3427,
      "lscher": 3428,
      "Abbey": 3429,
      "Carmen": 3430,
      "Carrie": 3431,
      "Cartoon": 3432,
      "Carmina": 3433,
      "Franchi": 3434,
      "Frances": 3435,
      "uparna": 3436,
      "erty": 3437,
      "Josef": 3438,
      "brey": 3439,
      "break": 3440,
      "meant": 3441,
      "assja": 3442,
      "officer": 3443,
      "Hepburn": 3444,
      "Heyne": 3445,
      "Myron": 3446,
      "Myrtle": 3447,
      "Murray": 3448,
      "Shelt": 3449,
      "Sheila": 3450,
      "Shah": 3451,
      "Touchi": 3452,
      "storyline": 3453,
      "Asmik": 3454,
      "Rosina": 3455,
      "Rosales": 3456,
      "explores": 3457,
      "gely": 3458,
      "ostley": 3459,
      "Pauline": 3460,
      "Aubrey": 3461,
      "Bridges": 3462,
      "Morley": 3463,
      "Morric": 3464,
      "Matt": 3465,
      "Mateo": 3466,
      "Matthew": 3467,
      "Rampling": 3468,
      "Revalina": 3469,
      "boy": 3470,
      "both": 3471,
      "board": 3472,
      "book": 3473,
      "1940": 3474,
      "1941": 3475,
      "1948": 3476,
      "1981": 3477,
      "1986": 3478,
      "1988": 3479,
      "1994": 3480,
      "igni": 3481,
      "Conrad": 3482,
      "Contis": 3483,
      "Edmund": 3484,
      "McKim": 3485,
      "McFar": 3486,
      "McDer": 3487,
      "McCormick": 3488,
      "Mila": 3489,
      "Milla": 3490,
      "Scotto": 3491,
      "Verdag": 3492,
      "ikumar": 3493,
      "large": 3494,
      "1972": 3495,
      "1974": 3496,
      "1976": 3497,
      "1970s": 3498,
      "Parambr": 3499,
      "included": 3500,
      "Luis": 3501,
      "Tomas": 3502,
      "myster": 3503,
      "ooq": 3504,
      "operation": 3505,
      "operazione": 3506,
      "attempt": 3507,
      "Charlot": 3508,
      "Olsenband": 3509,
      "Islam": 3510,
      "Isidro": 3511,
      "history": 3512,
      "sythe": 3513,
      "sets": 3514,
      "setting": 3515,
      "view": 3516,
      "romance": 3517,
      "1951": 3518,
      "Claire": 3519,
      "Dela": 3520,
      "Delmer": 3521,
      "Delane": 3522,
      "Elliot": 3523,
      "Goldberg": 3524,
      "LaPag": 3525,
      "Merle": 3526,
      "Montecor": 3527,
      "Madeline": 3528,
      "tingco": 3529,
      "trapped": 3530,
      "Angelika": 3531,
      "Stephens": 3532,
      "Afrika": 3533,
      "Benigni": 3534,
      "Berton": 3535,
      "Dolls": 3536,
      "Kaori": 3537,
      "Kapoor": 3538,
      "Manio": 3539,
      "Malayalam": 3540,
      "Opia": 3541,
      "Opsah": 3542,
      "ghlin": 3543,
      "genre": 3544,
      "literal": 3545,
      "verse": 3546,
      "version": 3547,
      "ónica": 3548,
      "interaction": 3549,
      "refer": 3550,
      "remake": 3551,
      "rett": 3552,
      "return": 3553,
      "helm": 3554,
      "helped": 3555,
      "Aleks": 3556,
      "Alejand": 3557,
      "Barry": 3558,
      "Barbara": 3559,
      "Belle": 3560,
      "Burke": 3561,
      "Gorden": 3562,
      "Hiroki": 3563,
      "Laura": 3564,
      "Laurene": 3565,
      "Laughlin": 3566,
      "Lynde": 3567,
      "Mike": 3568,
      "USA": 3569,
      "ahiro": 3570,
      "appro": 3571,
      "burg": 3572,
      "cano": 3573,
      "critical": 3574,
      "leading": 3575,
      "adding": 3576,
      "Rajan": 3577,
      "Rajat": 3578,
      "nominations": 3579,
      "successful": 3580,
      "Cook": 3581,
      "Ferd": 3582,
      "Farooq": 3583,
      "Guy": 3584,
      "Guho": 3585,
      "Gregory": 3586,
      "Hamsalekha": 3587,
      "Holzman": 3588,
      "Kerrigan": 3589,
      "Ojo": 3590,
      "Peralejo": 3591,
      "Sulaeman": 3592,
      "Salomon": 3593,
      "Susi": 3594,
      "Warde": 3595,
      "Warden": 3596,
      "coro": 3597,
      "correspon": 3598,
      "days": 3599,
      "dayao": 3600,
      "finding": 3601,
      "goes": 3602,
      "parody": 3603,
      "places": 3604,
      "urai": 3605,
      "installment": 3606,
      "disaster": 3607,
      "issue": 3608,
      "local": 3609,
      "locate": 3610,
      "Annie": 3611,
      "Jeanne": 3612,
      "Jeanette": 3613,
      "sitcoms": 3614,
      "episodes": 3615,
      "Indonesia": 3616,
      "Amol": 3617,
      "Desmond": 3618,
      "Exchange": 3619,
      "Forsythe": 3620,
      "Frederick": 3621,
      "Hanzawa": 3622,
      "House": 3623,
      "Ilonze": 3624,
      "Karl": 3625,
      "Karen": 3626,
      "Musik": 3627,
      "Nico": 3628,
      "Nicollet": 3629,
      "Nazuka": 3630,
      "Rituparna": 3631,
      "Rush": 3632,
      "Samuel": 3633,
      "Stockdale": 3634,
      "Sakurai": 3635,
      "Toronto": 3636,
      "Taku": 3637,
      "Takahiro": 3638,
      "Volcano": 3639,
      "footage": 3640,
      "ized": 3641,
      "ratings": 3642,
      "said": 3643,
      "school": 3644,
      "talents": 3645,
      "talking": 3646,
      "true": 3647,
      "wenty": 3648,
      "zehn": 3649,
      "eteran": 3650,
      "Jacobs": 3651,
      "Mexico": 3652,
      "subjects": 3653,
      "Ernest": 3654,
      "Abeleda": 3655,
      "woods": 3656,
      "Philippines": 3657,
      "appeared": 3658,
      "Taiwanese": 3659,
      "Akter": 3660,
      "Actor": 3661,
      "Canal": 3662,
      "Canada": 3663,
      "Castle": 3664,
      "Castillo": 3665,
      "Cruz": 3666,
      "Duo": 3667,
      "Dormer": 3668,
      "Dorff": 3669,
      "Europe": 3670,
      "Ghosh": 3671,
      "Ghostley": 3672,
      "Glen": 3673,
      "Glück": 3674,
      "Garrone": 3675,
      "Garrett": 3676,
      "Korea": 3677,
      "Korean": 3678,
      "Language": 3679,
      "Liebe": 3680,
      "Liebeneiner": 3681,
      "Natalia": 3682,
      "Rudranil": 3683,
      "Silvera": 3684,
      "Troen": 3685,
      "Tsukas": 3686,
      "Tsuyoshi": 3687,
      "Viva": 3688,
      "Walter": 3689,
      "Wallace": 3690,
      "carried": 3691,
      "develop": 3692,
      "hyay": 3693,
      "mala": 3694,
      "nfzehn": 3695,
      "surround": 3696,
      "visuals": 3697,
      "anything": 3698,
      "though": 3699,
      "different": 3700,
      "Animated": 3701,
      "respectable": 3702,
      "respectively": 3703,
      "Andrea": 3704,
      "Starke": 3705,
      "Beebe": 3706,
      "Israeli": 3707,
      "catastrophe": 3708,
      "catastrophic": 3709,
      "public": 3710,
      "Aravind": 3711,
      "Boles": 3712,
      "Brent": 3713,
      "Bergman": 3714,
      "Brunette": 3715,
      "Center": 3716,
      "Daltrey": 3717,
      "Fritzi": 3718,
      "Fabio": 3719,
      "Fukuda": 3720,
      "Hilde": 3721,
      "Hayward": 3722,
      "Hiram": 3723,
      "Hungarian": 3724,
      "Iribarren": 3725,
      "Jericho": 3726,
      "Kōichi": 3727,
      "Krahl": 3728,
      "Kubasche": 3729,
      "Linda": 3730,
      "Much": 3731,
      "Phill": 3732,
      "Palma": 3733,
      "Premkumar": 3734,
      "Ralston": 3735,
      "Randall": 3736,
      "Sirk": 3737,
      "Tuesday": 3738,
      "Zuckerman": 3739,
      "back": 3740,
      "credits": 3741,
      "descri": 3742,
      "female": 3743,
      "floor": 3744,
      "festivals": 3745,
      "finally": 3746,
      "given": 3747,
      "holiday": 3748,
      "high": 3749,
      "matter": 3750,
      "million": 3751,
      "model": 3752,
      "rassia": 3753,
      "singer": 3754,
      "erotic": 3755,
      "aroel": 3756,
      "theatrical": 3757,
      "children": 3758,
      "Angus": 3759,
      "performance": 3760,
      "StudioCanal": 3761,
      "Regard": 3762,
      "sociation": 3763,
      "Ingrassia": 3764,
      "Independent": 3765,
      "Rahadian": 3766,
      "supporting": 3767,
      "consist": 3768,
      "pluralism": 3769,
      "Macfad": 3770,
      "Maude": 3771,
      "Bobby": 3772,
      "portrayed": 3773,
      "assassination": 3774,
      "depicts": 3775,
      "Lawrence": 3776,
      "African": 3777,
      "Kawasumi": 3778,
      "generally": 3779,
      "Alexander": 3780,
      "additional": 3781,
      "Coleman": 3782,
      "Russell": 3783,
      "Director": 3784,
      "Tripplehor": 3785,
      "continued": 3786,
      "commissioned": 3787,
      "Ayako": 3788,
      "Aaron": 3789,
      "Aisha": 3790,
      "Acht": 3791,
      "Aunor": 3792,
      "August": 3793,
      "Byhring": 3794,
      "Bárbara": 3795,
      "Bancroft": 3796,
      "Birsa": 3797,
      "Breslow": 3798,
      "Barton": 3799,
      "Bryan": 3800,
      "Bishop": 3801,
      "Boku": 3802,
      "Babatope": 3803,
      "Billie": 3804,
      "Billboard": 3805,
      "Bukky": 3806,
      "Bengali": 3807,
      "CGI": 3808,
      "Cahn": 3809,
      "Ciccio": 3810,
      "Clement": 3811,
      "Cusick": 3812,
      "Council": 3813,
      "Cabral": 3814,
      "Cranston": 3815,
      "Carey": 3816,
      "Certain": 3817,
      "Costello": 3818,
      "Cubitt": 3819,
      "Camilla": 3820,
      "Crescenzo": 3821,
      "Dyer": 3822,
      "Dasgupta": 3823,
      "Diony": 3824,
      "Diether": 3825,
      "Dinehart": 3826,
      "Dueñas": 3827,
      "Dylan": 3828,
      "Egypt": 3829,
      "Etgar": 3830,
      "Esther": 3831,
      "Electron": 3832,
      "Fünfzehn": 3833,
      "Falk": 3834,
      "Felix": 3835,
      "Fulci": 3836,
      "Foreign": 3837,
      "Fernando": 3838,
      "Fraser": 3839,
      "Front": 3840,
      "Galindo": 3841,
      "Gemser": 3842,
      "Gideon": 3843,
      "Goulding": 3844,
      "Huang": 3845,
      "Hölscher": 3846,
      "Hogan": 3847,
      "Hardt": 3848,
      "Hakku": 3849,
      "Huey": 3850,
      "Hengky": 3851,
      "Hoxie": 3852,
      "Jovovich": 3853,
      "Jennings": 3854,
      "Jordan": 3855,
      "Krish": 3856,
      "Kuncoro": 3857,
      "Kinski": 3858,
      "Kajiura": 3859,
      "Kloser": 3860,
      "Life": 3861,
      "London": 3862,
      "Litvak": 3863,
      "Landon": 3864,
      "Luscinski": 3865,
      "Lola": 3866,
      "Müller": 3867,
      "Mamoru": 3868,
      "Magdayao": 3869,
      "Naya": 3870,
      "Nirmala": 3871,
      "Nimri": 3872,
      "Nicholas": 3873,
      "Nastassja": 3874,
      "Nipun": 3875,
      "Najwa": 3876,
      "Oreka": 3877,
      "Oberon": 3878,
      "Okeke": 3879,
      "Ocampo": 3880,
      "Poonacha": 3881,
      "Portes": 3882,
      "Pryor": 3883,
      "Pietra": 3884,
      "Palekar": 3885,
      "Puerto": 3886,
      "Released": 3887,
      "Sasikumar": 3888,
      "Sissy": 3889,
      "Special": 3890,
      "Spradling": 3891,
      "Spaghetti": 3892,
      "Smyers": 3893,
      "Sengupta": 3894,
      "Semyon": 3895,
      "Sergio": 3896,
      "Spencer": 3897,
      "Sánchez": 3898,
      "Sylvia": 3899,
      "Spacek": 3900,
      "Srikanth": 3901,
      "Tyler": 3902,
      "Tena": 3903,
      "Temat": 3904,
      "Testi": 3905,
      "Takeuchi": 3906,
      "Tobias": 3907,
      "Tirol": 3908,
      "Uytingco": 3909,
      "Ukeje": 3910,
      "Valerie": 3911,
      "Vasantha": 3912,
      "Victor": 3913,
      "Villaroel": 3914,
      "Vittorio": 3915,
      "Weruche": 3916,
      "Winant": 3917,
      "Wilhelm": 3918,
      "Wilmot": 3919,
      "Werner": 3920,
      "Yūko": 3921,
      "Zeitge": 3922,
      "Zinshtein": 3923,
      "clips": 3924,
      "counter": 3925,
      "custom": 3926,
      "collaboration": 3927,
      "demand": 3928,
      "fifteen": 3929,
      "government": 3930,
      "length": 3931,
      "military": 3932,
      "moral": 3933,
      "pilot": 3934,
      "patients": 3935,
      "pivotal": 3936,
      "padhyay": 3937,
      "potentially": 3938,
      "satire": 3939,
      "ville": 3940,
      "woman": 3941,
      "ドットハック": 3942,
      "initially": 3943,
      "stylized": 3944,
      "reaming": 3945,
      "reasons": 3946,
      "heavily": 3947,
      "elements": 3948,
      "osmonaut": 3949,
      "Allied": 3950,
      "Alcoriza": 3951,
      "Aldrich": 3952,
      "together": 3953,
      "1950s": 3954,
      "manufactured": 3955,
      "Marshall": 3956,
      "Chennai": 3957,
      "Chattopadhyay": 3958,
      "period": 3959,
      "Studios": 3960,
      "Strasberg": 3961,
      "Records": 3962,
      "Jaccard": 3963,
      "quantities": 3964,
      "Daugherty": 3965,
      "Dewanto": 3966,
      "conclusion": 3967,
      "Arnfried": 3968,
      "Behindwoods": 3969,
      "Endhita": 3970,
      "Sheridan": 3971,
      "Corbett": 3972,
      "Gertrude": 3973,
      "Gertrúdix": 3974,
      "earthquakes": 3975,
      "Erickson": 3976,
      "Geoffrey": 3977,
      "Norwegian": 3978,
      "Jeepney": 3979,
      "prehistoric": 3980,
      "pregnant": 3981,
      "Shelton": 3982,
      "Morricone": 3983,
      "McFarland": 3984,
      "McDermott": 3985,
      "Verdaguer": 3986,
      "Parambrato": 3987,
      "attempts": 3988,
      "Charlotte": 3989,
      "Olsenbanden": 3990,
      "Delaney": 3991,
      "LaPaglia": 3992,
      "Montecorvino": 3993,
      "Afrikaans": 3994,
      "Opsahl": 3995,
      "Aleksandr": 3996,
      "Alejandro": 3997,
      "Ilonzeh": 3998,
      "Nicollette": 3999,
      "Tsukasa": 4000,
      "Kubaschewski": 4001,
      "Macfadyen": 4002,
      "Tripplehorn": 4003,
      "Electronic": 4004,
      "Zeitgeist": 4005,
      "!\"": 4006,
      "!,": 4007,
      "\")": 4008,
      "\"...": 4009,
      "\"?\"": 4010,
      "%:": 4011,
      "',": 4012,
      "($": 4013,
      "(...": 4014,
      "-)": 4015,
      "04": 4016,
      "0i": 4017,
      "0th": 4018,
      "12": 4019,
      "1st": 4020,
      "1th": 4021,
      "26": 4022,
      "28": 4023,
      "2th": 4024,
      "37th": 4025,
      "31st": 4026,
      "40": 4027,
      "4th": 4028,
      "5ミ": 4029,
      "550": 4030,
      "59th": 4031,
      "6th": 4032,
      "600": 4033,
      "67th": 4034,
      "64th": 4035,
      "78": 4036,
      "70th": 4037,
      "87th": 4038,
      "80i": 4039,
      "?)": 4040,
      "?,": 4041,
      "?:": 4042,
      "Ah": 4043,
      "Aad": 4044,
      "Ash": 4045,
      "Aud": 4046,
      "Ats": 4047,
      "Amy": 4048,
      "A24": 4049,
      "Aadu": 4050,
      "Bh": 4051,
      "Bi": 4052,
      "Br": 4053,
      "Bin": 4054,
      "Bas": 4055,
      "Bem": 4056,
      "Bay": 4057,
      "Big": 4058,
      "Bad": 4059,
      "Bio": 4060,
      "Bag": 4061,
      "Bain": 4062,
      "Bran": 4063,
      "Bod": 4064,
      "Bank": 4065,
      "Bru": 4066,
      "Bug": 4067,
      "Bhas": 4068,
      "Biro": 4069,
      "Batt": 4070,
      "Border": 4071,
      "Bied": 4072,
      "Baker": 4073,
      "Brunn": 4074,
      "Bush": 4075,
      "Cr": 4076,
      "Cu": 4077,
      "Cre": 4078,
      "Cal": 4079,
      "Cit": 4080,
      "Cand": 4081,
      "Crit": 4082,
      "Cra": 4083,
      "Cut": 4084,
      "Civ": 4085,
      "Cath": 4086,
      "Cort": 4087,
      "Cain": 4088,
      "Cine": 4089,
      "Cip": 4090,
      "Cout": 4091,
      "Cunn": 4092,
      "Cras": 4093,
      "Cap": 4094,
      "Craz": 4095,
      "Camer": 4096,
      "Cather": 4097,
      "Cvet": 4098,
      "Cosmonaut": 4099,
      "DJ": 4100,
      "Dí": 4101,
      "Dre": 4102,
      "Dos": 4103,
      "Dun": 4104,
      "Dim": 4105,
      "Dev": 4106,
      "Dere": 4107,
      "Dich": 4108,
      "Dia": 4109,
      "Dill": 4110,
      "Dell": 4111,
      "Dann": 4112,
      "Documentary": 4113,
      "DTV": 4114,
      "Dyn": 4115,
      "Dray": 4116,
      "ER": 4117,
      "ES": 4118,
      "Eh": 4119,
      "Ek": 4120,
      "Es": 4121,
      "Eon": 4122,
      "Edi": 4123,
      "Eld": 4124,
      "Eche": 4125,
      "Emon": 4126,
      "Event": 4127,
      "Eva": 4128,
      "FC": 4129,
      "FW": 4130,
      "Fi": 4131,
      "Fis": 4132,
      "Fame": 4133,
      "Found": 4134,
      "Foot": 4135,
      "Fuj": 4136,
      "Fied": 4137,
      "Frass": 4138,
      "Family": 4139,
      "GN": 4140,
      "Gé": 4141,
      "Gó": 4142,
      "Gan": 4143,
      "Gon": 4144,
      "Gra": 4145,
      "Gent": 4146,
      "Gid": 4147,
      "Gig": 4148,
      "Gow": 4149,
      "Gian": 4150,
      "Gram": 4151,
      "Gag": 4152,
      "Gali": 4153,
      "Gate": 4154,
      "Gau": 4155,
      "Gav": 4156,
      "Galian": 4157,
      "Gino": 4158,
      "Gates": 4159,
      "Gree": 4160,
      "Gori": 4161,
      "Grun": 4162,
      "Group": 4163,
      "Gather": 4164,
      "Hor": 4165,
      "Hof": 4166,
      "Hut": 4167,
      "Hun": 4168,
      "Hot": 4169,
      "Hsu": 4170,
      "Henn": 4171,
      "Hens": 4172,
      "Hyam": 4173,
      "Hik": 4174,
      "Hull": 4175,
      "Hiyama": 4176,
      "Huth": 4177,
      "Hannel": 4178,
      "Hoshi": 4179,
      "Huss": 4180,
      "Haley": 4181,
      "HDTV": 4182,
      "IA": 4183,
      "Ib": 4184,
      "Ire": 4185,
      "Ice": 4186,
      "Ibin": 4187,
      "Icar": 4188,
      "Ign": 4189,
      "IFC": 4190,
      "IGN": 4191,
      "Jen": 4192,
      "Judi": 4193,
      "Jiro": 4194,
      "Joland": 4195,
      "KO": 4196,
      "Ko": 4197,
      "Kil": 4198,
      "Kit": 4199,
      "Kel": 4200,
      "Kos": 4201,
      "Kay": 4202,
      "Kir": 4203,
      "Ket": 4204,
      "Kov": 4205,
      "Kev": 4206,
      "Kath": 4207,
      "Kab": 4208,
      "Keo": 4209,
      "Killi": 4210,
      "Kenn": 4211,
      "Kist": 4212,
      "Kara": 4213,
      "Kess": 4214,
      "Kiss": 4215,
      "Kane": 4216,
      "Kumb": 4217,
      "Kiley": 4218,
      "Kanh": 4219,
      "Kaser": 4220,
      "Krug": 4221,
      "Kaley": 4222,
      "KIA": 4223,
      "Lö": 4224,
      "Lin": 4225,
      "Lan": 4226,
      "Led": 4227,
      "Lal": 4228,
      "Lle": 4229,
      "Liv": 4230,
      "Lok": 4231,
      "Lore": 4232,
      "Light": 4233,
      "Lone": 4234,
      "Line": 4235,
      "Lord": 4236,
      "Lip": 4237,
      "Lens": 4238,
      "Lits": 4239,
      "Lav": 4240,
      "Lott": 4241,
      "Later": 4242,
      "Lagi": 4243,
      "Lillo": 4244,
      "Lions": 4245,
      "Latin": 4246,
      "MA": 4247,
      "MM": 4248,
      "Mit": 4249,
      "Mis": 4250,
      "Mes": 4251,
      "Mos": 4252,
      "Mut": 4253,
      "Mol": 4254,
      "Mem": 4255,
      "Mig": 4256,
      "Math": 4257,
      "Mok": 4258,
      "Mount": 4259,
      "Mill": 4260,
      "Mist": 4261,
      "Mell": 4262,
      "Muna": 4263,
      "Mouth": 4264,
      "Mend": 4265,
      "Mif": 4266,
      "Melo": 4267,
      "Muj": 4268,
      "Motion": 4269,
      "Mónica": 4270,
      "Nw": 4271,
      "Nel": 4272,
      "Nak": 4273,
      "Nie": 4274,
      "Nord": 4275,
      "Nara": 4276,
      "NBC": 4277,
      "Nino": 4278,
      "Nap": 4279,
      "Nao": 4280,
      "Nanth": 4281,
      "Norton": 4282,
      "Notten": 4283,
      "Nathan": 4284,
      "Ol": 4285,
      "Om": 4286,
      "Out": 4287,
      "Owi": 4288,
      "Old": 4289,
      "Occ": 4290,
      "Oika": 4291,
      "Oyo": 4292,
      "Oleg": 4293,
      "Owing": 4294,
      "Orange": 4295,
      "Oax": 4296,
      "Overse": 4297,
      "OFW": 4298,
      "PG": 4299,
      "PN": 4300,
      "Pe": 4301,
      "Pr": 4302,
      "Pon": 4303,
      "Ping": 4304,
      "Pit": 4305,
      "Prit": 4306,
      "Path": 4307,
      "Pul": 4308,
      "Pab": 4309,
      "Pau": 4310,
      "Pass": 4311,
      "Pree": 4312,
      "Pras": 4313,
      "Pull": 4314,
      "Pots": 4315,
      "PBS": 4316,
      "Poul": 4317,
      "Rp": 4318,
      "Ré": 4319,
      "Rö": 4320,
      "Ron": 4321,
      "Res": 4322,
      "Rut": 4323,
      "Ret": 4324,
      "Rain": 4325,
      "Right": 4326,
      "Rif": 4327,
      "ROR": 4328,
      "Roco": 4329,
      "ST": 4330,
      "SW": 4331,
      "SX": 4332,
      "Sor": 4333,
      "Sat": 4334,
      "Sou": 4335,
      "Sem": 4336,
      "Say": 4337,
      "Sad": 4338,
      "Ster": 4339,
      "Sum": 4340,
      "Sul": 4341,
      "Sag": 4342,
      "Sai": 4343,
      "Saz": 4344,
      "Sver": 4345,
      "Sue": 4346,
      "Syn": 4347,
      "Song": 4348,
      "Stern": 4349,
      "Series": 4350,
      "Sound": 4351,
      "SII": 4352,
      "Side": 4353,
      "Sony": 4354,
      "Swed": 4355,
      "Seven": 4356,
      "Solo": 4357,
      "Solla": 4358,
      "Svet": 4359,
      "Sonam": 4360,
      "SIGN": 4361,
      "Ta": 4362,
      "Tin": 4363,
      "Tan": 4364,
      "Tel": 4365,
      "Tra": 4366,
      "Tun": 4367,
      "Tim": 4368,
      "Tov": 4369,
      "Tie": 4370,
      "Tow": 4371,
      "Tenn": 4372,
      "Town": 4373,
      "Tern": 4374,
      "Tann": 4375,
      "Tara": 4376,
      "Time": 4377,
      "Two": 4378,
      "Television": 4379,
      "Tino": 4380,
      "Tele": 4381,
      "Trem": 4382,
      "Tany": 4383,
      "Tanda": 4384,
      "Tadan": 4385,
      "Totten": 4386,
      "Todd": 4387,
      "Twenty": 4388,
      "Ud": 4389,
      "Uel": 4390,
      "Ule": 4391,
      "Upon": 4392,
      "Ufa": 4393,
      "Vo": 4394,
      "Vin": 4395,
      "Var": 4396,
      "Ven": 4397,
      "Vand": 4398,
      "Vers": 4399,
      "Venn": 4400,
      "Vist": 4401,
      "Vision": 4402,
      "Vani": 4403,
      "Visit": 4404,
      "Vaij": 4405,
      "Veteran": 4406,
      "Wa": 4407,
      "Wy": 4408,
      "Wes": 4409,
      "Wol": 4410,
      "Wag": 4411,
      "Will": 4412,
      "Wank": 4413,
      "Wess": 4414,
      "Waf": 4415,
      "Wav": 4416,
      "Willy": 4417,
      "Yu": 4418,
      "Yes": 4419,
      "Yuk": 4420,
      "YTV": 4421,
      "Yunn": 4422,
      "Yob": 4423,
      "Yoshi": 4424,
      "Young": 4425,
      "Yash": 4426,
      "Zh": 4427,
      "Zing": 4428,
      "Zam": 4429,
      "Zion": 4430,
      "Zim": 4431,
      "Zero": 4432,
      "ail": 4433,
      "aed": 4434,
      "aim": 4435,
      "aia": 4436,
      "ave": 4437,
      "awa": 4438,
      "bi": 4439,
      "bl": 4440,
      "bp": 4441,
      "bí": 4442,
      "ban": 4443,
      "bar": 4444,
      "bed": 4445,
      "bit": 4446,
      "bel": 4447,
      "bum": 4448,
      "bud": 4449,
      "bind": 4450,
      "brid": 4451,
      "bik": 4452,
      "batt": 4453,
      "bott": 4454,
      "bling": 4455,
      "bani": 4456,
      "bster": 4457,
      "brain": 4458,
      "buyuki": 4459,
      "batch": 4460,
      "brings": 4461,
      "bardo": 4462,
      "banner": 4463,
      "cy": 4464,
      "cing": 4465,
      "cel": 4466,
      "cle": 4467,
      "cut": 4468,
      "cog": 4469,
      "civ": 4470,
      "cart": 4471,
      "cow": 4472,
      "cich": 4473,
      "cato": 4474,
      "care": 4475,
      "cell": 4476,
      "cip": 4477,
      "cate": 4478,
      "cann": 4479,
      "caf": 4480,
      "cision": 4481,
      "case": 4482,
      "cret": 4483,
      "cott": 4484,
      "cross": 4485,
      "could": 4486,
      "cella": 4487,
      "cement": 4488,
      "covers": 4489,
      "cosmonaut": 4490,
      "do": 4491,
      "ds": 4492,
      "dø": 4493,
      "dil": 4494,
      "ded": 4495,
      "das": 4496,
      "dri": 4497,
      "dle": 4498,
      "dol": 4499,
      "dun": 4500,
      "ders": 4501,
      "dates": 4502,
      "dhist": 4503,
      "dings": 4504,
      "dhan": 4505,
      "dition": 4506,
      "damer": 4507,
      "drug": 4508,
      "ey": 4509,
      "ez": 4510,
      "eed": 4511,
      "ees": 4512,
      "eos": 4513,
      "ech": 4514,
      "ead": 4515,
      "east": 4516,
      "eco": 4517,
      "ebles": 4518,
      "ecut": 4519,
      "fl": 4520,
      "fs": 4521,
      "fu": 4522,
      "fy": 4523,
      "fin": 4524,
      "fed": 4525,
      "fal": 4526,
      "fas": 4527,
      "fri": 4528,
      "fur": 4529,
      "fact": 4530,
      "fast": 4531,
      "fred": 4532,
      "fai": 4533,
      "fran": 4534,
      "fern": 4535,
      "fess": 4536,
      "fac": 4537,
      "fav": 4538,
      "fend": 4539,
      "found": 4540,
      "faking": 4541,
      "famil": 4542,
      "fah": 4543,
      "full": 4544,
      "frat": 4545,
      "fuer": 4546,
      "fini": 4547,
      "famer": 4548,
      "factors": 4549,
      "father": 4550,
      "ger": 4551,
      "gic": 4552,
      "gent": 4553,
      "gir": 4554,
      "got": 4555,
      "gall": 4556,
      "gag": 4557,
      "gain": 4558,
      "gia": 4559,
      "gaz": 4560,
      "gory": 4561,
      "gert": 4562,
      "gered": 4563,
      "ground": 4564,
      "gamer": 4565,
      "gedy": 4566,
      "ginning": 4567,
      "gui": 4568,
      "hi": 4569,
      "hu": 4570,
      "har": 4571,
      "hus": 4572,
      "hun": 4573,
      "hla": 4574,
      "how": 4575,
      "hall": 4576,
      "hara": 4577,
      "hure": 4578,
      "hous": 4579,
      "hley": 4580,
      "hoff": 4581,
      "hero": 4582,
      "hire": 4583,
      "ih": 4584,
      "ier": 4585,
      "idi": 4586,
      "iol": 4587,
      "ient": 4588,
      "idu": 4589,
      "izo": 4590,
      "iele": 4591,
      "ibur": 4592,
      "ique": 4593,
      "iplayer": 4594,
      "iences": 4595,
      "iaki": 4596,
      "js": 4597,
      "just": 4598,
      "jour": 4599,
      "job": 4600,
      "kx": 4601,
      "kie": 4602,
      "kath": 4603,
      "kai": 4604,
      "kret": 4605,
      "khol": 4606,
      "kalam": 4607,
      "lé": 4608,
      "lor": 4609,
      "lon": 4610,
      "lay": 4611,
      "lers": 4612,
      "lich": 4613,
      "lde": 4614,
      "lled": 4615,
      "lits": 4616,
      "lana": 4617,
      "lins": 4618,
      "lina": 4619,
      "luss": 4620,
      "lished": 4621,
      "ming": 4622,
      "mit": 4623,
      "mis": 4624,
      "mam": 4625,
      "mos": 4626,
      "mid": 4627,
      "mir": 4628,
      "mig": 4629,
      "mest": 4630,
      "mag": 4631,
      "milli": 4632,
      "mate": 4633,
      "make": 4634,
      "mug": 4635,
      "male": 4636,
      "makes": 4637,
      "melo": 4638,
      "making": 4639,
      "mple": 4640,
      "meter": 4641,
      "motion": 4642,
      "mless": 4643,
      "mbol": 4644,
      "moth": 4645,
      "nan": 4646,
      "nil": 4647,
      "ning": 4648,
      "nem": 4649,
      "nig": 4650,
      "nation": 4651,
      "nath": 4652,
      "nost": 4653,
      "national": 4654,
      "nino": 4655,
      "nition": 4656,
      "nsch": 4657,
      "nett": 4658,
      "network": 4659,
      "nature": 4660,
      "oî": 4661,
      "odb": 4662,
      "oil": 4663,
      "oing": 4664,
      "ois": 4665,
      "oell": 4666,
      "oyo": 4667,
      "opher": 4668,
      "pf": 4669,
      "pm": 4670,
      "py": 4671,
      "pst": 4672,
      "ping": 4673,
      "pic": 4674,
      "pri": 4675,
      "put": 4676,
      "plo": 4677,
      "pay": 4678,
      "pli": 4679,
      "pet": 4680,
      "pper": 4681,
      "pow": 4682,
      "pio": 4683,
      "pain": 4684,
      "pson": 4685,
      "pac": 4686,
      "pong": 4687,
      "press": 4688,
      "pris": 4689,
      "pair": 4690,
      "pism": 4691,
      "plif": 4692,
      "ployed": 4693,
      "paths": 4694,
      "pelling": 4695,
      "rard": 4696,
      "rate": 4697,
      "rated": 4698,
      "rase": 4699,
      "rics": 4700,
      "rsch": 4701,
      "rules": 4702,
      "rush": 4703,
      "rlich": 4704,
      "sw": 4705,
      "sen": 4706,
      "som": 4707,
      "sent": 4708,
      "say": 4709,
      "sid": 4710,
      "sla": 4711,
      "sev": 4712,
      "sive": 4713,
      "sport": 4714,
      "sour": 4715,
      "sake": 4716,
      "sical": 4717,
      "sav": 4718,
      "send": 4719,
      "sound": 4720,
      "sele": 4721,
      "shel": 4722,
      "sales": 4723,
      "sively": 4724,
      "space": 4725,
      "soul": 4726,
      "slow": 4727,
      "spire": 4728,
      "spelling": 4729,
      "ta": 4730,
      "tel": 4731,
      "tem": 4732,
      "tent": 4733,
      "tact": 4734,
      "tly": 4735,
      "try": 4736,
      "tag": 4737,
      "tour": 4738,
      "tick": 4739,
      "trig": 4740,
      "takes": 4741,
      "twin": 4742,
      "twenty": 4743,
      "tlers": 4744,
      "ux": 4745,
      "ues": 4746,
      "uish": 4747,
      "uok": 4748,
      "uyn": 4749,
      "ubles": 4750,
      "uable": 4751,
      "uenced": 4752,
      "vé": 4753,
      "vit": 4754,
      "vel": 4755,
      "vion": 4756,
      "vay": 4757,
      "vian": 4758,
      "vio": 4759,
      "vver": 4760,
      "vate": 4761,
      "vision": 4762,
      "viction": 4763,
      "villa": 4764,
      "visit": 4765,
      "virt": 4766,
      "veteran": 4767,
      "whe": 4768,
      "wel": 4769,
      "wid": 4770,
      "wart": 4771,
      "wall": 4772,
      "wish": 4773,
      "wab": 4774,
      "wai": 4775,
      "wson": 4776,
      "wche": 4777,
      "wald": 4778,
      "wakes": 4779,
      "women": 4780,
      "would": 4781,
      "wwar": 4782,
      "wrest": 4783,
      "watch": 4784,
      "xt": 4785,
      "xed": 4786,
      "xie": 4787,
      "xiet": 4788,
      "xwell": 4789,
      "xeco": 4790,
      "ya": 4791,
      "ye": 4792,
      "yi": 4793,
      "yon": 4794,
      "yal": 4795,
      "yle": 4796,
      "yet": 4797,
      "yov": 4798,
      "yong": 4799,
      "yinn": 4800,
      "yells": 4801,
      "zel": 4802,
      "zog": 4803,
      "zur": 4804,
      "zia": 4805,
      "zone": 4806,
      "zzo": 4807,
      "zzi": 4808,
      "zhy": 4809,
      "ønem": 4810,
      "ünsch": 4811,
      "ал": 4812,
      "ги": 4813,
      "др": 4814,
      "иал": 4815,
      "лиц": 4816,
      "ны": 4817,
      "оф": 4818,
      "уги": 4819,
      "ьны": 4820,
      "אד": 4821,
      "בו": 4822,
      "גי": 4823,
      "הו": 4824,
      "לגי": 4825,
      "מה": 4826,
      "פך": 4827,
      "うに": 4828,
      "こうに": 4829,
      "と妻": 4830,
      "の向": 4831,
      "の物": 4832,
      "の1778": 4833,
      "イチ": 4834,
      "イの向": 4835,
      "カイの向": 4836,
      "セカイの向": 4837,
      "不能": 4838,
      "僕と妻": 4839,
      "夏天": 4840,
      "寒蟬": 4841,
      "效應": 4842,
      "疯爱": 4843,
      "瘋愛": 4844,
      "的夏天": 4845,
      "说的夏天": 4846,
      "아이": 4847,
      "엔지": 4848,
      "eri": 4849,
      "ery": 4850,
      "erst": 4851,
      "erre": 4852,
      "erpo": 4853,
      "erved": 4854,
      "erupt": 4855,
      "ining": 4856,
      "ined": 4857,
      "inic": 4858,
      "indu": 4859,
      "ince": 4860,
      "inten": 4861,
      "inist": 4862,
      "indep": 4863,
      "invol": 4864,
      "inform": 4865,
      "inberg": 4866,
      "inari": 4867,
      "inhard": 4868,
      "inrad": 4869,
      "incre": 4870,
      "incip": 4871,
      "infl": 4872,
      "invit": 4873,
      "anor": 4874,
      "aning": 4875,
      "andi": 4876,
      "anic": 4877,
      "anath": 4878,
      "anana": 4879,
      "analy": 4880,
      "anzo": 4881,
      "ances": 4882,
      "anza": 4883,
      "another": 4884,
      "anthro": 4885,
      "anvi": 4886,
      "anata": 4887,
      "anmug": 4888,
      "anxiet": 4889,
      "arang": 4890,
      "arly": 4891,
      "arsh": 4892,
      "arily": 4893,
      "arlet": 4894,
      "arelli": 4895,
      "arkar": 4896,
      "aría": 4897,
      "ili": 4898,
      "ils": 4899,
      "ilar": 4900,
      "ilio": 4901,
      "ility": 4902,
      "ilkret": 4903,
      "ilanthro": 4904,
      "sten": 4905,
      "stat": 4906,
      "stol": 4907,
      "still": 4908,
      "stant": 4909,
      "state": 4910,
      "stated": 4911,
      "stop": 4912,
      "stein": 4913,
      "stif": 4914,
      "stings": 4915,
      "strain": 4916,
      "staff": 4917,
      "streaming": 4918,
      "orf": 4919,
      "ored": 4920,
      "orro": 4921,
      "orid": 4922,
      "orate": 4923,
      "orous": 4924,
      "organ": 4925,
      "orable": 4926,
      "orship": 4927,
      "oraro": 4928,
      "then": 4929,
      "tham": 4930,
      "thous": 4931,
      "thirt": 4932,
      "thods": 4933,
      "ont": 4934,
      "once": 4935,
      "onest": 4936,
      "onso": 4937,
      "onaij": 4938,
      "reel": 4939,
      "reprodu": 4940,
      "recon": 4941,
      "report": 4942,
      "reve": 4943,
      "reform": 4944,
      "repla": 4945,
      "reissu": 4946,
      "repr": 4947,
      "reels": 4948,
      "reformat": 4949,
      "represented": 4950,
      "review": 4951,
      "reverse": 4952,
      "ingham": 4953,
      "enth": 4954,
      "endi": 4955,
      "enes": 4956,
      "enden": 4957,
      "enhan": 4958,
      "enough": 4959,
      "edly": 4960,
      "edian": 4961,
      "edeo": 4962,
      "edings": 4963,
      "theat": 4964,
      "theast": 4965,
      "themat": 4966,
      "theless": 4967,
      "alo": 4968,
      "alan": 4969,
      "aling": 4970,
      "allo": 4971,
      "alli": 4972,
      "alog": 4973,
      "alak": 4974,
      "alone": 4975,
      "although": 4976,
      "album": 4977,
      "algic": 4978,
      "atz": 4979,
      "ating": 4980,
      "atic": 4981,
      "atol": 4982,
      "atsu": 4983,
      "atious": 4984,
      "atari": 4985,
      "atively": 4986,
      "aturing": 4987,
      "atmos": 4988,
      "atues": 4989,
      "ct2": 4990,
      "cts": 4991,
      "ctees": 4992,
      "ita": 4993,
      "ito": 4994,
      "ites": 4995,
      "itos": 4996,
      "itol": 4997,
      "itled": 4998,
      "itress": 4999,
      "itney": 5000,
      "itting": 5001,
      "itute": 5002,
      "itarian": 5003,
      "filming": 5004,
      "asing": 5005,
      "asuring": 5006,
      "association": 5007,
      "dia": 5008,
      "did": 5009,
      "died": 5010,
      "dies": 5011,
      "diet": 5012,
      "dish": 5013,
      "dipl": 5014,
      "dikat": 5015,
      "dicher": 5016,
      "dical": 5017,
      "dicul": 5018,
      "disting": 5019,
      "divian": 5020,
      "dialog": 5021,
      "started": 5022,
      "isan": 5023,
      "ising": 5024,
      "isal": 5025,
      "isol": 5026,
      "isul": 5027,
      "isato": 5028,
      "isco": 5029,
      "isure": 5030,
      "isuke": 5031,
      "esim": 5032,
      "esign": 5033,
      "esburg": 5034,
      "ands": 5035,
      "andzhy": 5036,
      "ician": 5037,
      "icult": 5038,
      "ications": 5039,
      "icised": 5040,
      "icular": 5041,
      "icier": 5042,
      "006": 5043,
      "roe": 5044,
      "roo": 5045,
      "rov": 5046,
      "roian": 5047,
      "rough": 5048,
      "royal": 5049,
      "hee": 5050,
      "hest": 5051,
      "hele": 5052,
      "head": 5053,
      "height": 5054,
      "hemis": 5055,
      "directs": 5056,
      "directing": 5057,
      "amp": 5058,
      "aman": 5059,
      "amis": 5060,
      "amation": 5061,
      "amber": 5062,
      "among": 5063,
      "amics": 5064,
      "aminer": 5065,
      "amoto": 5066,
      "amining": 5067,
      "amaría": 5068,
      "eler": 5069,
      "eling": 5070,
      "elak": 5071,
      "elso": 5072,
      "elab": 5073,
      "ional": 5074,
      "omed": 5075,
      "omat": 5076,
      "omitt": 5077,
      "ombani": 5078,
      "...)": 5079,
      "ofits": 5080,
      "oue": 5081,
      "ouk": 5082,
      "oum": 5083,
      "oux": 5084,
      "oura": 5085,
      "ouser": 5086,
      "riam": 5087,
      "riot": 5088,
      "riwa": 5089,
      "riele": 5090,
      "rible": 5091,
      "ridicul": 5092,
      "lex": 5093,
      "leil": 5094,
      "letic": 5095,
      "leave": 5096,
      "leih": 5097,
      "level": 5098,
      "leisure": 5099,
      "oss": 5100,
      "osen": 5101,
      "oske": 5102,
      "osuke": 5103,
      "usin": 5104,
      "uses": 5105,
      "usch": 5106,
      "usive": 5107,
      "usuke": 5108,
      "race": 5109,
      "rather": 5110,
      "raved": 5111,
      "radio": 5112,
      "racks": 5113,
      "racism": 5114,
      "ragaz": 5115,
      "radical": 5116,
      "raisal": 5117,
      "uti": 5118,
      "utes": 5119,
      "olic": 5120,
      "olph": 5121,
      "olve": 5122,
      "olina": 5123,
      "olence": 5124,
      "ollina": 5125,
      "writing": 5126,
      "Alam": 5127,
      "Ally": 5128,
      "Aless": 5129,
      "Alys": 5130,
      "Alberto": 5131,
      "Alwyn": 5132,
      "Alfred": 5133,
      "Alois": 5134,
      "Alonso": 5135,
      "ched": 5136,
      "ches": 5137,
      "chph": 5138,
      "chuk": 5139,
      "chise": 5140,
      "channel": 5141,
      "chison": 5142,
      "chyov": 5143,
      "chamber": 5144,
      "chosen": 5145,
      "eme": 5146,
      "emig": 5147,
      "emma": 5148,
      "emerg": 5149,
      "emheld": 5150,
      "emotion": 5151,
      "emaster": 5152,
      "embar": 5153,
      "employed": 5154,
      "unct": 5155,
      "unit": 5156,
      "unreleased": 5157,
      "unato": 5158,
      "unod": 5159,
      "unost": 5160,
      "unknown": 5161,
      "univers": 5162,
      "unities": 5163,
      "unrespon": 5164,
      "unheard": 5165,
      "unveiled": 5166,
      "unsuccessful": 5167,
      "unique": 5168,
      "unamis": 5169,
      "unched": 5170,
      "lob": 5171,
      "load": 5172,
      "love": 5173,
      "toward": 5174,
      "togen": 5175,
      "gest": 5176,
      "geon": 5177,
      "geborg": 5178,
      "geting": 5179,
      "geolog": 5180,
      "ention": 5181,
      "entang": 5182,
      "ently": 5183,
      "ential": 5184,
      "entire": 5185,
      "entatious": 5186,
      "entitled": 5187,
      "duation": 5188,
      "duals": 5189,
      "haka": 5190,
      "hatha": 5191,
      "haunt": 5192,
      "haped": 5193,
      "haya": 5194,
      "22Cras": 5195,
      "ayo": 5196,
      "ayan": 5197,
      "ayed": 5198,
      "ayette": 5199,
      "lict": 5200,
      "lius": 5201,
      "liest": 5202,
      "like": 5203,
      "livan": 5204,
      "ligh": 5205,
      "living": 5206,
      "light": 5207,
      "1919": 5208,
      "1924": 5209,
      "1913": 5210,
      "1929": 5211,
      "1904": 5212,
      "1080i": 5213,
      "ido": 5214,
      "idential": 5215,
      "propag": 5216,
      "project": 5217,
      "proble": 5218,
      "progress": 5219,
      "protest": 5220,
      "prolog": 5221,
      "profess": 5222,
      "forth": 5223,
      "forte": 5224,
      "forced": 5225,
      "Anime": 5226,
      "Ansch": 5227,
      "Ananth": 5228,
      "Ananda": 5229,
      "Anatol": 5230,
      "Anisul": 5231,
      "Anouk": 5232,
      "import": 5233,
      "imony": 5234,
      "impli": 5235,
      "Italo": 5236,
      "etime": 5237,
      "etti": 5238,
      "ogatari": 5239,
      "arded": 5240,
      "ives": 5241,
      "ivity": 5242,
      "ivaram": 5243,
      "ovation": 5244,
      "ovann": 5245,
      "overed": 5246,
      "igt": 5247,
      "igwe": 5248,
      "ighley": 5249,
      "urer": 5250,
      "urred": 5251,
      "urice": 5252,
      "urban": 5253,
      "ading": 5254,
      "adarsh": 5255,
      "adoss": 5256,
      "buting": 5257,
      "manip": 5258,
      "mantle": 5259,
      "aka": 5260,
      "akout": 5261,
      "akonam": 5262,
      "angan": 5263,
      "angad": 5264,
      "resear": 5265,
      "resolve": 5266,
      "reshaped": 5267,
      "phere": 5268,
      "phrase": 5269,
      "philanthro": 5270,
      "cey": 5271,
      "cealing": 5272,
      "ters": 5273,
      "terer": 5274,
      "terror": 5275,
      "terrible": 5276,
      "cker": 5277,
      "ckey": 5278,
      "laws": 5279,
      "labp": 5280,
      "launched": 5281,
      "strict": 5282,
      "berCon": 5283,
      "beresim": 5284,
      "Comedy": 5285,
      "Comedian": 5286,
      "estic": 5287,
      "estab": 5288,
      "producers": 5289,
      "Marr": 5290,
      "Mary": 5291,
      "Marin": 5292,
      "Marbo": 5293,
      "Marina": 5294,
      "Mariel": 5295,
      "Marner": 5296,
      "Margo": 5297,
      "Marchetti": 5298,
      "MarVist": 5299,
      "Marandzhy": 5300,
      "new": 5301,
      "neth": 5302,
      "neys": 5303,
      "nect2": 5304,
      "acting": 5305,
      "actly": 5306,
      "active": 5307,
      "activity": 5308,
      "mixed": 5309,
      "distribution": 5310,
      "Chou": 5311,
      "Chia": 5312,
      "Chik": 5313,
      "Chandra": 5314,
      "Chisato": 5315,
      "lyy": 5316,
      "lywood": 5317,
      "lyrics": 5318,
      "iefs": 5319,
      "pert": 5320,
      "person": 5321,
      "perform": 5322,
      "periment": 5323,
      "peranza": 5324,
      "perisco": 5325,
      "what": 5326,
      "whom": 5327,
      "white": 5328,
      "ersen": 5329,
      "coma": 5330,
      "coming": 5331,
      "compan": 5332,
      "comple": 5333,
      "company": 5334,
      "compet": 5335,
      "Ando": 5336,
      "Andaman": 5337,
      "Station": 5338,
      "State": 5339,
      "Story": 5340,
      "Stree": 5341,
      "Stolz": 5342,
      "Streaming": 5343,
      "Stanic": 5344,
      "Storaro": 5345,
      "Statues": 5346,
      "otland": 5347,
      "sek": 5348,
      "sex": 5349,
      "sey": 5350,
      "seok": 5351,
      "seek": 5352,
      "seism": 5353,
      "separ": 5354,
      "athletic": 5355,
      "Then": 5356,
      "Things": 5357,
      "Thij": 5358,
      "Thanh": 5359,
      "Through": 5360,
      "Rez": 5361,
      "Reed": 5362,
      "Reid": 5363,
      "Reich": 5364,
      "Reyn": 5365,
      "Recording": 5366,
      "Republ": 5367,
      "Recog": 5368,
      "Reinhard": 5369,
      "Sepp": 5370,
      "Search": 5371,
      "Secret": 5372,
      "Seizo": 5373,
      "Sekai": 5374,
      "Seyi": 5375,
      "uma": 5376,
      "ume": 5377,
      "umal": 5378,
      "umont": 5379,
      "ians": 5380,
      "ianet": 5381,
      "rill": 5382,
      "ichar": 5383,
      "ichés": 5384,
      "ouncement": 5385,
      "2005": 5386,
      "2007": 5387,
      "200th": 5388,
      "hti": 5389,
      "soleil": 5390,
      "ulich": 5391,
      "ulations": 5392,
      "physical": 5393,
      "Film4": 5394,
      "Filmver": 5395,
      "Filmfare": 5396,
      "few": 5397,
      "fects": 5398,
      "ryn": 5399,
      "rymple": 5400,
      "cinema": 5401,
      "asters": 5402,
      "asthan": 5403,
      "Inc": 5404,
      "Ince": 5405,
      "Internet": 5406,
      "Infern": 5407,
      "Inspire": 5408,
      "India": 5409,
      "Inoue": 5410,
      "Ingeborg": 5411,
      "ppy": 5412,
      "deal": 5413,
      "death": 5414,
      "decl": 5415,
      "defeat": 5416,
      "deals": 5417,
      "deaths": 5418,
      "decision": 5419,
      "deux": 5420,
      "becomes": 5421,
      "behind": 5422,
      "become": 5423,
      "beginning": 5424,
      "becoming": 5425,
      "Wei": 5426,
      "Weiss": 5427,
      "Webster": 5428,
      "quet": 5429,
      "quest": 5430,
      "quired": 5431,
      "allel": 5432,
      "Dai": 5433,
      "Dawson": 5434,
      "Daisuke": 5435,
      "Mean": 5436,
      "Meinrad": 5437,
      "ramarath": 5438,
      "shan": 5439,
      "shmi": 5440,
      "shown": 5441,
      "shire": 5442,
      "aged": 5443,
      "agop": 5444,
      "agawa": 5445,
      "agnino": 5446,
      "ainder": 5447,
      "tens": 5448,
      "tense": 5449,
      "tenbor": 5450,
      "Joel": 5451,
      "Johan": 5452,
      "occur": 5453,
      "okhov": 5454,
      "Deb": 5455,
      "Deo": 5456,
      "Dean": 5457,
      "Deep": 5458,
      "Defend": 5459,
      "abi": 5460,
      "abo": 5461,
      "abel": 5462,
      "abiner": 5463,
      "abella": 5464,
      "abnor": 5465,
      "ability": 5466,
      "abusive": 5467,
      "scene": 5468,
      "scient": 5469,
      "scenes": 5470,
      "Rao": 5471,
      "Raoul": 5472,
      "Rafa": 5473,
      "sud": 5474,
      "suff": 5475,
      "suko": 5476,
      "edited": 5477,
      "ialny": 5478,
      "Allison": 5479,
      "conte": 5480,
      "conver": 5481,
      "contra": 5482,
      "congen": 5483,
      "contri": 5484,
      "constru": 5485,
      "conserv": 5486,
      "content": 5487,
      "conviction": 5488,
      "constant": 5489,
      "concealing": 5490,
      "redesign": 5491,
      "150": 5492,
      "Arve": 5493,
      "Arno": 5494,
      "Argo": 5495,
      "Arcal": 5496,
      "Arrif": 5497,
      "plan": 5498,
      "platin": 5499,
      "planner": 5500,
      "videos": 5501,
      "aizu": 5502,
      "ffield": 5503,
      "kau": 5504,
      "ptic": 5505,
      "ption": 5506,
      "ptation": 5507,
      "pture": 5508,
      "rant": 5509,
      "Neander": 5510,
      "Roop": 5511,
      "Robb": 5512,
      "Royle": 5513,
      "Rozel": 5514,
      "Roemheld": 5515,
      "Roquet": 5516,
      "Union": 5517,
      "Under": 5518,
      "Unwill": 5519,
      "udino": 5520,
      "udele": 5521,
      "rometti": 5522,
      "Doesburg": 5523,
      "Whitney": 5524,
      "dramatic": 5525,
      "teford": 5526,
      "teaser": 5527,
      "inee": 5528,
      "illusion": 5529,
      "Beyon": 5530,
      "istance": 5531,
      "poem": 5532,
      "postings": 5533,
      "anta": 5534,
      "anti": 5535,
      "Enfield": 5536,
      "Enyinn": 5537,
      "Leon": 5538,
      "Leone": 5539,
      "Leip": 5540,
      "Leila": 5541,
      "Leading": 5542,
      "key": 5543,
      "ketogen": 5544,
      "area": 5545,
      "Maxwell": 5546,
      "Maanvi": 5547,
      "Mahaka": 5548,
      "Maurice": 5549,
      "Waschke": 5550,
      "hnert": 5551,
      "Agun": 5552,
      "azio": 5553,
      "iple": 5554,
      "pez": 5555,
      "peak": 5556,
      "worse": 5557,
      "alifah": 5558,
      "owner": 5559,
      "Shank": 5560,
      "Shuk": 5561,
      "Shino": 5562,
      "Shire": 5563,
      "Shuj": 5564,
      "Shony": 5565,
      "Shari": 5566,
      "Sharath": 5567,
      "Shanmug": 5568,
      "Shilkret": 5569,
      "Shivaram": 5570,
      "vern": 5571,
      "vert": 5572,
      "Baby": 5573,
      "Bach": 5574,
      "Baum": 5575,
      "Corrigan": 5576,
      "Coriol": 5577,
      "earlier": 5578,
      "earliest": 5579,
      "minio": 5580,
      "minating": 5581,
      "minutes": 5582,
      "ilepsy": 5583,
      "outcome": 5584,
      "plays": 5585,
      "playing": 5586,
      "Both": 5587,
      "code": 5588,
      "Eró": 5589,
      "Geert": 5590,
      "praising": 5591,
      "annivers": 5592,
      "annaia": 5593,
      "announcement": 5594,
      "comedies": 5595,
      "Brother": 5596,
      "Broadcast": 5597,
      "Jane": 5598,
      "Janson": 5599,
      "Janney": 5600,
      "Nora": 5601,
      "Norma": 5602,
      "Noriaki": 5603,
      "indale": 5604,
      "indorf": 5605,
      "rently": 5606,
      "enecker": 5607,
      "Goodb": 5608,
      "Goedings": 5609,
      "Jews": 5610,
      "Jewish": 5611,
      "Moham": 5612,
      "Mooney": 5613,
      "Moxie": 5614,
      "Pathe": 5615,
      "Paxeco": 5616,
      "pired": 5617,
      "Haig": 5618,
      "Hailey": 5619,
      "Haque": 5620,
      "Hauser": 5621,
      "Georgia": 5622,
      "aca": 5623,
      "acs": 5624,
      "account": 5625,
      "accept": 5626,
      "acclaim": 5627,
      "accompan": 5628,
      "acquired": 5629,
      "campa": 5630,
      "camps": 5631,
      "ugu": 5632,
      "ugem": 5633,
      "ugadoss": 5634,
      "ension": 5635,
      "itself": 5636,
      "underg": 5637,
      "1932": 5638,
      "1937": 5639,
      "1938": 5640,
      "Catalan": 5641,
      "Nobuyuki": 5642,
      "School": 5643,
      "Scholz": 5644,
      "Schmid": 5645,
      "Schoell": 5646,
      "Schwab": 5647,
      "Schønem": 5648,
      "class": 5649,
      "clamation": 5650,
      "clichés": 5651,
      "massively": 5652,
      "leyball": 5653,
      "featuring": 5654,
      "Abbott": 5655,
      "Abangan": 5656,
      "Carsten": 5657,
      "Carolina": 5658,
      "Carabiner": 5659,
      "Frankau": 5660,
      "Jong": 5661,
      "Jonathan": 5662,
      "jee": 5663,
      "upon": 5664,
      "updates": 5665,
      "whole": 5666,
      "Colman": 5667,
      "Collins": 5668,
      "Colombani": 5669,
      "Westelak": 5670,
      "Youth": 5671,
      "YouTu": 5672,
      "brew": 5673,
      "ephone": 5674,
      "mez": 5675,
      "meaning": 5676,
      "methods": 5677,
      "measuring": 5678,
      "tsbur": 5679,
      "tsunamis": 5680,
      "tsuma": 5681,
      "onika": 5682,
      "assics": 5683,
      "office": 5684,
      "CyberCon": 5685,
      "Heindorf": 5686,
      "Hebrew": 5687,
      "Myers": 5688,
      "Murtal": 5689,
      "Murugadoss": 5690,
      "Parkinson": 5691,
      "Sheffield": 5692,
      "Shaina": 5693,
      "Shafy": 5694,
      "Touring": 5695,
      "Tokyo": 5696,
      "Worker": 5697,
      "avathi": 5698,
      "avail": 5699,
      "storylines": 5700,
      "reception": 5701,
      "ators": 5702,
      "atornil": 5703,
      "ridge": 5704,
      "Jackson": 5705,
      "50th": 5706,
      "Asim": 5707,
      "Aspect": 5708,
      "Asano": 5709,
      "Association": 5710,
      "Asianet": 5711,
      "eleventh": 5712,
      "foreign": 5713,
      "ressed": 5714,
      "Chilean": 5715,
      "Worldwide": 5716,
      "receiving": 5717,
      "Rose": 5718,
      "Rossy": 5719,
      "Vikat": 5720,
      "domain": 5721,
      "download": 5722,
      "execut": 5723,
      "exhi": 5724,
      "explo": 5725,
      "examining": 5726,
      "exactly": 5727,
      "exclamation": 5728,
      "nights": 5729,
      "obu": 5730,
      "obar": 5731,
      "object": 5732,
      "observes": 5733,
      "observ": 5734,
      "web": 5735,
      "insky": 5736,
      "inspire": 5737,
      "inspired": 5738,
      "works": 5739,
      "worked": 5740,
      "workers": 5741,
      "Auer": 5742,
      "Auch": 5743,
      "Dutton": 5744,
      "Gijs": 5745,
      "Giovann": 5746,
      "Girometti": 5747,
      "Morris": 5748,
      "Matson": 5749,
      "Ono": 5750,
      "Ramsey": 5751,
      "Revision": 5752,
      "Revira": 5753,
      "box": 5754,
      "monk": 5755,
      "monogatari": 5756,
      "waitress": 5757,
      "inclusion": 5758,
      "amede": 5759,
      "1942": 5760,
      "1943": 5761,
      "1944": 5762,
      "1949": 5763,
      "1982": 5764,
      "1983": 5765,
      "1987": 5766,
      "1991": 5767,
      "1992": 5768,
      "1993": 5769,
      "1995": 5770,
      "1996": 5771,
      "1999": 5772,
      "199th": 5773,
      "idered": 5774,
      "igned": 5775,
      "ignored": 5776,
      "Schneid": 5777,
      "Contin": 5778,
      "Contra": 5779,
      "Conville": 5780,
      "Edge": 5781,
      "Eddie": 5782,
      "Edgert": 5783,
      "McCall": 5784,
      "McCann": 5785,
      "McGow": 5786,
      "McConville": 5787,
      "Milgram": 5788,
      "Milton": 5789,
      "Military": 5790,
      "Proiet": 5791,
      "Project": 5792,
      "Progress": 5793,
      "Sciss": 5794,
      "Scarlet": 5795,
      "Scotland": 5796,
      "Verónica": 5797,
      "Verrill": 5798,
      "Veronika": 5799,
      "With": 5800,
      "Wien": 5801,
      "capture": 5802,
      "iko": 5803,
      "ikke": 5804,
      "largely": 5805,
      "valor": 5806,
      "valuable": 5807,
      "ends": 5808,
      "ending": 5809,
      "1973": 5810,
      "Happy": 5811,
      "follow": 5812,
      "followed": 5813,
      "Adler": 5814,
      "Addio": 5815,
      "Adkins": 5816,
      "Adonaij": 5817,
      "Lupo": 5818,
      "Luij": 5819,
      "Michel": 5820,
      "Michele": 5821,
      "Mickey": 5822,
      "Richter": 5823,
      "Saha": 5824,
      "Sacks": 5825,
      "Saeed": 5826,
      "Saito": 5827,
      "Tiscali": 5828,
      "Tomoyo": 5829,
      "Tomorro": 5830,
      "sites": 5831,
      "sitting": 5832,
      "wonders": 5833,
      "engages": 5834,
      "engraved": 5835,
      "atted": 5836,
      "Marks": 5837,
      "Charlé": 5838,
      "Christian": 5839,
      "Christine": 5840,
      "Christopher": 5841,
      "ultramarath": 5842,
      "ugher": 5843,
      "Butler": 5844,
      "Dante": 5845,
      "Daniel": 5846,
      "Daniele": 5847,
      "Islands": 5848,
      "Isabel": 5849,
      "Southwest": 5850,
      "epilepsy": 5851,
      "ified": 5852,
      "ifically": 5853,
      "symbol": 5854,
      "settlers": 5855,
      "ufello": 5856,
      "viewed": 5857,
      "viewing": 5858,
      "romanized": 5859,
      "1952": 5860,
      "1953": 5861,
      "1955": 5862,
      "1956": 5863,
      "1959": 5864,
      "ocalyptic": 5865,
      "Deadline": 5866,
      "Artur": 5867,
      "Artists": 5868,
      "Artisan": 5869,
      "Richards": 5870,
      "Clair": 5871,
      "Elan": 5872,
      "Else": 5873,
      "Feature": 5874,
      "Featuring": 5875,
      "Feeling": 5876,
      "Golod": 5877,
      "Lahti": 5878,
      "Merel": 5879,
      "Meryl": 5880,
      "Merrie": 5881,
      "Mondi": 5882,
      "Monica": 5883,
      "Monroe": 5884,
      "Madras": 5885,
      "donell": 5886,
      "herrings": 5887,
      "herjee": 5888,
      "nurse": 5889,
      "notable": 5890,
      "traces": 5891,
      "trava": 5892,
      "tracks": 5893,
      "tradition": 5894,
      "tragedy": 5895,
      "region": 5896,
      "regards": 5897,
      "regarded": 5898,
      "idea": 5899,
      "Angelo": 5900,
      "Angelis": 5901,
      "ships": 5902,
      "Revolt": 5903,
      "specials": 5904,
      "Benven": 5905,
      "Bencich": 5906,
      "Benoî": 5907,
      "Kawai": 5908,
      "Manali": 5909,
      "Manila": 5910,
      "Malta": 5911,
      "Maldivian": 5912,
      "Malvern": 5913,
      "Mask": 5914,
      "Masato": 5915,
      "Maske": 5916,
      "Masuok": 5917,
      "Niels": 5918,
      "Terrem": 5919,
      "Teruyuki": 5920,
      "airs": 5921,
      "airmen": 5922,
      "handling": 5923,
      "handheld": 5924,
      "loss": 5925,
      "mostly": 5926,
      "nominee": 5927,
      "rases": 5928,
      "volcan": 5929,
      "volleyball": 5930,
      "versial": 5931,
      "versions": 5932,
      "interest": 5933,
      "intertwin": 5934,
      "interperson": 5935,
      "remainder": 5936,
      "retell": 5937,
      "retold": 5938,
      "rospy": 5939,
      "help": 5940,
      "forms": 5941,
      "Thompson": 5942,
      "songs": 5943,
      "Produced": 5944,
      "Revolutionary": 5945,
      "focused": 5946,
      "Barber": 5947,
      "Barcel": 5948,
      "Barracks": 5949,
      "Bela": 5950,
      "Belt": 5951,
      "Bello": 5952,
      "Belbin": 5953,
      "Belfast": 5954,
      "Burl": 5955,
      "Burt": 5956,
      "Burton": 5957,
      "Burmest": 5958,
      "Burnett": 5959,
      "Emman": 5960,
      "Emilio": 5961,
      "Helen": 5962,
      "Helmut": 5963,
      "Hiroyuki": 5964,
      "Kenneth": 5965,
      "Lauren": 5966,
      "Miu": 5967,
      "Miyan": 5968,
      "Miriam": 5969,
      "Minster": 5970,
      "apest": 5971,
      "apore": 5972,
      "apocalyptic": 5973,
      "awarded": 5974,
      "criticised": 5975,
      "iello": 5976,
      "noosh": 5977,
      "noches": 5978,
      "paper": 5979,
      "preserved": 5980,
      "presidential": 5981,
      "standing": 5982,
      "leads": 5983,
      "overarch": 5984,
      "addressed": 5985,
      "command": 5986,
      "commenced": 5987,
      "community": 5988,
      "committing": 5989,
      "artists": 5990,
      "Raja": 5991,
      "Rajni": 5992,
      "Rajasthan": 5993,
      "Enterpris": 5994,
      "Blackburn": 5995,
      "Lucchetti": 5996,
      "historians": 5997,
      "relationships": 5998,
      "18th": 5999,
      "1823": 6000,
      "1878": 6001,
      "416": 6002,
      "Bernard": 6003,
      "Bernart": 6004,
      "Curt": 6005,
      "Curwood": 6006,
      "Curtis": 6007,
      "Faridu": 6008,
      "Farnoosh": 6009,
      "Guild": 6010,
      "Guido": 6011,
      "Hamburg": 6012,
      "Hamdhan": 6013,
      "Hollywood": 6014,
      "Hartman": 6015,
      "Hartley": 6016,
      "Kerry": 6017,
      "Laresca": 6018,
      "Largely": 6019,
      "Levine": 6020,
      "Ohkawa": 6021,
      "Più": 6022,
      "Pierre": 6023,
      "Performan": 6024,
      "Percept": 6025,
      "Perumal": 6026,
      "Support": 6027,
      "Sallie": 6028,
      "Susunod": 6029,
      "appraisal": 6030,
      "finds": 6031,
      "mutual": 6032,
      "parlor": 6033,
      "paranor": 6034,
      "parallel": 6035,
      "penyong": 6036,
      "parte": 6037,
      "particular": 6038,
      "sold": 6039,
      "solely": 6040,
      "wedding": 6041,
      "weddings": 6042,
      "realist": 6043,
      "disasters": 6044,
      "disability": 6045,
      "leground": 6046,
      "legends": 6047,
      "location": 6048,
      "locations": 6049,
      "Annabella": 6050,
      "adaptation": 6051,
      "rescue": 6052,
      "pheres": 6053,
      "queline": 6054,
      "scripts": 6055,
      "University": 6056,
      "worldwide": 6057,
      "experience": 6058,
      "experiences": 6059,
      "Adams": 6060,
      "Australia": 6061,
      "politician": 6062,
      "Entertainments": 6063,
      "Amber": 6064,
      "Amate": 6065,
      "Amedeo": 6066,
      "Buddhist": 6067,
      "Budapest": 6068,
      "Excell": 6069,
      "Examiner": 6070,
      "Experiment": 6071,
      "Eastern": 6072,
      "Greene": 6073,
      "Greenwood": 6074,
      "Greenba": 6075,
      "Karvan": 6076,
      "Kemper": 6077,
      "Kempf": 6078,
      "Kirsten": 6079,
      "Louis": 6080,
      "Lafayette": 6081,
      "Master": 6082,
      "Mastroian": 6083,
      "Malik": 6084,
      "Malizia": 6085,
      "Nicobar": 6086,
      "Plane": 6087,
      "Platz": 6088,
      "Rita": 6089,
      "Ritter": 6090,
      "Ritsuko": 6091,
      "Saki": 6092,
      "Sakichi": 6093,
      "Sakiko": 6094,
      "Toru": 6095,
      "Torres": 6096,
      "Torabi": 6097,
      "Takot": 6098,
      "Volk": 6099,
      "Volume": 6100,
      "catchph": 6101,
      "centered": 6102,
      "century": 6103,
      "hitash": 6104,
      "rating": 6105,
      "rative": 6106,
      "truth": 6107,
      "uthi": 6108,
      "thals": 6109,
      "relies": 6110,
      "revolved": 6111,
      "olds": 6112,
      "Marcelo": 6113,
      "Marcello": 6114,
      "Robinne": 6115,
      "Hawks": 6116,
      "Hawkins": 6117,
      "Rosenberg": 6118,
      "presentation": 6119,
      "11th": 6120,
      "111th": 6121,
      "112th": 6122,
      "Akhla": 6123,
      "Akili": 6124,
      "Acting": 6125,
      "Actress": 6126,
      "BBC1": 6127,
      "Cruel": 6128,
      "Cruise": 6129,
      "DiNap": 6130,
      "Duff": 6131,
      "Durov": 6132,
      "Eupe": 6133,
      "Eurospy": 6134,
      "Freund": 6135,
      "Freeman": 6136,
      "Fremantle": 6137,
      "Freulich": 6138,
      "Grate": 6139,
      "Grund": 6140,
      "Grinberg": 6141,
      "Grusin": 6142,
      "Herter": 6143,
      "Herald": 6144,
      "Hervé": 6145,
      "Herzog": 6146,
      "Honma": 6147,
      "Impress": 6148,
      "Imaizu": 6149,
      "Jessie": 6150,
      "Kollde": 6151,
      "Langella": 6152,
      "Longenecker": 6153,
      "Metz": 6154,
      "Natteford": 6155,
      "Nagarkar": 6156,
      "Nigeria": 6157,
      "Patrice": 6158,
      "Rudo": 6159,
      "Rudolf": 6160,
      "Rickert": 6161,
      "Silvia": 6162,
      "Silvio": 6163,
      "Troubles": 6164,
      "Tropez": 6165,
      "Vivi": 6166,
      "Vivian": 6167,
      "bond": 6168,
      "device": 6169,
      "devised": 6170,
      "hybrid": 6171,
      "hardships": 6172,
      "medley": 6173,
      "medications": 6174,
      "shaw": 6175,
      "shaved": 6176,
      "surviv": 6177,
      "surrealist": 6178,
      "trial": 6179,
      "tribe": 6180,
      "trials": 6181,
      "intention": 6182,
      "thouse": 6183,
      "thought": 6184,
      "discovers": 6185,
      "discovered": 6186,
      "differed": 6187,
      "difficult": 6188,
      "letake": 6189,
      "radar": 6190,
      "limited": 6191,
      "formerly": 6192,
      "Animation": 6193,
      "Animax": 6194,
      "response": 6195,
      "lacking": 6196,
      "Martinelli": 6197,
      "Andrew": 6198,
      "Starring": 6199,
      "Reyes": 6200,
      "Jacqueline": 6201,
      "debuted": 6202,
      "debutant": 6203,
      "Davis": 6204,
      "showcas": 6205,
      "scared": 6206,
      "previously": 6207,
      "undercover": 6208,
      "Asiavision": 6209,
      "Connor": 6210,
      "Screenplay": 6211,
      "Ferreri": 6212,
      "soldiers": 6213,
      "religion": 6214,
      "Govinda": 6215,
      "Govindaraju": 6216,
      "published": 6217,
      "translation": 6218,
      "Araven": 6219,
      "Bolles": 6220,
      "Bowl": 6221,
      "Bowen": 6222,
      "Bowers": 6223,
      "Brenda": 6224,
      "Bruno": 6225,
      "Central": 6226,
      "Dalrymple": 6227,
      "Fritz": 6228,
      "Fabrizio": 6229,
      "Fukui": 6230,
      "Gabby": 6231,
      "Gabriel": 6232,
      "Gabriele": 6233,
      "Hilary": 6234,
      "Hayes": 6235,
      "Hirannaia": 6236,
      "Huntz": 6237,
      "Irikawa": 6238,
      "Juan": 6239,
      "July": 6240,
      "Julius": 6241,
      "Jeremy": 6242,
      "Kōji": 6243,
      "Krawche": 6244,
      "Kubat": 6245,
      "Lindley": 6246,
      "MGM": 6247,
      "Muriel": 6248,
      "Networks": 6249,
      "Phanta": 6250,
      "Palast": 6251,
      "Ralph": 6252,
      "Randolph": 6253,
      "Sircar": 6254,
      "Santa": 6255,
      "Santoni": 6256,
      "Santamaría": 6257,
      "Zuhure": 6258,
      "besting": 6259,
      "ciled": 6260,
      "create": 6261,
      "creates": 6262,
      "cases": 6263,
      "cashire": 6264,
      "currently": 6265,
      "curators": 6266,
      "credited": 6267,
      "designed": 6268,
      "delves": 6269,
      "delayed": 6270,
      "effects": 6271,
      "feminist": 6272,
      "floods": 6273,
      "graber": 6274,
      "graphy": 6275,
      "graduation": 6276,
      "giving": 6277,
      "highest": 6278,
      "jockey": 6279,
      "killer": 6280,
      "killing": 6281,
      "killed": 6282,
      "marily": 6283,
      "marks": 6284,
      "marking": 6285,
      "mainly": 6286,
      "modern": 6287,
      "nevertheless": 6288,
      "print": 6289,
      "princip": 6290,
      "passed": 6291,
      "passes": 6292,
      "passion": 6293,
      "runner": 6294,
      "running": 6295,
      "single": 6296,
      "simple": 6297,
      "simplif": 6298,
      "similar": 6299,
      "someone": 6300,
      "trois": 6301,
      "vaults": 6302,
      "violence": 6303,
      "viduals": 6304,
      "erotica": 6305,
      "individuals": 6306,
      "internationally": 6307,
      "orkers": 6308,
      "theatrically": 6309,
      "escape": 6310,
      "escapism": 6311,
      "rikh": 6312,
      "Alberti": 6313,
      "charting": 6314,
      "1963": 6315,
      "1965": 6316,
      "1969": 6317,
      "oversight": 6318,
      "Chidi": 6319,
      "Chiwa": 6320,
      "Chihara": 6321,
      "performances": 6322,
      "Region": 6323,
      "umete": 6324,
      "sociological": 6325,
      "Ingrid": 6326,
      "Independen": 6327,
      "considered": 6328,
      "pluralist": 6329,
      "Macdonell": 6330,
      "Mahfu": 6331,
      "Mahendi": 6332,
      "Maurizio": 6333,
      "portrayal": 6334,
      "Broadway": 6335,
      "Brownstein": 6336,
      "camerawork": 6337,
      "assassinated": 6338,
      "Rossi": 6339,
      "Vijayalak": 6340,
      "months": 6341,
      "depicting": 6342,
      "Africa": 6343,
      "Kawasaki": 6344,
      "formats": 6345,
      "Holmes": 6346,
      "legally": 6347,
      "Playboy": 6348,
      "Playmate": 6349,
      "PlayStation": 6350,
      "Russian": 6351,
      "Directed": 6352,
      "Trippletake": 6353,
      "translated": 6354,
      "Originally": 6355,
      "continuous": 6356,
      "commissioner": 6357,
      "Bangladeshi": 6358,
      "!);": 6359,
      "Atoli": 6360,
      "Attenbor": 6361,
      "Breakout": 6362,
      "Breugem": 6363,
      "Baltim": 6364,
      "Ballabp": 6365,
      "Brian": 6366,
      "Brien": 6367,
      "Braun": 6368,
      "Braugher": 6369,
      "Clara": 6370,
      "Classics": 6371,
      "Cliff": 6372,
      "Clipper": 6373,
      "County": 6374,
      "Country": 6375,
      "Clark": 6376,
      "Clarke": 6377,
      "Culture": 6378,
      "Dominic": 6379,
      "Domestic": 6380,
      "Dulu": 6381,
      "Dulé": 6382,
      "Eduard": 6383,
      "Eduardo": 6384,
      "Florid": 6385,
      "Floum": 6386,
      "Fortuyn": 6387,
      "Fortunato": 6388,
      "Gaumont": 6389,
      "Gaudino": 6390,
      "Gorcey": 6391,
      "Gorokhov": 6392,
      "General": 6393,
      "Genrikh": 6394,
      "Gunner": 6395,
      "Gunnar": 6396,
      "Gubbi": 6397,
      "Gubitos": 6398,
      "Hodge": 6399,
      "Hodkinson": 6400,
      "Jayaraju": 6401,
      "Keighley": 6402,
      "Keppy": 6403,
      "Khaled": 6404,
      "Khalifah": 6405,
      "Kuo": 6406,
      "Kuhnert": 6407,
      "König": 6408,
      "Körsch": 6409,
      "Katz": 6410,
      "Katzman": 6411,
      "Kullu": 6412,
      "Looney": 6413,
      "Lohitash": 6414,
      "Lyell": 6415,
      "Lyric": 6416,
      "Media": 6417,
      "Medina": 6418,
      "Melichar": 6419,
      "Melamede": 6420,
      "Midnight": 6421,
      "Middle": 6422,
      "Mukō": 6423,
      "Mukherjee": 6424,
      "Mansi": 6425,
      "Mansfield": 6426,
      "Naosuke": 6427,
      "Nahatha": 6428,
      "Narrated": 6429,
      "Narayan": 6430,
      "Nouah": 6431,
      "Nouvion": 6432,
      "ORPG": 6433,
      "Orfini": 6434,
      "Orlob": 6435,
      "Pedro": 6436,
      "Pedersen": 6437,
      "Patel": 6438,
      "Prize": 6439,
      "Private": 6440,
      "Pete": 6441,
      "Petra": 6442,
      "Spain": 6443,
      "Spelling": 6444,
      "Switzer": 6445,
      "Swamp": 6446,
      "Single": 6447,
      "Singapore": 6448,
      "Simon": 6449,
      "Simone": 6450,
      "Sugiyama": 6451,
      "Sugandi": 6452,
      "Sundance": 6453,
      "Sundaram": 6454,
      "Teil": 6455,
      "Teun": 6456,
      "Toho": 6457,
      "Tooske": 6458,
      "Tarou": 6459,
      "Tarik": 6460,
      "Tambor": 6461,
      "Tamagawa": 6462,
      "Toler": 6463,
      "Tonye": 6464,
      "Wallis": 6465,
      "Wallenberg": 6466,
      "Yadi": 6467,
      "Yael": 6468,
      "Yearbook": 6469,
      "Yoshino": 6470,
      "Yoshinari": 6471,
      "Yorkshire": 6472,
      "adult": 6473,
      "affairs": 6474,
      "billed": 6475,
      "billion": 6476,
      "crore": 6477,
      "crudele": 6478,
      "coup": 6479,
      "couple": 6480,
      "culminating": 6481,
      "calibre": 6482,
      "court": 6483,
      "courthouse": 6484,
      "censors": 6485,
      "censorship": 6486,
      "daily": 6487,
      "fights": 6488,
      "fighting": 6489,
      "funded": 6490,
      "grossing": 6491,
      "grossed": 6492,
      "groups": 6493,
      "humour": 6494,
      "humorous": 6495,
      "memory": 6496,
      "memorable": 6497,
      "moves": 6498,
      "movement": 6499,
      "message": 6500,
      "messages": 6501,
      "multiplayer": 6502,
      "multiple": 6503,
      "narrate": 6504,
      "narrative": 6505,
      "norms": 6506,
      "others": 6507,
      "opportunity": 6508,
      "opportunities": 6509,
      "porarily": 6510,
      "porters": 6511,
      "since": 6512,
      "sinkhol": 6513,
      "targets": 6514,
      "targeting": 6515,
      "timeline": 6516,
      "testimony": 6517,
      "vivir": 6518,
      "ициал": 6519,
      "informant": 6520,
      "informants": 6521,
      "student": 6522,
      "students": 6523,
      "struck": 6524,
      "request": 6525,
      "required": 6526,
      "divide": 6527,
      "divided": 6528,
      "rifles": 6529,
      "listed": 6530,
      "provider": 6531,
      "provided": 6532,
      "manager": 6533,
      "managing": 6534,
      "photography": 6535,
      "Martindale": 6536,
      "Martufello": 6537,
      "negative": 6538,
      "negatively": 6539,
      "needless": 6540,
      "newspaper": 6541,
      "Steiger": 6542,
      "Steeler": 6543,
      "Thandana": 6544,
      "Thandanana": 6545,
      "society": 6546,
      "societal": 6547,
      "Instead": 6548,
      "Institute": 6549,
      "define": 6550,
      "defunct": 6551,
      "confusion": 6552,
      "conflict": 6553,
      "concentration": 6554,
      "concentrating": 6555,
      "controlled": 6556,
      "controversial": 6557,
      "Bostic": 6558,
      "Bostrom": 6559,
      "coastal": 6560,
      "authorities": 6561,
      "authoritarian": 6562,
      "Noriko": 6563,
      "Norikatsu": 6564,
      "Goodman": 6565,
      "Blanca": 6566,
      "Blanchard": 6567,
      "accents": 6568,
      "accused": 6569,
      "Francesco": 6570,
      "Francesca": 6571,
      "breakup": 6572,
      "Matteo": 6573,
      "mystery": 6574,
      "mysterious": 6575,
      "Islamic": 6576,
      "viewer": 6577,
      "literally": 6578,
      "interactions": 6579,
      "reference": 6580,
      "references": 6581,
      "returning": 6582,
      "approval": 6583,
      "approach": 6584,
      "Cooke": 6585,
      "corresponding": 6586,
      "corresponds": 6587,
      "schools": 6588,
      "European": 6589,
      "development": 6590,
      "developmental": 6591,
      "surrounding": 6592,
      "backing": 6593,
      "background": 6594,
      "describe": 6595,
      "described": 6596,
      "highlight": 6597,
      "consisting": 6598,
      "consistently": 6599,
      "Augusto": 6600,
      "Clementelli": 6601,
      "Egyptian": 6602,
      "Krishna": 6603,
      "Krishnan": 6604,
      "counterterror": 6605,
      "5ミリ": 6606,
      "Ahmed": 6607,
      "Aadai": 6608,
      "Ashley": 6609,
      "Atsumete": 6610,
      "Aadukalam": 6611,
      "Bhat": 6612,
      "Biradar": 6613,
      "Brünsch": 6614,
      "Basu": 6615,
      "Bembol": 6616,
      "Bayou": 6617,
      "Bigger": 6618,
      "Badal": 6619,
      "Biobí": 6620,
      "Bagavathi": 6621,
      "Brancato": 6622,
      "Boden": 6623,
      "Bruvver": 6624,
      "Bugs": 6625,
      "Bhaskar": 6626,
      "Biroc": 6627,
      "Battsek": 6628,
      "Biederst": 6629,
      "Brunngraber": 6630,
      "Cría": 6631,
      "Cuoco": 6632,
      "Creative": 6633,
      "Calvert": 6634,
      "Citra": 6635,
      "Candal": 6636,
      "Critics": 6637,
      "Craig": 6638,
      "Cutler": 6639,
      "Civic": 6640,
      "Catholic": 6641,
      "Cortez": 6642,
      "Cineart": 6643,
      "Cipollina": 6644,
      "Couture": 6645,
      "Cunningham": 6646,
      "Capitol": 6647,
      "Crazy": 6648,
      "Cameron": 6649,
      "Catherine": 6650,
      "Cvetko": 6651,
      "Cosmonauts": 6652,
      "Díos": 6653,
      "Drea": 6654,
      "Duncan": 6655,
      "Dimension": 6656,
      "Devadarsh": 6657,
      "Derek": 6658,
      "Dichato": 6659,
      "Diaz": 6660,
      "Dillon": 6661,
      "Danny": 6662,
      "Dynamics": 6663,
      "Draya": 6664,
      "ERROR": 6665,
      "ESPN": 6666,
      "Ehrlich": 6667,
      "Ekpenyong": 6668,
      "Esperanza": 6669,
      "Edison": 6670,
      "Elders": 6671,
      "Echegui": 6672,
      "Eventually": 6673,
      "Fiberesim": 6674,
      "Fiscella": 6675,
      "Foundation": 6676,
      "Football": 6677,
      "Fujita": 6678,
      "Fiedler": 6679,
      "Frassica": 6680,
      "Gérard": 6681,
      "Gómez": 6682,
      "Ganesh": 6683,
      "Gonshaw": 6684,
      "Grachyov": 6685,
      "Gentner": 6686,
      "Gidali": 6687,
      "Gigi": 6688,
      "Gianna": 6689,
      "Grammy": 6690,
      "Gagroo": 6691,
      "Galibin": 6692,
      "Gaudio": 6693,
      "Gavin": 6694,
      "Galiana": 6695,
      "Greece": 6696,
      "Grunwald": 6697,
      "Gathering": 6698,
      "Horror": 6699,
      "Hofech": 6700,
      "Hutchison": 6701,
      "Hunter": 6702,
      "Henny": 6703,
      "Hensel": 6704,
      "Hyams": 6705,
      "Hikari": 6706,
      "Hannelore": 6707,
      "Hussain": 6708,
      "Ibadan": 6709,
      "Ireland": 6710,
      "Ibinabo": 6711,
      "Icarus": 6712,
      "Ignazio": 6713,
      "Jenet": 6714,
      "Judith": 6715,
      "Jolanda": 6716,
      "KOKIA": 6717,
      "Koichi": 6718,
      "Kilgas": 6719,
      "Kitter": 6720,
      "Kelly": 6721,
      "Kosal": 6722,
      "Kiron": 6723,
      "Ketterer": 6724,
      "Kovacs": 6725,
      "Kevin": 6726,
      "Kathryn": 6727,
      "Kabanata": 6728,
      "Killian": 6729,
      "Kennedy": 6730,
      "Karavay": 6731,
      "Kessell": 6732,
      "Kissed": 6733,
      "Kumbakonam": 6734,
      "Kanhangad": 6735,
      "Kaserne": 6736,
      "Kruglyy": 6737,
      "Löb": 6738,
      "Lancashire": 6739,
      "Ledoux": 6740,
      "Lalit": 6741,
      "Llewel": 6742,
      "Liverpo": 6743,
      "Loknath": 6744,
      "Loreto": 6745,
      "Lippert": 6746,
      "Litschke": 6747,
      "Lavagnino": 6748,
      "Lottie": 6749,
      "Lagibor": 6750,
      "MMORPG": 6751,
      "Mitani": 6752,
      "Misiano": 6753,
      "Mesa": 6754,
      "Moses": 6755,
      "Mutz": 6756,
      "Memories": 6757,
      "Mighel": 6758,
      "Mathis": 6759,
      "Mokeme": 6760,
      "Mounties": 6761,
      "Miller": 6762,
      "Mister": 6763,
      "Mellor": 6764,
      "Munawwar": 6765,
      "Mendelso": 6766,
      "Mifsud": 6767,
      "Melodies": 6768,
      "Mujibur": 6769,
      "Nwigwe": 6770,
      "Nelson": 6771,
      "Nakata": 6772,
      "Niekie": 6773,
      "Nanthagop": 6774,
      "Nathaniel": 6775,
      "Ollie": 6776,
      "Omori": 6777,
      "Outlaws": 6778,
      "Owiriwa": 6779,
      "Occupation": 6780,
      "Oikawa": 6781,
      "Oaxaca": 6782,
      "Overseas": 6783,
      "Peebles": 6784,
      "Prince": 6785,
      "Pondicher": 6786,
      "Pittsbur": 6787,
      "Pritchard": 6788,
      "Pathé": 6789,
      "Pulitzer": 6790,
      "Pablo": 6791,
      "Paula": 6792,
      "Passage": 6793,
      "Preetham": 6794,
      "Prasad": 6795,
      "Pullman": 6796,
      "Potsdamer": 6797,
      "Régent": 6798,
      "Römer": 6799,
      "Resistance": 6800,
      "Return": 6801,
      "Rainer": 6802,
      "Rights": 6803,
      "Rifshan": 6804,
      "STD": 6805,
      "SXSW": 6806,
      "Soranzo": 6807,
      "Satō": 6808,
      "Southeast": 6809,
      "Semarang": 6810,
      "Sayuthi": 6811,
      "Sadamoto": 6812,
      "Sterminio": 6813,
      "Summit": 6814,
      "Sullivan": 6815,
      "Sagor": 6816,
      "Saipan": 6817,
      "Sazatornil": 6818,
      "Sverre": 6819,
      "Syndikat": 6820,
      "Songs": 6821,
      "SIIMA": 6822,
      "Swedish": 6823,
      "Sollazzo": 6824,
      "Svetlana": 6825,
      "Tausch": 6826,
      "Tinti": 6827,
      "Tanzawa": 6828,
      "Telugu": 6829,
      "Tracy": 6830,
      "Tunes": 6831,
      "Tovoli": 6832,
      "Tiezzi": 6833,
      "Towards": 6834,
      "Tennis": 6835,
      "Townsend": 6836,
      "Ternicier": 6837,
      "Tanno": 6838,
      "Telefilms": 6839,
      "Trembling": 6840,
      "Tanya": 6841,
      "Tadanobu": 6842,
      "Udhaya": 6843,
      "Ueli": 6844,
      "Ulema": 6845,
      "Voigt": 6846,
      "Vincent": 6847,
      "Vargas": 6848,
      "Venice": 6849,
      "Vandenberg": 6850,
      "Versus": 6851,
      "Vennira": 6852,
      "Vanitha": 6853,
      "Vaijanath": 6854,
      "Waites": 6855,
      "Wyatt": 6856,
      "Wesley": 6857,
      "Wolcott": 6858,
      "Wagner": 6859,
      "Wanker": 6860,
      "Wessels": 6861,
      "Wafau": 6862,
      "Wavemaster": 6863,
      "Yuusuke": 6864,
      "Yukari": 6865,
      "Yunnan": 6866,
      "Yoba": 6867,
      "Yoshiyuki": 6868,
      "Zheng": 6869,
      "Zingarelli": 6870,
      "Zampa": 6871,
      "Zionists": 6872,
      "Zimbardo": 6873,
      "aedt": 6874,
      "aimed": 6875,
      "blurred": 6876,
      "bitors": 6877,
      "beliefs": 6878,
      "budget": 6879,
      "bindoo": 6880,
      "biker": 6881,
      "battleground": 6882,
      "clearly": 6883,
      "civil": 6884,
      "cartridge": 6885,
      "coworkers": 6886,
      "career": 6887,
      "category": 6888,
      "cannot": 6889,
      "café": 6890,
      "crossed": 6891,
      "cosmonautas": 6892,
      "doomed": 6893,
      "død": 6894,
      "dilemma": 6895,
      "driven": 6896,
      "dollars": 6897,
      "dungeon": 6898,
      "drugie": 6899,
      "eastern": 6900,
      "finances": 6901,
      "false": 6902,
      "fascism": 6903,
      "friend": 6904,
      "further": 6905,
      "faith": 6906,
      "franchise": 6907,
      "facets": 6908,
      "favoura": 6909,
      "families": 6910,
      "fratello": 6911,
      "fuerza": 6912,
      "girl": 6913,
      "gallery": 6914,
      "gags": 6915,
      "gained": 6916,
      "human": 6917,
      "harmless": 6918,
      "husband": 6919,
      "hunting": 6920,
      "houses": 6921,
      "heroism": 6922,
      "idiom": 6923,
      "journeys": 6924,
      "katha": 6925,
      "longest": 6926,
      "layers": 6927,
      "litsa": 6928,
      "mammoth": 6929,
      "mirror": 6930,
      "migration": 6931,
      "magic": 6932,
      "millimeter": 6933,
      "melodrama": 6934,
      "ninguna": 6935,
      "nostalgic": 6936,
      "nationality": 6937,
      "pstick": 6938,
      "primarily": 6939,
      "powers": 6940,
      "painting": 6941,
      "pacing": 6942,
      "rushed": 6943,
      "swung": 6944,
      "senator": 6945,
      "sometime": 6946,
      "saying": 6947,
      "sides": 6948,
      "slapstick": 6949,
      "severe": 6950,
      "sports": 6951,
      "sources": 6952,
      "saved": 6953,
      "selected": 6954,
      "shelved": 6955,
      "telephone": 6956,
      "temporarily": 6957,
      "tactics": 6958,
      "trying": 6959,
      "tickets": 6960,
      "triggered": 6961,
      "village": 6962,
      "virtual": 6963,
      "whether": 6964,
      "widely": 6965,
      "wartime": 6966,
      "wrestling": 6967,
      "watched": 6968,
      "други": 6969,
      "лица": 6970,
      "официал": 6971,
      "ьные": 6972,
      "אדם": 6973,
      "בור": 6974,
      "הופך": 6975,
      "לגיבור": 6976,
      "の物語": 6977,
      "の1778の物語": 6978,
      "セカイの向こうに": 6979,
      "不能说的夏天": 6980,
      "僕と妻の1778の物語": 6981,
      "寒蟬效應": 6982,
      "아이엔지": 6983,
      "eruptions": 6984,
      "inductees": 6985,
      "intended": 6986,
      "independent": 6987,
      "involved": 6988,
      "information": 6989,
      "increasing": 6990,
      "influenced": 6991,
      "invitation": 6992,
      "analyzes": 6993,
      "anxiety": 6994,
      "statement": 6995,
      "stolen": 6996,
      "stifling": 6997,
      "strained": 6998,
      "organized": 6999,
      "thousands": 7000,
      "thirty": 7001,
      "reproductions": 7002,
      "reconciled": 7003,
      "reportedly": 7004,
      "revealed": 7005,
      "reformatted": 7006,
      "replacing": 7007,
      "reissued": 7008,
      "reprise": 7009,
      "reviewers": 7010,
      "enhanced": 7011,
      "theaters": 7012,
      "thematically": 7013,
      "allowed": 7014,
      "alliance": 7015,
      "atmosphere": 7016,
      "dishonest": 7017,
      "diplomat": 7018,
      "distinguish": 7019,
      "dialogue": 7020,
      "isolation": 7021,
      "hemispheres": 7022,
      "elaborate": 7023,
      "omitted": 7024,
      "ofitsialny": 7025,
      "ridiculed": 7026,
      "leisurely": 7027,
      "ragazzi": 7028,
      "Allyson": 7029,
      "Alessandra": 7030,
      "Alyssa": 7031,
      "chambered": 7032,
      "emigrant": 7033,
      "emerging": 7034,
      "emotional": 7035,
      "embarks": 7036,
      "unostentatious": 7037,
      "university": 7038,
      "unresponsive": 7039,
      "towards": 7040,
      "geologists": 7041,
      "entangled": 7042,
      "haunted": 7043,
      "22Crash": 7044,
      "lighter": 7045,
      "propaganda": 7046,
      "problems": 7047,
      "protested": 7048,
      "prologue": 7049,
      "professional": 7050,
      "AnimeCentral": 7051,
      "Anschluss": 7052,
      "Anatoly": 7053,
      "important": 7054,
      "implies": 7055,
      "manipulations": 7056,
      "research": 7057,
      "philanthropic": 7058,
      "established": 7059,
      "Marboe": 7060,
      "Marielle": 7061,
      "MarVista": 7062,
      "Marandzhyan": 7063,
      "Chikayo": 7064,
      "Chandrabindoo": 7065,
      "periscopio": 7066,
      "completed": 7067,
      "competition": 7068,
      "Storyville": 7069,
      "Streep": 7070,
      "seeks": 7071,
      "seismic": 7072,
      "separated": 7073,
      "Thijs": 7074,
      "Thanhouser": 7075,
      "Throughout": 7076,
      "Reynolds": 7077,
      "Republican": 7078,
      "Recognition": 7079,
      "Filmverleih": 7080,
      "Inferno": 7081,
      "declined": 7082,
      "decisions": 7083,
      "occurred": 7084,
      "Deepest": 7085,
      "Defenders": 7086,
      "abnormal": 7087,
      "scientifically": 7088,
      "Rafael": 7089,
      "suffers": 7090,
      "context": 7091,
      "converge": 7092,
      "contrast": 7093,
      "congenial": 7094,
      "contributing": 7095,
      "construction": 7096,
      "conservative": 7097,
      "Arcalli": 7098,
      "Arriflex": 7099,
      "platinum": 7100,
      "Neanderthals": 7101,
      "Roopkatha": 7102,
      "Robbie": 7103,
      "Rozelle": 7104,
      "Undercover": 7105,
      "Unwilling": 7106,
      "Beyond": 7107,
      "Enyinna": 7108,
      "Leipold": 7109,
      "ketogenic": 7110,
      "Shankar": 7111,
      "Shuken": 7112,
      "Shujeo": 7113,
      "Shariff": 7114,
      "Shanmuga": 7115,
      "Coriolano": 7116,
      "anniversary": 7117,
      "Broadcasting": 7118,
      "Goodbye": 7119,
      "Mohammed": 7120,
      "accepted": 7121,
      "accompanied": 7122,
      "campaign": 7123,
      "undergoing": 7124,
      "Schooly": 7125,
      "Schmidt": 7126,
      "Schoeller": 7127,
      "Schønemann": 7128,
      "classified": 7129,
      "Carabineros": 7130,
      "Westelaken": 7131,
      "YouTube": 7132,
      "CyberConnect2": 7133,
      "Murtala": 7134,
      "available": 7135,
      "Aspects": 7136,
      "Vikatan": 7137,
      "downloaded": 7138,
      "executive": 7139,
      "exhibitors": 7140,
      "exploit": 7141,
      "objectives": 7142,
      "observational": 7143,
      "Giovanni": 7144,
      "waitresses": 7145,
      "Continiello": 7146,
      "Contract": 7147,
      "Edgerton": 7148,
      "McCallum": 7149,
      "McGowan": 7150,
      "Proietti": 7151,
      "Scissors": 7152,
      "Adonaijah": 7153,
      "Luijkx": 7154,
      "Michelle": 7155,
      "Tomorrow": 7156,
      "Charlélie": 7157,
      "ultramarathon": 7158,
      "travails": 7159,
      "traditional": 7160,
      "Benvenuti": 7161,
      "Benoît": 7162,
      "Masuoka": 7163,
      "Nielsen": 7164,
      "Terremoto": 7165,
      "volcanic": 7166,
      "intertwined": 7167,
      "interpersonal": 7168,
      "Barcelona": 7169,
      "Burmester": 7170,
      "Miyano": 7171,
      "overarching": 7172,
      "Enterprises": 7173,
      "Faridur": 7174,
      "Performance": 7175,
      "Supporting": 7176,
      "paranormal": 7177,
      "particularly": 7178,
      "Excellence": 7179,
      "Experimental": 7180,
      "Greenbaum": 7181,
      "Mastroianni": 7182,
      "catchphrases": 7183,
      "Akhlaque": 7184,
      "DiNapoli": 7185,
      "FremantleMedia": 7186,
      "Imaizumi": 7187,
      "Kolldehoff": 7188,
      "survives": 7189,
      "difficulty": 7190,
      "showcasing": 7191,
      "Aravena": 7192,
      "Hirannaiah": 7193,
      "Krawcheck": 7194,
      "Zuhuree": 7195,
      "principal": 7196,
      "simplified": 7197,
      "Independence": 7198,
      "Mahfuzur": 7199,
      "Mahendiran": 7200,
      "Vijayalakshmi": 7201,
      "Attenborough": 7202,
      "Baltimore": 7203,
      "Ballabpurer": 7204,
      "Florida": 7205,
      "Gubitosi": 7206,
      "Körschgen": 7207,
      "Lohitashwa": 7208,
      "Switzerland": 7209,
      "sinkholes": 7210,
      "counterterrorism": 7211,
      "Biobío": 7212,
      "Biederstaedt": 7213,
      "Devadarshini": 7214,
      "Fiberesima": 7215,
      "Karavaychuk": 7216,
      "Llewelyn": 7217,
      "Liverpool": 7218,
      "Mendelsohn": 7219,
      "Nanthagopal": 7220,
      "Princewill": 7221,
      "Pondicherry": 7222,
      "Pittsburgh": 7223,
      "Tauschinsky": 7224,
      "favourable": 7225,
      "другие": 7226,
      "официальные": 7227,
      "ofitsialnye": 7228
    },
    "merges": [
      [
        "d",
        "b"
      ],
      [
        "B",
        "J"
      ],
      [
        "O",
        "T"
      ],
      [
        "db",
        "r"
      ],
      [
        "e",
        "r"
      ],
      [
        "i",
        "n"
      ],
      [
        "a",
        "n"
      ],
      [
        "a",
        "r"
      ],
      [
        "E",
        "D"
      ],
      [
        "E",
        "OT"
      ],
      [
        "O",
        "BJ"
      ],
      [
        "P",
        "R"
      ],
      [
        "S",
        "U"
      ],
      [
        "S",
        "OT"
      ],
      [
        "db",
        "o"
      ],
      [
        "PR",
        "ED"
      ],
      [
        "SU",
        "BJ"
      ],
      [
        "i",
        "l"
      ],
      [
        "s",
        "t"
      ],
      [
        "o",
        "r"
      ],
      [
        "t",
        "h"
      ],
      [
        "o",
        "n"
      ],
      [
        "r",
        "e"
      ],
      [
        "in",
        "g"
      ],
      [
        "e",
        "n"
      ],
      [
        "e",
        "d"
      ],
      [
        "il",
        "m"
      ],
      [
        "th",
        "e"
      ],
      [
        "a",
        "l"
      ],
      [
        "a",
        "t"
      ],
      [
        "c",
        "t"
      ],
      [
        "i",
        "t"
      ],
      [
        "f",
        "ilm"
      ],
      [
        "a",
        "s"
      ],
      [
        "d",
        "i"
      ],
      [
        ".",
        "."
      ],
      [
        "st",
        "ar"
      ],
      [
        "i",
        "s"
      ],
      [
        "r",
        "ing"
      ],
      [
        "e",
        "s"
      ],
      [
        "star",
        "ring"
      ],
      [
        "an",
        "d"
      ],
      [
        "i",
        "c"
      ],
      [
        "0",
        "0"
      ],
      [
        "r",
        "o"
      ],
      [
        "h",
        "e"
      ],
      [
        "re",
        "ct"
      ],
      [
        "di",
        "rect"
      ],
      [
        ":",
        "'"
      ],
      [
        "a",
        "m"
      ],
      [
        "e",
        "l"
      ],
      [
        "i",
        "on"
      ],
      [
        "o",
        "m"
      ],
      [
        "b",
        "y"
      ],
      [
        "..",
        "."
      ],
      [
        "o",
        "f"
      ],
      [
        "o",
        "u"
      ],
      [
        "r",
        "i"
      ],
      [
        "l",
        "e"
      ],
      [
        "T",
        "he"
      ],
      [
        "o",
        "s"
      ],
      [
        "r",
        "it"
      ],
      [
        "u",
        "s"
      ],
      [
        "r",
        "a"
      ],
      [
        "u",
        "t"
      ],
      [
        "o",
        "l"
      ],
      [
        "w",
        "rit"
      ],
      [
        ":",
        "..."
      ],
      [
        "A",
        "l"
      ],
      [
        "c",
        "h"
      ],
      [
        "w",
        "as"
      ],
      [
        "direct",
        "or"
      ],
      [
        "e",
        "m"
      ],
      [
        "u",
        "n"
      ],
      [
        "l",
        "o"
      ],
      [
        "t",
        "o"
      ],
      [
        "g",
        "e"
      ],
      [
        "en",
        "t"
      ],
      [
        "d",
        "u"
      ],
      [
        "h",
        "a"
      ],
      [
        "2",
        "2"
      ],
      [
        "writ",
        "er"
      ],
      [
        "00",
        "0"
      ],
      [
        "a",
        "y"
      ],
      [
        "l",
        "i"
      ],
      [
        "1",
        "9"
      ],
      [
        "1",
        "0"
      ],
      [
        "i",
        "d"
      ],
      [
        "p",
        "ro"
      ],
      [
        "i",
        "r"
      ],
      [
        "direct",
        "ed"
      ],
      [
        "f",
        "or"
      ],
      [
        "A",
        "n"
      ],
      [
        "i",
        "m"
      ],
      [
        "I",
        "t"
      ],
      [
        "e",
        "t"
      ],
      [
        "pro",
        "du"
      ],
      [
        "o",
        "g"
      ],
      [
        "ar",
        "d"
      ],
      [
        "produ",
        "c"
      ],
      [
        "i",
        "v"
      ],
      [
        "o",
        "v"
      ],
      [
        "i",
        "g"
      ],
      [
        "u",
        "r"
      ],
      [
        "a",
        "d"
      ],
      [
        "b",
        "ut"
      ],
      [
        "i",
        "es"
      ],
      [
        "at",
        "ion"
      ],
      [
        "m",
        "an"
      ],
      [
        "a",
        "k"
      ],
      [
        "an",
        "g"
      ],
      [
        "re",
        "s"
      ],
      [
        "p",
        "h"
      ],
      [
        "c",
        "e"
      ],
      [
        "t",
        "er"
      ],
      [
        "c",
        "k"
      ],
      [
        "2",
        "0"
      ],
      [
        "l",
        "a"
      ],
      [
        "st",
        "ri"
      ],
      [
        "b",
        "er"
      ],
      [
        "e",
        "v"
      ],
      [
        "us",
        "ic"
      ],
      [
        "C",
        "om"
      ],
      [
        "m",
        "usic"
      ],
      [
        "e",
        "st"
      ],
      [
        "produc",
        "er"
      ],
      [
        "M",
        "ar"
      ],
      [
        "n",
        "e"
      ],
      [
        "a",
        "ct"
      ],
      [
        "m",
        "i"
      ],
      [
        "p",
        "os"
      ],
      [
        "di",
        "stri"
      ],
      [
        "distri",
        "but"
      ],
      [
        "C",
        "h"
      ],
      [
        "l",
        "y"
      ],
      [
        "i",
        "e"
      ],
      [
        "p",
        "er"
      ],
      [
        "w",
        "h"
      ],
      [
        ":",
        "$"
      ],
      [
        "er",
        "s"
      ],
      [
        "Al",
        "lo"
      ],
      [
        "distribut",
        "or"
      ],
      [
        "c",
        "om"
      ],
      [
        "An",
        "d"
      ],
      [
        "pos",
        "er"
      ],
      [
        "S",
        "t"
      ],
      [
        "o",
        "t"
      ],
      [
        "s",
        "e"
      ],
      [
        "as",
        "ed"
      ],
      [
        "Com",
        "poser"
      ],
      [
        "music",
        "Composer"
      ],
      [
        "a",
        "th"
      ],
      [
        "m",
        "er"
      ],
      [
        "ar",
        "t"
      ],
      [
        "T",
        "h"
      ],
      [
        ":",
        "."
      ],
      [
        "R",
        "e"
      ],
      [
        "S",
        "e"
      ],
      [
        "c",
        "in"
      ],
      [
        "o",
        "w"
      ],
      [
        "er",
        "e"
      ],
      [
        ":",
        "%"
      ],
      [
        "T",
        "il"
      ],
      [
        "u",
        "m"
      ],
      [
        "i",
        "an"
      ],
      [
        "r",
        "il"
      ],
      [
        "ic",
        "h"
      ],
      [
        "ou",
        "n"
      ],
      [
        "i",
        "o"
      ],
      [
        "s",
        "er"
      ],
      [
        "or",
        "t"
      ],
      [
        "2",
        "00"
      ],
      [
        "a",
        "ge"
      ],
      [
        "h",
        "t"
      ],
      [
        "s",
        "o"
      ],
      [
        "u",
        "l"
      ],
      [
        "i",
        "ct"
      ],
      [
        "re",
        "le"
      ],
      [
        "ph",
        "y"
      ],
      [
        "F",
        "ilm"
      ],
      [
        "J",
        "a"
      ],
      [
        "f",
        "e"
      ],
      [
        "r",
        "y"
      ],
      [
        "cin",
        "em"
      ],
      [
        "a",
        "st"
      ],
      [
        "20",
        "1"
      ],
      [
        "I",
        "n"
      ],
      [
        "p",
        "p"
      ],
      [
        "d",
        "e"
      ],
      [
        "ar",
        "y"
      ],
      [
        "at",
        "og"
      ],
      [
        "cinem",
        "atog"
      ],
      [
        "cinematog",
        "ra"
      ],
      [
        "b",
        "e"
      ],
      [
        "l",
        "ang"
      ],
      [
        "u",
        "age"
      ],
      [
        "W",
        "e"
      ],
      [
        "q",
        "u"
      ],
      [
        "al",
        "l"
      ],
      [
        "D",
        "a"
      ],
      [
        "M",
        "e"
      ],
      [
        "r",
        "am"
      ],
      [
        "s",
        "h"
      ],
      [
        "ic",
        "an"
      ],
      [
        "lang",
        "uage"
      ],
      [
        "a",
        "g"
      ],
      [
        "a",
        "in"
      ],
      [
        "t",
        "en"
      ],
      [
        "is",
        "h"
      ],
      [
        "rele",
        "ased"
      ],
      [
        "cinematogra",
        "phy"
      ],
      [
        "J",
        "o"
      ],
      [
        "o",
        "c"
      ],
      [
        "o",
        "k"
      ],
      [
        "w",
        "ard"
      ],
      [
        "D",
        "e"
      ],
      [
        "or",
        "e"
      ],
      [
        "i",
        "a"
      ],
      [
        ":",
        "("
      ],
      [
        "A",
        "mer"
      ],
      [
        "a",
        "b"
      ],
      [
        "s",
        "c"
      ],
      [
        "u",
        "res"
      ],
      [
        "ha",
        "ck"
      ],
      [
        "R",
        "a"
      ],
      [
        "s",
        "u"
      ],
      [
        "th",
        "er"
      ],
      [
        "ed",
        "it"
      ],
      [
        "ig",
        "ht"
      ],
      [
        "/",
        "/"
      ],
      [
        "e",
        "o"
      ],
      [
        "i",
        "al"
      ],
      [
        "Al",
        "l"
      ],
      [
        "c",
        "on"
      ],
      [
        "re",
        "d"
      ],
      [
        "ser",
        "ies"
      ],
      [
        "Amer",
        "ican"
      ],
      [
        "1",
        "5"
      ],
      [
        "3",
        "F"
      ],
      [
        "A",
        "p"
      ],
      [
        "il",
        "li"
      ],
      [
        "oun",
        "t"
      ],
      [
        "A",
        "r"
      ],
      [
        "p",
        "l"
      ],
      [
        "u",
        "st"
      ],
      [
        "v",
        "id"
      ],
      [
        "writ",
        "ten"
      ],
      [
        "P",
        "ict"
      ],
      [
        "a",
        "i"
      ],
      [
        "f",
        "f"
      ],
      [
        "on",
        "e"
      ],
      [
        "edit",
        "ing"
      ],
      [
        "k",
        "a"
      ],
      [
        "p",
        "t"
      ],
      [
        "r",
        "an"
      ],
      [
        "w",
        "i"
      ],
      [
        "p",
        "an"
      ],
      [
        "act",
        "or"
      ],
      [
        "3",
        "0"
      ],
      [
        "N",
        "e"
      ],
      [
        "R",
        "o"
      ],
      [
        "U",
        "n"
      ],
      [
        "U",
        "s"
      ],
      [
        "u",
        "d"
      ],
      [
        "en",
        "n"
      ],
      [
        "ro",
        "m"
      ],
      [
        "ir",
        "d"
      ],
      [
        "iv",
        "e"
      ],
      [
        "Pict",
        "ures"
      ],
      [
        "0",
        "8"
      ],
      [
        "D",
        "o"
      ],
      [
        "W",
        "h"
      ],
      [
        "d",
        "ram"
      ],
      [
        "s",
        "on"
      ],
      [
        "t",
        "e"
      ],
      [
        "in",
        "e"
      ],
      [
        "il",
        "l"
      ],
      [
        "or",
        "d"
      ],
      [
        "ic",
        "e"
      ],
      [
        "wi",
        "th"
      ],
      [
        "7",
        "1"
      ],
      [
        "B",
        "e"
      ],
      [
        "i",
        "st"
      ],
      [
        "l",
        "d"
      ],
      [
        "p",
        "o"
      ],
      [
        "an",
        "t"
      ],
      [
        "at",
        "o"
      ],
      [
        "dram",
        "a"
      ],
      [
        "E",
        "n"
      ],
      [
        "L",
        "e"
      ],
      [
        "k",
        "e"
      ],
      [
        "ar",
        "e"
      ],
      [
        "el",
        "l"
      ],
      [
        "ir",
        "st"
      ],
      [
        "H",
        "ar"
      ],
      [
        "M",
        "a"
      ],
      [
        "W",
        "as"
      ],
      [
        "c",
        "he"
      ],
      [
        "f",
        "rom"
      ],
      [
        "h",
        "n"
      ],
      [
        "l",
        "es"
      ],
      [
        "o",
        "d"
      ],
      [
        "Ap",
        "ril"
      ],
      [
        "A",
        "g"
      ],
      [
        "a",
        "z"
      ],
      [
        "i",
        "p"
      ],
      [
        "p",
        "e"
      ],
      [
        "w",
        "or"
      ],
      [
        "al",
        "i"
      ],
      [
        "ow",
        "n"
      ],
      [
        "S",
        "h"
      ],
      [
        "W",
        "ar"
      ],
      [
        "t",
        "it"
      ],
      [
        "v",
        "er"
      ],
      [
        "em",
        "ber"
      ],
      [
        "Ne",
        "ath"
      ],
      [
        "B",
        "a"
      ],
      [
        "C",
        "or"
      ],
      [
        "G",
        "er"
      ],
      [
        "e",
        "ar"
      ],
      [
        "m",
        "in"
      ],
      [
        "er",
        "n"
      ],
      [
        "il",
        "e"
      ],
      [
        "re",
        "en"
      ],
      [
        "at",
        "e"
      ],
      [
        "ou",
        "t"
      ],
      [
        "pl",
        "ay"
      ],
      [
        "4",
        "5"
      ],
      [
        "B",
        "o"
      ],
      [
        "M",
        "ay"
      ],
      [
        "c",
        "o"
      ],
      [
        "c",
        "ount"
      ],
      [
        "p",
        "ort"
      ],
      [
        "an",
        "k"
      ],
      [
        "at",
        "ed"
      ],
      [
        "ou",
        "r"
      ],
      [
        "ak",
        "e"
      ],
      [
        "ev",
        "er"
      ],
      [
        "E",
        "r"
      ],
      [
        "G",
        "e"
      ],
      [
        "a",
        "u"
      ],
      [
        "b",
        "or"
      ],
      [
        "p",
        "ra"
      ],
      [
        "an",
        "n"
      ],
      [
        "ct",
        "ion"
      ],
      [
        "com",
        "ed"
      ],
      [
        "B",
        "ro"
      ],
      [
        "B",
        "la"
      ],
      [
        "J",
        "an"
      ],
      [
        "J",
        "ust"
      ],
      [
        "N",
        "or"
      ],
      [
        "T",
        "was"
      ],
      [
        "r",
        "u"
      ],
      [
        "v",
        "e"
      ],
      [
        "in",
        "d"
      ],
      [
        "ar",
        "a"
      ],
      [
        "or",
        "y"
      ],
      [
        "th",
        "at"
      ],
      [
        "re",
        "n"
      ],
      [
        "en",
        "e"
      ],
      [
        "es",
        "s"
      ],
      [
        "ov",
        "ie"
      ],
      [
        "Jo",
        "hn"
      ],
      [
        "G",
        "o"
      ],
      [
        "J",
        "e"
      ],
      [
        "M",
        "o"
      ],
      [
        "P",
        "a"
      ],
      [
        "o",
        "i"
      ],
      [
        "p",
        "i"
      ],
      [
        "p",
        "re"
      ],
      [
        "il",
        "y"
      ],
      [
        "it",
        "y"
      ],
      [
        "star",
        "s"
      ],
      [
        "es",
        "e"
      ],
      [
        "Ger",
        "man"
      ],
      [
        "count",
        "ry"
      ],
      [
        "B",
        "l"
      ],
      [
        "H",
        "a"
      ],
      [
        "N",
        "ation"
      ],
      [
        "P",
        "art"
      ],
      [
        "b",
        "ene"
      ],
      [
        "f",
        "are"
      ],
      [
        "l",
        "ed"
      ],
      [
        "u",
        "k"
      ],
      [
        "u",
        "re"
      ],
      [
        "v",
        "an"
      ],
      [
        "w",
        "s"
      ],
      [
        "il",
        "ent"
      ],
      [
        "al",
        "so"
      ],
      [
        "ic",
        "al"
      ],
      [
        "li",
        "e"
      ],
      [
        "produc",
        "ed"
      ],
      [
        "Se",
        "x"
      ],
      [
        "Ag",
        "ain"
      ],
      [
        "Ge",
        "or"
      ],
      [
        "B",
        "C"
      ],
      [
        "a",
        "c"
      ],
      [
        "c",
        "am"
      ],
      [
        "n",
        "on"
      ],
      [
        "u",
        "e"
      ],
      [
        "u",
        "g"
      ],
      [
        "on",
        "a"
      ],
      [
        "en",
        "s"
      ],
      [
        "al",
        "e"
      ],
      [
        "it",
        "s"
      ],
      [
        "un",
        "d"
      ],
      [
        "19",
        "3"
      ],
      [
        "im",
        "e"
      ],
      [
        "iv",
        "al"
      ],
      [
        "ber",
        "t"
      ],
      [
        "est",
        "ival"
      ],
      [
        "Da",
        "vid"
      ],
      [
        "comed",
        "y"
      ],
      [
        "Just",
        "ice"
      ],
      [
        "Geor",
        "ge"
      ],
      [
        ":",
        "!"
      ],
      [
        "C",
        "at"
      ],
      [
        "C",
        "io"
      ],
      [
        "F",
        "F"
      ],
      [
        "N",
        "o"
      ],
      [
        "N",
        "ight"
      ],
      [
        "O",
        "per"
      ],
      [
        "P",
        "os"
      ],
      [
        "S",
        "S"
      ],
      [
        "S",
        "ch"
      ],
      [
        "a",
        "f"
      ],
      [
        "c",
        "l"
      ],
      [
        "d",
        "en"
      ],
      [
        "h",
        "il"
      ],
      [
        "l",
        "s"
      ],
      [
        "m",
        "as"
      ],
      [
        "u",
        "oi"
      ],
      [
        "v",
        "uoi"
      ],
      [
        "an",
        "a"
      ],
      [
        "ou",
        "s"
      ],
      [
        "le",
        "y"
      ],
      [
        "ent",
        "ary"
      ],
      [
        "ha",
        "i"
      ],
      [
        "og",
        "y"
      ],
      [
        "um",
        "entary"
      ],
      [
        "ril",
        "ogy"
      ],
      [
        "so",
        "pra"
      ],
      [
        "fe",
        "at"
      ],
      [
        "oc",
        "umentary"
      ],
      [
        "illi",
        "po"
      ],
      [
        "port",
        "ato"
      ],
      [
        "pi",
        "ù"
      ],
      [
        "Cio",
        "è"
      ],
      [
        "Pos",
        "illipo"
      ],
      [
        ".",
        "%"
      ],
      [
        "0",
        "3"
      ],
      [
        "2",
        "000"
      ],
      [
        "7",
        "7"
      ],
      [
        "A",
        "b"
      ],
      [
        "C",
        "ar"
      ],
      [
        "F",
        "ran"
      ],
      [
        "J",
        "on"
      ],
      [
        "d",
        "ocumentary"
      ],
      [
        "h",
        "is"
      ],
      [
        "j",
        "e"
      ],
      [
        "m",
        "ent"
      ],
      [
        "u",
        "p"
      ],
      [
        "er",
        "t"
      ],
      [
        "th",
        "qu"
      ],
      [
        "is",
        "ion"
      ],
      [
        "22",
        "FF"
      ],
      [
        "wh",
        "o"
      ],
      [
        "wh",
        "ich"
      ],
      [
        "Ja",
        "pan"
      ],
      [
        "2",
        "5"
      ],
      [
        "C",
        "ol"
      ],
      [
        "F",
        "estival"
      ],
      [
        "J",
        "os"
      ],
      [
        "T",
        "V"
      ],
      [
        "W",
        "est"
      ],
      [
        "Y",
        "ou"
      ],
      [
        "Y",
        "ank"
      ],
      [
        "b",
        "re"
      ],
      [
        "e",
        "ph"
      ],
      [
        "g",
        "l"
      ],
      [
        "m",
        "e"
      ],
      [
        "t",
        "s"
      ],
      [
        "in",
        "al"
      ],
      [
        "on",
        "i"
      ],
      [
        "as",
        "s"
      ],
      [
        "di",
        "an"
      ],
      [
        "ic",
        "k"
      ],
      [
        "of",
        "f"
      ],
      [
        "ov",
        "ic"
      ],
      [
        "sc",
        "reen"
      ],
      [
        "Yank",
        "ovic"
      ],
      [
        ")",
        "."
      ],
      [
        "C",
        "y"
      ],
      [
        "H",
        "e"
      ],
      [
        "M",
        "y"
      ],
      [
        "M",
        "ur"
      ],
      [
        "O",
        "ur"
      ],
      [
        "P",
        "ar"
      ],
      [
        "P",
        "im"
      ],
      [
        "S",
        "k"
      ],
      [
        "S",
        "he"
      ],
      [
        "S",
        "ha"
      ],
      [
        "T",
        "ou"
      ],
      [
        "T",
        "ok"
      ],
      [
        "T",
        "rilogy"
      ],
      [
        "W",
        "or"
      ],
      [
        "W",
        "ay"
      ],
      [
        "a",
        "v"
      ],
      [
        "g",
        "an"
      ],
      [
        "l",
        "er"
      ],
      [
        "u",
        "ary"
      ],
      [
        "w",
        "o"
      ],
      [
        "y",
        "n"
      ],
      [
        "st",
        "ory"
      ],
      [
        "on",
        "g"
      ],
      [
        "re",
        "ce"
      ],
      [
        "at",
        "or"
      ],
      [
        "ic",
        "ial"
      ],
      [
        "am",
        "e"
      ],
      [
        "ri",
        "d"
      ],
      [
        "ter",
        "n"
      ],
      [
        "Ja",
        "ck"
      ],
      [
        "We",
        "ird"
      ],
      [
        "tit",
        "le"
      ],
      [
        "bor",
        "g"
      ],
      [
        "Jan",
        "uary"
      ],
      [
        "thqu",
        "ake"
      ],
      [
        "Sk",
        "ies"
      ],
      [
        "0",
        "6"
      ],
      [
        "5",
        "0"
      ],
      [
        "A",
        "s"
      ],
      [
        "A",
        "ward"
      ],
      [
        "C",
        "ali"
      ],
      [
        "K",
        "ing"
      ],
      [
        "O",
        "ka"
      ],
      [
        "W",
        "illi"
      ],
      [
        "c",
        "c"
      ],
      [
        "h",
        "as"
      ],
      [
        "n",
        "el"
      ],
      [
        "o",
        "p"
      ],
      [
        "u",
        "di"
      ],
      [
        "x",
        "ter"
      ],
      [
        "al",
        "ian"
      ],
      [
        "it",
        "ed"
      ],
      [
        "is",
        "e"
      ],
      [
        "00",
        "9"
      ],
      [
        "el",
        "ev"
      ],
      [
        "ch",
        "i"
      ],
      [
        "un",
        "n"
      ],
      [
        "for",
        "e"
      ],
      [
        "res",
        "s"
      ],
      [
        "Ch",
        "ile"
      ],
      [
        "per",
        "nel"
      ],
      [
        "Me",
        "et"
      ],
      [
        "sh",
        "ort"
      ],
      [
        "Cy",
        "borg"
      ],
      [
        "Pim",
        "pernel"
      ],
      [
        "Tok",
        "at"
      ],
      [
        "Wor",
        "ld"
      ],
      [
        "rece",
        "iv"
      ],
      [
        "Willi",
        "am"
      ],
      [
        "0",
        "5"
      ],
      [
        "1",
        "7"
      ],
      [
        "E",
        "ar"
      ],
      [
        "E",
        "ver"
      ],
      [
        "G",
        "ive"
      ],
      [
        "O",
        "ne"
      ],
      [
        "R",
        "os"
      ],
      [
        "S",
        "mi"
      ],
      [
        "V",
        "i"
      ],
      [
        "b",
        "ased"
      ],
      [
        "b",
        "les"
      ],
      [
        "c",
        "ial"
      ],
      [
        "d",
        "om"
      ],
      [
        "d",
        "own"
      ],
      [
        "e",
        "x"
      ],
      [
        "g",
        "el"
      ],
      [
        "m",
        "a"
      ],
      [
        "n",
        "ight"
      ],
      [
        "o",
        "b"
      ],
      [
        "o",
        "st"
      ],
      [
        "w",
        "e"
      ],
      [
        "w",
        "ere"
      ],
      [
        "y",
        "s"
      ],
      [
        "y",
        "am"
      ],
      [
        "er",
        "ies"
      ],
      [
        "in",
        "s"
      ],
      [
        "the",
        "ir"
      ],
      [
        "al",
        "y"
      ],
      [
        "ic",
        "a"
      ],
      [
        "un",
        "a"
      ],
      [
        "ation",
        "al"
      ],
      [
        "wh",
        "ere"
      ],
      [
        "Th",
        "ird"
      ],
      [
        "Da",
        "ily"
      ],
      [
        "Ro",
        "bert"
      ],
      [
        "enn",
        "a"
      ],
      [
        "En",
        "gl"
      ],
      [
        "wor",
        "k"
      ],
      [
        "Ba",
        "it"
      ],
      [
        "Pa",
        "ul"
      ],
      [
        "Japan",
        "ese"
      ],
      [
        "elev",
        "ision"
      ],
      [
        "receiv",
        "ed"
      ],
      [
        "Ear",
        "thquake"
      ],
      [
        "Smi",
        "th"
      ],
      [
        "Engl",
        "ish"
      ],
      [
        "A",
        "u"
      ],
      [
        "B",
        "rid"
      ],
      [
        "D",
        "ut"
      ],
      [
        "F",
        "ra"
      ],
      [
        "G",
        "i"
      ],
      [
        "G",
        "ator"
      ],
      [
        "M",
        "or"
      ],
      [
        "M",
        "at"
      ],
      [
        "O",
        "n"
      ],
      [
        "R",
        "am"
      ],
      [
        "R",
        "ev"
      ],
      [
        "b",
        "o"
      ],
      [
        "f",
        "irst"
      ],
      [
        "i",
        "ro"
      ],
      [
        "m",
        "on"
      ],
      [
        "r",
        "is"
      ],
      [
        "s",
        "pe"
      ],
      [
        "s",
        "ilent"
      ],
      [
        "t",
        "elevision"
      ],
      [
        "v",
        "es"
      ],
      [
        "w",
        "a"
      ],
      [
        "z",
        "es"
      ],
      [
        "er",
        "o"
      ],
      [
        "in",
        "o"
      ],
      [
        "in",
        "cl"
      ],
      [
        "ar",
        "act"
      ],
      [
        "or",
        "ies"
      ],
      [
        "at",
        "es"
      ],
      [
        "is",
        "eries"
      ],
      [
        "am",
        "ed"
      ],
      [
        "ion",
        "e"
      ],
      [
        "ou",
        "th"
      ],
      [
        "ri",
        "g"
      ],
      [
        "ch",
        "down"
      ],
      [
        "ch",
        "aract"
      ],
      [
        "ha",
        "d"
      ],
      [
        "22",
        "Pimpernel"
      ],
      [
        "19",
        "4"
      ],
      [
        "19",
        "8"
      ],
      [
        "19",
        "9"
      ],
      [
        "id",
        "y"
      ],
      [
        "id",
        "er"
      ],
      [
        "ig",
        "n"
      ],
      [
        "Th",
        "ere"
      ],
      [
        "Re",
        "ward"
      ],
      [
        "ict",
        "ion"
      ],
      [
        "pp",
        "e"
      ],
      [
        "De",
        "ath"
      ],
      [
        "Un",
        "ited"
      ],
      [
        "az",
        "ione"
      ],
      [
        "min",
        "iseries"
      ],
      [
        "pre",
        "mi"
      ],
      [
        "Sch",
        "ne"
      ],
      [
        "Tou",
        "chdown"
      ],
      [
        "King",
        "dom"
      ],
      [
        "Fra",
        "idy"
      ],
      [
        "B",
        "est"
      ],
      [
        "C",
        "on"
      ],
      [
        "E",
        "d"
      ],
      [
        "F",
        "irst"
      ],
      [
        "J",
        "im"
      ],
      [
        "L",
        "una"
      ],
      [
        "M",
        "c"
      ],
      [
        "M",
        "il"
      ],
      [
        "M",
        "ovie"
      ],
      [
        "P",
        "ro"
      ],
      [
        "P",
        "hil"
      ],
      [
        "S",
        "c"
      ],
      [
        "S",
        "un"
      ],
      [
        "V",
        "er"
      ],
      [
        "W",
        "i"
      ],
      [
        "b",
        "et"
      ],
      [
        "c",
        "a"
      ],
      [
        "c",
        "ast"
      ],
      [
        "f",
        "ol"
      ],
      [
        "i",
        "k"
      ],
      [
        "i",
        "ous"
      ],
      [
        "l",
        "ar"
      ],
      [
        "p",
        "ag"
      ],
      [
        "u",
        "al"
      ],
      [
        "v",
        "al"
      ],
      [
        "w",
        "den"
      ],
      [
        "y",
        "ear"
      ],
      [
        "z",
        "o"
      ],
      [
        "in",
        "a"
      ],
      [
        "an",
        "s"
      ],
      [
        "re",
        "e"
      ],
      [
        "en",
        "d"
      ],
      [
        "en",
        "ce"
      ],
      [
        "00",
        "2"
      ],
      [
        "ut",
        "ion"
      ],
      [
        "ent",
        "s"
      ],
      [
        "22",
        "Weird"
      ],
      [
        "19",
        "7"
      ],
      [
        "Mar",
        "bles"
      ],
      [
        "ne",
        "y"
      ],
      [
        "Se",
        "pt"
      ],
      [
        "200",
        "9"
      ],
      [
        "201",
        "4"
      ],
      [
        "ab",
        "le"
      ],
      [
        "Ra",
        "ise"
      ],
      [
        "Ra",
        "wden"
      ],
      [
        "vid",
        "eo"
      ],
      [
        "ai",
        "red"
      ],
      [
        "Be",
        "fore"
      ],
      [
        "Le",
        "e"
      ],
      [
        "Bo",
        "ys"
      ],
      [
        "Bla",
        "zes"
      ],
      [
        "Bl",
        "ue"
      ],
      [
        "Ha",
        "pp"
      ],
      [
        "77",
        "8"
      ],
      [
        "Jon",
        "oni"
      ],
      [
        "Par",
        "am"
      ],
      [
        "tern",
        "ational"
      ],
      [
        "Dut",
        "ch"
      ],
      [
        "incl",
        "ud"
      ],
      [
        "Schne",
        "ider"
      ],
      [
        "fol",
        "lo"
      ],
      [
        "Sept",
        "ember"
      ],
      [
        "3",
        "4"
      ],
      [
        "4",
        "9"
      ],
      [
        "A",
        "d"
      ],
      [
        "D",
        "ig"
      ],
      [
        "G",
        "ang"
      ],
      [
        "H",
        "our"
      ],
      [
        "L",
        "u"
      ],
      [
        "L",
        "ov"
      ],
      [
        "M",
        "ic"
      ],
      [
        "O",
        "t"
      ],
      [
        "O",
        "ther"
      ],
      [
        "O",
        "ff"
      ],
      [
        "O",
        "ls"
      ],
      [
        "R",
        "ich"
      ],
      [
        "S",
        "a"
      ],
      [
        "T",
        "is"
      ],
      [
        "T",
        "om"
      ],
      [
        "Y",
        "o"
      ],
      [
        "a",
        "j"
      ],
      [
        "e",
        "in"
      ],
      [
        "m",
        "y"
      ],
      [
        "m",
        "ovie"
      ],
      [
        "o",
        "o"
      ],
      [
        "o",
        "per"
      ],
      [
        "s",
        "it"
      ],
      [
        "t",
        "in"
      ],
      [
        "u",
        "b"
      ],
      [
        "w",
        "on"
      ],
      [
        "–",
        "'"
      ],
      [
        "er",
        "ed"
      ],
      [
        "an",
        "ce"
      ],
      [
        "or",
        "ig"
      ],
      [
        "en",
        "g"
      ],
      [
        "al",
        "d"
      ],
      [
        "at",
        "t"
      ],
      [
        "el",
        "y"
      ],
      [
        "ri",
        "st"
      ],
      [
        "em",
        "y"
      ],
      [
        "It",
        "alian"
      ],
      [
        "ak",
        "es"
      ],
      [
        "Com",
        "e"
      ],
      [
        "Mar",
        "k"
      ],
      [
        "Ch",
        "ar"
      ],
      [
        "Ch",
        "rist"
      ],
      [
        "ly",
        "n"
      ],
      [
        "ers",
        "on"
      ],
      [
        "Th",
        "us"
      ],
      [
        "oun",
        "d"
      ],
      [
        "ul",
        "t"
      ],
      [
        "ok",
        "lyn"
      ],
      [
        "Wh",
        "en"
      ],
      [
        "Har",
        "m"
      ],
      [
        "tit",
        "led"
      ],
      [
        "Bro",
        "oklyn"
      ],
      [
        "ug",
        "h"
      ],
      [
        "Oper",
        "azione"
      ],
      [
        "icial",
        "s"
      ],
      [
        "Cali",
        "bre"
      ],
      [
        "yam",
        "a"
      ],
      [
        "Brid",
        "ge"
      ],
      [
        "Happ",
        "ens"
      ],
      [
        "Hour",
        "s"
      ],
      [
        "Lov",
        "e"
      ],
      [
        "Ot",
        "to"
      ],
      [
        "Off",
        "icials"
      ],
      [
        "Ols",
        "en"
      ],
      [
        "orig",
        "inal"
      ],
      [
        "9",
        "9"
      ],
      [
        ":",
        "-"
      ],
      [
        "A",
        "ri"
      ],
      [
        "B",
        "ut"
      ],
      [
        "D",
        "an"
      ],
      [
        "H",
        "ow"
      ],
      [
        "I",
        "I"
      ],
      [
        "I",
        "s"
      ],
      [
        "P",
        "ity"
      ],
      [
        "S",
        "outh"
      ],
      [
        "X",
        "mas"
      ],
      [
        "c",
        "es"
      ],
      [
        "d",
        "er"
      ],
      [
        "e",
        "k"
      ],
      [
        "e",
        "p"
      ],
      [
        "h",
        "ist"
      ],
      [
        "i",
        "f"
      ],
      [
        "k",
        "m"
      ],
      [
        "m",
        "ad"
      ],
      [
        "r",
        "or"
      ],
      [
        "s",
        "y"
      ],
      [
        "s",
        "et"
      ],
      [
        "u",
        "f"
      ],
      [
        "v",
        "ie"
      ],
      [
        "z",
        "a"
      ],
      [
        "z",
        "i"
      ],
      [
        "or",
        "i"
      ],
      [
        "it",
        "al"
      ],
      [
        "as",
        "e"
      ],
      [
        "00",
        "8"
      ],
      [
        "ro",
        "man"
      ],
      [
        "am",
        "es"
      ],
      [
        "el",
        "e"
      ],
      [
        "el",
        "o"
      ],
      [
        "us",
        "e"
      ],
      [
        "19",
        "5"
      ],
      [
        "ak",
        "ing"
      ],
      [
        "act",
        "ion"
      ],
      [
        "St",
        "ories"
      ],
      [
        "St",
        "ates"
      ],
      [
        "200",
        "4"
      ],
      [
        "de",
        "p"
      ],
      [
        "oc",
        "aly"
      ],
      [
        "De",
        "ad"
      ],
      [
        "Ar",
        "t"
      ],
      [
        "Wh",
        "ore"
      ],
      [
        "Cor",
        "p"
      ],
      [
        "af",
        "ter"
      ],
      [
        "Vi",
        "enna"
      ],
      [
        "we",
        "en"
      ],
      [
        "charact",
        "er"
      ],
      [
        "Wi",
        "fe"
      ],
      [
        "bet",
        "ween"
      ],
      [
        "Param",
        "ount"
      ],
      [
        "Rich",
        "ard"
      ],
      [
        "mad",
        "e"
      ],
      [
        ":",
        "&"
      ],
      [
        "A",
        "ust"
      ],
      [
        "A",
        "val"
      ],
      [
        "B",
        "rit"
      ],
      [
        "B",
        "ever"
      ],
      [
        "C",
        "la"
      ],
      [
        "D",
        "el"
      ],
      [
        "E",
        "l"
      ],
      [
        "F",
        "e"
      ],
      [
        "G",
        "ol"
      ],
      [
        "I",
        "chi"
      ],
      [
        "L",
        "a"
      ],
      [
        "L",
        "eo"
      ],
      [
        "M",
        "er"
      ],
      [
        "M",
        "on"
      ],
      [
        "M",
        "ad"
      ],
      [
        "R",
        "ay"
      ],
      [
        "R",
        "og"
      ],
      [
        "S",
        "pan"
      ],
      [
        "b",
        "ast"
      ],
      [
        "c",
        "ember"
      ],
      [
        "d",
        "on"
      ],
      [
        "h",
        "er"
      ],
      [
        "i",
        "et"
      ],
      [
        "i",
        "ka"
      ],
      [
        "k",
        "n"
      ],
      [
        "l",
        "in"
      ],
      [
        "l",
        "and"
      ],
      [
        "n",
        "ur"
      ],
      [
        "n",
        "ot"
      ],
      [
        "p",
        "se"
      ],
      [
        "r",
        "al"
      ],
      [
        "t",
        "ing"
      ],
      [
        "t",
        "ra"
      ],
      [
        "t",
        "ime"
      ],
      [
        "t",
        "wo"
      ],
      [
        "er",
        "g"
      ],
      [
        "re",
        "g"
      ],
      [
        "re",
        "ated"
      ],
      [
        "en",
        "zo"
      ],
      [
        "as",
        "on"
      ],
      [
        "ic",
        "s"
      ],
      [
        "am",
        "il"
      ],
      [
        "om",
        "en"
      ],
      [
        "os",
        "h"
      ],
      [
        "ra",
        "y"
      ],
      [
        "un",
        "g"
      ],
      [
        "lo",
        "y"
      ],
      [
        "id",
        "e"
      ],
      [
        "An",
        "gel"
      ],
      [
        "act",
        "ress"
      ],
      [
        "St",
        "eph"
      ],
      [
        "Se",
        "bast"
      ],
      [
        "um",
        "ar"
      ],
      [
        "Film",
        "s"
      ],
      [
        "201",
        "1"
      ],
      [
        "In",
        "ternational"
      ],
      [
        "We",
        "ek"
      ],
      [
        "sh",
        "ip"
      ],
      [
        "De",
        "cember"
      ],
      [
        "Ap",
        "ocaly"
      ],
      [
        "Was",
        "n"
      ],
      [
        "Je",
        "ff"
      ],
      [
        "Mo",
        "ther"
      ],
      [
        "cam",
        "pag"
      ],
      [
        "193",
        "5"
      ],
      [
        "feat",
        "ures"
      ],
      [
        "West",
        "ern"
      ],
      [
        "udi",
        "o"
      ],
      [
        "Au",
        "stri"
      ],
      [
        "Rev",
        "ol"
      ],
      [
        "spe",
        "cial"
      ],
      [
        "rig",
        "ht"
      ],
      [
        "Brit",
        "ish"
      ],
      [
        "Bever",
        "ly"
      ],
      [
        "Span",
        "ish"
      ],
      [
        "kn",
        "own"
      ],
      [
        "Sebast",
        "ian"
      ],
      [
        "Apocaly",
        "pse"
      ],
      [
        "campag",
        "ne"
      ],
      [
        "0",
        "1"
      ],
      [
        "3",
        "8"
      ],
      [
        "A",
        "c"
      ],
      [
        "A",
        "f"
      ],
      [
        "A",
        "ge"
      ],
      [
        "B",
        "en"
      ],
      [
        "B",
        "ert"
      ],
      [
        "B",
        "unn"
      ],
      [
        "D",
        "ol"
      ],
      [
        "E",
        "xter"
      ],
      [
        "F",
        "ord"
      ],
      [
        "K",
        "a"
      ],
      [
        "K",
        "om"
      ],
      [
        "M",
        "an"
      ],
      [
        "M",
        "al"
      ],
      [
        "M",
        "as"
      ],
      [
        "N",
        "i"
      ],
      [
        "O",
        "p"
      ],
      [
        "O",
        "ct"
      ],
      [
        "R",
        "om"
      ],
      [
        "S",
        "ilent"
      ],
      [
        "T",
        "er"
      ],
      [
        "W",
        "ang"
      ],
      [
        "W",
        "omen"
      ],
      [
        "W",
        "right"
      ],
      [
        "a",
        "ir"
      ],
      [
        "b",
        "in"
      ],
      [
        "e",
        "u"
      ],
      [
        "f",
        "t"
      ],
      [
        "f",
        "oc"
      ],
      [
        "f",
        "our"
      ],
      [
        "f",
        "iction"
      ],
      [
        "g",
        "h"
      ],
      [
        "g",
        "en"
      ],
      [
        "h",
        "and"
      ],
      [
        "h",
        "am"
      ],
      [
        "h",
        "im"
      ],
      [
        "i",
        "re"
      ],
      [
        "k",
        "i"
      ],
      [
        "l",
        "t"
      ],
      [
        "l",
        "it"
      ],
      [
        "l",
        "os"
      ],
      [
        "l",
        "ation"
      ],
      [
        "m",
        "ost"
      ],
      [
        "n",
        "om"
      ],
      [
        "o",
        "ber"
      ],
      [
        "o",
        "ot"
      ],
      [
        "o",
        "ther"
      ],
      [
        "p",
        "le"
      ],
      [
        "r",
        "as"
      ],
      [
        "r",
        "un"
      ],
      [
        "t",
        "ic"
      ],
      [
        "v",
        "ed"
      ],
      [
        "v",
        "ol"
      ],
      [
        "v",
        "ers"
      ],
      [
        "w",
        "ell"
      ],
      [
        "y",
        "o"
      ],
      [
        "ó",
        "n"
      ],
      [
        "ö",
        "di"
      ],
      [
        "in",
        "n"
      ],
      [
        "in",
        "ter"
      ],
      [
        "th",
        "a"
      ],
      [
        "th",
        "ro"
      ],
      [
        "th",
        "ril"
      ],
      [
        "re",
        "f"
      ],
      [
        "re",
        "m"
      ],
      [
        "re",
        "t"
      ],
      [
        "ing",
        "s"
      ],
      [
        "film",
        "s"
      ],
      [
        "is",
        "m"
      ],
      [
        "ro",
        "s"
      ],
      [
        "ro",
        "ft"
      ],
      [
        "he",
        "l"
      ],
      [
        "ol",
        "f"
      ],
      [
        "ha",
        "el"
      ],
      [
        "for",
        "m"
      ],
      [
        "iv",
        "ers"
      ],
      [
        "ur",
        "al"
      ],
      [
        "ad",
        "emy"
      ],
      [
        "ot",
        "t"
      ],
      [
        "Th",
        "om"
      ],
      [
        "200",
        "6"
      ],
      [
        "rele",
        "ase"
      ],
      [
        "fe",
        "eu"
      ],
      [
        "In",
        "dian"
      ],
      [
        "30",
        "3"
      ],
      [
        "Un",
        "titled"
      ],
      [
        "son",
        "g"
      ],
      [
        "Cor",
        "ona"
      ],
      [
        "min",
        "ate"
      ],
      [
        "ction",
        "s"
      ],
      [
        "Oper",
        "ation"
      ],
      [
        "je",
        "ct"
      ],
      [
        "Col",
        "le"
      ],
      [
        "Sha",
        "feeu"
      ],
      [
        "premi",
        "ere"
      ],
      [
        "Pro",
        "du"
      ],
      [
        "year",
        "s"
      ],
      [
        "Dig",
        "ital"
      ],
      [
        "Mic",
        "hael"
      ],
      [
        "Christ",
        "mas"
      ],
      [
        "Revol",
        "ution"
      ],
      [
        "Ac",
        "ademy"
      ],
      [
        "Bunn",
        "y"
      ],
      [
        "Exter",
        "minate"
      ],
      [
        "Kom",
        "ödi"
      ],
      [
        "Oct",
        "ober"
      ],
      [
        "Rom",
        "ance"
      ],
      [
        "foc",
        "us"
      ],
      [
        "thril",
        "ler"
      ],
      [
        "Komödi",
        "ant"
      ],
      [
        "\"",
        "."
      ],
      [
        "6",
        "8"
      ],
      [
        "7",
        "6"
      ],
      [
        "A",
        "le"
      ],
      [
        "A",
        "ppe"
      ],
      [
        "B",
        "ar"
      ],
      [
        "B",
        "el"
      ],
      [
        "B",
        "lo"
      ],
      [
        "B",
        "ur"
      ],
      [
        "C",
        "all"
      ],
      [
        "C",
        "ana"
      ],
      [
        "C",
        "aj"
      ],
[...]
