{
  "version": "1.0",
  "truncation": null,
  "padding": null,
  "added_tokens": [
    {
      "id": 0,
      "content": "<UNK>",
      "single_word": false,
      "lstrip": false,
      "rstrip": false,
      "normalized": false,
      "special": true
    },
    {
      "id": 1,
      "content": "<PAD>",
      "single_word": false,
      "lstrip": false,
      "rstrip": false,
      "normalized": false,
      "special": true
    },
    {
      "id": 2,
      "content": "<MASK>",
      "single_word": false,
      "lstrip": false,
      "rstrip": false,
      "normalized": false,
      "special": true
    },
    {
      "id": 3,
      "content": "<SOT>",
      "single_word": false,
      "lstrip": false,
      "rstrip": false,
      "normalized": false,
      "special": true
    },
    {
      "id": 4,
      "content": "<EOT>",
      "single_word": false,
      "lstrip": false,
      "rstrip": false,
      "normalized": false,
      "special": true
    },
    {
      "id": 5,
      "content": "<SUBJ>",
      "single_word": false,
      "lstrip": false,
      "rstrip": false,
      "normalized": false,
      "special": true
    },
    {
      "id": 6,
      "content": "<PRED>",
      "single_word": false,
      "lstrip": false,
      "rstrip": false,
      "normalized": false,
      "special": true
    },
    {
      "id": 7,
      "content": "<OBJ>",
      "single_word": false,
      "lstrip": false,
      "rstrip": false,
      "normalized": false,
      "special": true
    },
    {
      "id": 8,
      "content": "<Text2RDF>",
      "single_word": false,
      "lstrip": false,
      "rstrip": false,
      "normalized": false,
      "special": true
    },
    {
      "id": 9,
      "content": "<RDF2Text>",
      "single_word": false,
      "lstrip": false,
      "rstrip": false,
      "normalized": false,
      "special": true
    },
    {
      "id": 10,
      "content": "<CONTINUERDF>",
      "single_word": false,
      "lstrip": false,
      "rstrip": false,
      "normalized": false,
      "special": true
    }
  ],
  "normalizer": null,
  "pre_tokenizer": {
    "type": "Sequence",
    "pretokenizers": [
      {
        "type": "Split",
        "pattern": {
          "String": "_"
        },
        "behavior": "Removed",
        "invert": false
      },
      {
        "type": "Whitespace"
      }
    ]
  },
  "post_processor": null,
  "decoder": null,
  "model": {
    "type": "BPE",
    "dropout": null,
    "unk_token": "<UNK>",
    "continuing_subword_prefix": null,
    "end_of_word_suffix": null,
    "fuse_unk": false,
    "byte_fallback": false,
    "ignore_merges": false,
    "vocab": {
      "<UNK>": 0,
      "<PAD>": 1,
      "<MASK>": 2,
      "<SOT>": 3,
      "<EOT>": 4,
      "<SUBJ>": 5,
      "<PRED>": 6,
      "<OBJ>": 7,
      "<Text2RDF>": 8,
      "<RDF2Text>": 9,
      "<CONTINUERDF>": 10,
      "!": 11,
      "\"": 12,
      "#": 13,
      "$": 14,
      "%": 15,
      "&": 16,
      "'": 17,
      "(": 18,
      ")": 19,
      "*": 20,
      "+": 21,
      ",": 22,
      "-": 23,
      ".": 24,
      "/": 25,
      "0": 26,
      "1": 27,
      "2": 28,
      "3": 29,
      "4": 30,
      "5": 31,
      "6": 32,
      "7": 33,
      "8": 34,
      "9": 35,
      ":": 36,
      ";": 37,
      "<": 38,
      "=": 39,
      ">": 40,
      "?": 41,
      "@": 42,
      "A": 43,
      "B": 44,
      "C": 45,
      "D": 46,
      "E": 47,
      "F": 48,
      "G": 49,
      "H": 50,
      "I": 51,
      "J": 52,
      "K": 53,
      "L": 54,
      "M": 55,
      "N": 56,
      "O": 57,
      "P": 58,
      "Q": 59,
      "R": 60,
      "S": 61,
      "T": 62,
      "U": 63,
      "V": 64,
      "W": 65,
      "X": 66,
      "Y": 67,
      "Z": 68,
      "[": 69,
      "]": 70,
      "`": 71,
      "a": 72,
      "b": 73,
      "c": 74,
      "d": 75,
      "e": 76,
      "f": 77,
      "g": 78,
      "h": 79,
      "i": 80,
      "j": 81,
      "k": 82,
      "l": 83,
      "m": 84,
      "n": 85,
      "o": 86,
      "p": 87,
      "q": 88,
      "r": 89,
      "s": 90,
      "t": 91,
      "u": 92,
      "v": 93,
      "w": 94,
      "x": 95,
      "y": 96,
      "z": 97,
      "{": 98,
      "|": 99,
      "}": 100,
      "~": 101,
      "¡": 102,
      "£": 103,
      "¥": 104,
      "°": 105,
      "·": 106,
      "½": 107,
      "¿": 108,
      "À": 109,
      "Á": 110,
      "Å": 111,
      "Ç": 112,
      "È": 113,
      "É": 114,
      "Í": 115,
      "Î": 116,
      "Ó": 117,
      "Ö": 118,
      "Ø": 119,
      "Ü": 120,
      "Þ": 121,
      "ß": 122,
      "à": 123,
      "á": 124,
      "â": 125,
      "ã": 126,
      "ä": 127,
      "å": 128,
      "æ": 129,
      "ç": 130,
      "è": 131,
      "é": 132,
      "ê": 133,
      "ë": 134,
      "ì": 135,
      "í": 136,
      "î": 137,
      "ï": 138,
      "ð": 139,
      "ñ": 140,
      "ò": 141,
      "ó": 142,
      "ô": 143,
      "õ": 144,
      "ö": 145,
      "ø": 146,
      "ù": 147,
      "ú": 148,
      "û": 149,
      "ü": 150,
      "ý": 151,
      "ÿ": 152,
      "ā": 153,
      "ă": 154,
      "ą": 155,
      "ć": 156,
      "Č": 157,
      "č": 158,
      "Đ": 159,
      "đ": 160,
      "Ē": 161,
      "ē": 162,
      "ė": 163,
      "ę": 164,
      "ě": 165,
      "ğ": 166,
      "ģ": 167,
      "ĩ": 168,
      "ī": 169,
      "İ": 170,
      "ı": 171,
      "ĺ": 172,
      "Ľ": 173,
      "Ł": 174,
      "ł": 175,
      "ń": 176,
      "ņ": 177,
      "ň": 178,
      "Ō": 179,
      "ō": 180,
      "ŏ": 181,
      "ő": 182,
      "Œ": 183,
      "œ": 184,
      "ř": 185,
      "Ś": 186,
      "ś": 187,
      "ş": 188,
      "Š": 189,
      "š": 190,
      "ũ": 191,
      "ū": 192,
      "ů": 193,
      "ű": 194,
      "ź": 195,
      "Ż": 196,
      "ż": 197,
      "Ž": 198,
      "ž": 199,
      "ơ": 200,
      "ư": 201,
      "ǎ": 202,
      "ǐ": 203,
      "ǒ": 204,
      "ǔ": 205,
      "Ș": 206,
      "ș": 207,
      "ț": 208,
      "ɐ": 209,
      "ɔ": 210,
      "ə": 211,
      "ɛ": 212,
      "ɪ": 213,
      "ɻ": 214,
      "ʃ": 215,
      "ʋ": 216,
      "ʎ": 217,
      "ʏ": 218,
      "ʻ": 219,
      "ʽ": 220,
      "ʿ": 221,
      "ˀ": 222,
      "ˁ": 223,
      "ˈ": 224,
      "ː": 225,
      "́": 226,
      "̩": 227,
      "̯": 228,
      "Έ": 229,
      "Γ": 230,
      "Ε": 231,
      "Η": 232,
      "Θ": 233,
      "Κ": 234,
      "Μ": 235,
      "Π": 236,
      "Τ": 237,
      "Υ": 238,
      "ά": 239,
      "έ": 240,
      "ή": 241,
      "ί": 242,
      "α": 243,
      "γ": 244,
      "δ": 245,
      "ε": 246,
      "ζ": 247,
      "η": 248,
      "ι": 249,
      "κ": 250,
      "λ": 251,
      "μ": 252,
      "ν": 253,
      "ξ": 254,
      "ο": 255,
      "π": 256,
      "ρ": 257,
      "ς": 258,
      "σ": 259,
      "τ": 260,
      "υ": 261,
      "φ": 262,
      "χ": 263,
      "ψ": 264,
      "ω": 265,
      "ό": 266,
      "ύ": 267,
      "ώ": 268,
      "А": 269,
      "Б": 270,
      "В": 271,
      "Г": 272,
      "Д": 273,
      "Е": 274,
      "Ж": 275,
      "З": 276,
      "И": 277,
      "К": 278,
      "Л": 279,
      "М": 280,
      "Н": 281,
      "О": 282,
      "П": 283,
      "Р": 284,
      "С": 285,
      "Т": 286,
      "У": 287,
      "Ф": 288,
      "Ч": 289,
      "Ш": 290,
      "Щ": 291,
      "а": 292,
      "б": 293,
      "в": 294,
      "г": 295,
      "д": 296,
      "е": 297,
      "ж": 298,
      "з": 299,
      "и": 300,
      "й": 301,
      "к": 302,
      "л": 303,
      "м": 304,
      "н": 305,
      "о": 306,
      "п": 307,
      "р": 308,
      "с": 309,
      "т": 310,
      "у": 311,
      "ф": 312,
      "х": 313,
      "ц": 314,
      "ч": 315,
      "ш": 316,
      "щ": 317,
      "ъ": 318,
      "ы": 319,
      "ь": 320,
      "э": 321,
      "ю": 322,
      "я": 323,
      "ё": 324,
      "і": 325,
      "ї": 326,
      "Կ": 327,
      "ե": 328,
      "ը": 329,
      "ի": 330,
      "կ": 331,
      "մ": 332,
      "ն": 333,
      "ո": 334,
      "տ": 335,
      "ր": 336,
      "ք": 337,
      "א": 338,
      "ב": 339,
      "ג": 340,
      "ד": 341,
      "ה": 342,
      "ו": 343,
      "ז": 344,
      "ח": 345,
      "ט": 346,
      "י": 347,
      "ך": 348,
      "כ": 349,
      "ל": 350,
      "ם": 351,
      "מ": 352,
      "ן": 353,
      "נ": 354,
      "ס": 355,
      "ע": 356,
      "ף": 357,
      "פ": 358,
      "צ": 359,
      "ק": 360,
      "ר": 361,
      "ש": 362,
      "ת": 363,
      "ء": 364,
      "آ": 365,
      "ؤ": 366,
      "إ": 367,
      "ئ": 368,
      "ا": 369,
      "ب": 370,
      "ة": 371,
      "ت": 372,
      "ث": 373,
      "ج": 374,
      "ح": 375,
      "خ": 376,
      "د": 377,
      "ر": 378,
      "ز": 379,
      "س": 380,
      "ش": 381,
      "ص": 382,
      "ض": 383,
      "ط": 384,
      "ع": 385,
      "غ": 386,
      "ف": 387,
      "ق": 388,
      "ك": 389,
      "ل": 390,
      "م": 391,
      "ن": 392,
      "ه": 393,
      "و": 394,
      "ى": 395,
      "ي": 396,
      "ِ": 397,
      "١": 398,
      "٨": 399,
      "چ": 400,
      "ڑ": 401,
      "ژ": 402,
      "ک": 403,
      "گ": 404,
      "ں": 405,
      "ہ": 406,
      "ی": 407,
      "۲": 408,
      "۳": 409,
      "۴": 410,
      "۵": 411,
      "ं": 412,
      "अ": 413,
      "ई": 414,
      "ए": 415,
      "ऑ": 416,
      "क": 417,
      "ग": 418,
      "घ": 419,
      "ज": 420,
      "ट": 421,
      "ड": 422,
      "द": 423,
      "ध": 424,
      "न": 425,
      "प": 426,
      "फ": 427,
      "ब": 428,
      "म": 429,
      "य": 430,
      "र": 431,
      "ल": 432,
      "स": 433,
      "ह": 434,
      "ा": 435,
      "ि": 436,
      "ी": 437,
      "ु": 438,
      "े": 439,
      "ॉ": 440,
      "ो": 441,
      "्": 442,
      "२": 443,
      "३": 444,
      "४": 445,
      "५": 446,
      "६": 447,
      "ট": 448,
      "দ": 449,
      "শ": 450,
      "া": 451,
      "ં": 452,
      "ટ": 453,
      "ન": 454,
      "ફ": 455,
      "મ": 456,
      "િ": 457,
      "ુ": 458,
      "૧": 459,
      "૨": 460,
      "ఎ": 461,
      "గ": 462,
      "ప": 463,
      "ఫ": 464,
      "మ": 465,
      "య": 466,
      "ర": 467,
      "ల": 468,
      "వ": 469,
      "శ": 470,
      "ా": 471,
      "ి": 472,
      "ో": 473,
      "్": 474,
      "ಂ": 475,
      "ಕ": 476,
      "ದ": 477,
      "ನ": 478,
      "ರ": 479,
      "ಸ": 480,
      "ಾ": 481,
      "ಿ": 482,
      "ೇ": 483,
      "್": 484,
      "೧": 485,
      "೨": 486,
      "೮": 487,
      "೯": 488,
      "ම": 489,
      "ය": 490,
      "්": 491,
      "ා": 492,
      "ก": 493,
      "ค": 494,
      "ฆ": 495,
      "ง": 496,
      "จ": 497,
      "ช": 498,
      "ด": 499,
      "ต": 500,
      "น": 501,
      "บ": 502,
      "ฝ": 503,
      "พ": 504,
      "ฟ": 505,
      "ม": 506,
      "ย": 507,
      "ร": 508,
      "ล": 509,
      "ว": 510,
      "ส": 511,
      "ห": 512,
      "อ": 513,
      "ะ": 514,
      "ั": 515,
      "า": 516,
      "ิ": 517,
      "ี": 518,
      "ุ": 519,
      "ู": 520,
      "เ": 521,
      "แ": 522,
      "โ": 523,
      "ใ": 524,
      "ไ": 525,
      "่": 526,
      "้": 527,
      "์": 528,
      "က": 529,
      "ခ": 530,
      "င": 531,
      "စ": 532,
      "ဆ": 533,
      "ဇ": 534,
      "ည": 535,
      "တ": 536,
      "ထ": 537,
      "န": 538,
      "ပ": 539,
      "ဖ": 540,
      "ဗ": 541,
      "ဘ": 542,
      "မ": 543,
      "ယ": 544,
      "ရ": 545,
      "လ": 546,
      "သ": 547,
      "အ": 548,
      "ါ": 549,
      "ာ": 550,
      "ိ": 551,
      "ီ": 552,
      "ု": 553,
      "ူ": 554,
      "ေ": 555,
      "ဲ": 556,
      "ံ": 557,
      "့": 558,
      "း": 559,
      "္": 560,
      "်": 561,
      "ျ": 562,
      "ြ": 563,
      "ွ": 564,
      "ှ": 565,
      "၀": 566,
      "၁": 567,
      "၂": 568,
      "၃": 569,
      "၄": 570,
      "၉": 571,
      "၊": 572,
      "၍": 573,
      "ა": 574,
      "ბ": 575,
      "გ": 576,
      "დ": 577,
      "ე": 578,
      "ვ": 579,
      "თ": 580,
      "ი": 581,
      "კ": 582,
      "ლ": 583,
      "მ": 584,
      "ნ": 585,
      "ო": 586,
      "პ": 587,
      "რ": 588,
      "ს": 589,
      "ტ": 590,
      "უ": 591,
      "ფ": 592,
      "ყ": 593,
      "შ": 594,
      "ჩ": 595,
      "ც": 596,
      "ላ": 597,
      "መ": 598,
      "በ": 599,
      "ታ": 600,
      "ት": 601,
      "ኋ": 602,
      "ዓ": 603,
      "፭": 604,
      "፻": 605,
      "ḍ": 606,
      "Ḥ": 607,
      "ḥ": 608,
      "ṣ": 609,
      "ṭ": 610,
      "ạ": 611,
      "ẻ": 612,
      "ế": 613,
      "ễ": 614,
      "ớ": 615,
      "ủ": 616,
      "‌": 617,
      "–": 618,
      "—": 619,
      "‘": 620,
      "’": 621,
      "“": 622,
      "”": 623,
      "„": 624,
      "…": 625,
      "′": 626,
      "⁄": 627,
      "€": 628,
      "₱": 629,
      "₹": 630,
      "↑": 631,
      "√": 632,
      "、": 633,
      "。": 634,
      "〇": 635,
      "〜": 636,
      "あ": 637,
      "い": 638,
      "う": 639,
      "え": 640,
      "お": 641,
      "か": 642,
      "が": 643,
      "き": 644,
      "く": 645,
      "げ": 646,
      "こ": 647,
      "さ": 648,
      "し": 649,
      "じ": 650,
      "す": 651,
      "ず": 652,
      "た": 653,
      "だ": 654,
      "ち": 655,
      "っ": 656,
      "で": 657,
      "と": 658,
      "な": 659,
      "に": 660,
      "の": 661,
      "は": 662,
      "ば": 663,
      "び": 664,
      "ぶ": 665,
      "ぷ": 666,
      "へ": 667,
      "ま": 668,
      "も": 669,
      "ゃ": 670,
      "や": 671,
      "ょ": 672,
      "よ": 673,
      "り": 674,
      "る": 675,
      "れ": 676,
      "わ": 677,
      "を": 678,
      "ん": 679,
      "ァ": 680,
      "ア": 681,
      "ィ": 682,
      "イ": 683,
      "ウ": 684,
      "ェ": 685,
      "エ": 686,
      "オ": 687,
      "カ": 688,
      "キ": 689,
      "ギ": 690,
      "ク": 691,
      "グ": 692,
      "コ": 693,
      "サ": 694,
      "シ": 695,
      "ジ": 696,
      "ス": 697,
      "ズ": 698,
      "セ": 699,
      "ソ": 700,
      "タ": 701,
      "チ": 702,
      "ッ": 703,
      "テ": 704,
      "デ": 705,
      "ト": 706,
      "ド": 707,
      "ナ": 708,
      "ノ": 709,
      "ハ": 710,
      "パ": 711,
      "ピ": 712,
      "フ": 713,
      "ブ": 714,
      "プ": 715,
      "ホ": 716,
      "ポ": 717,
      "マ": 718,
      "ミ": 719,
      "ム": 720,
      "ャ": 721,
      "ュ": 722,
      "ヨ": 723,
      "ラ": 724,
      "リ": 725,
      "ル": 726,
      "レ": 727,
      "ロ": 728,
      "ン": 729,
      "ヴ": 730,
      "・": 731,
      "ー": 732,
      "一": 733,
      "七": 734,
      "万": 735,
      "三": 736,
      "上": 737,
      "下": 738,
      "不": 739,
      "世": 740,
      "个": 741,
      "中": 742,
      "主": 743,
      "之": 744,
      "九": 745,
      "也": 746,
      "乱": 747,
      "乳": 748,
      "二": 749,
      "五": 750,
      "亜": 751,
      "交": 752,
      "亥": 753,
      "人": 754,
      "今": 755,
      "他": 756,
      "代": 757,
      "件": 758,
      "你": 759,
      "來": 760,
      "係": 761,
      "俠": 762,
      "信": 763,
      "俺": 764,
      "個": 765,
      "候": 766,
      "倩": 767,
      "假": 768,
      "偽": 769,
      "僕": 770,
      "優": 771,
      "元": 772,
      "兇": 773,
      "光": 774,
      "入": 775,
      "全": 776,
      "八": 777,
      "公": 778,
      "六": 779,
      "兵": 780,
      "円": 781,
      "再": 782,
      "冒": 783,
      "冬": 784,
      "分": 785,
      "別": 786,
      "刺": 787,
      "剪": 788,
      "劇": 789,
      "功": 790,
      "勺": 791,
      "医": 792,
      "十": 793,
      "千": 794,
      "午": 795,
      "单": 796,
      "南": 797,
      "占": 798,
      "去": 799,
      "台": 800,
      "合": 801,
      "名": 802,
      "向": 803,
      "呂": 804,
      "告": 805,
      "呼": 806,
      "命": 807,
      "哀": 808,
      "唐": 809,
      "單": 810,
      "器": 811,
      "囃": 812,
      "四": 813,
      "回": 814,
      "園": 815,
      "土": 816,
      "在": 817,
      "地": 818,
      "坂": 819,
      "城": 820,
      "場": 821,
      "士": 822,
      "壯": 823,
      "声": 824,
      "夏": 825,
      "夕": 826,
      "多": 827,
      "夜": 828,
      "夢": 829,
      "大": 830,
      "天": 831,
      "太": 832,
      "夫": 833,
      "奇": 834,
      "奥": 835,
      "女": 836,
      "她": 837,
      "好": 838,
      "妈": 839,
      "妖": 840,
      "妹": 841,
      "妻": 842,
      "姉": 843,
      "姐": 844,
      "嫁": 845,
      "子": 846,
      "孤": 847,
      "学": 848,
      "孩": 849,
      "完": 850,
      "定": 851,
      "宝": 852,
      "客": 853,
      "宮": 854,
      "家": 855,
      "寒": 856,
      "射": 857,
      "對": 858,
      "小": 859,
      "少": 860,
      "屋": 861,
      "屏": 862,
      "山": 863,
      "岁": 864,
      "島": 865,
      "工": 866,
      "巨": 867,
      "市": 868,
      "希": 869,
      "帖": 870,
      "帝": 871,
      "師": 872,
      "常": 873,
      "年": 874,
      "幻": 875,
      "幼": 876,
      "幽": 877,
      "庁": 878,
      "庄": 879,
      "底": 880,
      "座": 881,
      "庭": 882,
      "康": 883,
      "形": 884,
      "後": 885,
      "復": 886,
      "微": 887,
      "心": 888,
      "忘": 889,
      "忠": 890,
      "怒": 891,
      "怪": 892,
      "恋": 893,
      "恨": 894,
      "息": 895,
      "悲": 896,
      "悼": 897,
      "情": 898,
      "惊": 899,
      "想": 900,
      "愁": 901,
      "愛": 902,
      "慶": 903,
      "應": 904,
      "成": 905,
      "我": 906,
      "戲": 907,
      "房": 908,
      "手": 909,
      "才": 910,
      "拍": 911,
      "拠": 912,
      "拳": 913,
      "摘": 914,
      "放": 915,
      "效": 916,
      "散": 917,
      "新": 918,
      "施": 919,
      "旅": 920,
      "无": 921,
      "日": 922,
      "早": 923,
      "易": 924,
      "星": 925,
      "春": 926,
      "是": 927,
      "時": 928,
      "晚": 929,
      "普": 930,
      "暫": 931,
      "書": 932,
      "會": 933,
      "月": 934,
      "有": 935,
      "望": 936,
      "期": 937,
      "木": 938,
      "本": 939,
      "朵": 940,
      "束": 941,
      "東": 942,
      "林": 943,
      "枪": 944,
      "校": 945,
      "桃": 946,
      "案": 947,
      "梅": 948,
      "條": 949,
      "梦": 950,
      "棒": 951,
      "森": 952,
      "楊": 953,
      "楼": 954,
      "榜": 955,
      "槍": 956,
      "樂": 957,
      "樓": 958,
      "樹": 959,
      "次": 960,
      "歌": 961,
      "歡": 962,
      "武": 963,
      "歩": 964,
      "歲": 965,
      "死": 966,
      "殺": 967,
      "母": 968,
      "気": 969,
      "水": 970,
      "決": 971,
      "泣": 972,
      "注": 973,
      "泰": 974,
      "活": 975,
      "流": 976,
      "浪": 977,
      "浮": 978,
      "海": 979,
      "消": 980,
      "涙": 981,
      "清": 982,
      "湘": 983,
      "演": 984,
      "漢": 985,
      "潭": 986,
      "潮": 987,
      "烟": 988,
      "照": 989,
      "熟": 990,
      "熱": 991,
      "爱": 992,
      "父": 993,
      "版": 994,
      "牌": 995,
      "牝": 996,
      "物": 997,
      "特": 998,
      "犬": 999,
      "状": 1000,
      "犹": 1001,
      "狂": 1002,
      "狗": 1003,
      "猛": 1004,
      "猫": 1005,
      "献": 1006,
      "獄": 1007,
      "獨": 1008,
      "玩": 1009,
      "球": 1010,
      "生": 1011,
      "田": 1012,
      "由": 1013,
      "男": 1014,
      "画": 1015,
      "界": 1016,
      "略": 1017,
      "番": 1018,
      "當": 1019,
      "疯": 1020,
      "痴": 1021,
      "瘋": 1022,
      "癲": 1023,
      "発": 1024,
      "白": 1025,
      "百": 1026,
      "的": 1027,
      "目": 1028,
      "盲": 1029,
      "相": 1030,
      "真": 1031,
      "短": 1032,
      "祇": 1033,
      "禁": 1034,
      "福": 1035,
      "私": 1036,
      "秘": 1037,
      "租": 1038,
      "称": 1039,
      "穴": 1040,
      "立": 1041,
      "篇": 1042,
      "精": 1043,
      "紀": 1044,
      "約": 1045,
      "紅": 1046,
      "紙": 1047,
      "終": 1048,
      "組": 1049,
      "結": 1050,
      "絕": 1051,
      "続": 1052,
      "縛": 1053,
      "红": 1054,
      "约": 1055,
      "结": 1056,
      "羊": 1057,
      "美": 1058,
      "群": 1059,
      "義": 1060,
      "者": 1061,
      "聖": 1062,
      "聲": 1063,
      "胸": 1064,
      "能": 1065,
      "脫": 1066,
      "腿": 1067,
      "自": 1068,
      "與": 1069,
      "舎": 1070,
      "色": 1071,
      "花": 1072,
      "若": 1073,
      "英": 1074,
      "茲": 1075,
      "茶": 1076,
      "草": 1077,
      "菊": 1078,
      "華": 1079,
      "营": 1080,
      "萧": 1081,
      "蒸": 1082,
      "薇": 1083,
      "薔": 1084,
      "藏": 1085,
      "藤": 1086,
      "虎": 1087,
      "虫": 1088,
      "虹": 1089,
      "蛇": 1090,
      "蜩": 1091,
      "蝴": 1092,
      "蝶": 1093,
      "蟬": 1094,
      "術": 1095,
      "街": 1096,
      "衛": 1097,
      "衣": 1098,
      "襪": 1099,
      "西": 1100,
      "視": 1101,
      "親": 1102,
      "见": 1103,
      "言": 1104,
      "託": 1105,
      "記": 1106,
      "語": 1107,
      "説": 1108,
      "警": 1109,
      "讐": 1110,
      "讓": 1111,
      "让": 1112,
      "记": 1113,
      "说": 1114,
      "谢": 1115,
      "豹": 1116,
      "赫": 1117,
      "赵": 1118,
      "蹟": 1119,
      "身": 1120,
      "輝": 1121,
      "轉": 1122,
      "辈": 1123,
      "辉": 1124,
      "辛": 1125,
      "返": 1126,
      "送": 1127,
      "造": 1128,
      "連": 1129,
      "運": 1130,
      "過": 1131,
      "道": 1132,
      "遙": 1133,
      "遺": 1134,
      "那": 1135,
      "郎": 1136,
      "里": 1137,
      "重": 1138,
      "金": 1139,
      "銃": 1140,
      "鋼": 1141,
      "錦": 1142,
      "録": 1143,
      "钟": 1144,
      "铁": 1145,
      "長": 1146,
      "門": 1147,
      "間": 1148,
      "闇": 1149,
      "阁": 1150,
      "阿": 1151,
      "険": 1152,
      "陽": 1153,
      "隔": 1154,
      "雄": 1155,
      "離": 1156,
      "難": 1157,
      "雨": 1158,
      "雲": 1159,
      "霧": 1160,
      "霹": 1161,
      "靂": 1162,
      "青": 1163,
      "静": 1164,
      "非": 1165,
      "革": 1166,
      "頁": 1167,
      "頭": 1168,
      "颜": 1169,
      "额": 1170,
      "風": 1171,
      "飛": 1172,
      "飞": 1173,
      "香": 1174,
      "馬": 1175,
      "駿": 1176,
      "驚": 1177,
      "马": 1178,
      "骊": 1179,
      "骏": 1180,
      "骰": 1181,
      "鬼": 1182,
      "魂": 1183,
      "魅": 1184,
      "魍": 1185,
      "魎": 1186,
      "魑": 1187,
      "魔": 1188,
      "鱷": 1189,
      "鳴": 1190,
      "鴨": 1191,
      "鶏": 1192,
      "鷹": 1193,
      "鸭": 1194,
      "鸯": 1195,
      "鸳": 1196,
      "鹿": 1197,
      "黑": 1198,
      "龍": 1199,
      "ꯁ": 1200,
      "ꯃ": 1201,
      "ꯆ": 1202,
      "ꯇ": 1203,
      "ꯉ": 1204,
      "ꯍ": 1205,
      "ꯒ": 1206,
      "ꯕ": 1207,
      "ꯗ": 1208,
      "ꯡ": 1209,
      "ꯤ": 1210,
      "ꯥ": 1211,
      "ꯨ": 1212,
      "꯲": 1213,
      "꯳": 1214,
      "가": 1215,
      "간": 1216,
      "개": 1217,
      "거": 1218,
      "겨": 1219,
      "경": 1220,
      "고": 1221,
      "공": 1222,
      "과": 1223,
      "괴": 1224,
      "교": 1225,
      "구": 1226,
      "글": 1227,
      "기": 1228,
      "까": 1229,
      "꽃": 1230,
      "꿈": 1231,
      "끝": 1232,
      "나": 1233,
      "난": 1234,
      "날": 1235,
      "남": 1236,
      "내": 1237,
      "너": 1238,
      "녀": 1239,
      "년": 1240,
      "녹": 1241,
      "놈": 1242,
      "늑": 1243,
      "는": 1244,
      "늘": 1245,
      "님": 1246,
      "다": 1247,
      "달": 1248,
      "담": 1249,
      "대": 1250,
      "댁": 1251,
      "더": 1252,
      "던": 1253,
      "데": 1254,
      "도": 1255,
      "돌": 1256,
      "동": 1257,
      "들": 1258,
      "라": 1259,
      "람": 1260,
      "랑": 1261,
      "련": 1262,
      "로": 1263,
      "루": 1264,
      "를": 1265,
      "름": 1266,
      "리": 1267,
      "린": 1268,
      "마": 1269,
      "만": 1270,
      "말": 1271,
      "맨": 1272,
      "맹": 1273,
      "머": 1274,
      "메": 1275,
      "모": 1276,
      "못": 1277,
      "몽": 1278,
      "무": 1279,
      "미": 1280,
      "바": 1281,
      "반": 1282,
      "발": 1283,
      "백": 1284,
      "병": 1285,
      "보": 1286,
      "복": 1287,
      "분": 1288,
      "불": 1289,
      "비": 1290,
      "빈": 1291,
      "사": 1292,
      "살": 1293,
      "삼": 1294,
      "생": 1295,
      "서": 1296,
      "세": 1297,
      "소": 1298,
      "속": 1299,
      "손": 1300,
      "수": 1301,
      "슈": 1302,
      "스": 1303,
      "승": 1304,
      "시": 1305,
      "싱": 1306,
      "쌍": 1307,
      "쏘": 1308,
      "아": 1309,
      "악": 1310,
      "않": 1311,
      "야": 1312,
      "양": 1313,
      "어": 1314,
      "억": 1315,
      "었": 1316,
      "엔": 1317,
      "여": 1318,
      "역": 1319,
      "연": 1320,
      "열": 1321,
      "영": 1322,
      "오": 1323,
      "옥": 1324,
      "올": 1325,
      "와": 1326,
      "우": 1327,
      "운": 1328,
      "울": 1329,
      "워": 1330,
      "원": 1331,
      "유": 1332,
      "으": 1333,
      "은": 1334,
      "을": 1335,
      "의": 1336,
      "이": 1337,
      "인": 1338,
      "일": 1339,
      "잊": 1340,
      "잎": 1341,
      "자": 1342,
      "작": 1343,
      "장": 1344,
      "쟁": 1345,
      "적": 1346,
      "전": 1347,
      "절": 1348,
      "점": 1349,
      "족": 1350,
      "좋": 1351,
      "죽": 1352,
      "즈": 1353,
      "지": 1354,
      "진": 1355,
      "집": 1356,
      "첫": 1357,
      "청": 1358,
      "추": 1359,
      "춘": 1360,
      "칠": 1361,
      "카": 1362,
      "콤": 1363,
      "타": 1364,
      "태": 1365,
      "트": 1366,
      "판": 1367,
      "퍼": 1368,
      "포": 1369,
      "프": 1370,
      "피": 1371,
      "한": 1372,
      "해": 1373,
      "행": 1374,
      "혈": 1375,
      "호": 1376,
      "홍": 1377,
      "화": 1378,
      "회": 1379,
      "휴": 1380,
      "희": 1381,
      "！": 1382,
      "＆": 1383,
      "（": 1384,
      "）": 1385,
      "０": 1386,
      "１": 1387,
      "：": 1388,
      "Ｈ": 1389,
      "db": 1390,
      "dbr": 1391,
      "OT": 1392,
      "BJ": 1393,
      "in": 1394,
      "an": 1395,
      "er": 1396,
      "ar": 1397,
      "RE": 1398,
      "PRE": 1399,
      "dbo": 1400,
      "SU": 1401,
      "EOT": 1402,
      "OBJ": 1403,
      "SOT": 1404,
      "PRED": 1405,
      "SUBJ": 1406,
      "st": 1407,
      "il": 1408,
      "or": 1409,
      "th": 1410,
      "on": 1411,
      "re": 1412,
      "ing": 1413,
      "ed": 1414,
      "ilm": 1415,
      "en": 1416,
      "film": 1417,
      "ri": 1418,
      "the": 1419,
      "al": 1420,
      "is": 1421,
      "at": 1422,
      "star": 1423,
      "and": 1424,
      "as": 1425,
      "ring": 1426,
      "ct": 1427,
      "di": 1428,
      "starring": 1429,
      "es": 1430,
      "ic": 1431,
      "om": 1432,
      "of": 1433,
      "el": 1434,
      "ro": 1435,
      "it": 1436,
      "am": 1437,
      "rect": 1438,
      "direct": 1439,
      "le": 1440,
      "ou": 1441,
      "ter": 1442,
      "by": 1443,
      "19": 1444,
      "he": 1445,
      "20": 1446,
      "ra": 1447,
      "to": 1448,
      "ion": 1449,
      "ol": 1450,
      "ent": 1451,
      "ay": 1452,
      "wri": 1453,
      "The": 1454,
      "em": 1455,
      "uc": 1456,
      "os": 1457,
      "ut": 1458,
      "ad": 1459,
      "us": 1460,
      "ch": 1461,
      "director": 1462,
      "ge": 1463,
      "pro": 1464,
      "ig": 1465,
      "for": 1466,
      "Ch": 1467,
      "ce": 1468,
      "et": 1469,
      "writer": 1470,
      "was": 1471,
      "St": 1472,
      "un": 1473,
      "prod": 1474,
      "ir": 1475,
      "ov": 1476,
      "produc": 1477,
      "directed": 1478,
      "iv": 1479,
      "id": 1480,
      "im": 1481,
      "ang": 1482,
      "ph": 1483,
      "ill": 1484,
      "og": 1485,
      "It": 1486,
      "but": 1487,
      "ow": 1488,
      "ur": 1489,
      "ul": 1490,
      "ard": 1491,
      "producer": 1492,
      "ie": 1493,
      "est": 1494,
      "omp": 1495,
      "ot": 1496,
      "age": 1497,
      "la": 1498,
      "ber": 1499,
      "stri": 1500,
      "um": 1501,
      "all": 1502,
      "stribut": 1503,
      "man": 1504,
      "201": 1505,
      "res": 1506,
      "mer": 1507,
      "ht": 1508,
      "distribut": 1509,
      "fe": 1510,
      "usic": 1511,
      "ian": 1512,
      "inem": 1513,
      "music": 1514,
      "ck": 1515,
      "ith": 1516,
      "ers": 1517,
      "distributor": 1518,
      "Mar": 1519,
      "raph": 1520,
      "Comp": 1521,
      "ev": 1522,
      "ap": 1523,
      "av": 1524,
      "ased": 1525,
      "ight": 1526,
      "ry": 1527,
      "ation": 1528,
      "od": 1529,
      "ograph": 1530,
      "angu": 1531,
      "ak": 1532,
      "anguage": 1533,
      "wh": 1534,
      "oser": 1535,
      "ne": 1536,
      "rom": 1537,
      "cinem": 1538,
      "se": 1539,
      "sh": 1540,
      "ich": 1541,
      "Man": 1542,
      "language": 1543,
      "Film": 1544,
      "ish": 1545,
      "atograph": 1546,
      "oun": 1547,
      "cinematograph": 1548,
      "Composer": 1549,
      "musicComposer": 1550,
      "200": 1551,
      "Sh": 1552,
      "In": 1553,
      "An": 1554,
      "ram": 1555,
      "ong": 1556,
      "ia": 1557,
      "ear": 1558,
      "ell": 1559,
      "act": 1560,
      "cinematography": 1561,
      "Th": 1562,
      "com": 1563,
      "Ro": 1564,
      "meric": 1565,
      "Americ": 1566,
      "with": 1567,
      "ort": 1568,
      "de": 1569,
      "ran": 1570,
      "be": 1571,
      "ist": 1572,
      "tt": 1573,
      "Jo": 1574,
      "ag": 1575,
      "ory": 1576,
      "American": 1577,
      "rele": 1578,
      "00": 1579,
      "ab": 1580,
      "Al": 1581,
      "ly": 1582,
      "ict": 1583,
      "from": 1584,
      "ug": 1585,
      "dram": 1586,
      "ain": 1587,
      "edit": 1588,
      "son": 1589,
      "Day": 1590,
      "drama": 1591,
      "Le": 1592,
      "De": 1593,
      "art": 1594,
      "ant": 1595,
      "lo": 1596,
      "our": 1597,
      "ary": 1598,
      "pl": 1599,
      "released": 1600,
      "Night": 1601,
      "ife": 1602,
      "ess": 1603,
      "ren": 1604,
      "Se": 1605,
      "op": 1606,
      "ures": 1607,
      "ath": 1608,
      "ast": 1609,
      "sc": 1610,
      "Un": 1611,
      "edy": 1612,
      "ud": 1613,
      "ine": 1614,
      "editing": 1615,
      "oc": 1616,
      "ik": 1617,
      "ous": 1618,
      "tten": 1619,
      "Chri": 1620,
      "Ar": 1621,
      "ac": 1622,
      "hn": 1623,
      "ward": 1624,
      "ff": 1625,
      "ure": 1626,
      "ies": 1627,
      "der": 1628,
      "qu": 1629,
      "written": 1630,
      "ore": 1631,
      "ame": 1632,
      "con": 1633,
      "comedy": 1634,
      "ere": 1635,
      "Christ": 1636,
      "up": 1637,
      "arl": 1638,
      "ilent": 1639,
      "Lov": 1640,
      "ey": 1641,
      "John": 1642,
      "ount": 1643,
      "ate": 1644,
      "rit": 1645,
      "bert": 1646,
      "oman": 1647,
      "ust": 1648,
      "Sp": 1649,
      "ern": 1650,
      "als": 1651,
      "Pict": 1652,
      "Ne": 1653,
      "own": 1654,
      "his": 1655,
      "En": 1656,
      "out": 1657,
      "irl": 1658,
      "ann": 1659,
      "Re": 1660,
      "actor": 1661,
      "199": 1662,
      "ark": 1663,
      "ive": 1664,
      "ood": 1665,
      "ip": 1666,
      "Pictures": 1667,
      "who": 1668,
      "aw": 1669,
      "Fran": 1670,
      "ass": 1671,
      "Ma": 1672,
      "end": 1673,
      "ale": 1674,
      "ier": 1675,
      "ok": 1676,
      "ub": 1677,
      "Love": 1678,
      "Bo": 1679,
      "stars": 1680,
      "ick": 1681,
      "ese": 1682,
      "10": 1683,
      "ld": 1684,
      "reen": 1685,
      "estiv": 1686,
      "193": 1687,
      "one": 1688,
      "ue": 1689,
      "Will": 1690,
      "based": 1691,
      "Girl": 1692,
      "play": 1693,
      "are": 1694,
      "192": 1695,
      "ost": 1696,
      "ice": 1697,
      "per": 1698,
      "te": 1699,
      "old": 1700,
      "ember": 1701,
      "Be": 1702,
      "War": 1703,
      "produced": 1704,
      "ind": 1705,
      "red": 1706,
      "Ge": 1707,
      "ide": 1708,
      "estival": 1709,
      "195": 1710,
      "Bro": 1711,
      "Car": 1712,
      "also": 1713,
      "Life": 1714,
      "oth": 1715,
      "au": 1716,
      "Wal": 1717,
      "ton": 1718,
      "ery": 1719,
      "Har": 1720,
      "mas": 1721,
      "ime": 1722,
      "co": 1723,
      "ome": 1724,
      "ai": 1725,
      "ated": 1726,
      "itt": 1727,
      "pre": 1728,
      "ack": 1729,
      "io": 1730,
      "ally": 1731,
      "ade": 1732,
      "198": 1733,
      "Festival": 1734,
      "Days": 1735,
      "Christmas": 1736,
      "Sc": 1737,
      "Ger": 1738,
      "ah": 1739,
      "ner": 1740,
      "oll": 1741,
      "196": 1742,
      "Best": 1743,
      "Dav": 1744,
      "Par": 1745,
      "inc": 1746,
      "ex": 1747,
      "ction": 1748,
      "He": 1749,
      "me": 1750,
      "pe": 1751,
      "ity": 1752,
      "its": 1753,
      "lace": 1754,
      "ational": 1755,
      "Robert": 1756,
      "Geor": 1757,
      "Mich": 1758,
      "Ad": 1759,
      "191": 1760,
      "Story": 1761,
      "her": 1762,
      "El": 1763,
      "that": 1764,
      "Pe": 1765,
      "197": 1766,
      "ial": 1767,
      "ment": 1768,
      "ountry": 1769,
      "if": 1770,
      "194": 1771,
      "irst": 1772,
      "Fren": 1773,
      "silent": 1774,
      "tit": 1775,
      "French": 1776,
      "air": 1777,
      "Award": 1778,
      "pt": 1779,
      "wo": 1780,
      "ited": 1781,
      "Cl": 1782,
      "tern": 1783,
      "iss": 1784,
      "ress": 1785,
      "wor": 1786,
      "Mon": 1787,
      "iam": 1788,
      "feat": 1789,
      "les": 1790,
      "we": 1791,
      "ins": 1792,
      "ney": 1793,
      "short": 1794,
      "af": 1795,
      "screen": 1796,
      "ument": 1797,
      "..": 1798,
      "ach": 1799,
      "comp": 1800,
      "Gu": 1801,
      "ser": 1802,
      "story": 1803,
      "ates": 1804,
      "New": 1805,
      "Ed": 1806,
      "ugh": 1807,
      "And": 1808,
      "12": 1809,
      "att": 1810,
      "ley": 1811,
      "ael": 1812,
      "ocument": 1813,
      "bo": 1814,
      "country": 1815,
      "iz": 1816,
      "enn": 1817,
      "ence": 1818,
      "Je": 1819,
      "Con": 1820,
      "William": 1821,
      "Rich": 1822,
      "ana": 1823,
      "ss": 1824,
      "amil": 1825,
      "ose": 1826,
      "ocumentary": 1827,
      "und": 1828,
      "Charl": 1829,
      "ance": 1830,
      "German": 1831,
      "18": 1832,
      "We": 1833,
      "Di": 1834,
      "ase": 1835,
      "uk": 1836,
      "udi": 1837,
      "ric": 1838,
      "ittle": 1839,
      "off": 1840,
      "Her": 1841,
      "Roman": 1842,
      "ears": 1843,
      "first": 1844,
      "orn": 1845,
      "Tale": 1846,
      "iel": 1847,
      "Am": 1848,
      "ord": 1849,
      "Pa": 1850,
      "ound": 1851,
      "United": 1852,
      "Fe": 1853,
      "ina": 1854,
      "Is": 1855,
      "any": 1856,
      "Brit": 1857,
      "alian": 1858,
      "Michael": 1859,
      "ert": 1860,
      "13": 1861,
      "Mo": 1862,
      "Mc": 1863,
      "which": 1864,
      "dian": 1865,
      "Little": 1866,
      "gl": 1867,
      "ve": 1868,
      "100": 1869,
      "ream": 1870,
      "ign": 1871,
      "ott": 1872,
      "George": 1873,
      "ternational": 1874,
      "Stre": 1875,
      "ep": 1876,
      "ung": 1877,
      "az": 1878,
      "nov": 1879,
      "ile": 1880,
      "Call": 1881,
      "ild": 1882,
      "Bl": 1883,
      "British": 1884,
      "22": 1885,
      "app": 1886,
      "ett": 1887,
      "David": 1888,
      "iew": 1889,
      "Sou": 1890,
      "illion": 1891,
      "ens": 1892,
      "Bri": 1893,
      "ib": 1894,
      "port": 1895,
      "ele": 1896,
      "iller": 1897,
      "ical": 1898,
      "du": 1899,
      "ix": 1900,
      "Jam": 1901,
      "inal": 1902,
      "ise": 1903,
      "ond": 1904,
      "Street": 1905,
      "Me": 1906,
      "Fo": 1907,
      "ail": 1908,
      "Place": 1909,
      "ouse": 1910,
      "24": 1911,
      "Per": 1912,
      "ks": 1913,
      "ree": 1914,
      "ummer": 1915,
      "21": 1916,
      "Ac": 1917,
      "prem": 1918,
      "Dan": 1919,
      "novel": 1920,
      "30": 1921,
      "ony": 1922,
      "Co": 1923,
      "Mor": 1924,
      "Qu": 1925,
      "about": 1926,
      "Br": 1927,
      "documentary": 1928,
      "mak": 1929,
      "lin": 1930,
      "iet": 1931,
      "International": 1932,
      "title": 1933,
      "uss": 1934,
      "Paul": 1935,
      "ater": 1936,
      "Bar": 1937,
      "aj": 1938,
      "ky": 1939,
      "Richard": 1940,
      "Romance": 1941,
      "Sch": 1942,
      "Mat": 1943,
      "Wor": 1944,
      "Jul": 1945,
      "My": 1946,
      "Ph": 1947,
      "ane": 1948,
      "Tom": 1949,
      "Col": 1950,
      "ision": 1951,
      "ason": 1952,
      "made": 1953,
      "other": 1954,
      "Min": 1955,
      "series": 1956,
      "Ab": 1957,
      "had": 1958,
      "ite": 1959,
      "ely": 1960,
      "Pro": 1961,
      "my": 1962,
      "ovie": 1963,
      "May": 1964,
      "Silent": 1965,
      "Wh": 1966,
      "ceiv": 1967,
      "ob": 1968,
      "ru": 1969,
      "land": 1970,
      "Cor": 1971,
      "anger": 1972,
      "ever": 1973,
      "),": 1974,
      "same": 1975,
      "were": 1976,
      "eng": 1977,
      "Chin": 1978,
      "ans": 1979,
      "Hour": 1980,
      "ces": 1981,
      "ke": 1982,
      "apt": 1983,
      "Time": 1984,
      "Italian": 1985,
      "ire": 1986,
      "Charles": 1987,
      "Gold": 1988,
      "kn": 1989,
      "oung": 1990,
      "000": 1991,
      "Pr": 1992,
      "ike": 1993,
      "Ale": 1994,
      "vent": 1995,
      "ult": 1996,
      "Sm": 1997,
      "has": 1998,
      "row": 1999,
      "elev": 2000,
      "Good": 2001,
      "Nor": 2002,
      "receiv": 2003,
      "States": 2004,
      "Go": 2005,
      "rev": 2006,
      "James": 2007,
      "omin": 2008,
      "Ste": 2009,
      "Jack": 2010,
      "cre": 2011,
      "not": 2012,
      "gh": 2013,
      "Dream": 2014,
      "Pri": 2015,
      "ther": 2016,
      "urn": 2017,
      "Called": 2018,
      "Sam": 2019,
      "ful": 2020,
      "World": 2021,
      "pr": 2022,
      "films": 2023,
      "ollow": 2024,
      "ald": 2025,
      "known": 2026,
      "Ber": 2027,
      "Ros": 2028,
      "won": 2029,
      "ray": 2030,
      "King": 2031,
      "emy": 2032,
      "ury": 2033,
      "Frank": 2034,
      "une": 2035,
      "incl": 2036,
      "Peter": 2037,
      "na": 2038,
      "Hear": 2039,
      "amily": 2040,
      "received": 2041,
      "ash": 2042,
      "elevision": 2043,
      ").": 2044,
      "For": 2045,
      "follow": 2046,
      "Heart": 2047,
      "Gent": 2048,
      "part": 2049,
      "yn": 2050,
      "Boy": 2051,
      "ious": 2052,
      "cast": 2053,
      "Tri": 2054,
      "let": 2055,
      "des": 2056,
      "Jean": 2057,
      "11": 2058,
      "Engl": 2059,
      "Don": 2060,
      "Chinese": 2061,
      "Jap": 2062,
      "their": 2063,
      "2019": 2064,
      "antic": 2065,
      "Jon": 2066,
      "Ben": 2067,
      "Ev": 2068,
      "Mur": 2069,
      "over": 2070,
      "Japan": 2071,
      "II": 2072,
      "All": 2073,
      "unt": 2074,
      "ather": 2075,
      "Woman": 2076,
      "West": 2077,
      "Gentle": 2078,
      "set": 2079,
      "2014": 2080,
      "Gl": 2081,
      "Films": 2082,
      "2011": 2083,
      "ara": 2084,
      "amed": 2085,
      "fect": 2086,
      "premier": 2087,
      "tain": 2088,
      "after": 2089,
      "Hours": 2090,
      "ler": 2091,
      "Men": 2092,
      "ki": 2093,
      "House": 2094,
      "ble": 2095,
      "inter": 2096,
      "Pat": 2097,
      "Sw": 2098,
      "ady": 2099,
      "South": 2100,
      "Russ": 2101,
      "orig": 2102,
      "premiered": 2103,
      "includ": 2104,
      "gro": 2105,
      "ze": 2106,
      "rig": 2107,
      "ris": 2108,
      "2012": 2109,
      "two": 2110,
      "way": 2111,
      "int": 2112,
      "Awards": 2113,
      "Dark": 2114,
      "Dog": 2115,
      "Lee": 2116,
      "nomin": 2117,
      "Fl": 2118,
      "2017": 2119,
      "Bra": 2120,
      "Mer": 2121,
      "lack": 2122,
      "2015": 2123,
      "Dec": 2124,
      "2016": 2125,
      "Mart": 2126,
      "ave": 2127,
      "Hen": 2128,
      "Sim": 2129,
      "Years": 2130,
      "name": 2131,
      "ple": 2132,
      "Studi": 2133,
      "Mal": 2134,
      "gen": 2135,
      "...": 2136,
      "Des": 2137,
      "Em": 2138,
      "Home": 2139,
      "igh": 2140,
      "shot": 2141,
      "Minut": 2142,
      "Gre": 2143,
      "tra": 2144,
      "ene": 2145,
      "uck": 2146,
      "Song": 2147,
      "ma": 2148,
      "Ser": 2149,
      "cri": 2150,
      "ademy": 2151,
      "Academy": 2152,
      "Indian": 2153,
      "Er": 2154,
      "crit": 2155,
      "well": 2156,
      "Jan": 2157,
      "liv": 2158,
      "dy": 2159,
      "min": 2160,
      "night": 2161,
      "anish": 2162,
      "romantic": 2163,
      "Warner": 2164,
      "ron": 2165,
      "thr": 2166,
      "ake": 2167,
      "cond": 2168,
      "Fox": 2169,
      "ada": 2170,
      "Company": 2171,
      "Sing": 2172,
      "ics": 2173,
      "Star": 2174,
      "ucc": 2175,
      "Two": 2176,
      "ors": 2177,
      "Roy": 2178,
      "English": 2179,
      "Summer": 2180,
      "Very": 2181,
      "thriller": 2182,
      "2013": 2183,
      "feature": 2184,
      "15": 2185,
      "One": 2186,
      "into": 2187,
      "anc": 2188,
      "ents": 2189,
      "2010": 2190,
      "Mid": 2191,
      "2009": 2192,
      "gan": 2193,
      "ino": 2194,
      "erson": 2195,
      "Harry": 2196,
      ":'": 2197,
      "Hol": 2198,
      "li": 2199,
      "led": 2200,
      "ror": 2201,
      "television": 2202,
      "Gentleman": 2203,
      "Way": 2204,
      "ver": 2205,
      "ffair": 2206,
      "Die": 2207,
      "etter": 2208,
      "under": 2209,
      "release": 2210,
      "Enter": 2211,
      "oo": 2212,
      "Spanish": 2213,
      "day": 2214,
      "Com": 2215,
      "Kore": 2216,
      "ger": 2217,
      "TV": 2218,
      "fore": 2219,
      "Ho": 2220,
      "La": 2221,
      "uri": 2222,
      "Ray": 2223,
      "sp": 2224,
      "win": 2225,
      "amp": 2226,
      "col": 2227,
      "Luc": 2228,
      "go": 2229,
      "je": 2230,
      "ster": 2231,
      "sequ": 2232,
      "adapt": 2233,
      "Lo": 2234,
      "rel": 2235,
      "Aust": 2236,
      "Bur": 2237,
      "Ra": 2238,
      "Pl": 2239,
      "2008": 2240,
      "work": 2241,
      "ira": 2242,
      "wn": 2243,
      "Mark": 2244,
      "Studios": 2245,
      "Af": 2246,
      "Far": 2247,
      "vers": 2248,
      "Mil": 2249,
      "movie": 2250,
      "par": 2251,
      "ork": 2252,
      "riend": 2253,
      "36": 2254,
      "Gh": 2255,
      "time": 2256,
      "14": 2257,
      "ank": 2258,
      "Da": 2259,
      "His": 2260,
      "do": 2261,
      "even": 2262,
      "debut": 2263,
      "BC": 2264,
      "Gar": 2265,
      "Phil": 2266,
      "Affair": 2267,
      "She": 2268,
      "mon": 2269,
      "Carl": 2270,
      "cl": 2271,
      "ings": 2272,
      "tainment": 2273,
      "Cinem": 2274,
      "No": 2275,
      "produ": 2276,
      "ations": 2277,
      "iews": 2278,
      "Cla": 2279,
      "lead": 2280,
      "screenplay": 2281,
      "2007": 2282,
      "ousand": 2283,
      "ptember": 2284,
      "How": 2285,
      "Kill": 2286,
      "York": 2287,
      "aut": 2288,
      "pos": 2289,
      "char": 2290,
      "September": 2291,
      "Mel": 2292,
      "cial": 2293,
      "Rob": 2294,
      "Edward": 2295,
      "Entertainment": 2296,
      "Danger": 2297,
      "hi": 2298,
      "ves": 2299,
      "production": 2300,
      "June": 2301,
      "2018": 2302,
      "Japanese": 2303,
      "Cent": 2304,
      "Lau": 2305,
      "Ang": 2306,
      "Sun": 2307,
      "bor": 2308,
      "han": 2309,
      "uel": 2310,
      "ivers": 2311,
      "ody": 2312,
      "Perfect": 2313,
      "Nov": 2314,
      "Wife": 2315,
      "million": 2316,
      "theat": 2317,
      "ird": 2318,
      "able": 2319,
      "life": 2320,
      "rough": 2321,
      "Dev": 2322,
      "Jose": 2323,
      "Tra": 2324,
      "You": 2325,
      "Art": 2326,
      "ughter": 2327,
      "City": 2328,
      "Ha": 2329,
      "Million": 2330,
      "ty": 2331,
      "wood": 2332,
      "rick": 2333,
      "ions": 2334,
      "December": 2335,
      "Gra": 2336,
      "Mad": 2337,
      "Pol": 2338,
      "fl": 2339,
      "actress": 2340,
      "Andre": 2341,
      "Alex": 2342,
      "Bill": 2343,
      "por": 2344,
      "ough": 2345,
      "Kiss": 2346,
      "ha": 2347,
      "no": 2348,
      "Thousand": 2349,
      "Bros": 2350,
      "Minutes": 2351,
      "16": 2352,
      "Bel": 2353,
      "mar": 2354,
      "berg": 2355,
      "been": 2356,
      "Son": 2357,
      "award": 2358,
      "during": 2359,
      "As": 2360,
      "Lady": 2361,
      "ace": 2362,
      "ford": 2363,
      "25": 2364,
      "Lou": 2365,
      "car": 2366,
      "ness": 2367,
      "Arth": 2368,
      "Carol": 2369,
      "Daniel": 2370,
      "venture": 2371,
      "ek": 2372,
      "ita": 2373,
      "Walk": 2374,
      "olf": 2375,
      "perfor": 2376,
      "Param": 2377,
      "world": 2378,
      "Hero": 2379,
      "Family": 2380,
      "ham": 2381,
      "men": 2382,
      "omen": 2383,
      "Arthur": 2384,
      "Sol": 2385,
      "Ter": 2386,
      "ani": 2387,
      "uccess": 2388,
      "su": 2389,
      "ini": 2390,
      "dep": 2391,
      "Aug": 2392,
      "Hong": 2393,
      "Tim": 2394,
      "Wil": 2395,
      "nominated": 2396,
      "Dangerous": 2397,
      "Cal": 2398,
      "war": 2399,
      "this": 2400,
      "Paris": 2401,
      "August": 2402,
      "da": 2403,
      "Thom": 2404,
      "Guy": 2405,
      "Act": 2406,
      "Or": 2407,
      "umb": 2408,
      "Reg": 2409,
      "Russian": 2410,
      "Martin": 2411,
      "Austr": 2412,
      "Death": 2413,
      "Part": 2414,
      "him": 2415,
      "itz": 2416,
      "Joseph": 2417,
      "Kar": 2418,
      "pres": 2419,
      "young": 2420,
      "ubl": 2421,
      "features": 2422,
      "hor": 2423,
      "ual": 2424,
      "anim": 2425,
      "2020": 2426,
      "Walter": 2427,
      "Kong": 2428,
      "40": 2429,
      "Dou": 2430,
      "bet": 2431,
      "ince": 2432,
      "roles": 2433,
      "ider": 2434,
      "Matter": 2435,
      "Swed": 2436,
      "original": 2437,
      "Cinema": 2438,
      "Ba": 2439,
      "med": 2440,
      "ement": 2441,
      "Paramount": 2442,
      "Bul": 2443,
      "Can": 2444,
      "Jac": 2445,
      "Long": 2446,
      "aly": 2447,
      "dit": 2448,
      "get": 2449,
      "Les": 2450,
      "ding": 2451,
      "uring": 2452,
      "ular": 2453,
      "2001": 2454,
      "ween": 2455,
      "Lar": 2456,
      "Named": 2457,
      "Park": 2458,
      "band": 2459,
      "hist": 2460,
      "sel": 2461,
      "aven": 2462,
      "2006": 2463,
      "action": 2464,
      "Doll": 2465,
      "Sal": 2466,
      "cinematographer": 2467,
      "17": 2468,
      "Apr": 2469,
      "Cana": 2470,
      "Mac": 2471,
      "tell": 2472,
      "cted": 2473,
      "role": 2474,
      "ister": 2475,
      "including": 2476,
      "charact": 2477,
      "April": 2478,
      "Dis": 2479,
      "Ke": 2480,
      "Sto": 2481,
      "ca": 2482,
      "2021": 2483,
      "Str": 2484,
      "This": 2485,
      "ugu": 2486,
      "Su": 2487,
      "Sy": 2488,
      "ille": 2489,
      "enter": 2490,
      "Sil": 2491,
      "bro": 2492,
      "dis": 2493,
      "2004": 2494,
      "Lu": 2495,
      "Mag": 2496,
      "Pal": 2497,
      "ny": 2498,
      "reviews": 2499,
      "crime": 2500,
      "Korean": 2501,
      "Gen": 2502,
      "Jos": 2503,
      "Port": 2504,
      "ning": 2505,
      "lost": 2506,
      "Canadian": 2507,
      "oy": 2508,
      "sup": 2509,
      "filmmak": 2510,
      "ico": 2511,
      "Heaven": 2512,
      "Georg": 2513,
      "Fred": 2514,
      "Kim": 2515,
      "Val": 2516,
      "ston": 2517,
      "Thomas": 2518,
      "Like": 2519,
      "Town": 2520,
      "lock": 2521,
      "Franc": 2522,
      "between": 2523,
      "Law": 2524,
      "lov": 2525,
      "Wed": 2526,
      "sch": 2527,
      "ouch": 2528,
      "ella": 2529,
      "Che": 2530,
      "Ver": 2531,
      "har": 2532,
      "que": 2533,
      "ideo": 2534,
      "Daughter": 2535,
      "So": 2536,
      "now": 2537,
      "rey": 2538,
      "ica": 2539,
      "Mary": 2540,
      "Univers": 2541,
      "San": 2542,
      "Sar": 2543,
      "ho": 2544,
      "March": 2545,
      "iction": 2546,
      "follows": 2547,
      "Ear": 2548,
      "Gun": 2549,
      "Hor": 2550,
      "sen": 2551,
      "rec": 2552,
      "cons": 2553,
      "sequel": 2554,
      "Young": 2555,
      "urt": 2556,
      "Swedish": 2557,
      "Gr": 2558,
      "later": 2559,
      "publ": 2560,
      "Max": 2561,
      "Henry": 2562,
      "Philip": 2563,
      "str": 2564,
      "Murder": 2565,
      "Hill": 2566,
      "Child": 2567,
      "where": 2568,
      "Golden": 2569,
      "Oct": 2570,
      "Out": 2571,
      "Red": 2572,
      "oot": 2573,
      "success": 2574,
      "ari": 2575,
      "ield": 2576,
      "\".": 2577,
      "Ass": 2578,
      "Hon": 2579,
      "Ru": 2580,
      "Wood": 2581,
      "ues": 2582,
      "ative": 2583,
      "Chan": 2584,
      "Chap": 2585,
      "horror": 2586,
      "At": 2587,
      "most": 2588,
      "ull": 2589,
      "show": 2590,
      "being": 2591,
      "che": 2592,
      "ef": 2593,
      "gar": 2594,
      "ober": 2595,
      "sur": 2596,
      "ya": 2597,
      "year": 2598,
      "50": 2599,
      "Black": 2600,
      "spe": 2601,
      "2002": 2602,
      "ourney": 2603,
      "appear": 2604,
      "Bal": 2605,
      "Cin": 2606,
      "Do": 2607,
      "Jim": 2608,
      "summer": 2609,
      "November": 2610,
      "Up": 2611,
      "ura": 2612,
      "years": 2613,
      "ould": 2614,
      "Inter": 2615,
      "Bob": 2616,
      "Scott": 2617,
      "Moon": 2618,
      "October": 2619,
      "99": 2620,
      "Shot": 2621,
      "ffer": 2622,
      "Ghost": 2623,
      "Live": 2624,
      "Mom": 2625,
      "dom": 2626,
      "sub": 2627,
      "2000": 2628,
      "editor": 2629,
      "23": 2630,
      "Po": 2631,
      "Ram": 2632,
      "Rog": 2633,
      "ka": 2634,
      "mark": 2635,
      "rab": 2636,
      "while": 2637,
      "design": 2638,
      "Bern": 2639,
      "Gri": 2640,
      "Pier": 2641,
      "Sk": 2642,
      "Van": 2643,
      "mare": 2644,
      "ists": 2645,
      "filmmaker": 2646,
      "Ken": 2647,
      "Sid": 2648,
      "Vi": 2649,
      "ude": 2650,
      "ities": 2651,
      "Del": 2652,
      "Movie": 2653,
      "sele": 2654,
      "dia": 2655,
      "before": 2656,
      "Sund": 2657,
      "three": 2658,
      "esh": 2659,
      "itch": 2660,
      "new": 2661,
      "Century": 2662,
      "Sand": 2663,
      "use": 2664,
      "otion": 2665,
      "acc": 2666,
      "Smith": 2667,
      ":...": 2668,
      "Te": 2669,
      "mond": 2670,
      "pi": 2671,
      "side": 2672,
      "za": 2673,
      "Anth": 2674,
      "Joe": 2675,
      "Direct": 2676,
      "critics": 2677,
      "Ag": 2678,
      "Ex": 2679,
      "sy": 2680,
      "indi": 2681,
      "olog": 2682,
      "National": 2683,
      "so": 2684,
      "tr": 2685,
      "ople": 2686,
      "screened": 2687,
      "Hell": 2688,
      "she": 2689,
      "eral": 2690,
      "Jones": 2691,
      "Anthony": 2692,
      "Born": 2693,
      "Jr": 2694,
      "iro": 2695,
      "more": 2696,
      "woman": 2697,
      "Nights": 2698,
      "Nightmare": 2699,
      "cont": 2700,
      "1922": 2701,
      "White": 2702,
      "Howard": 2703,
      "Angel": 2704,
      "den": 2705,
      "ool": 2706,
      "uary": 2707,
      "ved": 2708,
      "ship": 2709,
      "Div": 2710,
      "Happ": 2711,
      "Sa": 2712,
      "Marc": 2713,
      "ized": 2714,
      "Western": 2715,
      "January": 2716,
      "fiction": 2717,
      "ien": 2718,
      "ience": 2719,
      "America": 2720,
      "Beaut": 2721,
      "sets": 2722,
      "Cri": 2723,
      "To": 2724,
      "ced": 2725,
      "po": 2726,
      "án": 2727,
      "rans": 2728,
      "loc": 2729,
      "loy": 2730,
      "performan": 2731,
      "Green": 2732,
      "Pass": 2733,
      "lit": 2734,
      "main": 2735,
      "pri": 2736,
      "Alf": 2737,
      "Steph": 2738,
      "Midsummer": 2739,
      "Av": 2740,
      "Bit": 2741,
      "Dor": 2742,
      "Vict": 2743,
      "four": 2744,
      "them": 2745,
      "uch": 2746,
      "Shar": 2747,
      "Leon": 2748,
      "Cann": 2749,
      "Women": 2750,
      "Year": 2751,
      "place": 2752,
      "ste": 2753,
      "filmed": 2754,
      "box": 2755,
      "ertain": 2756,
      "Princ": 2757,
      "gross": 2758,
      "Bre": 2759,
      "Hel": 2760,
      "oice": 2761,
      "akes": 2762,
      "featuring": 2763,
      "Corpor": 2764,
      "theatric": 2765,
      "bi": 2766,
      "ius": 2767,
      "ature": 2768,
      "ush": 2769,
      "Stev": 2770,
      "musical": 2771,
      "designed": 2772,
      "Rem": 2773,
      "Tor": 2774,
      "oto": 2775,
      "pol": 2776,
      "through": 2777,
      "they": 2778,
      "Chance": 2779,
      "last": 2780,
      "distributed": 2781,
      "Short": 2782,
      "Spe": 2783,
      "composer": 2784,
      "porting": 2785,
      "Berlin": 2786,
      "histor": 2787,
      "Universal": 2788,
      "Corporation": 2789,
      "47": 2790,
      "Made": 2791,
      "ander": 2792,
      "ross": 2793,
      "1999": 2794,
      "Fore": 2795,
      "Fair": 2796,
      "Oliv": 2797,
      "back": 2798,
      "ena": 2799,
      "2005": 2800,
      "make": 2801,
      "Columb": 2802,
      "Simple": 2803,
      "Big": 2804,
      "Cra": 2805,
      "Tamil": 2806,
      "Touch": 2807,
      "gin": 2808,
      "ling": 2809,
      "real": 2810,
      "1920": 2811,
      "second": 2812,
      "posit": 2813,
      "animated": 2814,
      "29": 2815,
      "Im": 2816,
      "Li": 2817,
      "Mé": 2818,
      "Raj": 2819,
      "Ven": 2820,
      "With": 2821,
      "Second": 2822,
      "Adam": 2823,
      "Adventure": 2824,
      "book": 2825,
      "duction": 2826,
      "ABC": 2827,
      "Eric": 2828,
      "Journey": 2829,
      "Ko": 2830,
      "song": 2831,
      "thers": 2832,
      "ref": 2833,
      "1919": 2834,
      "odern": 2835,
      "range": 2836,
      "Wedding": 2837,
      "Hard": 2838,
      "cy": 2839,
      "ters": 2840,
      "Feb": 2841,
      "Trip": 2842,
      "Andrew": 2843,
      "Columbia": 2844,
      "Blo": 2845,
      "Du": 2846,
      "Hall": 2847,
      "family": 2848,
      "eld": 2849,
      "20th": 2850,
      "ident": 2851,
      "plot": 2852,
      "Season": 2853,
      "Soldi": 2854,
      "selected": 2855,
      "Cam": 2856,
      "Case": 2857,
      "Certain": 2858,
      "Dy": 2859,
      "Mother": 2860,
      "friend": 2861,
      "have": 2862,
      "iere": 2863,
      "ts": 2864,
      "zo": 2865,
      "rie": 2866,
      "Lew": 2867,
      "Vir": 2868,
      "ba": 2869,
      "ko": 2870,
      "lie": 2871,
      "oph": 2872,
      "anda": 2873,
      "used": 2874,
      "Victor": 2875,
      "Febru": 2876,
      "27": 2877,
      "Ron": 2878,
      "Rain": 2879,
      "Sov": 2880,
      "came": 2881,
      "video": 2882,
      "die": 2883,
      "Production": 2884,
      "February": 2885,
      "28": 2886,
      "Ol": 2887,
      "va": 2888,
      "ute": 2889,
      "1917": 2890,
      "ject": 2891,
      "Foreign": 2892,
      "ano": 2893,
      "sey": 2894,
      "Elm": 2895,
      "Brian": 2896,
      "Lond": 2897,
      "Tro": 2898,
      "num": 2899,
      "ories": 2900,
      "child": 2901,
      "iful": 2902,
      "Royal": 2903,
      "version": 2904,
      "Bullet": 2905,
      "London": 2906,
      "Cat": 2907,
      "Game": 2908,
      "Hans": 2909,
      "Tay": 2910,
      "ji": 2911,
      "nar": 2912,
      "around": 2913,
      "ret": 2914,
      "tells": 2915,
      "Hal": 2916,
      "Miss": 2917,
      "Sl": 2918,
      "ll": 2919,
      "ès": 2920,
      "stery": 2921,
      "only": 2922,
      "2022": 2923,
      "oss": 2924,
      "cher": 2925,
      "ida": 2926,
      "lyn": 2927,
      "Williams": 2928,
      "Quiet": 2929,
      "Soviet": 2930,
      "Med": 2931,
      "some": 2932,
      "ison": 2933,
      "Broad": 2934,
      "office": 2935,
      "Miles": 2936,
      "Haunt": 2937,
      "lor": 2938,
      "ars": 2939,
      "inger": 2940,
      "Hindi": 2941,
      "Letter": 2942,
      "Sus": 2943,
      "Win": 2944,
      "ms": 2945,
      "trans": 2946,
      "vate": 2947,
      "inally": 2948,
      "era": 2949,
      "ont": 2950,
      "usband": 2951,
      "public": 2952,
      "On": 2953,
      "Wind": 2954,
      "ows": 2955,
      "mann": 2956,
      "Fool": 2957,
      "Australian": 2958,
      "Tur": 2959,
      "ré": 2960,
      "etro": 2961,
      "umar": 2962,
      "endent": 2963,
      "1945": 2964,
      "premiere": 2965,
      "East": 2966,
      "iy": 2967,
      "ja": 2968,
      "mo": 2969,
      "when": 2970,
      "July": 2971,
      "Louis": 2972,
      "Francis": 2973,
      "Beautiful": 2974,
      "Lind": 2975,
      "Ral": 2976,
      "Anton": 2977,
      "Head": 2978,
      "Few": 2979,
      "adaptation": 2980,
      "nie": 2981,
      "uro": 2982,
      "iger": 2983,
      "rence": 2984,
      "Sea": 2985,
      "aste": 2986,
      "Parad": 2987,
      "About": 2988,
      "everal": 2989,
      "North": 2990,
      "Private": 2991,
      "Den": 2992,
      "Fre": 2993,
      "Ren": 2994,
      "wan": 2995,
      "along": 2996,
      "Kingdom": 2997,
      "right": 2998,
      "Stephen": 2999,
      "Taylor": 3000,
      "Land": 3001,
      "Sel": 3002,
      "Sup": 3003,
      "ga": 3004,
      "gy": 3005,
      "India": 3006,
      "Chris": 3007,
      "derella": 3008,
      "cret": 3009,
      "adapted": 3010,
      "Stranger": 3011,
      "Cinderella": 3012,
      "Griff": 3013,
      "08": 3014,
      "Hay": 3015,
      "Net": 3016,
      "Was": 3017,
      "Winter": 3018,
      "black": 3019,
      "rich": 3020,
      "ives": 3021,
      "evin": 3022,
      "Alan": 3023,
      "1932": 3024,
      "Walt": 3025,
      "Mont": 3026,
      "Blue": 3027,
      "consider": 3028,
      "Sidney": 3029,
      "Arab": 3030,
      "Mex": 3031,
      "Tr": 3032,
      "ax": 3033,
      "best": 3034,
      "bud": 3035,
      "final": 3036,
      "cept": 3037,
      "elli": 3038,
      "There": 3039,
      "Three": 3040,
      "Cannes": 3041,
      "Friend": 3042,
      "Pie": 3043,
      "del": 3044,
      "yan": 3045,
      "elle": 3046,
      "ette": 3047,
      "Christoph": 3048,
      "awn": 3049,
      "Maid": 3050,
      "After": 3051,
      "loyd": 3052,
      "DV": 3053,
      "Jer": 3054,
      "Light": 3055,
      "Wall": 3056,
      "ines": 3057,
      "ati": 3058,
      "imp": 3059,
      "coming": 3060,
      "screenwriter": 3061,
      "Soul": 3062,
      "Patrick": 3063,
      "liès": 3064,
      "Méliès": 3065,
      "Paradise": 3066,
      "Bad": 3067,
      "First": 3068,
      "Gro": 3069,
      "Rod": 3070,
      "gu": 3071,
      "gre": 3072,
      "uan": 3073,
      "var": 3074,
      "come": 3075,
      "comm": 3076,
      "again": 3077,
      "ourt": 3078,
      "1996": 3079,
      "France": 3080,
      "character": 3081,
      "88": 3082,
      "Hu": 3083,
      "Lion": 3084,
      "ec": 3085,
      "girl": 3086,
      "kins": 3087,
      "ali": 3088,
      "ope": 3089,
      "1931": 3090,
      "1918": 3091,
      "Month": 3092,
      "Jacqu": 3093,
      "DVD": 3094,
      "0s": 3095,
      "Mast": 3096,
      "Pra": 3097,
      "Sister": 3098,
      "orrow": 3099,
      "ried": 3100,
      "isa": 3101,
      "aker": 3102,
      "2003": 3103,
      "1971": 3104,
      "Distribut": 3105,
      "Down": 3106,
      "hu": 3107,
      "nd": 3108,
      "several": 3109,
      "wide": 3110,
      "wyn": 3111,
      "ically": 3112,
      "ova": 3113,
      "ardo": 3114,
      "Albert": 3115,
      "1954": 3116,
      "Charlie": 3117,
      "Greg": 3118,
      "Disney": 3119,
      "fferent": 3120,
      "Soldier": 3121,
      "Bell": 3122,
      "Kri": 3123,
      "cent": 3124,
      "ening": 3125,
      "ator": 3126,
      "othy": 3127,
      "Davis": 3128,
      "Pierre": 3129,
      "77": 3130,
      "Gi": 3131,
      "God": 3132,
      "Hand": 3133,
      "Ham": 3134,
      "mi": 3135,
      "inv": 3136,
      "els": 3137,
      "aya": 3138,
      "Stan": 3139,
      "berto": 3140,
      "Sher": 3141,
      "titled": 3142,
      "Documentary": 3143,
      "Gil": 3144,
      "Lloyd": 3145,
      "Modern": 3146,
      "Nin": 3147,
      "Sin": 3148,
      "Tw": 3149,
      "kin": 3150,
      "osed": 3151,
      "Ann": 3152,
      "prev": 3153,
      "Great": 3154,
      "Ern": 3155,
      "dependent": 3156,
      "Remember": 3157,
      "Lewis": 3158,
      "Christopher": 3159,
      "Better": 3160,
      "Gord": 3161,
      "Ot": 3162,
      "Tal": 3163,
      "pop": 3164,
      "ital": 3165,
      "ition": 3166,
      "China": 3167,
      "Sex": 3168,
      "oper": 3169,
      "science": 3170,
      "Christian": 3171,
      "Alfred": 3172,
      "\",": 3173,
      "Has": 3174,
      "Knight": 3175,
      "Nik": 3176,
      "Que": 3177,
      "Run": 3178,
      "Taste": 3179,
      "vis": 3180,
      "ily": 3181,
      "iving": 3182,
      "ower": 3183,
      "Maria": 3184,
      "rent": 3185,
      "Under": 3186,
      "1934": 3187,
      "budget": 3188,
      "Bor": 3189,
      "Dr": 3190,
      "Ret": 3191,
      "bed": 3192,
      "hal": 3193,
      "ten": 3194,
      "van": 3195,
      "ato": 3196,
      "ola": 3197,
      "ete": 3198,
      "many": 3199,
      "athan": 3200,
      "1921": 3201,
      "1925": 3202,
      "Goldwyn": 3203,
      "Devil": 3204,
      "Georges": 3205,
      "Fort": 3206,
      "Jane": 3207,
      "Ly": 3208,
      "Language": 3209,
      "Na": 3210,
      "Tel": 3211,
      "Tony": 3212,
      "call": 3213,
      "sa": 3214,
      "took": 3215,
      "dec": 3216,
      "Clark": 3217,
      "Earth": 3218,
      "Steve": 3219,
      "positive": 3220,
      "Ralph": 3221,
      "previous": 3222,
      "Gordon": 3223,
      "49": 3224,
      "Ka": 3225,
      "Lam": 3226,
      "Metro": 3227,
      "Nat": 3228,
      "cle": 3229,
      "eks": 3230,
      "father": 3231,
      "ys": 3232,
      "rik": 3233,
      "ality": 3234,
      "rote": 3235,
      "ural": 3236,
      "ode": 3237,
      "played": 3238,
      "Brid": 3239,
      "Quest": 3240,
      "Canada": 3241,
      "José": 3242,
      "Chaplin": 3243,
      "Without": 3244,
      "Griffith": 3245,
      "Cities": 3246,
      "Lane": 3247,
      "Not": 3248,
      "Rome": 3249,
      "bre": 3250,
      "ially": 3251,
      "ni": 3252,
      "iness": 3253,
      "than": 3254,
      "iano": 3255,
      "Dead": 3256,
      "1994": 3257,
      "self": 3258,
      "love": 3259,
      "Divor": 3260,
      "Venice": 3261,
      "considered": 3262,
      "45": 3263,
      "Ash": 3264,
      "Cap": 3265,
      "Cast": 3266,
      "Hung": 3267,
      "Jenn": 3268,
      "Kind": 3269,
      "Wong": 3270,
      "1998": 3271,
      "entered": 3272,
      "Fight": 3273,
      "Ir": 3274,
      "Kevin": 3275,
      "Rev": 3276,
      "don": 3277,
      "ken": 3278,
      "andal": 3279,
      "ution": 3280,
      "Step": 3281,
      "Strange": 3282,
      "ump": 3283,
      "1916": 3284,
      "Midnight": 3285,
      "Moment": 3286,
      "Music": 3287,
      "graph": 3288,
      "ven": 3289,
      "zi": 3290,
      "studi": 3291,
      "starred": 3292,
      "ando": 3293,
      "uses": 3294,
      "ima": 3295,
      "ief": 3296,
      "1997": 3297,
      "awa": 3298,
      "1942": 3299,
      "originally": 3300,
      "Carlos": 3301,
      "Ari": 3302,
      "Cry": 3303,
      "Dem": 3304,
      "Date": 3305,
      "Jay": 3306,
      "both": 3307,
      "foot": 3308,
      "sound": 3309,
      "wrote": 3310,
      "ón": 3311,
      "onto": 3312,
      "ism": 3313,
      "toon": 3314,
      "directorial": 3315,
      "ffic": 3316,
      "1985": 3317,
      "1987": 3318,
      "Moore": 3319,
      "Prince": 3320,
      "historical": 3321,
      "Return": 3322,
      "Ak": 3323,
      "But": 3324,
      "Fern": 3325,
      "Mik": 3326,
      "View": 3327,
      "cult": 3328,
      "mov": 3329,
      "pra": 3330,
      "anth": 3331,
      "then": 3332,
      "ised": 3333,
      "ata": 3334,
      "Italy": 3335,
      "early": 3336,
      "abri": 3337,
      "Secret": 3338,
      "1969": 3339,
      "company": 3340,
      "ounds": 3341,
      "Donald": 3342,
      "Play": 3343,
      "Fa": 3344,
      "Fine": 3345,
      "Just": 3346,
      "Kid": 3347,
      "Pre": 3348,
      "ban": 3349,
      "dem": 3350,
      "gi": 3351,
      "vin": 3352,
      "inn": 3353,
      "enes": 3354,
      "alam": 3355,
      "ating": 3356,
      "Thing": 3357,
      "aired": 3358,
      "exper": 3359,
      "1915": 3360,
      "Robin": 3361,
      "special": 3362,
      "performance": 3363,
      "narr": 3364,
      "Bird": 3365,
      "Cle": 3366,
      "line": 3367,
      "post": 3368,
      "val": 3369,
      "vey": 3370,
      "roman": 3371,
      "1995": 3372,
      "Brook": 3373,
      "boy": 3374,
      "Jeff": 3375,
      "iety": 3376,
      "Wilson": 3377,
      "Dougl": 3378,
      "Country": 3379,
      "Mas": 3380,
      "Wolf": 3381,
      "ied": 3382,
      "von": 3383,
      "ía": 3384,
      "rid": 3385,
      "alia": 3386,
      "empt": 3387,
      "Sha": 3388,
      "elly": 3389,
      "Room": 3390,
      "ages": 3391,
      "scri": 3392,
      "udy": 3393,
      "Johnson": 3394,
      "anny": 3395,
      "1938": 3396,
      "Among": 3397,
      "Barb": 3398,
      "flix": 3399,
      "supporting": 3400,
      "Grand": 3401,
      "biograph": 3402,
      "Netflix": 3403,
      "Bert": 3404,
      "Ca": 3405,
      "Sant": 3406,
      "hard": 3407,
      "mix": 3408,
      "vid": 3409,
      "ries": 3410,
      "190": 3411,
      "utt": 3412,
      "lywood": 3413,
      "1935": 3414,
      "teen": 3415,
      "Warri": 3416,
      "1966": 3417,
      "1968": 3418,
      "ific": 3419,
      "uke": 3420,
      "offic": 3421,
      "Actress": 3422,
      "26": 3423,
      "31": 3424,
      "Dun": 3425,
      "Fer": 3426,
      "Ky": 3427,
      "Nick": 3428,
      "Ring": 3429,
      "Vik": 3430,
      "ić": 3431,
      "mur": 3432,
      "form": 3433,
      "section": 3434,
      "ished": 3435,
      "Anna": 3436,
      "1990": 3437,
      "1927": 3438,
      "1953": 3439,
      "1956": 3440,
      "Small": 3441,
      "Malay": 3442,
      "awards": 3443,
      "Telugu": 3444,
      "script": 3445,
      "80": 3446,
      "Kap": 3447,
      "Mu": 3448,
      "Sla": 3449,
      "len": 3450,
      "sk": 3451,
      "1937": 3452,
      "1959": 3453,
      "Scandal": 3454,
      "people": 3455,
      "Germany": 3456,
      "Afric": 3457,
      "Broadway": 3458,
      "BS": 3459,
      "Bu": 3460,
      "Dam": 3461,
      "Kath": 3462,
      "Sky": 3463,
      "Your": 3464,
      "duc": 3465,
      "fin": 3466,
      "hom": 3467,
      "hol": 3468,
      "hav": 3469,
      "hood": 3470,
      "house": 3471,
      "iff": 3472,
      "inst": 3473,
      "ori": 3474,
      "though": 3475,
      "ened": 3476,
      "rag": 3477,
      "rant": 3478,
      "antas": 3479,
      "1984": 3480,
      "pect": 3481,
      "1914": 3482,
      "ailor": 3483,
      "Hole": 3484,
      "90": 3485,
      "Fle": 3486,
      "Fell": 3487,
      "Gam": 3488,
      "Squ": 3489,
      "Swe": 3490,
      "can": 3491,
      "vi": 3492,
      "ye": 3493,
      "enc": 3494,
      "ional": 3495,
      "ets": 3496,
      "aka": 3497,
      "1991": 3498,
      "inspi": 3499,
      "Morgan": 3500,
      "Toronto": 3501,
      "Otto": 3502,
      "Douglas": 3503,
      "48": 3504,
      "Bla": 3505,
      "Burn": 3506,
      "Ga": 3507,
      "Ve": 3508,
      "bur": 3509,
      "lim": 3510,
      "ming": 3511,
      "nor": 3512,
      "ero": 3513,
      "ester": 3514,
      "Productions": 3515,
      "inspired": 3516,
      "Ap": 3517,
      "Bag": 3518,
      "Fun": 3519,
      "Gary": 3520,
      "Lon": 3521,
      "Los": 3522,
      "Later": 3523,
      "US": 3524,
      "ds": 3525,
      "find": 3526,
      "jo": 3527,
      "key": 3528,
      "atch": 3529,
      "Marie": 3530,
      "events": 3531,
      "aking": 3532,
      "beth": 3533,
      "Alice": 3534,
      "actors": 3535,
      "1933": 3536,
      "1957": 3537,
      "1958": 3538,
      "Flor": 3539,
      "Simon": 3540,
      "Single": 3541,
      "Special": 3542,
      "Han": 3543,
      "Hugh": 3544,
      "Kr": 3545,
      "Lev": 3546,
      "Nich": 3547,
      "dev": 3548,
      "thew": 3549,
      "asing": 3550,
      "1928": 3551,
      "Before": 3552,
      "Wallace": 3553,
      "1988": 3554,
      "composed": 3555,
      "atherine": 3556,
      "Alexander": 3557,
      "Happy": 3558,
      "Princess": 3559,
      "Oliver": 3560,
      "Queen": 3561,
      "mixed": 3562,
      "Eug": 3563,
      "Most": 3564,
      "Miller": 3565,
      "such": 3566,
      "vo": 3567,
      "entry": 3568,
      "eman": 3569,
      "musician": 3570,
      "romance": 3571,
      "Brown": 3572,
      "1940": 3573,
      "days": 3574,
      "Actor": 3575,
      "surv": 3576,
      "Crime": 3577,
      "stein": 3578,
      "Media": 3579,
      "Jacques": 3580,
      "popular": 3581,
      "Cas": 3582,
      "Crow": 3583,
      "Gian": 3584,
      "Kir": 3585,
      "Karl": 3586,
      "Own": 3587,
      "home": 3588,
      "lan": 3589,
      "nia": 3590,
      "rd": 3591,
      "ilian": 3592,
      "atic": 3593,
      "ama": 3594,
      "lett": 3595,
      "osely": 3596,
      "shown": 3597,
      "death": 3598,
      "Leo": 3599,
      "1924": 3600,
      "Harold": 3601,
      "1978": 3602,
      "achel": 3603,
      "Prize": 3604,
      "characters": 3605,
      "disc": 3606,
      "Horse": 3607,
      "Ah": 3608,
      "Bay": 3609,
      "Bun": 3610,
      "Ford": 3611,
      "Mill": 3612,
      "Water": 3613,
      "ft": 3614,
      "field": 3615,
      "ght": 3616,
      "less": 3617,
      "yo": 3618,
      "ço": 3619,
      "entine": 3620,
      "uce": 3621,
      "Road": 3622,
      "Brothers": 3623,
      "Michel": 3624,
      "Herbert": 3625,
      "Tomorrow": 3626,
      "Claude": 3627,
      "cartoon": 3628,
      "worldwide": 3629,
      "Leslie": 3630,
      "theatrically": 3631,
      "called": 3632,
      "Bol": 3633,
      "Dar": 3634,
      "Euro": 3635,
      "Jason": 3636,
      "Low": 3637,
      "Motion": 3638,
      "Pair": 3639,
      "Res": 3640,
      "list": 3641,
      "sim": 3642,
      "ving": 3643,
      "wife": 3644,
      "thing": 3645,
      "Steven": 3646,
      "photo": 3647,
      "Sho": 3648,
      "Show": 3649,
      "Anne": 3650,
      "Leag": 3651,
      "101": 3652,
      "Screen": 3653,
      "1960": 3654,
      "iza": 3655,
      "Samuel": 3656,
      "Intertitle": 3657,
      "sych": 3658,
      "against": 3659,
      "Question": 3660,
      "Nichol": 3661,
      ".\"": 3662,
      "44": 3663,
      "Bab": 3664,
      "Fear": 3665,
      "Hum": 3666,
      "Lyn": 3667,
      "Rele": 3668,
      "Sen": 3669,
      "Television": 3670,
      "born": 3671,
      "hel": 3672,
      "run": 3673,
      "sky": 3674,
      "zy": 3675,
      "remake": 3676,
      "olph": 3677,
      "ively": 3678,
      "ello": 3679,
      "Spring": 3680,
      "anner": 3681,
      "1923": 3682,
      "1973": 3683,
      "titles": 3684,
      "Class": 3685,
      "189": 3686,
      "Barry": 3687,
      "Matthew": 3688,
      "credit": 3689,
      "relation": 3690,
      "present": 3691,
      "Woods": 3692,
      "Roger": 3693,
      "72": 3694,
      "Bus": 3695,
      "Hist": 3696,
      "Husband": 3697,
      "Pray": 3698,
      "Rose": 3699,
      "Vinc": 3700,
      "Wild": 3701,
      "bal": 3702,
      "ifor": 3703,
      "soc": 3704,
      "uf": 3705,
      "wen": 3706,
      "omb": 3707,
      "ouple": 3708,
      "town": 3709,
      "Stu": 3710,
      "ape": 3711,
      "cinema": 3712,
      "ante": 3713,
      "Reason": 3714,
      "1993": 3715,
      "Mack": 3716,
      "1982": 3717,
      "Scream": 3718,
      "Roberts": 3719,
      "Guide": 3720,
      "attle": 3721,
      "Blanc": 3722,
      "Allen": 3723,
      "Piece": 3724,
      "murder": 3725,
      "Bah": 3726,
      "Court": 3727,
      "Gal": 3728,
      "Mos": 3729,
      "Old": 3730,
      "Wa": 3731,
      "five": 3732,
      "ges": 3733,
      "sol": 3734,
      "ski": 3735,
      "anne": 3736,
      "rice": 3737,
      "ami": 3738,
      "oul": 3739,
      "adventure": 3740,
      "Margar": 3741,
      "Anim": 3742,
      "Harris": 3743,
      "Feature": 3744,
      "Ross": 3745,
      "followed": 3746,
      "Every": 3747,
      "Glass": 3748,
      "Braz": 3749,
      "Larry": 3750,
      "Bernard": 3751,
      "location": 3752,
      "relationship": 3753,
      "AK": 3754,
      "By": 3755,
      "Lan": 3756,
      "Orig": 3757,
      "cia": 3758,
      "six": 3759,
      "oni": 3760,
      "ons": 3761,
      "rest": 3762,
      "ences": 3763,
      "icol": 3764,
      "Mario": 3765,
      "white": 3766,
      "became": 3767,
      "1965": 3768,
      "Week": 3769,
      "Weeks": 3770,
      "Mayer": 3771,
      "group": 3772,
      "Califor": 3773,
      "Australia": 3774,
      "Virgin": 3775,
      "Haunting": 3776,
      "Antonio": 3777,
      "65": 3778,
      "Bud": 3779,
      "Cze": 3780,
      "Ein": 3781,
      "Ja": 3782,
      "Jes": 3783,
      "Kumar": 3784,
      "Lost": 3785,
      "Rey": 3786,
      "down": 3787,
      "ta": 3788,
      "aint": 3789,
      "conc": 3790,
      "portray": 3791,
      "Danish": 3792,
      "Brun": 3793,
      "following": 3794,
      "colle": 3795,
      "General": 3796,
      "Blood": 3797,
      "Barbara": 3798,
      "Czech": 3799,
      "64": 3800,
      "Juan": 3801,
      "Mr": 3802,
      "Pan": 3803,
      "Rom": 3804,
      "Rick": 3805,
      "Tem": 3806,
      "ij": 3807,
      "mid": 3808,
      "non": 3809,
      "ink": 3810,
      "eder": 3811,
      "dim": 3812,
      "iment": 3813,
      "illa": 3814,
      "Marsh": 3815,
      "sex": 3816,
      "Through": 3817,
      "ika": 3818,
      "Picture": 3819,
      "compet": 3820,
      "enny": 3821,
      "Moh": 3822,
      "Bruce": 3823,
      "gener": 3824,
      "photograph": 3825,
      "California": 3826,
      "Au": 3827,
      "Bh": 3828,
      "Killer": 3829,
      "Lor": 3830,
      "Lib": 3831,
      "Six": 3832,
      "Yu": 3833,
      "foc": 3834,
      "gr": 3835,
      "jas": 3836,
      "ker": 3837,
      "miss": 3838,
      "wart": 3839,
      "arian": 3840,
      "leg": 3841,
      "ots": 3842,
      "Thief": 3843,
      "Mauri": 3844,
      "Brand": 3845,
      "III": 3846,
      "track": 3847,
      "class": 3848,
      "ology": 3849,
      "grossing": 3850,
      "romanized": 3851,
      "2nd": 3852,
      "Bas": 3853,
      "Dal": 3854,
      "Danny": 3855,
      "Ire": 3856,
      "Ten": 3857,
      "bu": 3858,
      "how": 3859,
      "iu": 3860,
      "view": 3861,
      "wa": 3862,
      "ão": 3863,
      "independent": 3864,
      "rison": 3865,
      "ctor": 3866,
      "esc": 3867,
      "het": 3868,
      "lav": 3869,
      "laim": 3870,
      "Deep": 3871,
      "Real": 3872,
      "1950": 3873,
      "audi": 3874,
      "1986": 3875,
      "Allan": 3876,
      "critical": 3877,
      "Raymond": 3878,
      "Killing": 3879,
      "himself": 3880,
      "3F": 3881,
      "Cr": 3882,
      "Cro": 3883,
      "Kal": 3884,
      "Mus": 3885,
      "Soc": 3886,
      "Tre": 3887,
      "bl": 3888,
      "br": 3889,
      "long": 3890,
      "oor": 3891,
      "psych": 3892,
      "sm": 3893,
      "ila": 3894,
      "riage": 3895,
      "ican": 3896,
      "ela": 3897,
      "what": 3898,
      "Dean": 3899,
      "ants": 3900,
      "ennett": 3901,
      "Conf": 3902,
      "Korea": 3903,
      "Double": 3904,
      "Dollars": 3905,
      "Silver": 3906,
      "Portugu": 3907,
      "Honor": 3908,
      "studio": 3909,
      "500": 3910,
      ":$": 3911,
      "Cong": 3912,
      "Fall": 3913,
      "Hop": 3914,
      "Iran": 3915,
      "Kay": 3916,
      "Ty": 3917,
      "Tam": 3918,
      "Tex": 3919,
      "named": 3920,
      "sing": 3921,
      "elson": 3922,
      "otte": 3923,
      "Rock": 3924,
      "aces": 3925,
      "Girls": 3926,
      "ifer": 3927,
      "André": 3928,
      "enna": 3929,
      "Cont": 3930,
      "Acc": 3931,
      "Produc": 3932,
      "created": 3933,
      "until": 3934,
      "Brady": 3935,
      "Merry": 3936,
      "Hollywood": 3937,
      "Lawrence": 3938,
      "Assass": 3939,
      "Malayalam": 3940,
      "Portuguese": 3941,
      "33": 3942,
      "Bren": 3943,
      "Cre": 3944,
      "Cur": 3945,
      "Clock": 3946,
      "Catherine": 3947,
      "Hot": 3948,
      "Kann": 3949,
      "Os": 3950,
      "Riv": 3951,
      "Wang": 3952,
      "high": 3953,
      "kar": 3954,
      "pp": 3955,
      "iny": 3956,
      "ington": 3957,
      "Allo": 3958,
      "loosely": 3959,
      "Arb": 3960,
      "Arg": 3961,
      "End": 3962,
      "away": 3963,
      "Franço": 3964,
      "Warren": 3965,
      "1912": 3966,
      "Norman": 3967,
      "uckle": 3968,
      "Serge": 3969,
      "Sarah": 3970,
      "Dorothy": 3971,
      "grossed": 3972,
      "ABCD": 3973,
      "refer": 3974,
      "Stanley": 3975,
      "Ninjas": 3976,
      "History": 3977,
      "Margaret": 3978,
      "Baker": 3979,
      "Mak": 3980,
      "Rav": 3981,
      "Tan": 3982,
      "Var": 3983,
      "king": 3984,
      "nam": 3985,
      "sign": 3986,
      "takes": 3987,
      "iser": 3988,
      "scar": 3989,
      "Arch": 3990,
      "1929": 3991,
      "1970": 3992,
      "Jew": 3993,
      "Bron": 3994,
      "includes": 3995,
      "ground": 3996,
      "Director": 3997,
      "Seasons": 3998,
      "Master": 3999,
      "Bir": 4000,
      "Dick": 4001,
      "Dates": 4002,
      "Esc": 4003,
      "Fland": 4004,
      "Kent": 4005,
      "Mind": 4006,
      "jay": 4007,
      "lv": 4008,
      "did": 4009,
      "prog": 4010,
      "Cha": 4011,
      "score": 4012,
      "1989": 4013,
      "mystery": 4014,
      "Polish": 4015,
      "depict": 4016,
      "broad": 4017,
      "children": 4018,
      "Divorce": 4019,
      "footage": 4020,
      "Stuart": 4021,
      "Flanders": 4022,
      "71": 4023,
      "Bry": 4024,
      "Cy": 4025,
      "Dian": 4026,
      "Fil": 4027,
      "Gill": 4028,
      "Hun": 4029,
      "Mess": 4030,
      "Mike": 4031,
      "Nar": 4032,
      "Nag": 4033,
      "Sony": 4034,
      "due": 4035,
      "kov": 4036,
      "member": 4037,
      "person": 4038,
      "thor": 4039,
      "third": 4040,
      "different": 4041,
      "chn": 4042,
      "illip": 4043,
      "exp": 4044,
      "Eliza": 4045,
      "1979": 4046,
      "ift": 4047,
      "1943": 4048,
      "uki": 4049,
      "Aleks": 4050,
      "revol": 4051,
      "Minute": 4052,
      "Singh": 4053,
      "Jacob": 4054,
      "Change": 4055,
      "true": 4056,
      "Dying": 4057,
      "number": 4058,
      "Mexico": 4059,
      "60": 4060,
      "Hart": 4061,
      "Ian": 4062,
      "Kaz": 4063,
      "Mir": 4064,
      "fantas": 4065,
      "hl": 4066,
      "light": 4067,
      "rary": 4068,
      "stand": 4069,
      "orm": 4070,
      "ores": 4071,
      "elop": 4072,
      "gether": 4073,
      "Manuel": 4074,
      "anna": 4075,
      "annel": 4076,
      "plays": 4077,
      "perate": 4078,
      "1961": 4079,
      "expl": 4080,
      "Ell": 4081,
      "nominations": 4082,
      "school": 4083,
      "record": 4084,
      "fficult": 4085,
      "Slave": 4086,
      "Kannada": 4087,
      "Elizabeth": 4088,
      "66": 4089,
      "Ball": 4090,
      "Beng": 4091,
      "Eve": 4092,
      "Haw": 4093,
      "Mira": 4094,
      "Our": 4095,
      "Til": 4096,
      "gang": 4097,
      "leng": 4098,
      "ral": 4099,
      "would": 4100,
      "zer": 4101,
      "erg": 4102,
      "stit": 4103,
      "reg": 4104,
      "among": 4105,
      "chi": 4106,
      "Shaw": 4107,
      "upon": 4108,
      "1926": 4109,
      "1951": 4110,
      "People": 4111,
      "worth": 4112,
      "Russell": 4113,
      "Emil": 4114,
      "leading": 4115,
      "theatrical": 4116,
      "Camer": 4117,
      "Distribution": 4118,
      "Ernest": 4119,
      "broadcast": 4120,
      "Bett": 4121,
      "Dut": 4122,
      "Fish": 4123,
      "Field": 4124,
      "Glo": 4125,
      "Kat": 4126,
      "Las": 4127,
      "Sad": 4128,
      "Tai": 4129,
      "lar": 4130,
      "international": 4131,
      "tha": 4132,
      "andy": 4133,
      "amous": 4134,
      "owell": 4135,
      "Walks": 4136,
      "1964": 4137,
      "Ways": 4138,
      "Baby": 4139,
      "Faith": 4140,
      "biographical": 4141,
      "Curt": 4142,
      "Full": 4143,
      "Kelly": 4144,
      "Ted": 4145,
      "fem": 4146,
      "fall": 4147,
      "pa": 4148,
      "since": 4149,
      "will": 4150,
      "én": 4151,
      "alog": 4152,
      "rait": 4153,
      "osh": 4154,
      "chan": 4155,
      "Frances": 4156,
      "Elli": 4157,
      "Money": 4158,
      "Monster": 4159,
      "prof": 4160,
      "Brad": 4161,
      "Artists": 4162,
      "Lesson": 4163,
      "polit": 4164,
      "Europe": 4165,
      "Library": 4166,
      "Maurice": 4167,
      "Aleksand": 4168,
      "Ast": 4169,
      "Air": 4170,
      "Egy": 4171,
      "Gang": 4172,
      "Gram": 4173,
      "Gabri": 4174,
      "Hy": 4175,
      "Less": 4176,
      "Lisa": 4177,
      "Nob": 4178,
      "Oscar": 4179,
      "Person": 4180,
      "Rud": 4181,
      "Snow": 4182,
      "Ta": 4183,
      "Tok": 4184,
      "Vit": 4185,
      "bel": 4186,
      "bra": 4187,
      "ci": 4188,
      "hy": 4189,
      "ked": 4190,
      "öm": 4191,
      "stage": 4192,
      "elf": 4193,
      "directors": 4194,
      "ided": 4195,
      "law": 4196,
      "udent": 4197,
      "Franz": 4198,
      "attempt": 4199,
      "Mystery": 4200,
      "Desperate": 4201,
      "lives": 4202,
      "Philipp": 4203,
      "Ruth": 4204,
      "Again": 4205,
      "Hungarian": 4206,
      "install": 4207,
      "Releasing": 4208,
      "Vincent": 4209,
      "Congress": 4210,
      "fantasy": 4211,
      "length": 4212,
      "7th": 4213,
      ":.": 4214,
      "Bon": 4215,
      "Cru": 4216,
      "Grant": 4217,
      "Hunt": 4218,
      "Mile": 4219,
      "Pas": 4220,
      "Reven": 4221,
      "Sub": 4222,
      "Yo": 4223,
      "cur": 4224,
      "hand": 4225,
      "hum": 4226,
      "mother": 4227,
      "ona": 4228,
      "ala": 4229,
      "atter": 4230,
      "Chand": 4231,
      "commer": 4232,
      "began": 4233,
      "Space": 4234,
      "Franco": 4235,
      "Anderson": 4236,
      "making": 4237,
      "Julie": 4238,
      "fects": 4239,
      "Desire": 4240,
      "Jimmy": 4241,
      "ological": 4242,
      "transl": 4243,
      "Texas": 4244,
      "installment": 4245,
      "Revenge": 4246,
      "55": 4247,
      "70": 4248,
      ":%": 4249,
      "Bear": 4250,
      "Cub": 4251,
      "Dir": 4252,
      "Dist": 4253,
      "Gor": 4254,
      "Py": 4255,
      "Si": 4256,
      "Une": 4257,
      "Wu": 4258,
      "Wat": 4259,
      "Woo": 4260,
      "Ye": 4261,
      "Ze": 4262,
      "cott": 4263,
      "fan": 4264,
      "found": 4265,
      "low": 4266,
      "mu": 4267,
      "nes": 4268,
      "ée": 4269,
      "rett": 4270,
      "ats": 4271,
      "eland": 4272,
      "Char": 4273,
      "Stra": 4274,
      "comed": 4275,
      "Sean": 4276,
      "Union": 4277,
      "Army": 4278,
      "ended": 4279,
      "oster": 4280,
      "Angeles": 4281,
      "Arabic": 4282,
      "\")": 4283,
      "300": 4284,
      "76": 4285,
      "Lim": 4286,
      "Lot": 4287,
      "Living": 4288,
      "Nam": 4289,
      "Tod": 4290,
      "Us": 4291,
      "Vas": 4292,
      "Vla": 4293,
      "kill": 4294,
      "tri": 4295,
      "tal": 4296,
      "tim": 4297,
      "women": 4298,
      "sty": 4299,
      "dig": 4300,
      "ently": 4301,
      "una": 4302,
      "ogy": 4303,
      "ighty": 4304,
      "That": 4305,
      "beca": 4306,
      "become": 4307,
      "scenes": 4308,
      "iko": 4309,
      "icked": 4310,
      "Dave": 4311,
      "1976": 4312,
      "1949": 4313,
      "1001": 4314,
      "Party": 4315,
      "Waltz": 4316,
      "Africa": 4317,
      "Taiwan": 4318,
      "Din": 4319,
      "Dub": 4320,
      "Dawn": 4321,
      "Fin": 4322,
      "Fal": 4323,
      "Kh": 4324,
      "Matt": 4325,
      "Pay": 4326,
      "Sang": 4327,
      "bin": 4328,
      "fran": 4329,
      "gins": 4330,
      "live": 4331,
      "prom": 4332,
      "ür": 4333,
      "erman": 4334,
      "arch": 4335,
      "direction": 4336,
      "Shad": 4337,
      "tti": 4338,
      "aga": 4339,
      "ronic": 4340,
      "Holm": 4341,
      "theaters": 4342,
      "Parker": 4343,
      "Syd": 4344,
      "Sylv": 4345,
      "ström": 4346,
      "Square": 4347,
      "limited": 4348,
      "Virginia": 4349,
      "Arbuckle": 4350,
      "Vladim": 4351,
      "Bug": 4352,
      "Cant": 4353,
      "Gé": 4354,
      "Gon": 4355,
      "Haz": 4356,
      "Mov": 4357,
      "Mitch": 4358,
      "Pet": 4359,
      "Prom": 4360,
      "Rue": 4361,
      "Yan": 4362,
      "festival": 4363,
      "gedy": 4364,
      "ually": 4365,
      "yer": 4366,
      "ilogy": 4367,
      "oney": 4368,
      "rish": 4369,
      "ula": 4370,
      "aki": 4371,
      "ourn": 4372,
      "Republic": 4373,
      "1941": 4374,
      "1948": 4375,
      "Perry": 4376,
      "Cole": 4377,
      "Quality": 4378,
      "Southern": 4379,
      "featured": 4380,
      "performances": 4381,
      "Jennifer": 4382,
      "develop": 4383,
      "credited": 4384,
      "River": 4385,
      "program": 4386,
      "Action": 4387,
      "Nelson": 4388,
      "Pers": 4389,
      "Pist": 4390,
      "RR": 4391,
      "Row": 4392,
      "Sat": 4393,
      "UK": 4394,
      "care": 4395,
      "gas": 4396,
      "gra": 4397,
      "gian": 4398,
      "gio": 4399,
      "hig": 4400,
      "hind": 4401,
      "iod": 4402,
      "late": 4403,
      "mil": 4404,
      "ole": 4405,
      "uz": 4406,
      "gest": 4407,
      "whose": 4408,
      "Shin": 4409,
      "comes": 4410,
      "Una": 4411,
      "Lover": 4412,
      "1939": 4413,
      "coe": 4414,
      "aire": 4415,
      "Anders": 4416,
      "Amy": 4417,
      "Jules": 4418,
      "preser": 4419,
      "Sundar": 4420,
      "Sunday": 4421,
      "Bridge": 4422,
      "soundtrack": 4423,
      "Produced": 4424,
      "Egypt": 4425,
      "3D": 4426,
      "Code": 4427,
      "Dest": 4428,
      "Fro": 4429,
      "Idi": 4430,
      "Kon": 4431,
      "Mick": 4432,
      "Mighty": 4433,
      "Pla": 4434,
      "Path": 4435,
      "Pick": 4436,
      "Sound": 4437,
      "Ts": 4438,
      "Tick": 4439,
      "Well": 4440,
      "dle": 4441,
      "each": 4442,
      "nold": 4443,
      "sent": 4444,
      "singer": 4445,
      "ths": 4446,
      "oms": 4447,
      "Stone": 4448,
      "ides": 4449,
      "owers": 4450,
      "ote": 4451,
      "earl": 4452,
      "aged": 4453,
      "abel": 4454,
      "ession": 4455,
      "opra": 4456,
      "oking": 4457,
      "10th": 4458,
      "1930": 4459,
      "Harvey": 4460,
      "1983": 4461,
      "1967": 4462,
      "1977": 4463,
      "Clou": 4464,
      "week": 4465,
      "Andy": 4466,
      "School": 4467,
      "descri": 4468,
      "Laura": 4469,
      "successful": 4470,
      "Intertitles": 4471,
      "François": 4472,
      "1st": 4473,
      "Bet": 4474,
      "Fri": 4475,
      "Fist": 4476,
      "Father": 4477,
      "Jung": 4478,
      "Kate": 4479,
      "Lie": 4480,
      "Mol": 4481,
      "Ryan": 4482,
      "Tax": 4483,
      "Vill": 4484,
      "bell": 4485,
      "mand": 4486,
      "net": 4487,
      "pen": 4488,
      "ux": 4489,
      "ube": 4490,
      "ville": 4491,
      "went": 4492,
      "ored": 4493,
      "oria": 4494,
      "amin": 4495,
      "together": 4496,
      "utes": 4497,
      "using": 4498,
      "Chang": 4499,
      "iven": 4500,
      "Its": 4501,
      "Marion": 4502,
      "avor": 4503,
      "Ali": 4504,
      "artist": 4505,
      "Mah": 4506,
      "1936": 4507,
      "1952": 4508,
      "Carmen": 4509,
      "others": 4510,
      "author": 4511,
      "1980": 4512,
      "1962": 4513,
      "Adri": 4514,
      "Cooper": 4515,
      "Kings": 4516,
      "Evil": 4517,
      "winning": 4518,
      "Alexand": 4519,
      "Vera": 4520,
      "Hardy": 4521,
      "Handful": 4522,
      "invol": 4523,
      "Fortune": 4524,
      "Romeo": 4525,
      "help": 4526,
      "concern": 4527,
      "generally": 4528,
      "psychological": 4529,
      "AT": 4530,
      "Att": 4531,
      "Battle": 4532,
      "Cav": 4533,
      "Face": 4534,
      "Mix": 4535,
      "Nest": 4536,
      "Od": 4537,
      "Ry": 4538,
      "Set": 4539,
      "Sav": 4540,
      "ball": 4541,
      "cer": 4542,
      "ez": 4543,
      "just": 4544,
      "mm": 4545,
      "maj": 4546,
      "voice": 4547,
      "ili": 4548,
      "ales": 4549,
      "ising": 4550,
      "iting": 4551,
      "hest": 4552,
      "top": 4553,
      "emble": 4554,
      "Chen": 4555,
      "uma": 4556,
      "ume": 4557,
      "umont": 4558,
      "Mars": 4559,
      "Ship": 4560,
      "Carlo": 4561,
      "Gerald": 4562,
      "ensemble": 4563,
      "Streets": 4564,
      "Julia": 4565,
      "When": 4566,
      "print": 4567,
      "Roses": 4568,
      "Jonathan": 4569,
      "Darkness": 4570,
      "Henri": 4571,
      "colla": 4572,
      "Melody": 4573,
      "Louise": 4574,
      "itzer": 4575,
      "Portrait": 4576,
      "Philippe": 4577,
      "Seconds": 4578,
      "return": 4579,
      "alongside": 4580,
      "Prayer": 4581,
      "Assassins": 4582,
      "Sydney": 4583,
      "Vladimir": 4584,
      "Pistol": 4585,
      "35": 4586,
      "BBC": 4587,
      "Card": 4588,
      "Camp": 4589,
      "Darl": 4590,
      "Gard": 4591,
      "Gust": 4592,
      "Gene": 4593,
      "Hav": 4594,
      "Lad": 4595,
      "Line": 4596,
      "Mut": 4597,
      "Mun": 4598,
      "Must": 4599,
      "Pres": 4600,
      "Rah": 4601,
      "Sailor": 4602,
      "Tak": 4603,
      "Ward": 4604,
      "bon": 4605,
      "body": 4606,
      "idi": 4607,
      "ique": 4608,
      "like": 4609,
      "pla": 4610,
      "uo": 4611,
      "vel": 4612,
      "wick": 4613,
      "ín": 4614,
      "ared": 4615,
      "filming": 4616,
      "dio": 4617,
      "dies": 4618,
      "ros": 4619,
      "ado": 4620,
      "former": 4621,
      "ians": 4622,
      "neg": 4623,
      "Leg": 4624,
      "ountain": 4625,
      "1981": 4626,
      "1963": 4627,
      "ordan": 4628,
      "azz": 4629,
      "ensen": 4630,
      "Colin": 4631,
      "ront": 4632,
      "Stolen": 4633,
      "Viol": 4634,
      "acclaim": 4635,
      "Leagues": 4636,
      "Brazilian": 4637,
      "Marshall": 4638,
      "Aleksandr": 4639,
      "')": 4640,
      "4th": 4641,
      "Az": 4642,
      "BO": 4643,
      "Bos": 4644,
      "Cow": 4645,
      "Cage": 4646,
      "Dra": 4647,
      "Earl": 4648,
      "Fath": 4649,
      "Gol": 4650,
      "Hat": 4651,
      "Ji": 4652,
      "Jor": 4653,
      "Judy": 4654,
      "Mort": 4655,
      "Nicol": 4656,
      "Ric": 4657,
      "Tru": 4658,
      "Tsu": 4659,
      "Tiger": 4660,
      "Zh": 4661,
      "din": 4662,
      "iri": 4663,
      "lad": 4664,
      "sett": 4665,
      "vice": 4666,
      "intern": 4667,
      "ilar": 4668,
      "esa": 4669,
      "ito": 4670,
      "oshi": 4671,
      "ules": 4672,
      "ompson": 4673,
      "Thompson": 4674,
      "ours": 4675,
      "opening": 4676,
      "Spain": 4677,
      "Rec": 4678,
      "ments": 4679,
      "Close": 4680,
      "Diary": 4681,
      "Berg": 4682,
      "included": 4683,
      "minutes": 4684,
      "Claire": 4685,
      "Cheung": 4686,
      "Honour": 4687,
      "effects": 4688,
      "appearance": 4689,
      "fictional": 4690,
      "Helen": 4691,
      "Madea": 4692,
      "Mission": 4693,
      "great": 4694,
      "Revol": 4695,
      "Fernando": 4696,
      "Robinson": 4697,
      "Nicholas": 4698,
      "small": 4699,
      "commercial": 4700,
      ".,": 4701,
      "Ay": 4702,
      "Cop": 4703,
      "Ek": 4704,
      "Il": 4705,
      "Jun": 4706,
      "Jump": 4707,
      "Jordan": 4708,
      "Pur": 4709,
      "Ul": 4710,
      "Viv": 4711,
      "bas": 4712,
      "burn": 4713,
      "cop": 4714,
      "ired": 4715,
      "jor": 4716,
      "mill": 4717,
      "ned": 4718,
      "pse": 4719,
      "rang": 4720,
      "say": 4721,
      "stant": 4722,
      "isch": 4723,
      "andro": 4724,
      "room": 4725,
      "olo": 4726,
      "phy": 4727,
      "ogn": 4728,
      "lop": 4729,
      "ples": 4730,
      "erner": 4731,
      "Web": 4732,
      "otta": 4733,
      "Corner": 4734,
      "Smile": 4735,
      "Roscoe": 4736,
      "Force": 4737,
      "Forest": 4738,
      "working": 4739,
      "Luis": 4740,
      "Assist": 4741,
      "Directed": 4742,
      "Krish": 4743,
      "having": 4744,
      "mission": 4745,
      "Filip": 4746,
      "highest": 4747,
      "Back": 4748,
      "Coll": 4749,
      "Hom": 4750,
      "Hoff": 4751,
      "Ish": 4752,
      "Mist": 4753,
      "Nak": 4754,
      "Name": 4755,
      "Oper": 4756,
      "Other": 4757,
      "Sn": 4758,
      "Tail": 4759,
      "Ur": 4760,
      "Vol": 4761,
      "Vay": 4762,
      "bast": 4763,
      "tre": 4764,
      "turn": 4765,
      "eri": 4766,
      "there": 4767,
      "eno": 4768,
      "project": 4769,
      "Choice": 4770,
      "Channel": 4771,
      "unity": 4772,
      "iday": 4773,
      "umm": 4774,
      "apore": 4775,
      "Anita": 4776,
      "iac": 4777,
      "deal": 4778,
      "ago": 4779,
      "ikal": 4780,
      "ateg": 4781,
      "estivals": 4782,
      "Willy": 4783,
      "team": 4784,
      "Beck": 4785,
      "1955": 4786,
      "Carey": 4787,
      "Meters": 4788,
      "Sammy": 4789,
      "ashi": 4790,
      "partic": 4791,
      "ighbor": 4792,
      "critic": 4793,
      "Singapore": 4794,
      "Tragedy": 4795,
      "Graham": 4796,
      "Billy": 4797,
      "Francisco": 4798,
      "Supporting": 4799,
      "Mexican": 4800,
      "various": 4801,
      "century": 4802,
      "Original": 4803,
      "imental": 4804,
      "competition": 4805,
      "Argentine": 4806,
      "Hunter": 4807,
      "Darling": 4808,
      "52": 4809,
      "AC": 4810,
      "AI": 4811,
      "Ful": 4812,
      "Fire": 4813,
      "Hit": 4814,
      "High": 4815,
      "Ig": 4816,
      "Jess": 4817,
      "Lin": 4818,
      "More": 4819,
      "Never": 4820,
      "Nico": 4821,
      "Rachel": 4822,
      "Sur": 4823,
      "Wright": 4824,
      "Yam": 4825,
      "cor": 4826,
      "cing": 4827,
      "gel": 4828,
      "husband": 4829,
      "oe": 4830,
      "ted": 4831,
      "ör": 4832,
      "aron": 4833,
      "ario": 4834,
      "stories": 4835,
      "rible": 4836,
      "eli": 4837,
      "round": 4838,
      "leen": 4839,
      "heim": 4840,
      "Chi": 4841,
      "ivil": 4842,
      "appro": 4843,
      "Alberto": 4844,
      "oci": 4845,
      "1992": 4846,
      "exec": 4847,
      "1913": 4848,
      "works": 4849,
      "Julian": 4850,
      "Terry": 4851,
      "Regular": 4852,
      "Chapman": 4853,
      "subject": 4854,
      "Sharma": 4855,
      "Fairy": 4856,
      "Gregory": 4857,
      "previously": 4858,
      "Fighting": 4859,
      "Vikram": 4860,
      "photography": 4861,
      "Society": 4862,
      "stitute": 4863,
      "Bi": 4864,
      "Buck": 4865,
      "Come": 4866,
      "CBS": 4867,
      "Dri": 4868,
      "Fan": 4869,
      "Fel": 4870,
      "Grow": 4871,
      "Kn": 4872,
      "Lang": 4873,
      "Lions": 4874,
      "Now": 4875,
      "Past": 4876,
      "Pounds": 4877,
      "Powell": 4878,
      "Rel": 4879,
      "Rounds": 4880,
      "Ton": 4881,
      "Tib": 4882,
      "Wri": 4883,
      "ben": 4884,
      "cut": 4885,
      "count": 4886,
      "capt": 4887,
      "eight": 4888,
      "pict": 4889,
      "sit": 4890,
      "uff": 4891,
      "emp": 4892,
      "ements": 4893,
      "Chuck": 4894,
      "Stand": 4895,
      "Marriage": 4896,
      "ichi": 4897,
      "Mann": 4898,
      "Joh": 4899,
      "Joan": 4900,
      "ending": 4901,
      "Bea": 4902,
      "Broken": 4903,
      "ible": 4904,
      "Phillip": 4905,
      "ventures": 4906,
      "minute": 4907,
      "Kisses": 4908,
      "Walker": 4909,
      "daughter": 4910,
      "Francs": 4911,
      "Hills": 4912,
      "Craig": 4913,
      "Freder": 4914,
      "Super": 4915,
      "Jeffrey": 4916,
      "Warrior": 4917,
      "Warriors": 4918,
      "burg": 4919,
      "Jesse": 4920,
      "Dirty": 4921,
      "collabor": 4922,
      "Tsui": 4923,
      "Cass": 4924,
      "Cost": 4925,
      "Gay": 4926,
      "Hers": 4927,
      "Hate": 4928,
      "Iv": 4929,
      "Kam": 4930,
      "Mem": 4931,
      "Muk": 4932,
      "Off": 4933,
      "Rol": 4934,
      "Sul": 4935,
      "Some": 4936,
      "dri": 4937,
      "fast": 4938,
      "mel": 4939,
      "seven": 4940,
      "vert": 4941,
      "init": 4942,
      "ischer": 4943,
      "chang": 4944,
      "Cho": 4945,
      "ogan": 4946,
      "event": 4947,
      "Alone": 4948,
      "ugg": 4949,
      "Lead": 4950,
      "quest": 4951,
      "ahl": 4952,
      "complet": 4953,
      "Charlotte": 4954,
      "Difficult": 4955,
      "Rosen": 4956,
      "Trick": 4957,
      "Eva": 4958,
      "Murray": 4959,
      "Serious": 4960,
      "Comes": 4961,
      "Plan": 4962,
      "Laurence": 4963,
      "flu": 4964,
      "porary": 4965,
      "dition": 4966,
      "published": 4967,
      "Passion": 4968,
      "friends": 4969,
      "Slice": 4970,
      "Group": 4971,
      "Rodrig": 4972,
      "Returns": 4973,
      "praised": 4974,
      "Kapoor": 4975,
      "Gamble": 4976,
      "Eugen": 4977,
      "social": 4978,
      "signific": 4979,
      "Betty": 4980,
      "political": 4981,
      "Mitchell": 4982,
      "Pathé": 4983,
      "concerns": 4984,
      "37": 4985,
      "Bart": 4986,
      "Cir": 4987,
      "Capt": 4988,
      "Cec": 4989,
      "Domin": 4990,
      "Foster": 4991,
      "Gree": 4992,
      "Hann": 4993,
      "Haj": 4994,
      "Id": 4995,
      "Ki": 4996,
      "Kō": 4997,
      "Kurt": 4998,
      "Mason": 4999,
      "Pil": 5000,
      "Pav": 5001,
      "Pop": 5002,
      "Tat": 5003,
      "Vis": 5004,
      "Wicked": 5005,
      "banner": 5006,
      "cat": 5007,
      "cam": 5008,
      "city": 5009,
      "festivals": 5010,
      "hack": 5011,
      "met": 5012,
      "views": 5013,
      "wal": 5014,
      "lem": 5015,
      "They": 5016,
      "Chit": 5017,
      "ival": 5018,
      "Joy": 5019,
      "Deb": 5020,
      "Arms": 5021,
      "upid": 5022,
      "Sport": 5023,
      "ipal": 5024,
      "period": 5025,
      "1972": 5026,
      "1974": 5027,
      "Monkey": 5028,
      "acher": 5029,
      "Edu": 5030,
      "Eddie": 5031,
      "180": 5032,
      "Different": 5033,
      "Feet": 5034,
      "Hearts": 5035,
      "Murphy": 5036,
      "Austin": 5037,
      "history": 5038,
      "Suz": 5039,
      "appeared": 5040,
      "Vienna": 5041,
      "contro": 5042,
      "Aven": 5043,
      "Susan": 5044,
      "Turk": 5045,
      "Gilbert": 5046,
      "focuses": 5047,
      "Dutch": 5048,
      "Elliott": 5049,
      "Clouds": 5050,
      "Fistful": 5051,
      ":(": 5052,
      "AF": 5053,
      "Bed": 5054,
      "Based": 5055,
      "Bran": 5056,
      "Denn": 5057,
      "Erich": 5058,
      "Lav": 5059,
      "Mand": 5060,
      "Ng": 5061,
      "Pain": 5062,
      "Poo": 5063,
      "Ran": 5064,
      "Rid": 5065,
      "Sab": 5066,
      "Video": 5067,
      "Voice": 5068,
      "cow": 5069,
      "dal": 5070,
      "gate": 5071,
      "mor": 5072,
      "mit": 5073,
      "rin": 5074,
      "rat": 5075,
      "sl": 5076,
      "ting": 5077,
      "try": 5078,
      "dberg": 5079,
      "remade": 5080,
      "died": 5081,
      "eson": 5082,
      "ices": 5083,
      "ayan": 5084,
      "Chor": 5085,
      "ards": 5086,
      "Marg": 5087,
      "ationally": 5088,
      "Dee": 5089,
      "anta": 5090,
      "ocaly": 5091,
      "Loving": 5092,
      "uster": 5093,
      "1975": 5094,
      "Isra": 5095,
      "anya": 5096,
      "1000": 5097,
      "Whit": 5098,
      "Ever": 5099,
      "Studio": 5100,
      "Diego": 5101,
      "Lucky": 5102,
      "Claudi": 5103,
      "However": 5104,
      "Edwards": 5105,
      "Parisian": 5106,
      "brother": 5107,
      "Vijay": 5108,
      "Bullets": 5109,
      "Linda": 5110,
      "Nikol": 5111,
      "Ahmed": 5112,
      "Persian": 5113,
      "Odd": 5114,
      "significant": 5115,
      "//": 5116,
      "78": 5117,
      "Bank": 5118,
      "Count": 5119,
      "Der": 5120,
      "Fra": 5121,
      "Frit": 5122,
      "Gib": 5123,
      "Hir": 5124,
      "Mountain": 5125,
      "Oh": 5126,
      "Over": 5127,
      "Owen": 5128,
      "Pu": 5129,
      "Ple": 5130,
      "Sor": 5131,
      "Sac": 5132,
      "Tun": 5133,
      "bus": 5134,
      "bul": 5135,
      "cles": 5136,
      "categ": 5137,
      "dra": 5138,
      "mem": 5139,
      "mad": 5140,
      "mese": 5141,
      "mult": 5142,
      "pris": 5143,
      "ras": 5144,
      "som": 5145,
      "sport": 5146,
      "very": 5147,
      "wak": 5148,
      "xt": 5149,
      "ined": 5150,
      "onso": 5151,
      "rew": 5152,
      "enko": 5153,
      "head": 5154,
      "oli": 5155,
      "igar": 5156,
      "idel": 5157,
      "ulla": 5158,
      "ieve": 5159,
      "iance": 5160,
      "near": 5161,
      "Institute": 5162,
      "Nighting": 5163,
      "Sebast": 5164,
      "scene": 5165,
      "Spot": 5166,
      "Box": 5167,
      "Warm": 5168,
      "Carro": 5169,
      "Harrison": 5170,
      "1946": 5171,
      "attan": 5172,
      "Stewart": 5173,
      "dys": 5174,
      "Grace": 5175,
      "Guns": 5176,
      "Honey": 5177,
      "Chaney": 5178,
      "Sundance": 5179,
      "Troub": 5180,
      "Haunted": 5181,
      "Clarke": 5182,
      "Santa": 5183,
      "Kirk": 5184,
      "Bunch": 5185,
      "depicts": 5186,
      "major": 5187,
      "Avenue": 5188,
      "Turkish": 5189,
      "9th": 5190,
      "Ara": 5191,
      "Aaron": 5192,
      "Band": 5193,
      "Bac": 5194,
      "Cold": 5195,
      "Gop": 5196,
      "Hark": 5197,
      "Mass": 5198,
      "Rub": 5199,
      "Sear": 5200,
      "Spl": 5201,
      "Success": 5202,
      "Saint": 5203,
      "Sennett": 5204,
      "case": 5205,
      "couple": 5206,
      "fare": 5207,
      "hit": 5208,
      "held": 5209,
      "irit": 5210,
      "jamin": 5211,
      "uter": 5212,
      "anov": 5213,
      "iles": 5214,
      "orio": 5215,
      "ctive": 5216,
      "oft": 5217,
      "ione": 5218,
      "State": 5219,
      "ido": 5220,
      "illo": 5221,
      "resp": 5222,
      "Marco": 5223,
      "neth": 5224,
      "acting": 5225,
      "Than": 5226,
      "Roberto": 5227,
      "edited": 5228,
      "ipp": 5229,
      "Maz": 5230,
      "Book": 5231,
      "1911": 5232,
      "epis": 5233,
      "Cool": 5234,
      "Goes": 5235,
      "Jackie": 5236,
      "Comedy": 5237,
      "Burton": 5238,
      "Stock": 5239,
      "Stevens": 5240,
      "songs": 5241,
      "Bridges": 5242,
      "break": 5243,
      "Castle": 5244,
      "Irving": 5245,
      "Justice": 5246,
      "Brooklyn": 5247,
      "Iranian": 5248,
      "Gabriel": 5249,
      "career": 5250,
      "Destiny": 5251,
      "Idiots": 5252,
      "negative": 5253,
      "Age": 5254,
      "Crit": 5255,
      "Eg": 5256,
      "Fing": 5257,
      "Fare": 5258,
      "Hug": 5259,
      "Hiro": 5260,
      "Khan": 5261,
      "Mis": 5262,
      "Mou": 5263,
      "Niger": 5264,
      "Pi": 5265,
      "Ped": 5266,
      "Pun": 5267,
      "Vin": 5268,
      "Yas": 5269,
      "bes": 5270,
      "cu": 5271,
      "cover": 5272,
      "cca": 5273,
      "ient": 5274,
      "kel": 5275,
      "lia": 5276,
      "mal": 5277,
      "mag": 5278,
      "pite": 5279,
      "ril": 5280,
      "vir": 5281,
      "és": 5282,
      "iner": 5283,
      "another": 5284,
      "student": 5285,
      "order": 5286,
      "eds": 5287,
      "rop": 5288,
      "Theat": 5289,
      "uts": 5290,
      "ades": 5291,
      "irth": 5292,
      "urst": 5293,
      "shoot": 5294,
      "isha": 5295,
      "rama": 5296,
      "ista": 5297,
      "agraph": 5298,
      "across": 5299,
      "1944": 5300,
      "azi": 5301,
      "onda": 5302,
      "Morris": 5303,
      "Mormon": 5304,
      "Richardson": 5305,
      "Jackson": 5306,
      "England": 5307,
      "Benjamin": 5308,
      "ighter": 5309,
      "Wayne": 5310,
      "Burmese": 5311,
      "Garcia": 5312,
      "ditional": 5313,
      "Valley": 5314,
      "Soph": 5315,
      "Atl": 5316,
      "Ronin": 5317,
      "viol": 5318,
      "Screenplay": 5319,
      "Lynn": 5320,
      "Animation": 5321,
      "Message": 5322,
      "female": 5323,
      "Noble": 5324,
      "Vitagraph": 5325,
      "Shadow": 5326,
      "internationally": 5327,
      "Dennis": 5328,
      "Bog": 5329,
      "Bald": 5330,
      "Fate": 5331,
      "Five": 5332,
      "Lud": 5333,
      "Loc": 5334,
      "Nathan": 5335,
      "Odys": 5336,
      "Pad": 5337,
      "Pak": 5338,
      "Turt": 5339,
      "adi": 5340,
      "bit": 5341,
      "bury": 5342,
      "camp": 5343,
      "cement": 5344,
      "center": 5345,
      "hail": 5346,
      "tz": 5347,
      "vation": 5348,
      "zh": 5349,
      "sto": 5350,
      "sten": 5351,
      "eda": 5352,
      "asant": 5353,
      "eline": 5354,
      "ought": 5355,
      "entire": 5356,
      "igi": 5357,
      "Chow": 5358,
      "overs": 5359,
      "manuel": 5360,
      "see": 5361,
      "istry": 5362,
      "Job": 5363,
      "Debor": 5364,
      "athi": 5365,
      "iple": 5366,
      "Robertson": 5367,
      "ize": 5368,
      "Blade": 5369,
      "Schne": 5370,
      "Myers": 5371,
      "Goo": 5372,
      "include": 5373,
      "Flower": 5374,
      "genre": 5375,
      "Lucas": 5376,
      "months": 5377,
      "Times": 5378,
      "Josh": 5379,
      "Freddy": 5380,
      "Valent": 5381,
      "Kenneth": 5382,
      "iences": 5383,
      "ception": 5384,
      "Caprice": 5385,
      "lette": 5386,
      "soldi": 5387,
      "Weekend": 5388,
      "iseries": 5389,
      "Mickey": 5390,
      "Tibet": 5391,
      "picture": 5392,
      "Frederick": 5393,
      "Trouble": 5394,
      "Successful": 5395,
      "Farewell": 5396,
      "Odyssey": 5397,
      "56": 5398,
      "68": 5399,
      "Ban": 5400,
      "Bou": 5401,
      "Block": 5402,
      "Cross": 5403,
      "Couple": 5404,
      "FF": 5405,
      "Four": 5406,
      "Gö": 5407,
      "Get": 5408,
      "Gift": 5409,
      "Hob": 5410,
      "Ny": 5411,
      "Noth": 5412,
      "Rand": 5413,
      "Rum": 5414,
      "Tailor": 5415,
      "Vern": 5416,
      "Wish": 5417,
      "Werner": 5418,
      "bar": 5419,
      "cr": 5420,
      "cen": 5421,
      "gn": 5422,
      "hr": 5423,
      "happ": 5424,
      "motion": 5425,
      "ns": 5426,
      "tor": 5427,
      "uous": 5428,
      "zen": 5429,
      "still": 5430,
      "ones": 5431,
      "theme": 5432,
      "rap": 5433,
      "uture": 5434,
      "imi": 5435,
      "respect": 5436,
      "María": 5437,
      "shi": 5438,
      "Inside": 5439,
      "Things": 5440,
      "without": 5441,
      "ourse": 5442,
      "accept": 5443,
      "erek": 5444,
      "anned": 5445,
      "Reed": 5446,
      "auto": 5447,
      "Peace": 5448,
      "McG": 5449,
      "Brien": 5450,
      "Who": 5451,
      "Lock": 5452,
      "rell": 5453,
      "ankar": 5454,
      "Angry": 5455,
      "noir": 5456,
      "Terror": 5457,
      "Keith": 5458,
      "Rogers": 5459,
      "Leonard": 5460,
      "Adams": 5461,
      "grees": 5462,
      "official": 5463,
      "Sweet": 5464,
      "Bunny": 5465,
      "similar": 5466,
      "Sense": 5467,
      "Austri": 5468,
      "members": 5469,
      "revolves": 5470,
      "Sundarikal": 5471,
      "Egyptian": 5472,
      "Revolution": 5473,
      "Krishna": 5474,
      "execut": 5475,
      "Roland": 5476,
      "Sporting": 5477,
      "92": 5478,
      "Bav": 5479,
      "Civil": 5480,
      "Daw": 5481,
      "Kin": 5482,
      "Ker": 5483,
      "Kra": 5484,
      "Ni": 5485,
      "Nice": 5486,
      "NBC": 5487,
      "Pin": 5488,
      "Pill": 5489,
      "Rise": 5490,
      "Sig": 5491,
      "Too": 5492,
      "Wy": 5493,
      "Wag": 5494,
      "bles": 5495,
      "dr": 5496,
      "fer": 5497,
      "famous": 5498,
      "ior": 5499,
      "kra": 5500,
      "nick": 5501,
      "pass": 5502,
      "sie": 5503,
      "xter": 5504,
      "yl": 5505,
      "you": 5506,
      "zar": 5507,
      "ün": 5508,
      "influ": 5509,
      "alth": 5510,
      "esar": 5511,
      "tos": 5512,
      "adur": 5513,
      "cho": 5514,
      "overn": 5515,
      "few": 5516,
      "eva": 5517,
      "akh": 5518,
      "Shir": 5519,
      "Thorn": 5520,
      "dez": 5521,
      "tte": 5522,
      "Degrees": 5523,
      "Separ": 5524,
      "quel": 5525,
      "oked": 5526,
      "Geoff": 5527,
      "Adolph": 5528,
      "inski": 5529,
      "atts": 5530,
      "ukor": 5531,
      "eppe": 5532,
      "Brief": 5533,
      "Schmid": 5534,
      "therland": 5535,
      "Emmanuel": 5536,
      "Songs": 5537,
      "spira": 5538,
      "365": 5539,
      "Central": 5540,
      "Madness": 5541,
      "performed": 5542,
      "Bobby": 5543,
      "Jerry": 5544,
      "Jeremy": 5545,
      "Fellow": 5546,
      "Lonely": 5547,
      "Bahadur": 5548,
      "Irene": 5549,
      "audience": 5550,
      "explores": 5551,
      "Cameron": 5552,
      "Globe": 5553,
      "Taiwanese": 5554,
      "Lionsgate": 5555,
      "Deborah": 5556,
      "01": 5557,
      "Audi": 5558,
      "Away": 5559,
      "Es": 5560,
      "Fab": 5561,
      "Gall": 5562,
      "Gius": 5563,
      "Hou": 5564,
      "Hos": 5565,
      "Hod": 5566,
      "Know": 5567,
      "Rank": 5568,
      "VI": 5569,
      "Va": 5570,
      "bs": 5571,
      "bene": 5572,
      "done": 5573,
      "eh": 5574,
      "fun": 5575,
      "hold": 5576,
      "hai": 5577,
      "oh": 5578,
      "sold": 5579,
      "take": 5580,
      "wald": 5581,
      "zio": 5582,
      "stop": 5583,
      "stone": 5584,
      "tham": 5585,
      "although": 5586,
      "isin": 5587,
      "asse": 5588,
      "lection": 5589,
      "rage": 5590,
      "chise": 5591,
      "illian": 5592,
      "ota": 5593,
      "umber": 5594,
      "result": 5595,
      "aves": 5596,
      "Another": 5597,
      "aine": 5598,
      "antast": 5599,
      "aster": 5600,
      "ously": 5601,
      "Neil": 5602,
      "Enri": 5603,
      "auf": 5604,
      "ified": 5605,
      "wegian": 5606,
      "Guest": 5607,
      "serial": 5608,
      "izing": 5609,
      "etti": 5610,
      "ported": 5611,
      "elyn": 5612,
      "Norwegian": 5613,
      "miniseries": 5614,
      "Holiday": 5615,
      "Milton": 5616,
      "Silence": 5617,
      "Valer": 5618,
      "urai": 5619,
      "Sandra": 5620,
      "prise": 5621,
      "police": 5622,
      "Rainb": 5623,
      "Justin": 5624,
      "Ringo": 5625,
      "collection": 5626,
      "Ireland": 5627,
      "Tyler": 5628,
      "Lasky": 5629,
      "because": 5630,
      "Written": 5631,
      "Phillips": 5632,
      "spiracy": 5633,
      "Giuseppe": 5634,
      "42": 5635,
      "54": 5636,
      "Ala": 5637,
      "Apart": 5638,
      "Awak": 5639,
      "Bitzer": 5640,
      "Dup": 5641,
      "Dwar": 5642,
      "Ey": 5643,
      "Ele": 5644,
      "Erik": 5645,
      "Elop": 5646,
      "Ib": 5647,
      "Jin": 5648,
      "Jud": 5649,
      "Lis": 5650,
      "Patt": 5651,
      "Pawn": 5652,
      "Rules": 5653,
      "Sle": 5654,
      "Sak": 5655,
      "Saw": 5656,
      "Sale": 5657,
      "Tar": 5658,
      "Tree": 5659,
      "Trev": 5660,
      "Vig": 5661,
      "Wel": 5662,
      "Whe": 5663,
      "Wid": 5664,
      "aff": 5665,
      "bian": 5666,
      "cal": 5667,
      "dam": 5668,
      "far": 5669,
      "given": 5670,
      "mp": 5671,
      "nan": 5672,
      "press": 5673,
      "west": 5674,
      "dbye": 5675,
      "ora": 5676,
      "dialog": 5677,
      "roy": 5678,
      "1910": 5679,
      "ucky": 5680,
      "Stall": 5681,
      "ove": 5682,
      "phone": 5683,
      "urch": 5684,
      "aver": 5685,
      "ights": 5686,
      "whom": 5687,
      "ounced": 5688,
      "Shah": 5689,
      "Thai": 5690,
      "Roth": 5691,
      "abl": 5692,
      "arts": 5693,
      "Arri": 5694,
      "Arnold": 5695,
      "ured": 5696,
      "eyer": 5697,
      "oka": 5698,
      "playing": 5699,
      "Brother": 5700,
      "Adolf": 5701,
      "Clif": 5702,
      "Monte": 5703,
      "attack": 5704,
      "appears": 5705,
      "Bride": 5706,
      "inald": 5707,
      "ailure": 5708,
      "Barrett": 5709,
      "Tommy": 5710,
      "Steel": 5711,
      "Police": 5712,
      "Timothy": 5713,
      "Reginald": 5714,
      "brothers": 5715,
      "contin": 5716,
      "Divided": 5717,
      "Toho": 5718,
      "local": 5719,
      "Fairly": 5720,
      "rights": 5721,
      "Maiden": 5722,
      "Ernst": 5723,
      "hardt": 5724,
      "presented": 5725,
      "Moscow": 5726,
      "change": 5727,
      "Tokyo": 5728,
      "ournal": 5729,
      "Pickford": 5730,
      "Mutual": 5731,
      "ighborhood": 5732,
      "completed": 5733,
      "Greek": 5734,
      "Chorus": 5735,
      "Goodbye": 5736,
      "Awakening": 5737,
      "Elopement": 5738,
      "800": 5739,
      "Buc": 5740,
      "Bachel": 5741,
      "Cai": 5742,
      "Dry": 5743,
      "Dia": 5744,
      "Derek": 5745,
      "Fog": 5746,
      "Flo": 5747,
      "Fitz": 5748,
      "Favor": 5749,
      "Gy": 5750,
      "Hag": 5751,
      "Ku": 5752,
      "Kun": 5753,
      "Last": 5754,
      "Rh": 5755,
      "Raf": 5756,
      "Sent": 5757,
      "Sain": 5758,
      "Sah": 5759,
      "Sever": 5760,
      "Vitt": 5761,
      "Vio": 5762,
      "ao": 5763,
      "bill": 5764,
      "bour": 5765,
      "cas": 5766,
      "cess": 5767,
      "dog": 5768,
      "eth": 5769,
      "gain": 5770,
      "hattan": 5771,
      "nom": 5772,
      "ners": 5773,
      "ção": 5774,
      "él": 5775,
      "erous": 5776,
      "thi": 5777,
      "onse": 5778,
      "altern": 5779,
      "aye": 5780,
      "prot": 5781,
      "Chic": 5782,
      "Chile": 5783,
      "Chopra": 5784,
      "Stories": 5785,
      "allel": 5786,
      "fee": 5787,
      "Manhattan": 5788,
      "Independent": 5789,
      "iao": 5790,
      "earned": 5791,
      "Joey": 5792,
      "ught": 5793,
      "essa": 5794,
      "inee": 5795,
      "acation": 5796,
      "Neill": 5797,
      "auer": 5798,
      "Scenes": 5799,
      "Hein": 5800,
      "Newman": 5801,
      "Meet": 5802,
      "Corm": 5803,
      "enger": 5804,
      "Stefan": 5805,
      "full": 5806,
      "casting": 5807,
      "Glimp": 5808,
      "Gloria": 5809,
      "Swan": 5810,
      "Emily": 5811,
      "Garc": 5812,
      "Lauren": 5813,
      "awarded": 5814,
      "Terrible": 5815,
      "subsequ": 5816,
      "Skin": 5817,
      "trilogy": 5818,
      "prison": 5819,
      "Window": 5820,
      "owski": 5821,
      "guer": 5822,
      "said": 5823,
      "Divorcement": 5824,
      "Steps": 5825,
      "Mikhail": 5826,
      "Bruno": 5827,
      "Basil": 5828,
      "build": 5829,
      "Jewish": 5830,
      "Diane": 5831,
      "Philippines": 5832,
      "franchise": 5833,
      "Promise": 5834,
      "countries": 5835,
      "Baldwin": 5836,
      "93": 5837,
      "AR": 5838,
      "Bin": 5839,
      "Bow": 5840,
      "Bond": 5841,
      "Cure": 5842,
      "Could": 5843,
      "Cigar": 5844,
      "Emer": 5845,
      "Gem": 5846,
      "Ivan": 5847,
      "Ju": 5848,
      "Kan": 5849,
      "Luke": 5850,
      "Mi": 5851,
      "Ok": 5852,
      "Por": 5853,
      "Pap": 5854,
      "Ras": 5855,
      "Rab": 5856,
      "Toy": 5857,
      "Vid": 5858,
      "Wits": 5859,
      "Wake": 5860,
      "Yi": 5861,
      "Yuma": 5862,
      "dan": 5863,
      "ded": 5864,
      "ein": 5865,
      "jun": 5866,
      "lon": 5867,
      "nio": 5868,
      "odies": 5869,
      "sla": 5870,
      "wig": 5871,
      "ils": 5872,
      "organ": 5873,
      "read": 5874,
      "isy": 5875,
      "ately": 5876,
      "icz": 5877,
      "roe": 5878,
      "lear": 5879,
      "rad": 5880,
      "ention": 5881,
      "fort": 5882,
      "Chad": 5883,
      "Stake": 5884,
      "ogram": 5885,
      "Marx": 5886,
      "every": 5887,
      "aku": 5888,
      "cinemas": 5889,
      "Ant": 5890,
      "within": 5891,
      "anted": 5892,
      "ikov": 5893,
      "acy": 5894,
      "rity": 5895,
      "owns": 5896,
      "oke": 5897,
      "Scar": 5898,
      "Adventures": 5899,
      "1947": 5900,
      "onym": 5901,
      "Julius": 5902,
      "Prof": 5903,
      "Peters": 5904,
      "interviews": 5905,
      "Flat": 5906,
      "Malcol": 5907,
      "livan": 5908,
      "ancy": 5909,
      "Trap": 5910,
      "YouT": 5911,
      "Techn": 5912,
      "poor": 5913,
      "Olivier": 5914,
      "Demon": 5915,
      "narrative": 5916,
      "1909": 5917,
      "formation": 5918,
      "holm": 5919,
      "Blake": 5920,
      "Vegas": 5921,
      "listed": 5922,
      "Shock": 5923,
      "Mohamed": 5924,
      "grand": 5925,
      "single": 5926,
      "Ellery": 5927,
      "Curtis": 5928,
      "times": 5929,
      "Holmes": 5930,
      "described": 5931,
      "Ricardo": 5932,
      "Truth": 5933,
      "Hoffman": 5934,
      "Sullivan": 5935,
      "Pilot": 5936,
      "sports": 5937,
      "Fingers": 5938,
      "Schneider": 5939,
      "executive": 5940,
      "Shirley": 5941,
      "Malcolm": 5942,
      "32": 5943,
      "96": 5944,
      "Bush": 5945,
      "Cine": 5946,
      "Dress": 5947,
      "Gul": 5948,
      "Gav": 5949,
      "Gast": 5950,
      "Judi": 5951,
      "Lord": 5952,
      "MG": 5953,
      "Muse": 5954,
      "Nol": 5955,
      "Nord": 5956,
      "PBS": 5957,
      "Sri": 5958,
      "Sev": 5959,
      "Wash": 5960,
      "court": 5961,
      "fact": 5962,
      "fred": 5963,
      "jer": 5964,
      "little": 5965,
      "mat": 5966,
      "mart": 5967,
      "much": 5968,
      "modern": 5969,
      "pun": 5970,
      "rs": 5971,
      "rard": 5972,
      "rup": 5973,
      "taking": 5974,
      "vict": 5975,
      "wer": 5976,
      "zel": 5977,
      "ël": 5978,
      "arin": 5979,
      "onna": 5980,
      "reel": 5981,
      "ria": 5982,
      "ician": 5983,
      "hee": 5984,
      "hetti": 5985,
      "olly": 5986,
      "Chung": 5987,
      "Cheng": 5988,
      "eta": 5989,
      "imo": 5990,
      "otic": 5991,
      "otel": 5992,
      "Married": 5993,
      "avail": 5994,
      "odes": 5995,
      "Shame": 5996,
      "Indon": 5997,
      "Leigh": 5998,
      "athy": 5999,
      "acqu": 6000,
      "quin": 6001,
      "annon": 6002,
      "Carr": 6003,
      "exam": 6004,
      "Newton": 6005,
      "Edna": 6006,
      "ization": 6007,
      "Moe": 6008,
      "Jama": 6009,
      "novella": 6010,
      "Juliet": 6011,
      "notable": 6012,
      "Glenn": 6013,
      "Mero": 6014,
      "Desert": 6015,
      "color": 6016,
      "Raisin": 6017,
      "poss": 6018,
      "Regard": 6019,
      "Passport": 6020,
      "position": 6021,
      "Duff": 6022,
      "Slight": 6023,
      "Krist": 6024,
      "Butler": 6025,
      "anthology": 6026,
      "experiences": 6027,
      "Funny": 6028,
      "Eugene": 6029,
      "Temper": 6030,
      "Hopkins": 6031,
      "Accident": 6032,
      "Dickens": 6033,
      "current": 6034,
      "comedian": 6035,
      "Jessica": 6036,
      "Johann": 6037,
      "Cecil": 6038,
      "Hajur": 6039,
      "trying": 6040,
      "business": 6041,
      "Theatre": 6042,
      "overnment": 6043,
      "Bachelor": 6044,
      "Vittorio": 6045,
      "Violet": 6046,
      "Indones": 6047,
      "600": 6048,
      "Bennett": 6049,
      "Dom": 6050,
      "Dance": 6051,
      "Fever": 6052,
      "Fried": 6053,
      "Front": 6054,
      "Hend": 6055,
      "Hare": 6056,
      "Holl": 6057,
      "Hope": 6058,
      "HBO": 6059,
      "Kur": 6060,
      "Mig": 6061,
      "Pac": 6062,
      "Rage": 6063,
      "Sj": 6064,
      "Wend": 6065,
      "Yang": 6066,
      "bum": 6067,
      "bird": 6068,
      "future": 6069,
      "ium": 6070,
      "kal": 6071,
      "py": 6072,
      "pire": 6073,
      "tele": 6074,
      "aries": 6075,
      "those": 6076,
      "remain": 6077,
      "asa": 6078,
      "lev": 6079,
      "uchi": 6080,
      "irō": 6081,
      "ogo": 6082,
      "uli": 6083,
      "umi": 6084,
      "Marbles": 6085,
      "aped": 6086,
      "aken": 6087,
      "season": 6088,
      "Shankar": 6089,
      "Thunder": 6090,
      "istance": 6091,
      "Joel": 6092,
      "agn": 6093,
      "Although": 6094,
      "Seg": 6095,
      "Seth": 6096,
      "opened": 6097,
      "Arm": 6098,
      "contain": 6099,
      "Johnny": 6100,
      "Spy": 6101,
      "Neal": 6102,
      "anni": 6103,
      "announced": 6104,
      "Reev": 6105,
      "Board": 6106,
      "uez": 6107,
      "Been": 6108,
      "aux": 6109,
      "Guil": 6110,
      "board": 6111,
      "Conn": 6112,
      "Connor": 6113,
      "Conspiracy": 6114,
      "ettle": 6115,
      "Norway": 6116,
      "Glady": 6117,
      "nomination": 6118,
      "Decent": 6119,
      "ledge": 6120,
      "Common": 6121,
      "jee": 6122,
      "sterious": 6123,
      "Rao": 6124,
      "Arts": 6125,
      "Registry": 6126,
      "Bulgar": 6127,
      "Strong": 6128,
      "Magn": 6129,
      "strugg": 6130,
      "Happiness": 6131,
      "fourth": 6132,
      "refers": 6133,
      "numerous": 6134,
      "Lionel": 6135,
      "Boris": 6136,
      "praise": 6137,
      "African": 6138,
      "Funeral": 6139,
      "Blanche": 6140,
      "Ravi": 6141,
      "Diana": 6142,
      "personal": 6143,
      "Miracle": 6144,
      "Distant": 6145,
      "Todd": 6146,
      "style": 6147,
      "Gonz": 6148,
      "earlier": 6149,
      "Filipino": 6150,
      "Pooh": 6151,
      "Nightingale": 6152,
      "Turtle": 6153,
      "accepted": 6154,
      "Geoffrey": 6155,
      "Emmanuelle": 6156,
      "Trevor": 6157,
      "nominee": 6158,
      "YouTube": 6159,
      "Gladys": 6160,
      "Bess": 6161,
      "Cou": 6162,
      "Cab": 6163,
      "Corn": 6164,
      "Cord": 6165,
      "Dow": 6166,
      "Fu": 6167,
      "Free": 6168,
      "Hors": 6169,
      "Irish": 6170,
      "Jake": 6171,
      "Kw": 6172,
      "Kell": 6173,
      "Kub": 6174,
      "Lab": 6175,
      "Lai": 6176,
      "Lenn": 6177,
      "Lake": 6178,
      "Mine": 6179,
      "Nation": 6180,
      "Rup": 6181,
      "Ride": 6182,
      "Rif": 6183,
      "Torn": 6184,
      "Tob": 6185,
      "Vamp": 6186,
      "Wave": 6187,
      "cou": 6188,
      "cus": 6189,
      "dub": 6190,
      "fight": 6191,
      "fif": 6192,
      "fund": 6193,
      "gie": 6194,
      "hman": 6195,
      "here": 6196,
      "ju": 6197,
      "never": 6198,
      "past": 6199,
      "tries": 6200,
      "vol": 6201,
      "vill": 6202,
      "zie": 6203,
      "stem": 6204,
      "stream": 6205,
      "thia": 6206,
      "rez": 6207,
      "atra": 6208,
      "icated": 6209,
      "itness": 6210,
      "emi": 6211,
      "adh": 6212,
      "iga": 6213,
      "Storm": 6214,
      "idden": 6215,
      "distribution": 6216,
      "cker": 6217,
      "apart": 6218,
      "aks": 6219,
      "Filming": 6220,
      "Shane": 6221,
      "Roach": 6222,
      "ager": 6223,
      "Leaf": 6224,
      "Christine": 6225,
      "arland": 6226,
      "Ennio": 6227,
      "Ref": 6228,
      "itted": 6229,
      "Clar": 6230,
      "issa": 6231,
      "weet": 6232,
      "Edwin": 6233,
      "Isab": 6234,
      "Island": 6235,
      "13th": 6236,
      "Blu": 6237,
      "Blind": 6238,
      "Work": 6239,
      "Goof": 6240,
      "Boys": 6241,
      "Stars": 6242,
      "Youth": 6243,
      "Caroline": 6244,
      "animation": 6245,
      "Chester": 6246,
      "Associ": 6247,
      "Poet": 6248,
      "Beauty": 6249,
      "Sharon": 6250,
      "Help": 6251,
      "throughout": 6252,
      "Half": 6253,
      "Montreal": 6254,
      "Giov": 6255,
      "invest": 6256,
      "Sherlock": 6257,
      "Tales": 6258,
      "Underground": 6259,
      "narrated": 6260,
      "Florida": 6261,
      "League": 6262,
      "portrays": 6263,
      "Bronx": 6264,
      "Escape": 6265,
      "Sadness": 6266,
      "attempts": 6267,
      "Strauss": 6268,
      "Alexandre": 6269,
      "Havana": 6270,
      "Zhang": 6271,
      "setting": 6272,
      "Nicole": 6273,
      "Joyce": 6274,
      "Claudia": 6275,
      "multiple": 6276,
      "Carroll": 6277,
      "Chicago": 6278,
      "available": 6279,
      "Miguel": 6280,
      "Bike": 6281,
      "Dig": 6282,
      "Event": 6283,
      "Fantast": 6284,
      "Gaz": 6285,
      "Gather": 6286,
      "Hrs": 6287,
      "Len": 6288,
      "Liz": 6289,
      "Luk": 6290,
      "Mong": 6291,
      "Mend": 6292,
      "Mouse": 6293,
      "Oz": 6294,
      "Pen": 6295,
      "Penn": 6296,
      "Rut": 6297,
      "Rag": 6298,
      "Sally": 6299,
      "Settle": 6300,
      "Ti": 6301,
      "Ukra": 6302,
      "Viet": 6303,
      "Yuri": 6304,
      "big": 6305,
      "celand": 6306,
      "fly": 6307,
      "feld": 6308,
      "hab": 6309,
      "kid": 6310,
      "lu": 6311,
      "must": 6312,
      "mund": 6313,
      "ng": 6314,
      "ps": 6315,
      "på": 6316,
      "pie": 6317,
      "san": 6318,
      "sus": 6319,
      "uil": 6320,
      "via": 6321,
      "ances": 6322,
      "thod": 6323,
      "onde": 6324,
      "repris": 6325,
      "reported": 6326,
      "rif": 6327,
      "thel": 6328,
      "rock": 6329,
      "ament": 6330,
      "oux": 6331,
      "cht": 6332,
      "chronic": 6333,
      "Chu": 6334,
      "Stupid": 6335,
      "ulu": 6336,
      "esthet": 6337,
      "separ": 6338,
      "Maniac": 6339,
      "Ing": 6340,
      "Role": 6341,
      "rane": 6342,
      "becomes": 6343,
      "tty": 6344,
      "agar": 6345,
      "aghetti": 6346,
      "ache": 6347,
      "ustry": 6348,
      "assin": 6349,
      "ends": 6350,
      "Carn": 6351,
      "Gert": 6352,
      "meet": 6353,
      "Clay": 6354,
      "undred": 6355,
      "McCorm": 6356,
      "Britt": 6357,
      "elebr": 6358,
      "Streetcar": 6359,
      "Moroc": 6360,
      "Abd": 6361,
      "Alec": 6362,
      "Alek": 6363,
      "Frankie": 6364,
      "Henrik": 6365,
      "Sergio": 6366,
      "uriel": 6367,
      "worked": 6368,
      "Gener": 6369,
      "sched": 6370,
      "Childhood": 6371,
      "mostly": 6372,
      "Rogue": 6373,
      "accident": 6374,
      "ández": 6375,
      "liter": 6376,
      "Ronald": 6377,
      "Olcott": 6378,
      "Letters": 6379,
      "community": 6380,
      "financ": 6381,
      "Swee": 6382,
      "Hughes": 6383,
      "discover": 6384,
      "Business": 6385,
      "Waiting": 6386,
      "Romantic": 6387,
      "Bhatt": 6388,
      "classic": 6389,
      "Emilio": 6390,
      "killed": 6391,
      "Gérard": 6392,
      "Movies": 6393,
      "Violent": 6394,
      "Grows": 6395,
      "employ": 6396,
      "controvers": 6397,
      "Mandarin": 6398,
      "Hobart": 6399,
      "García": 6400,
      "MGM": 6401,
      "Reeves": 6402,
      "Vietnam": 6403,
      "Maniacs": 6404,
      "46": 6405,
      "AB": 6406,
      "Bark": 6407,
      "Brent": 6408,
      "Cave": 6409,
      "Doc": 6410,
      "Dwan": 6411,
      "Fuk": 6412,
      "Finn": 6413,
      "Failure": 6414,
      "Garland": 6415,
      "Ht": 6416,
      "Had": 6417,
      "Hamil": 6418,
      "Hamp": 6419,
      "Kel": 6420,
      "Lun": 6421,
      "Lip": 6422,
      "Mam": 6423,
      "Mabel": 6424,
      "Nad": 6425,
      "Near": 6426,
      "Orange": 6427,
      "Pos": 6428,
      "Pear": 6429,
      "Vo": 6430,
      "Vacation": 6431,
      "Wanda": 6432,
      "Zen": 6433,
      "aesthet": 6434,
      "canc": 6435,
      "dings": 6436,
      "eper": 6437,
      "got": 6438,
      "minal": 6439,
      "tuous": 6440,
      "vest": 6441,
      "vide": 6442,
      "wing": 6443,
      "wid": 6444,
      "ère": 6445,
      "ít": 6446,
      "ка": 6447,
      "ст": 6448,
      "anmar": 6449,
      "state": 6450,
      "ilt": 6451,
      "orious": 6452,
      "aling": 6453,
      "aton": 6454,
      "dist": 6455,
      "icia": 6456,
      "often": 6457,
      "elo": 6458,
      "oud": 6459,
      "Their": 6460,
      "usion": 6461,
      "cha": 6462,
      "igan": 6463,
      "igence": 6464,
      "etz": 6465,
      "etch": 6466,
      "Study": 6467,
      "ović": 6468,
      "illon": 6469,
      "urally": 6470,
      "alli": 6471,
      "Marguer": 6472,
      "akov": 6473,
      "Shoot": 6474,
      "Thor": 6475,
      "istan": 6476,
      "Alt": 6477,
      "Deal": 6478,
      "Sey": 6479,
      "contra": 6480,
      "Neath": 6481,
      "Neighborhood": 6482,
      "industry": 6483,
      "Hari": 6484,
      "cohol": 6485,
      "Davies": 6486,
      "Parallel": 6487,
      "exual": 6488,
      "Heidel": 6489,
      "eping": 6490,
      "Souza": 6491,
      "ibre": 6492,
      "aily": 6493,
      "Acres": 6494,
      "Coy": 6495,
      "Morals": 6496,
      "Quinn": 6497,
      "Pauline": 6498,
      "Myanmar": 6499,
      "Price": 6500,
      "Franklyn": 6501,
      "Menon": 6502,
      "Russia": 6503,
      "goes": 6504,
      "Lois": 6505,
      "parents": 6506,
      "360": 6507,
      "Sheep": 6508,
      "Claus": 6509,
      "Laurent": 6510,
      "Heroes": 6511,
      "media": 6512,
      "lovak": 6513,
      "Earle": 6514,
      "Horror": 6515,
      "marks": 6516,
      "market": 6517,
      "point": 6518,
      "Passage": 6519,
      "Doris": 6520,
      "stead": 6521,
      "Principal": 6522,
      "historically": 6523,
      "Virtuous": 6524,
      "Once": 6525,
      "moon": 6526,
      "Northern": 6527,
      "Denis": 6528,
      "René": 6529,
      "Twist": 6530,
      "culturally": 6531,
      "Kathleen": 6532,
      "Kras": 6533,
      "Kentucky": 6534,
      "Chaos": 6535,
      "Bryan": 6536,
      "standing": 6537,
      "Hazard": 6538,
      "preservation": 6539,
      "Taxing": 6540,
      "Campbell": 6541,
      "Nicolas": 6542,
      "stantin": 6543,
      "Biograph": 6544,
      "collaboration": 6545,
      "Rodrigo": 6546,
      "Hugo": 6547,
      "Vernon": 6548,
      "Wagner": 6549,
      "Schmidt": 6550,
      "dialogue": 6551,
      "Clifford": 6552,
      "investig": 6553,
      "Hamilton": 6554,
      "Marguerite": 6555,
      "38": 6556,
      "41": 6557,
      "43": 6558,
      "8mm": 6559,
      "AM": 6560,
      "Aa": 6561,
      "Aung": 6562,
      "Bes": 6563,
      "Bres": 6564,
      "Benny": 6565,
      "Cand": 6566,
      "Came": 6567,
      "Cyn": 6568,
      "Dj": 6569,
      "Dag": 6570,
      "Final": 6571,
      "Famous": 6572,
      "Fighter": 6573,
      "Gray": 6574,
      "Kick": 6575,
      "Khal": 6576,
      "Led": 6577,
      "Let": 6578,
      "Mod": 6579,
      "Make": 6580,
      "Mull": 6581,
      "Nig": 6582,
      "Pic": 6583,
      "Ré": 6584,
      "Rib": 6585,
      "Rough": 6586,
      "Sv": 6587,
      "Sie": 6588,
      "Tav": 6589,
      "Um": 6590,
      "Vel": 6591,
      "Wol": 6592,
      "XX": 6593,
      "face": 6594,
      "gren": 6595,
      "hon": 6596,
      "ku": 6597,
      "sz": 6598,
      "tro": 6599,
      "vind": 6600,
      "watch": 6601,
      "ár": 6602,
      "ène": 6603,
      "inent": 6604,
      "inian": 6605,
      "aring": 6606,
      "things": 6607,
      "atural": 6608,
      "omi": 6609,
      "eless": 6610,
      "elements": 6611,
      "rob": 6612,
      "itary": 6613,
      "tery": 6614,
      "heed": 6615,
      "rath": 6616,
      "too": 6617,
      "toward": 6618,
      "Theod": 6619,
      "emporary": 6620,
      "Stro": 6621,
      "ango": 6622,
      "bute": 6623,
      "estic": 6624,
      "iana": 6625,
      "ryn": 6626,
      "seen": 6627,
      "comic": 6628,
      "deep": 6629,
      "behind": 6630,
      "conf": 6631,
      "Johnnie": 6632,
      "Spenc": 6633,
      "Spaghetti": 6634,
      "Major": 6635,
      "pert": 6636,
      "Harlem": 6637,
      "Michele": 6638,
      "Elia": 6639,
      "Clowns": 6640,
      "computer": 6641,
      "ording": 6642,
      "McKim": 6643,
      "iewicz": 6644,
      "Cook": 6645,
      "Abel": 6646,
      "Abbas": 6647,
      "ghan": 6648,
      "Samurai": 6649,
      "Jeanne": 6650,
      "blem": 6651,
      "Fluff": 6652,
      "Empire": 6653,
      "Robb": 6654,
      "borg": 6655,
      "Andrea": 6656,
      "Bull": 6657,
      "Lars": 6658,
      "Larcen": 6659,
      "MacDonald": 6660,
      "Silva": 6661,
      "Magdal": 6662,
      "23rd": 6663,
      "Angels": 6664,
      "Soldiers": 6665,
      "Self": 6666,
      "True": 6667,
      "experimental": 6668,
      "Wolfgang": 6669,
      "ificial": 6670,
      "Fleischer": 6671,
      "ufact": 6672,
      "Mrs": 6673,
      "Crooked": 6674,
      "Oswald": 6675,
      "Ellis": 6676,
      "profess": 6677,
      "Rudolf": 6678,
      "mujer": 6679,
      "Canton": 6680,
      "development": 6681,
      "Village": 6682,
      "Garden": 6683,
      "Homes": 6684,
      "Captain": 6685,
      "camera": 6686,
      "Sebastian": 6687,
      "Critics": 6688,
      "Pedro": 6689,
      "Blocks": 6690,
      "respectively": 6691,
      "Glimpse": 6692,
      "Profession": 6693,
      "Temperament": 6694,
      "Clarence": 6695,
      "Goofy": 6696,
      "aesthetically": 6697,
      "Heidelberg": 6698,
      "Cynthia": 6699,
      "Spencer": 6700,
      "Larceny": 6701,
      "51": 6702,
      "AD": 6703,
      "Ath": 6704,
      "Bach": 6705,
      "Cott": 6706,
      "Dum": 6707,
      "Dale": 6708,
      "From": 6709,
      "Hil": 6710,
      "Harl": 6711,
      "Jen": 6712,
      "Jag": 6713,
      "Jury": 6714,
      "Kenn": 6715,
      "Lit": 6716,
      "Lives": 6717,
      "Mot": 6718,
      "Nap": 6719,
      "Nine": 6720,
      "Pul": 6721,
      "Pai": 6722,
      "Prab": 6723,
      "Rou": 6724,
      "Raw": 6725,
      "Races": 6726,
      "Say": 6727,
      "Tin": 6728,
      "Vita": 6729,
      "Whis": 6730,
      "Yves": 6731,
      "Zukor": 6732,
      "bri": 6733,
      "bad": 6734,
      "blo": 6735,
      "cially": 6736,
      "dos": 6737,
      "dark": 6738,
      "fat": 6739,
      "fel": 6740,
      "gs": 6741,
      "government": 6742,
      "journey": 6743,
      "kumar": 6744,
      "taken": 6745,
      "vs": 6746,
      "ík": 6747,
      "stra": 6748,
      "ilder": 6749,
      "ility": 6750,
      "edt": 6751,
      "asi": 6752,
      "road": 6753,
      "emic": 6754,
      "process": 6755,
      "idan": 6756,
      "ills": 6757,
      "illy": 6758,
      "Marine": 6759,
      "avier": 6760,
      "Shi": 6761,
      "Ther": 6762,
      "beck": 6763,
      "begin": 6764,
      "agement": 6765,
      "lying": 6766,
      "Leung": 6767,
      "confl": 6768,
      "Christensen": 6769,
      "Eng": 6770,
      "anning": 6771,
      "Rein": 6772,
      "endra": 6773,
      "Willis": 6774,
      "Bee": 6775,
      "Beery": 6776,
      "Behind": 6777,
      "Hep": 6778,
      "Michelle": 6779,
      "woo": 6780,
      "word": 6781,
      "comple": 6782,
      "atty": 6783,
      "Richter": 6784,
      "eps": 6785,
      "Blonde": 6786,
      "Bright": 6787,
      "Cox": 6788,
      "Brass": 6789,
      "Colony": 6790,
      "crew": 6791,
      "intro": 6792,
      "Emmy": 6793,
      "Grey": 6794,
      "living": 6795,
      "ucci": 6796,
      "sequences": 6797,
      "Farm": 6798,
      "Cinematograph": 6799,
      "Daniels": 6800,
      "Calibre": 6801,
      "Doug": 6802,
      "Baxter": 6803,
      "selves": 6804,
      "support": 6805,
      "Valentine": 6806,
      "Weddings": 6807,
      "Balance": 6808,
      "Doctor": 6809,
      "Upon": 6810,
      "marked": 6811,
      "Vanessa": 6812,
      "Marcello": 6813,
      "29th": 6814,
      "owsky": 6815,
      "Winters": 6816,
      "Distributors": 6817,
      "Godf": 6818,
      "Sheriff": 6819,
      "Twent": 6820,
      "culture": 6821,
      "demand": 6822,
      "Ferr": 6823,
      "Kyaw": 6824,
      "finished": 6825,
      "Mills": 6826,
      "Brazil": 6827,
      "AKA": 6828,
      "Budd": 6829,
      "sexual": 6830,
      "Sergey": 6831,
      "Against": 6832,
      "Wooing": 6833,
      "digital": 6834,
      "preserved": 6835,
      "Ticket": 6836,
      "involved": 6837,
      "Caval": 6838,
      "Fritz": 6839,
      "Search": 6840,
      "Nigerian": 6841,
      "Atlanta": 6842,
      "ylum": 6843,
      "Stalling": 6844,
      "alternative": 6845,
      "Gavin": 6846,
      "Washington": 6847,
      "Fantastic": 6848,
      "Kennedy": 6849,
      "conflict": 6850,
      "39": 6851,
      "Cos": 6852,
      "Cut": 6853,
      "Cort": 6854,
      "Cup": 6855,
      "Crick": 6856,
      "Did": 6857,
      "Dust": 6858,
      "Duck": 6859,
      "Ess": 6860,
      "Fr": 6861,
      "Fact": 6862,
      "Feder": 6863,
      "Gest": 6864,
      "Gla": 6865,
      "Gould": 6866,
      "Jazz": 6867,
      "Kul": 6868,
      "Kitt": 6869,
      "Kane": 6870,
      "Lat": 6871,
      "Lag": 6872,
      "Lust": 6873,
      "Nach": 6874,
      "Ob": 6875,
      "Ox": 6876,
      "Offic": 6877,
      "PC": 6878,
      "Pag": 6879,
      "Pab": 6880,
      "Press": 6881,
      "Rad": 6882,
      "Rust": 6883,
      "Round": 6884,
      "Sem": 6885,
      "Sue": 6886,
      "TA": 6887,
      "Tight": 6888,
      "Vic": 6889,
      "Yosh": 6890,
      "cio": 6891,
      "document": 6892,
      "fa": 6893,
      "fre": 6894,
      "fair": 6895,
      "gay": 6896,
      "game": 6897,
      "hen": 6898,
      "hous": 6899,
      "hip": 6900,
      "horn": 6901,
      "hours": 6902,
      "ias": 6903,
      "jandro": 6904,
      "ller": 6905,
      "mis": 6906,
      "may": 6907,
      "pan": 6908,
      "phe": 6909,
      "put": 6910,
      "rand": 6911,
      "sour": 6912,
      "ued": 6913,
      "wy": 6914,
      "whe": 6915,
      "éric": 6916,
      "sta": 6917,
      "stre": 6918,
      "once": 6919,
      "reement": 6920,
      "alo": 6921,
      "aland": 6922,
      "ators": 6923,
      "iche": 6924,
      "icide": 6925,
      "amura": 6926,
      "1908": 6927,
      "radio": 6928,
      "olk": 6929,
      "ayam": 6930,
      "Chatter": 6931,
      "Store": 6932,
      "univers": 6933,
      "oven": 6934,
      "ovic": 6935,
      "ovich": 6936,
      "ims": 6937,
      "urs": 6938,
      "ishi": 6939,
      "Shu": 6940,
      "Inn": 6941,
      "ramp": 6942,
      "orton": 6943,
      "Joanne": 6944,
      "anton": 6945,
      "upp": 6946,
      "Lovers": 6947,
      "tech": 6948,
      "techn": 6949,
      "Carter": 6950,
      "mez": 6951,
      "pez": 6952,
      "Edgar": 6953,
      "Weaver": 6954,
      "Dix": 6955,
      "Romanian": 6956,
      "Amor": 6957,
      "Blues": 6958,
      "Alejandro": 6959,
      "Goat": 6960,
      "review": 6961,
      "princ": 6962,
      "Form": 6963,
      "Bened": 6964,
      "interview": 6965,
      "intended": 6966,
      "Desi": 6967,
      "travel": 6968,
      "Comm": 6969,
      "Melodies": 6970,
      "Millionaire": 6971,
      "Luigi": 6972,
      "Chest": 6973,
      "Grasse": 6974,
      "shows": 6975,
      "Sklad": 6976,
      "Angelo": 6977,
      "themselves": 6978,
      "Leonid": 6979,
      "Dylan": 6980,
      "Olga": 6981,
      "Missing": 6982,
      "Turner": 6983,
      "Mastro": 6984,
      "Gior": 6985,
      "Natural": 6986,
      "Notorious": 6987,
      "Deadly": 6988,
      "biography": 6989,
      "homos": 6990,
      "survives": 6991,
      "Classic": 6992,
      "Animated": 6993,
      "icolor": 6994,
      "Creature": 6995,
      "referred": 6996,
      "Bengali": 6997,
      "human": 6998,
      "Sylvester": 6999,
      "ATL": 7000,
      "Gustav": 7001,
      "greatest": 7002,
      "Vivian": 7003,
      "ranged": 7004,
      "Collins": 7005,
      "particip": 7006,
      "Singaporean": 7007,
      "Nowhere": 7008,
      "Monkeys": 7009,
      "Israeli": 7010,
      "shooting": 7011,
      "centers": 7012,
      "Pillow": 7013,
      "Separation": 7014,
      "Technicolor": 7015,
      "Jamaica": 7016,
      "currently": 7017,
      "Sjö": 7018,
      "apartment": 7019,
      "Hampton": 7020,
      "Cantonese": 7021,
      "Vitaphone": 7022,
      "Gesture": 7023,
      "Skladan": 7024,
      "67": 7025,
      "84": 7026,
      "Body": 7027,
      "Cu": 7028,
      "Cumm": 7029,
      "Dud": 7030,
      "Dana": 7031,
      "Fame": 7032,
      "Frel": 7033,
      "Gur": 7034,
      "Hold": 7035,
      "Iron": 7036,
      "Kla": 7037,
      "Key": 7038,
      "Lund": 7039,
      "Map": 7040,
      "Muriel": 7041,
      "Nan": 7042,
      "Ner": 7043,
      "Oka": 7044,
      "Pig": 7045,
      "Pearl": 7046,
      "Rit": 7047,
      "Rolf": 7048,
      "Seven": 7049,
      "Sica": 7050,
      "Sorrow": 7051,
      "Saga": 7052,
      "Tas": 7053,
      "Twas": 7054,
      "Wes": 7055,
      "Wise": 7056,
      "Wyn": 7057,
      "Watts": 7058,
      "Yun": 7059,
      "affair": 7060,
      "birth": 7061,
      "cin": 7062,
      "cap": 7063,
      "cross": 7064,
      "det": 7065,
      "fig": 7066,
      "fail": 7067,
      "km": 7068,
      "los": 7069,
      "mph": 7070,
      "math": 7071,
      "mine": 7072,
      "oir": 7073,
      "si": 7074,
      "sell": 7075,
      "sper": 7076,
      "sung": 7077,
      "vall": 7078,
      "yuki": 7079,
      "är": 7080,
      "ро": 7081,
      "iley": 7082,
      "enge": 7083,
      "ribut": 7084,
      "atsu": 7085,
      "div": 7086,
      "omon": 7087,
      "itan": 7088,
      "left": 7089,
      "2036": 7090,
      "emm": 7091,
      "ems": 7092,
      "aded": 7093,
      "Chronic": 7094,
      "Sté": 7095,
      "Stor": 7096,
      "unch": 7097,
      "import": 7098,
      "uled": 7099,
      "ultery": 7100,
      "arde": 7101,
      "producers": 7102,
      "uman": 7103,
      "ersey": 7104,
      "Martha": 7105,
      "apa": 7106,
      "aper": 7107,
      "Shel": 7108,
      "Intell": 7109,
      "Ana": 7110,
      "Any": 7111,
      "activ": 7112,
      "actual": 7113,
      "Throw": 7114,
      "agh": 7115,
      "quake": 7116,
      "Reck": 7117,
      "Beach": 7118,
      "1950s": 7119,
      "Scors": 7120,
      "meets": 7121,
      "itself": 7122,
      "Adapt": 7123,
      "Peep": 7124,
      "Peking": 7125,
      "1970s": 7126,
      "wealth": 7127,
      "12th": 7128,
      "uko": 7129,
      "ricia": 7130,
      "Amir": 7131,
      "ibal": 7132,
      "While": 7133,
      "Franklin": 7134,
      "parts": 7135,
      "Jonah": 7136,
      "Evans": 7137,
      "Glory": 7138,
      "Patch": 7139,
      "Patricia": 7140,
      "Desmond": 7141,
      "Serbian": 7142,
      "urious": 7143,
      "Looney": 7144,
      "Burgl": 7145,
      "Burke": 7146,
      "Afghan": 7147,
      "does": 7148,
      "Noisy": 7149,
      "16th": 7150,
      "Asylum": 7151,
      "Terence": 7152,
      "Karab": 7153,
      "Sweden": 7154,
      "Canção": 7155,
      "Salem": 7156,
      "Lux": 7157,
      "Palme": 7158,
      "Verne": 7159,
      "Soe": 7160,
      "account": 7161,
      "Direction": 7162,
      "Stephan": 7163,
      "Break": 7164,
      "Image": 7165,
      "Lindsay": 7166,
      "Heads": 7167,
      "Denmark": 7168,
      "Pieces": 7169,
      "Months": 7170,
      "Butter": 7171,
      "Caesar": 7172,
      "pects": 7173,
      "Gamb": 7174,
      "Burns": 7175,
      "Burning": 7176,
      "Resistance": 7177,
      "ombie": 7178,
      "iju": 7179,
      "Social": 7180,
      "pped": 7181,
      "reference": 7182,
      "Miracles": 7183,
      "Cameras": 7184,
      "European": 7185,
      "Hunting": 7186,
      "Plains": 7187,
      "Rahman": 7188,
      "placed": 7189,
      "Legend": 7190,
      "Jorge": 7191,
      "Bergman": 7192,
      "copy": 7193,
      "Drive": 7194,
      "Memory": 7195,
      "ocalypse": 7196,
      "Tunes": 7197,
      "category": 7198,
      "Egg": 7199,
      "Ludwig": 7200,
      "Saints": 7201,
      "Museum": 7202,
      "Reflection": 7203,
      "Federico": 7204,
      "Oxford": 7205,
      "Cummings": 7206,
      "Scorsese": 7207,
      "42nd": 7208,
      "59": 7209,
      "AG": 7210,
      "Bid": 7211,
      "Blast": 7212,
      "BAF": 7213,
      "Dob": 7214,
      "Dhan": 7215,
      "Fut": 7216,
      "Fonda": 7217,
      "Gas": 7218,
      "Him": 7219,
      "Hak": 7220,
      "If": 7221,
      "Ide": 7222,
      "Jang": 7223,
      "Kish": 7224,
      "Lé": 7225,
      "Lass": 7226,
      "Lank": 7227,
      "Mish": 7228,
      "Math": 7229,
      "Miy": 7230,
      "Nay": 7231,
      "Page": 7232,
      "Rising": 7233,
      "Som": 7234,
      "Sir": 7235,
      "Siv": 7236,
      "Side": 7237,
      "Sai": 7238,
      "Tol": 7239,
      "Top": 7240,
      "Vish": 7241,
      "Wives": 7242,
      "Wanted": 7243,
      "bing": 7244,
      "bott": 7245,
      "cell": 7246,
      "dream": 7247,
      "good": 7248,
      "gress": 7249,
      "giving": 7250,
      "job": 7251,
      "kj": 7252,
      "male": 7253,
      "mail": 7254,
      "nik": 7255,
      "pel": 7256,
      "pose": 7257,
      "ration": 7258,
      "rated": 7259,
      "yt": 7260,
      "yal": 7261,
      "år": 7262,
      "ît": 7263,
      "ński": 7264,
      "inile": 7265,
      "anu": 7266,
      "ering": 7267,
      "aro": 7268,
      "aria": 7269,
      "stru": 7270,
      "thought": 7271,
      "edles": 7272,
      "asure": 7273,
      "amoto": 7274,
      "rav": 7275,
      "osa": 7276,
      "addition": 7277,
      "usa": 7278,
      "chik": 7279,
      "geon": 7280,
      "Ching": 7281,
      "imate": 7282,
      "anga": 7283,
      "bers": 7284,
      "ianni": 7285,
      "Marian": 7286,
      "seg": 7287,
      "Shr": 7288,
      "Roh": 7289,
      "becoming": 7290,
      "isters": 7291,
      "agon": 7292,
      "ably": 7293,
      "Leis": 7294,
      "athers": 7295,
      "uda": 7296,
      "urel": 7297,
      "ques": 7298,
      "Spice": 7299,
      "ernatural": 7300,
      "Boston": 7301,
      "icken": 7302,
      "imeter": 7303,
      "preced": 7304,
      "hero": 7305,
      "Elmer": 7306,
      "Conway": 7307,
      "Conscience": 7308,
      "Wei": 7309,
      "Weed": 7310,
      "Amanda": 7311,
      "Feat": 7312,
      "Feud": 7313,
      "ettes": 7314,
      "Morrison": 7315,
      "Brando": 7316,
      "Colon": 7317,
      "Pró": 7318,
      "Stein": 7319,
      "aldo": 7320,
      "Berry": 7321,
      "Berger": 7322,
      "Beno": 7323,
      "Emma": 7324,
      "Plumb": 7325,
      "Sunil": 7326,
      "Artificial": 7327,
      "Madonna": 7328,
      "Poland": 7329,
      "married": 7330,
      "marriage": 7331,
      "Calam": 7332,
      "super": 7333,
      "supernatural": 7334,
      "stones": 7335,
      "Earn": 7336,
      "Balt": 7337,
      "Poor": 7338,
      "Ramesh": 7339,
      "Crist": 7340,
      "locations": 7341,
      "mainly": 7342,
      "themes": 7343,
      "Spect": 7344,
      "Crazy": 7345,
      "Broadcasting": 7346,
      "Winnie": 7347,
      "Turkey": 7348,
      "Freed": 7349,
      "Arabia": 7350,
      "Trilogy": 7351,
      "Jacqueline": 7352,
      "hua": 7353,
      "49th": 7354,
      "studios": 7355,
      "antha": 7356,
      "banks": 7357,
      "ridge": 7358,
      "Shafee": 7359,
      "teenage": 7360,
      "Duncan": 7361,
      "Damian": 7362,
      "Damsel": 7363,
      "Flea": 7364,
      "Apocalypse": 7365,
      "finds": 7366,
      "Florence": 7367,
      "running": 7368,
      "1898": 7369,
      "society": 7370,
      "Everything": 7371,
      "Trem": 7372,
      "Hotel": 7373,
      "inyin": 7374,
      "recorded": 7375,
      "Francesco": 7376,
      "belie": 7377,
      "Cuban": 7378,
      "Distress": 7379,
      "Zealand": 7380,
      "Taxi": 7381,
      "network": 7382,
      "Violence": 7383,
      "Record": 7384,
      "Opera": 7385,
      "particular": 7386,
      "Beaumont": 7387,
      "Eduard": 7388,
      "Painter": 7389,
      "Everett": 7390,
      "episodes": 7391,
      "Sophie": 7392,
      "Nothing": 7393,
      "Austrian": 7394,
      "drug": 7395,
      "Rainbow": 7396,
      "Eyes": 7397,
      "Scarlet": 7398,
      "Indonesian": 7399,
      "Henderson": 7400,
      "Rupert": 7401,
      "Rifles": 7402,
      "dubbed": 7403,
      "Digital": 7404,
      "Finnish": 7405,
      "Nigel": 7406,
      "ufacturing": 7407,
      "Hepburn": 7408,
      "homosexual": 7409,
      "Skladanowsky": 7410,
      "Chronicle": 7411,
      "Intelligence": 7412,
      "Butterfly": 7413,
      "BAFTA": 7414,
      "06": 7415,
      "61": 7416,
      "69": 7417,
      "AN": 7418,
      "Bever": 7419,
      "CO": 7420,
      "Cun": 7421,
      "Cot": 7422,
      "Cart": 7423,
      "Cés": 7424,
      "Dad": 7425,
      "Dim": 7426,
      "Dur": 7427,
      "Dul": 7428,
      "Dell": 7429,
      "Drama": 7430,
      "Fug": 7431,
      "Gó": 7432,
      "Gir": 7433,
      "Gran": 7434,
      "Hig": 7435,
      "Hood": 7436,
      "IF": 7437,
      "Jersey": 7438,
      "Kor": 7439,
      "Kris": 7440,
      "Luck": 7441,
      "Nic": 7442,
      "Oly": 7443,
      "Pure": 7444,
      "Pere": 7445,
      "Puri": 7446,
      "RK": 7447,
      "Ri": 7448,
      "SS": 7449,
      "Sz": 7450,
      "Ster": 7451,
      "Sung": 7452,
      "Test": 7453,
      "Toni": 7454,
      "Vista": 7455,
      "Yuk": 7456,
      "bia": 7457,
      "cir": 7458,
      "could": 7459,
      "dest": 7460,
      "ders": 7461,
      "ee": 7462,
      "journal": 7463,
      "kh": 7464,
      "kete": 7465,
      "pal": 7466,
      "pand": 7467,
      "porn": 7468,
      "power": 7469,
      "pinyin": 7470,
      "sati": 7471,
      "té": 7472,
      "tour": 7473,
      "ware": 7474,
      "wind": 7475,
      "Éric": 7476,
      "ák": 7477,
      "anay": 7478,
      "erotic": 7479,
      "ares": 7480,
      "araj": 7481,
      "enzo": 7482,
      "album": 7483,
      "ises": 7484,
      "started": 7485,
      "icy": 7486,
      "elia": 7487,
      "heav": 7488,
      "2046": 7489,
      "race": 7490,
      "writing": 7491,
      "ucks": 7492,
      "advert": 7493,
      "chard": 7494,
      "Chase": 7495,
      "etime": 7496,
      "Student": 7497,
      "ovsky": 7498,
      "idy": 7499,
      "imag": 7500,
      "imately": 7501,
      "phane": 7502,
      "umed": 7503,
      "oda": 7504,
      "secret": 7505,
      "Mano": 7506,
      "Many": 7507,
      "Manufacturing": 7508,
      "Ince": 7509,
      "begins": 7510,
      "Aless": 7511,
      "plom": 7512,
      "udes": 7513,
      "quer": 7514,
      "Christy": 7515,
      "upta": 7516,
      "Spar": 7517,
      "Spirit": 7518,
      "Neuf": 7519,
      "Needles": 7520,
      "ipper": 7521,
      "assist": 7522,
      "Bother": 7523,
      "Score": 7524,
      "Peg": 7525,
      "served": 7526,
      "McGu": 7527,
      "azine": 7528,
      "22nd": 7529,
      "eleb": 7530,
      "eleine": 7531,
      "Schul": 7532,
      "mysterious": 7533,
      "What": 7534,
      "create": 7535,
      "Prison": 7536,
      "Tribeca": 7537,
      "general": 7538,
      "trav": 7539,
      "Service": 7540,
      "Starring": 7541,
      "Holt": 7542,
      "Luciano": 7543,
      "Burst": 7544,
      "Race": 7545,
      "debuted": 7546,
      "borough": 7547,
      "Madeleine": 7548,
      "Andrey": 7549,
      "Below": 7550,
      "Belgi": 7551,
      "Belfast": 7552,
      "Believe": 7553,
      "Asia": 7554,
      "Suit": 7555,
      "Maggie": 7556,
      "Ruby": 7557,
      "Shots": 7558,
      "Agreement": 7559,
      "Exchange": 7560,
      "Happened": 7561,
      "poet": 7562,
      "Passenger": 7563,
      "Alfonso": 7564,
      "Liu": 7565,
      "Bloom": 7566,
      "Bloody": 7567,
      "cameo": 7568,
      "Olsen": 7569,
      "lynn": 7570,
      "translit": 7571,
      "Eastman": 7572,
      "Friends": 7573,
      "Sinatra": 7574,
      "Ashley": 7575,
      "Fernández": 7576,
      "Brooks": 7577,
      "officer": 7578,
      "officially": 7579,
      "Viktor": 7580,
      "Horseback": 7581,
      "Yuen": 7582,
      "Muskete": 7583,
      "Confused": 7584,
      "Argent": 7585,
      "Sergei": 7586,
      "Archive": 7587,
      "regard": 7588,
      "Fisher": 7589,
      "falls": 7590,
      "Astray": 7591,
      "Grams": 7592,
      "Personal": 7593,
      "Philippine": 7594,
      "Cuba": 7595,
      "Betray": 7596,
      "Friz": 7597,
      "Webb": 7598,
      "turned": 7599,
      "Igor": 7600,
      "Tonight": 7601,
      "melod": 7602,
      "changed": 7603,
      "Kōji": 7604,
      "Honeymoon": 7605,
      "Bacon": 7606,
      "soldiers": 7607,
      "Enrique": 7608,
      "Sawmill": 7609,
      "Widow": 7610,
      "Heinz": 7611,
      "Shocking": 7612,
      "Guilty": 7613,
      "fifth": 7614,
      "techni": 7615,
      "Mastroianni": 7616,
      "Dudley": 7617,
      "Freleng": 7618,
      "Stéphane": 7619,
      "Adapted": 7620,
      "Benoît": 7621,
      "Beverly": 7622,
      "César": 7623,
      "Gómez": 7624,
      ",\"": 7625,
      "4x": 7626,
      "97": 7627,
      "976": 7628,
      "AA": 7629,
      "AW": 7630,
      "Bang": 7631,
      "Bey": 7632,
      "Bass": 7633,
      "Dh": 7634,
      "Dot": 7635,
      "Ee": 7636,
      "Each": 7637,
      "Fur": 7638,
      "Gug": 7639,
      "Grig": 7640,
      "Hale": 7641,
      "Hundred": 7642,
      "Ira": 7643,
      "Ily": 7644,
      "Jy": 7645,
      "Kav": 7646,
      "Kai": 7647,
      "Ló": 7648,
      "Lal": 7649,
      "Lem": 7650,
      "Lap": 7651,
      "Lub": 7652,
      "Lily": 7653,
      "Nav": 7654,
      "Om": 7655,
      "Oleg": 7656,
      "Pust": 7657,
      "Power": 7658,
      "Pages": 7659,
      "Rio": 7660,
      "Rita": 7661,
      "Vent": 7662,
      "Wo": 7663,
      "Wis": 7664,
      "Yev": 7665,
      "Yong": 7666,
      "Yank": 7667,
      "bomb": 7668,
      "cul": 7669,
      "cie": 7670,
      "cup": 7671,
      "cost": 7672,
      "course": 7673,
      "date": 7674,
      "dance": 7675,
      "ech": 7676,
      "fi": 7677,
      "fal": 7678,
      "host": 7679,
      "ián": 7680,
      "mut": 7681,
      "mod": 7682,
      "oz": 7683,
      "pay": 7684,
      "rong": 7685,
      "sister": 7686,
      "tw": 7687,
      "tab": 7688,
      "uto": 7689,
      "vuo": 7690,
      "zman": 7691,
      "ør": 7692,
      "úl": 7693,
      "stad": 7694,
      "reason": 7695,
      "enberg": 7696,
      "alie": 7697,
      "difficult": 7698,
      "elve": 7699,
      "itar": 7700,
      "itor": 7701,
      "itive": 7702,
      "ouri": 7703,
      "termin": 7704,
      "tov": 7705,
      "total": 7706,
      "osen": 7707,
      "adel": 7708,
      "chen": 7709,
      "chall": 7710,
      "chant": 7711,
      "provid": 7712,
      "Chong": 7713,
      "cey": 7714,
      "Stud": 7715,
      "uncredited": 7716,
      "overy": 7717,
      "angle": 7718,
      "ulf": 7719,
      "ardon": 7720,
      "iev": 7721,
      "launch": 7722,
      "bery": 7723,
      "strict": 7724,
      "umann": 7725,
      "allo": 7726,
      "ither": 7727,
      "Marin": 7728,
      "Marvin": 7729,
      "Marathi": 7730,
      "evi": 7731,
      "odd": 7732,
      "ako": 7733,
      "neo": 7734,
      "shaw": 7735,
      "Into": 7736,
      "Thel": 7737,
      "Thapa": 7738,
      "Rox": 7739,
      "Rooney": 7740,
      "bey": 7741,
      "Alicia": 7742,
      "Def": 7743,
      "anti": 7744,
      "look": 7745,
      "acia": 7746,
      "upcoming": 7747,
      "Engel": 7748,
      "Rex": 7749,
      "icky": 7750,
      "102": 7751,
      "Beats": 7752,
      "Walsh": 7753,
      "ext": 7754,
      "meg": 7755,
      "Adultery": 7756,
      "Ella": 7757,
      "ptic": 7758,
      "Monty": 7759,
      "lesque": 7760,
      "screening": 7761,
      "achi": 7762,
      "serves": 7763,
      "18th": 7764,
      "Weber": 7765,
      "Herman": 7766,
      "Feather": 7767,
      "Britain": 7768,
      "Mohan": 7769,
      "veer": 7770,
      "etta": 7771,
      "etts": 7772,
      "Meh": 7773,
      "ailey": 7774,
      "Dancing": 7775,
      "Cock": 7776,
      "Mori": 7777,
      "Paulo": 7778,
      "Scha": 7779,
      "Phere": 7780,
      "Proposition": 7781,
      "Prosper": 7782,
      "Maya": 7783,
      "kee": 7784,
      "asha": 7785,
      "Boyle": 7786,
      "Trial": 7787,
      "Donn": 7788,
      "Evelyn": 7789,
      "interest": 7790,
      "Merc": 7791,
      "Despite": 7792,
      "Janet": 7793,
      "Command": 7794,
      "Laemm": 7795,
      "spy": 7796,
      "Luca": 7797,
      "going": 7798,
      "Noise": 7799,
      "Killed": 7800,
      "Madison": 7801,
      "Salv": 7802,
      "Sutherland": 7803,
      "Soap": 7804,
      "Santos": 7805,
      "Maxim": 7806,
      "Outs": 7807,
      "Reddy": 7808,
      "appearances": 7809,
      "Moons": 7810,
      "Ghosts": 7811,
      "iros": 7812,
      "Marcel": 7813,
      "Fairbanks": 7814,
      "Hallmark": 7815,
      "Victoria": 7816,
      "Freeman": 7817,
      "Hayes": 7818,
      "Nikita": 7819,
      "visual": 7820,
      "Devils": 7821,
      "Jenny": 7822,
      "Musical": 7823,
      "Ariz": 7824,
      "experience": 7825,
      "Shaun": 7826,
      "Grande": 7827,
      "Bertrand": 7828,
      "Kathryn": 7829,
      "homme": 7830,
      "Squad": 7831,
      "survive": 7832,
      "restored": 7833,
      "Contin": 7834,
      "Cyril": 7835,
      "Bradley": 7836,
      "Andersson": 7837,
      "Alexandra": 7838,
      "Goldberg": 7839,
      "approval": 7840,
      "Felix": 7841,
      "initially": 7842,
      "eventually": 7843,
      "Idol": 7844,
      "Eduardo": 7845,
      "Gibson": 7846,
      "memoir": 7847,
      "Yasu": 7848,
      "autobiographical": 7849,
      "Thornton": 7850,
      "western": 7851,
      "Arrived": 7852,
      "subsequently": 7853,
      "Gaston": 7854,
      "Bulgarian": 7855,
      "Kubrick": 7856,
      "itnesses": 7857,
      "Giovanni": 7858,
      "literally": 7859,
      "Krasinski": 7860,
      "McKimson": 7861,
      "professional": 7862,
      "mujeres": 7863,
      "Prabhu": 7864,
      "Cricket": 7865,
      "Essanay": 7866,
      "Pablo": 7867,
      "Chatterjee": 7868,
      "Karabakh": 7869,
      "Leisure": 7870,
      "Shafeeu": 7871,
      "Neufeld": 7872,
      "Belgium": 7873,
      "4x4": 7874,
      "Beyond": 7875,
      "López": 7876,
      "Yevgen": 7877,
      "Laemmle": 7878,
      "3rd": 7879,
      "75": 7880,
      ":!": 7881,
      "Are": 7882,
      "Aut": 7883,
      "BA": 7884,
      "Bord": 7885,
      "Bound": 7886,
      "Cio": 7887,
      "Curious": 7888,
      "DC": 7889,
      "Dall": 7890,
      "Daily": 7891,
      "Ei": 7892,
      "Ela": 7893,
      "Ethel": 7894,
      "Fid": 7895,
      "Fantas": 7896,
      "Fatty": 7897,
      "Gan": 7898,
      "Hur": 7899,
      "Jogo": 7900,
      "Kho": 7901,
      "Mate": 7902,
      "Meyer": 7903,
      "Nev": 7904,
      "Nish": 7905,
      "Nazi": 7906,
      "Number": 7907,
      "Nils": 7908,
      "Open": 7909,
      "Pé": 7910,
      "Pia": 7911,
      "Pitt": 7912,
      "Pett": 7913,
      "Rent": 7914,
      "Rus": 7915,
      "Rare": 7916,
      "Sr": 7917,
      "Slo": 7918,
      "Sign": 7919,
      "Sara": 7920,
      "Tis": 7921,
      "Tall": 7922,
      "Wet": 7923,
      "Wai": 7924,
      "Winc": 7925,
      "Yoo": 7926,
      "Zay": 7927,
      "Zim": 7928,
      "Zero": 7929,
      "bach": 7930,
      "better": 7931,
      "claim": 7932,
      "dad": 7933,
      "doll": 7934,
      "ew": 7935,
      "fè": 7936,
      "gone": 7937,
      "iber": 7938,
      "jan": 7939,
      "jar": 7940,
      "mour": 7941,
      "mass": 7942,
      "nel": 7943,
      "pair": 7944,
      "pital": 7945,
      "sw": 7946,
      "så": 7947,
      "sopra": 7948,
      "wants": 7949,
      "zes": 7950,
      "ön": 7951,
      "ни": 7952,
      "ов": 7953,
      "erd": 7954,
      "ardi": 7955,
      "stud": 7956,
      "ilo": 7957,
      "iler": 7958,
      "oro": 7959,
      "reun": 7960,
      "educ": 7961,
      "enth": 7962,
      "ricon": 7963,
      "alle": 7964,
      "isk": 7965,
      "asher": 7966,
      "dic": 7967,
      "rog": 7968,
      "amo": 7969,
      "teran": 7970,
      "heures": 7971,
      "told": 7972,
      "osuf": 7973,
      "oslovak": 7974,
      "Chump": 7975,
      "Stitch": 7976,
      "iman": 7977,
      "imming": 7978,
      "phia": 7979,
      "phans": 7980,
      "allow": 7981,
      "resh": 7982,
      "apas": 7983,
      "apocaly": 7984,
      "avík": 7985,
      "ographic": 7986,
      "akis": 7987,
      "shop": 7988,
      "Inde": 7989,
      "Anand": 7990,
      "Third": 7991,
      "beat": 7992,
      "lyric": 7993,
      "dramatic": 7994,
      "Lean": 7995,
      "Legh": 7996,
      "plat": 7997,
      "plus": 7998,
      "Sequel": 7999,
      "scope": 8000,
      "quick": 8001,
      "Neck": 8002,
      "indu": 8003,
      "idea": 8004,
      "pregn": 8005,
      "1980s": 8006,
      "ahr": 8007,
      "incident": 8008,
      "mental": 8009,
      "ifetime": 8010,
      "Clive": 8011,
      "shorts": 8012,
      "Edmund": 8013,
      "Andr": 8014,
      "1860": 8015,
      "portato": 8016,
      "Jamie": 8017,
      "Across": 8018,
      "Acacia": 8019,
      "Morricon": 8020,
      "aja": 8021,
      "Abra": 8022,
      "Abram": 8023,
      "Above": 8024,
      "Problem": 8025,
      "Going": 8026,
      "Flowers": 8027,
      "Hologram": 8028,
      "spirit": 8029,
      "winner": 8030,
      "Looking": 8031,
      "Burlesque": 8032,
      "Radio": 8033,
      "Philadel": 8034,
      "leader": 8035,
      "Devotion": 8036,
      "Polly": 8037,
      "Bella": 8038,
      "25th": 8039,
      "Teresa": 8040,
      "Regra": 8041,
      "Partners": 8042,
      "presumed": 8043,
      "Strat": 8044,
      "Magic": 8045,
      "Palest": 8046,
      "Sole": 8047,
      "Universum": 8048,
      "recogn": 8049,
      "strong": 8050,
      "showing": 8051,
      "news": 8052,
      "Team": 8053,
      "Teacher": 8054,
      "più": 8055,
      "Koch": 8056,
      "commun": 8057,
      "Prak": 8058,
      "Sherman": 8059,
      "kinson": 8060,
      "Runner": 8061,
      "decided": 8062,
      "decides": 8063,
      "Castro": 8064,
      "venience": 8065,
      "movement": 8066,
      "Plaything": 8067,
      "Prem": 8068,
      "Clear": 8069,
      "Cafe": 8070,
      "vidas": 8071,
      "voices": 8072,
      "Crowd": 8073,
      "Roadside": 8074,
      "Hume": 8075,
      "helm": 8076,
      "Barrymore": 8077,
      "Reykj": 8078,
      "Czechoslovak": 8079,
      "escu": 8080,
      "audiences": 8081,
      "illipo": 8082,
      "Kazan": 8083,
      "Gangster": 8084,
      "Rudolph": 8085,
      "Yoosuf": 8086,
      "handled": 8087,
      "Watson": 8088,
      "Dinner": 8089,
      "Yankee": 8090,
      "grave": 8091,
      "Mahm": 8092,
      "Purpose": 8093,
      "Fuller": 8094,
      "Bucket": 8095,
      "Driver": 8096,
      "Standard": 8097,
      "Pavel": 8098,
      "catalog": 8099,
      "Suzanne": 8100,
      "Sacrif": 8101,
      "response": 8102,
      "violent": 8103,
      "Local": 8104,
      "Gösta": 8105,
      "youth": 8106,
      "Cairo": 8107,
      "Severa": 8108,
      "Isabelle": 8109,
      "Gaza": 8110,
      "chronicles": 8111,
      "separate": 8112,
      "scheduled": 8113,
      "controversial": 8114,
      "Posillipo": 8115,
      "Majority": 8116,
      "Jenkins": 8117,
      "Cinematography": 8118,
      "Factory": 8119,
      "detail": 8120,
      "Futile": 8121,
      "RKO": 8122,
      "assistant": 8123,
      "Argentina": 8124,
      "vuoi": 8125,
      "Cioè": 8126,
      "fèv": 8127,
      "students": 8128,
      "apocalyptic": 8129,
      "Leghorn": 8130,
      "Morricone": 8131,
      "Philadelphia": 8132,
      "Reykjavík": 8133,
      "Sacrifice": 8134,
      "(\"": 8135,
      ".%": 8136,
      "05": 8137,
      "3000": 8138,
      "400": 8139,
      "52nd": 8140,
      "Aud": 8141,
      "Aub": 8142,
      "Ago": 8143,
      "Apar": 8144,
      "Bé": 8145,
      "Bing": 8146,
      "Bates": 8147,
      "Eine": 8148,
      "Fon": 8149,
      "Fest": 8150,
      "Feld": 8151,
      "Faces": 8152,
      "Hass": 8153,
      "Horn": 8154,
      "Hurt": 8155,
      "Hidden": 8156,
      "Jaf": 8157,
      "Kl": 8158,
      "Kom": 8159,
      "Kle": 8160,
      "Leder": 8161,
      "Luna": 8162,
      "Logan": 8163,
      "Lillian": 8164,
      "Nina": 8165,
      "Naj": 8166,
      "Nancy": 8167,
      "Omar": 8168,
      "PO": 8169,
      "Pand": 8170,
      "Pomp": 8171,
      "Pull": 8172,
      "Piano": 8173,
      "Rak": 8174,
      "Sach": 8175,
      "Suk": 8176,
      "Sens": 8177,
      "Suri": 8178,
      "Tu": 8179,
      "Tz": 8180,
      "Takes": 8181,
      "Tiff": 8182,
      "Vers": 8183,
      "Wim": 8184,
      "Witt": 8185,
      "Wool": 8186,
      "Yū": 8187,
      "Zombie": 8188,
      "dor": 8189,
      "dou": 8190,
      "danc": 8191,
      "dete": 8192,
      "famil": 8193,
      "ged": 8194,
      "gun": 8195,
      "hour": 8196,
      "hop": 8197,
      "irie": 8198,
      "jin": 8199,
      "kes": 8200,
      "kaya": 8201,
      "loss": 8202,
      "latter": 8203,
      "má": 8204,
      "mess": 8205,
      "nard": 8206,
      "nation": 8207,
      "pir": 8208,
      "pear": 8209,
      "rural": 8210,
      "sat": 8211,
      "saw": 8212,
      "ti": 8213,
      "tel": 8214,
      "tion": 8215,
      "uals": 8216,
      "wich": 8217,
      "ying": 8218,
      "zt": 8219,
      "znick": 8220,
      "Öz": 8221,
      "anime": 8222,
      "stat": 8223,
      "stance": 8224,
      "iled": 8225,
      "ilante": 8226,
      "eni": 8227,
      "enced": 8228,
      "rim": 8229,
      "theart": 8230,
      "almost": 8231,
      "alcohol": 8232,
      "diant": 8233,
      "icate": 8234,
      "itation": 8235,
      "itney": 8236,
      "leton": 8237,
      "hester": 8238,
      "emann": 8239,
      "adour": 8240,
      "adult": 8241,
      "forman": 8242,
      "forts": 8243,
      "ieu": 8244,
      "Marina": 8245,
      "whurst": 8246,
      "next": 8247,
      "shan": 8248,
      "Mani": 8249,
      "Manole": 8250,
      "Filmed": 8251,
      "ishing": 8252,
      "ishment": 8253,
      "Shakes": 8254,
      "Shawn": 8255,
      "Intr": 8256,
      "ellini": 8257,
      "comb": 8258,
      "deals": 8259,
      "ranked": 8260,
      "Leap": 8261,
      "Dewhurst": 8262,
      "occur": 8263,
      "ffy": 8264,
      "ureen": 8265,
      "Spark": 8266,
      "annis": 8267,
      "Maureen": 8268,
      "ieri": 8269,
      "Harald": 8270,
      "Heather": 8271,
      "Hebre": 8272,
      "mean": 8273,
      "Elisa": 8274,
      "ressed": 8275,
      "shortly": 8276,
      "storyline": 8277,
      "ennes": 8278,
      "Conrad": 8279,
      "rical": 8280,
      "Herr": 8281,
      "Paolo": 8282,
      "Isa": 8283,
      "azon": 8284,
      "Calls": 8285,
      "22FF": 8286,
      "elect": 8287,
      "Meter": 8288,
      "303": 8289,
      "Moreno": 8290,
      "Quai": 8291,
      "maker": 8292,
      "makes": 8293,
      "Mats": 8294,
      "ceived": 8295,
      "Corman": 8296,
      "Pras": 8297,
      "vention": 8298,
      "receiving": 8299,
      "Prime": 8300,
      "Worlds": 8301,
      "Berkel": 8302,
      "ashion": 8303,
      "Merrie": 8304,
      "Homecoming": 8305,
      "traditional": 8306,
      "Royston": 8307,
      "150": 8308,
      "Enterprise": 8309,
      "Lucy": 8310,
      "Farmer": 8311,
      "versions": 8312,
      "Daffy": 8313,
      "mons": 8314,
      "club": 8315,
      "close": 8316,
      "Noah": 8317,
      "Asian": 8318,
      "Wilfred": 8319,
      "Orson": 8320,
      "Orfèv": 8321,
      "Karel": 8322,
      "younger": 8323,
      "telling": 8324,
      "Disp": 8325,
      "Keen": 8326,
      "Stoll": 8327,
      "Palm": 8328,
      "oyle": 8329,
      "Georgia": 8330,
      "Lawyer": 8331,
      "Wednes": 8332,
      "consist": 8333,
      "Rule": 8334,
      "Door": 8335,
      "Piero": 8336,
      "Pierce": 8337,
      "individ": 8338,
      "soon": 8339,
      "contribut": 8340,
      "Greene": 8341,
      "Olivia": 8342,
      "Duvall": 8343,
      "Troll": 8344,
      "Wink": 8345,
      "Foolish": 8346,
      "Selznick": 8347,
      "girls": 8348,
      "centres": 8349,
      "Giul": 8350,
      "half": 8351,
      "halkov": 8352,
      "Naomi": 8353,
      "Mikhalkov": 8354,
      "moving": 8355,
      "movies": 8356,
      "emption": 8357,
      "Dunn": 8358,
      "skaya": 8359,
      "sketch": 8360,
      "Buena": 8361,
      "Gaumont": 8362,
      "Levy": 8363,
      "surviving": 8364,
      "skiy": 8365,
      "Reynold": 8366,
      "portrayed": 8367,
      "Temporary": 8368,
      "viewers": 8369,
      "Muslim": 8370,
      "Assassin": 8371,
      "Escaped": 8372,
      "Miranda": 8373,
      "Cruel": 8374,
      "Finish": 8375,
      "developed": 8376,
      "military": 8377,
      "Adrian": 8378,
      "ATM": 8379,
      "Recogn": 8380,
      "millimeter": 8381,
      "Urugu": 8382,
      "Chiapas": 8383,
      "Mukesh": 8384,
      "Dominic": 8385,
      "Hannah": 8386,
      "Debt": 8387,
      "moral": 8388,
      "slasher": 8389,
      "Israel": 8390,
      "Pleasant": 8391,
      "Gopi": 8392,
      "Thanhous": 8393,
      "episode": 8394,
      "Stockholm": 8395,
      "Noblemen": 8396,
      "Padroe": 8397,
      "entirely": 8398,
      "Jobim": 8399,
      "Houston": 8400,
      "Alain": 8401,
      "Dwarves": 8402,
      "Sleeping": 8403,
      "Wheat": 8404,
      "Rafael": 8405,
      "building": 8406,
      "Judith": 8407,
      "martial": 8408,
      "quinas": 8409,
      "contains": 8410,
      "village": 8411,
      "streaming": 8412,
      "Gathering": 8413,
      "kidn": 8414,
      "Altman": 8415,
      "beginning": 8416,
      "introduc": 8417,
      "street": 8418,
      "important": 8419,
      "Earnhardt": 8420,
      "journalist": 8421,
      "Autum": 8422,
      "Abraham": 8423,
      "Pompadour": 8424,
      "Pullman": 8425,
      "peare": 8426,
      "Manolete": 8427,
      "Shakespeare": 8428,
      "Hebrew": 8429,
      "Berkeley": 8430,
      "Orfèvres": 8431,
      "Wednesday": 8432,
      "Reynolds": 8433,
      "Thanhouser": 8434,
      "Padroeira": 8435,
      "2B": 8436,
      "Bod": 8437,
      "Bott": 8438,
      "Bomb": 8439,
      "Bible": 8440,
      "CJ": 8441,
      "Coff": 8442,
      "Course": 8443,
      "DS": 8444,
      "Das": 8445,
      "Dong": 8446,
      "Dice": 8447,
      "Dash": 8448,
      "Dumb": 8449,
      "Duke": 8450,
      "Eason": 8451,
      "FA": 8452,
      "Fischer": 8453,
      "Gand": 8454,
      "Gut": 8455,
      "Gov": 8456,
      "Gob": 8457,
      "Gross": 8458,
      "Hem": 8459,
      "Here": 8460,
      "Hub": 8461,
      "IN": 8462,
      "Jug": 8463,
      "Lel": 8464,
      "Log": 8465,
      "Lum": 8466,
      "Lies": 8467,
      "Lamp": 8468,
      "Levin": 8469,
      "Lester": 8470,
      "ML": 8471,
      "Niel": 8472,
      "Naz": 8473,
      "Ober": 8474,
      "Pel": 8475,
      "Porn": 8476,
      "Publ": 8477,
      "Prec": 8478,
      "Pete": 8479,
      "Rider": 8480,
      "Sures": 8481,
      "Sven": 8482,
      "Tess": 8483,
      "Tah": 8484,
      "Tara": 8485,
      "Table": 8486,
      "Trans": 8487,
      "Tweet": 8488,
      "Ull": 8489,
      "Ves": 8490,
      "Vít": 8491,
      "aign": 8492,
      "bass": 8493,
      "cens": 8494,
      "caged": 8495,
      "dale": 8496,
      "fs": 8497,
      "fram": 8498,
      "fai": 8499,
      "folk": 8500,
      "gely": 8501,
      "killer": 8502,
      "ls": 8503,
      "liss": 8504,
      "mes": 8505,
      "mos": 8506,
      "nine": 8507,
      "oon": 8508,
      "pst": 8509,
      "pers": 8510,
      "rill": 8511,
      "rue": 8512,
      "squ": 8513,
      "tar": 8514,
      "test": 8515,
      "uation": 8516,
      "wu": 8517,
      "xima": 8518,
      "yon": 8519,
      "zz": 8520,
      "éma": 8521,
      "ел": 8522,
      "ет": 8523,
      "на": 8524,
      "inf": 8525,
      "ining": 8526,
      "anion": 8527,
      "anova": 8528,
      "anorm": 8529,
      "erto": 8530,
      "online": 8531,
      "ready": 8532,
      "represent": 8533,
      "these": 8534,
      "alh": 8535,
      "isla": 8536,
      "asan": 8537,
      "asim": 8538,
      "rings": 8539,
      "differ": 8540,
      "esquinas": 8541,
      "rov": 8542,
      "olia": 8543,
      "older": 8544,
      "write": 8545,
      "oslav": 8546,
      "ador": 8547,
      "adis": 8548,
      "ushi": 8549,
      "prop": 8550,
      "forced": 8551,
      "Chry": 8552,
      "Champ": 8553,
      "Church": 8554,
      "Stat": 8555,
      "Stanton": 8556,
      "idence": 8557,
      "images": 8558,
      "owan": 8559,
      "otal": 8560,
      "Marjor": 8561,
      "search": 8562,
      "Filmfare": 8563,
      "Shwe": 8564,
      "Should": 8565,
      "Shannon": 8566,
      "Inc": 8567,
      "earth": 8568,
      "common": 8569,
      "def": 8570,
      "rani": 8571,
      "istic": 8572,
      "João": 8573,
      "aging": 8574,
      "dramat": 8575,
      "edition": 8576,
      "Depar": 8577,
      "artists": 8578,
      "looking": 8579,
      "scen": 8580,
      "Uncaged": 8581,
      "ocious": 8582,
      "Arte": 8583,
      "conne": 8584,
      "Loved": 8585,
      "outside": 8586,
      "Reza": 8587,
      "awk": 8588,
      "assassin": 8589,
      "Mae": 8590,
      "oko": 8591,
      "ueger": 8592,
      "Beat": 8593,
      "itting": 8594,
      "1960s": 8595,
      "ctions": 8596,
      "airy": 8597,
      "issue": 8598,
      "Monica": 8599,
      "weeks": 8600,
      "umentary": 8601,
      "ached": 8602,
      "compete": 8603,
      "Guer": 8604,
      "127": 8605,
      "attention": 8606,
      "boat": 8607,
      "Convenience": 8608,
      "Constance": 8609,
      "Weis": 8610,
      "Herb": 8611,
      "Mob": 8612,
      "veteran": 8613,
      "ibbe": 8614,
      "Megan": 8615,
      "Method": 8616,
      "Cohen": 8617,
      "Quart": 8618,
      "lines": 8619,
      "Schwart": 8620,
      "Match": 8621,
      "rude": 8622,
      "Samantha": 8623,
      "Forum": 8624,
      "Boyfriend": 8625,
      "risis": 8626,
      "Flash": 8627,
      "criminal": 8628,
      "Singing": 8629,
      "gerald": 8630,
      "Hock": 8631,
      "sequence": 8632,
      "Farnum": 8633,
      "money": 8634,
      "Noon": 8635,
      "Noel": 8636,
      "Noël": 8637,
      "Melford": 8638,
      "iversary": 8639,
      "Travers": 8640,
      "Polit": 8641,
      "Guys": 8642,
      "Ordin": 8643,
      "Karen": 8644,
      "Bastar": 8645,
      "Genie": 8646,
      "Joshi": 8647,
      "ningham": 8648,
      "Maxwell": 8649,
      "efforts": 8650,
      "surround": 8651,
      "appearing": 8652,
      "Moms": 8653,
      "Safe": 8654,
      "Princesa": 8655,
      "Brett": 8656,
      "background": 8657,
      "Bigger": 8658,
      "Raju": 8659,
      "Andrews": 8660,
      "friendship": 8661,
      "dieu": 8662,
      "Medal": 8663,
      "Ont": 8664,
      "Montg": 8665,
      "Arabian": 8666,
      "Trust": 8667,
      "Grover": 8668,
      "Sinner": 8669,
      "Alfredo": 8670,
      "Note": 8671,
      "romaniac": 8672,
      "Brooke": 8673,
      "Mule": 8674,
      "havan": 8675,
      "Sweep": 8676,
      "encoun": 8677,
      "Burnett": 8678,
      "Losey": 8679,
      "Flora": 8680,
      "Krueger": 8681,
      "popularity": 8682,
      "discuss": 8683,
      "Courtship": 8684,
      "Originally": 8685,
      "Jaime": 8686,
      "concert": 8687,
      "Ricky": 8688,
      "middle": 8689,
      "grin": 8690,
      "Brandon": 8691,
      "Tenants": 8692,
      "Crus": 8693,
      "Gilles": 8694,
      "Nagar": 8695,
      "revolution": 8696,
      "Global": 8697,
      "Elliot": 8698,
      "Tae": 8699,
      "Pascal": 8700,
      "humor": 8701,
      "Pyromaniac": 8702,
      "False": 8703,
      "prominent": 8704,
      "Sylvia": 8705,
      "Bugs": 8706,
      "Cantor": 8707,
      "Konstantin": 8708,
      "Ticking": 8709,
      "Munich": 8710,
      "BOU": 8711,
      "Fathoms": 8712,
      "Ilha": 8713,
      "AIBOU": 8714,
      "sitcom": 8715,
      "Leading": 8716,
      "Circus": 8717,
      "soldier": 8718,
      "Rumor": 8719,
      "Valeria": 8720,
      "attacks": 8721,
      "Diaz": 8722,
      "Fitzgerald": 8723,
      "protagon": 8724,
      "Cigarettes": 8725,
      "Emery": 8726,
      "onymous": 8727,
      "acquired": 8728,
      "Friedrich": 8729,
      "Courage": 8730,
      "reprising": 8731,
      "Gertrude": 8732,
      "McCormick": 8733,
      "Generations": 8734,
      "Sweetheart": 8735,
      "Pearson": 8736,
      "Seymour": 8737,
      "towards": 8738,
      "Theodore": 8739,
      "Magdalene": 8740,
      "Engagement": 8741,
      "Sjöström": 8742,
      "Burglar": 8743,
      "Legendary": 8744,
      "Shroff": 8745,
      "Próxima": 8746,
      "Plumbing": 8747,
      "Cunningham": 8748,
      "IFC": 8749,
      "Olymp": 8750,
      "pandemic": 8751,
      "icycle": 8752,
      "Peggy": 8753,
      "melodrama": 8754,
      "Yankovic": 8755,
      "challeng": 8756,
      "Roxbury": 8757,
      "Winchester": 8758,
      "Index": 8759,
      "lyrics": 8760,
      "Recognizing": 8761,
      "Coffin": 8762,
      "Precocious": 8763,
      "Suresh": 8764,
      "Tweety": 8765,
      "Vítima": 8766,
      "anormal": 8767,
      "Marjorie": 8768,
      "Depardieu": 8769,
      "Ordinary": 8770,
      "2D": 8771,
      "79": 8772,
      "A1": 8773,
      "AV": 8774,
      "Ai": 8775,
      "Ax": 8776,
      "Ach": 8777,
      "Bone": 8778,
      "Bailey": 8779,
      "Cic": 8780,
      "Cly": 8781,
      "Couch": 8782,
      "Cull": 8783,
      "Crane": 8784,
      "Dol": 8785,
      "Dies": 8786,
      "Drag": 8787,
      "Dillon": 8788,
      "ES": 8789,
      "Est": 8790,
      "Eag": 8791,
      "Fat": 8792,
      "Fem": 8793,
      "Frig": 8794,
      "Fabri": 8795,
      "Gring": 8796,
      "Gou": 8797,
      "Gab": 8798,
      "Hus": 8799,
      "Hud": 8800,
      "Hust": 8801,
      "Hick": 8802,
      "Ice": 8803,
      "Jar": 8804,
      "Jol": 8805,
      "Jia": 8806,
      "Jade": 8807,
      "Kro": 8808,
      "Kol": 8809,
      "Kop": 8810,
      "Lt": 8811,
      "Liam": 8812,
      "Lott": 8813,
      "Lifetime": 8814,
      "Mia": 8815,
      "Making": 8816,
      "Miri": 8817,
      "Nu": 8818,
      "Ost": 8819,
      "Ott": 8820,
      "Others": 8821,
      "Pir": 8822,
      "Pimp": 8823,
      "Paces": 8824,
      "Rip": 8825,
      "Rans": 8826,
      "Randy": 8827,
      "Sug": 8828,
      "Sud": 8829,
      "Sny": 8830,
      "Tough": 8831,
      "Tramp": 8832,
      "Wing": 8833,
      "Xia": 8834,
      "Yak": 8835,
      "Yoshi": 8836,
      "aum": 8837,
      "block": 8838,
      "buster": 8839,
      "bstones": 8840,
      "cil": 8841,
      "celebr": 8842,
      "doc": 8843,
      "drop": 8844,
      "ehan": 8845,
      "fell": 8846,
      "fire": 8847,
      "favor": 8848,
      "grow": 8849,
      "hers": 8850,
      "hazi": 8851,
      "lik": 8852,
      "lund": 8853,
      "ml": 8854,
      "national": 8855,
      "och": 8856,
      "oaded": 8857,
      "pet": 8858,
      "pati": 8859,
      "tig": 8860,
      "uve": 8861,
      "vig": 8862,
      "vist": 8863,
      "zys": 8864,
      "än": 8865,
      "ław": 8866,
      "ри": 8867,
      "anor": 8868,
      "eras": 8869,
      "arine": 8870,
      "arost": 8871,
      "stal": 8872,
      "thy": 8873,
      "thousand": 8874,
      "reat": 8875,
      "enne": 8876,
      "rival": 8877,
      "aldi": 8878,
      "start": 8879,
      "andon": 8880,
      "cting": 8881,
      "dict": 8882,
      "espe": 8883,
      "omer": 8884,
      "omery": 8885,
      "eler": 8886,
      "iti": 8887,
      "lee": 8888,
      "ouk": 8889,
      "rade": 8890,
      "ential": 8891,
      "wright": 8892,
      "Thet": 8893,
      "osc": 8894,
      "usz": 8895,
      "user": 8896,
      "chio": 8897,
      "channel": 8898,
      "gee": 8899,
      "proble": 8900,
      "Cham": 8901,
      "ceed": 8902,
      "Stark": 8903,
      "ová": 8904,
      "ived": 8905,
      "idents": 8906,
      "imes": 8907,
      "phys": 8908,
      "ieth": 8909,
      "establ": 8910,
      "berlost": 8911,
      "umph": 8912,
      "Mara": 8913,
      "Marlon": 8914,
      "aved": 8915,
      "sein": 8916,
      "Mank": 8917,
      "Mans": 8918,
      "ouncil": 8919,
      "Shri": 8920,
      "Sham": 8921,
      "Shiv": 8922,
      "Anil": 8923,
      "beaut": 8924,
      "istani": 8925,
      "istration": 8926,
      "agne": 8927,
      "Ald": 8928,
      "Leave": 8929,
      "Leaves": 8930,
      "Deut": 8931,
      "planned": 8932,
      "astro": 8933,
      "sche": 8934,
      "ocence": 8935,
      "quet": 8936,
      "quette": 8937,
      "erno": 8938,
      "Netherland": 8939,
      "Enough": 8940,
      "anniversary": 8941,
      "associ": 8942,
      "oker": 8943,
      "Boh": 8944,
      "area": 8945,
      "text": 8946,
      "Become": 8947,
      "cock": 8948,
      "coesquinas": 8949,
      "pret": 8950,
      "ahan": 8951,
      "exist": 8952,
      "meen": 8953,
      "Peck": 8954,
      "Cliff": 8955,
      "Clucks": 8956,
      "weig": 8957,
      "Guild": 8958,
      "service": 8959,
      "1878": 8960,
      "1843": 8961,
      "Weiss": 8962,
      "Weird": 8963,
      "Weeds": 8964,
      "Diplom": 8965,
      "ukulla": 8966,
      "Herz": 8967,
      "Amar": 8968,
      "ordin": 8969,
      "Isabel": 8970,
      "ensive": 8971,
      "Meg": 8972,
      "Aces": 8973,
      "Cohn": 8974,
      "aji": 8975,
      "Matth": 8976,
      "Tombstones": 8977,
      "Color": 8978,
      "Colour": 8979,
      "Mayfair": 8980,
      "anski": 8981,
      "Norma": 8982,
      "Normand": 8983,
      "Triangle": 8984,
      "letcher": 8985,
      "Englund": 8986,
      "taine": 8987,
      "Patel": 8988,
      "zej": 8989,
      "rising": 8990,
      "Doggone": 8991,
      "Marty": 8992,
      "lived": 8993,
      "Burt": 8994,
      "parody": 8995,
      "paradis": 8996,
      "doing": 8997,
      "doctor": 8998,
      "Garwood": 8999,
      "Sheen": 9000,
      "mont": 9001,
      "theatres": 9002,
      "Travis": 9003,
      "Billings": 9004,
      "hao": 9005,
      "marily": 9006,
      "suit": 9007,
      "Wilder": 9008,
      "Orphans": 9009,
      "Lesley": 9010,
      "17th": 9011,
      "Magical": 9012,
      "Palmer": 9013,
      "Genius": 9014,
      "Georgian": 9015,
      "harest": 9016,
      "University": 9017,
      "consists": 9018,
      "Outstanding": 9019,
      "Redemption": 9020,
      "Chapter": 9021,
      "Cincoesquinas": 9022,
      "domestic": 9023,
      "Poit": 9024,
      "Ramón": 9025,
      "Skies": 9026,
      "Sandwich": 9027,
      "Exile": 9028,
      "system": 9029,
      "contemporary": 9030,
      "Toast": 9031,
      "primarily": 9032,
      "themum": 9033,
      "Craft": 9034,
      "baum": 9035,
      "Rainy": 9036,
      "réd": 9037,
      "delay": 9038,
      "guy": 9039,
      "Huang": 9040,
      "Hammer": 9041,
      "Hamlet": 9042,
      "Talking": 9043,
      "Drun": 9044,
      "football": 9045,
      "giorn": 9046,
      "Shaheed": 9047,
      "Malays": 9048,
      "Built": 9049,
      "Blair": 9050,
      "Vega": 9051,
      "esterday": 9052,
      "Hanks": 9053,
      "Casanova": 9054,
      "Crown": 9055,
      "relationships": 9056,
      "ainting": 9057,
      "college": 9058,
      "Romero": 9059,
      "however": 9060,
      "escape": 9061,
      "Kalem": 9062,
      "Rocky": 9063,
      "Endrath": 9064,
      "Varma": 9065,
      "Jewel": 9066,
      "Jacobs": 9067,
      "numbered": 9068,
      "Bengt": 9069,
      "Benghazi": 9070,
      "large": 9071,
      "Subject": 9072,
      "Yoon": 9073,
      "Limberlost": 9074,
      "trip": 9075,
      "digit": 9076,
      "Falcon": 9077,
      "Places": 9078,
      "Molly": 9079,
      "Attack": 9080,
      "Bosworth": 9081,
      "Joris": 9082,
      "pseud": 9083,
      "Webber": 9084,
      "Reloaded": 9085,
      "Supermen": 9086,
      "Herself": 9087,
      "driver": 9088,
      "changes": 9089,
      "Rodriguez": 9090,
      "Kiarost": 9091,
      "Deeware": 9092,
      "Countess": 9093,
      "Mountains": 9094,
      "Pleasure": 9095,
      "categories": 9096,
      "Aravind": 9097,
      "Massimo": 9098,
      "Splash": 9099,
      "Hiroshi": 9100,
      "Sophia": 9101,
      "campaign": 9102,
      "crore": 9103,
      "sieur": 9104,
      "Knowing": 9105,
      "VID": 9106,
      "Dwarfs": 9107,
      "Ibsen": 9108,
      "Bucharest": 9109,
      "Floating": 9110,
      "bourne": 9111,
      "Porter": 9112,
      "Lizard": 9113,
      "piece": 9114,
      "santhemum": 9115,
      "Ingrid": 9116,
      "Moroccan": 9117,
      "cancer": 9118,
      "contract": 9119,
      "Mullen": 9120,
      "Stroke": 9121,
      "Storeys": 9122,
      "Formality": 9123,
      "Klaus": 9124,
      "Reckless": 9125,
      "wealthy": 9126,
      "Idea": 9127,
      "Features": 9128,
      "Records": 9129,
      "particularly": 9130,
      "ANPO": 9131,
      "Fugitive": 9132,
      "Girard": 9133,
      "Higgins": 9134,
      "satirical": 9135,
      "heavily": 9136,
      "Sparrow": 9137,
      "Betrayed": 9138,
      "Prosperity": 9139,
      "Fantasia": 9140,
      "Andrzej": 9141,
      "Prakash": 9142,
      "detective": 9143,
      "Chrysanthemum": 9144,
      "Montgomery": 9145,
      "protagonist": 9146,
      "Gringo": 9147,
      "Snyder": 9148,
      "problems": 9149,
      "Netherlands": 9150,
      "Endrathukulla": 9151,
      "Kiarostami": 9152,
      "Deewarein": 9153,
      "\"),": 9154,
      "120": 9155,
      "813": 9156,
      "Around": 9157,
      "Bat": 9158,
      "Bent": 9159,
      "Cus": 9160,
      "Care": 9161,
      "Cint": 9162,
      "Cuck": 9163,
      "Center": 9164,
      "Cupid": 9165,
      "Doyle": 9166,
      "Ef": 9167,
      "Eston": 9168,
      "Fow": 9169,
      "Foc": 9170,
      "Find": 9171,
      "Frie": 9172,
      "Fright": 9173,
      "Grom": 9174,
      "Gün": 9175,
      "Hide": 9176,
      "Horton": 9177,
      "IM": 9178,
      "Ist": 9179,
      "Iceland": 9180,
      "Jut": 9181,
      "Jared": 9182,
      "Kirst": 9183,
      "Kob": 9184,
      "Katherine": 9185,
      "Kenny": 9186,
      "LA": 9187,
      "Liv": 9188,
      "Laf": 9189,
      "Má": 9190,
      "Miros": 9191,
      "Nim": 9192,
      "Nah": 9193,
      "Nose": 9194,
      "Nash": 9195,
      "Nino": 9196,
      "Pang": 9197,
      "Preferred": 9198,
      "Rap": 9199,
      "Rach": 9200,
      "Ritz": 9201,
      "Sán": 9202,
      "Srin": 9203,
      "Sledge": 9204,
      "Sisters": 9205,
      "Tong": 9206,
      "Tears": 9207,
      "Tutt": 9208,
      "Ug": 9209,
      "Vil": 9210,
      "Vanish": 9211,
      "Yes": 9212,
      "Yesterday": 9213,
      "Zhao": 9214,
      "bb": 9215,
      "banned": 9216,
      "cra": 9217,
      "covers": 9218,
      "ei": 9219,
      "für": 9220,
      "gess": 9221,
      "hos": 9222,
      "hov": 9223,
      "hoff": 9224,
      "jours": 9225,
      "mion": 9226,
      "mig": 9227,
      "mater": 9228,
      "master": 9229,
      "nu": 9230,
      "pin": 9231,
      "pur": 9232,
      "rine": 9233,
      "sou": 9234,
      "sug": 9235,
      "sson": 9236,
      "spl": 9237,
      "semi": 9238,
      "uters": 9239,
      "wilder": 9240,
      "yam": 9241,
      "ér": 9242,
      "öl": 9243,
      "üller": 9244,
      "inson": 9245,
      "inton": 9246,
      "instead": 9247,
      "reve": 9248,
      "edi": 9249,
      "rise": 9250,
      "isi": 9251,
      "atore": 9252,
      "atively": 9253,
      "aser": 9254,
      "elot": 9255,
      "amar": 9256,
      "hem": 9257,
      "today": 9258,
      "emerg": 9259,
      "adan": 9260,
      "additional": 9261,
      "prov": 9262,
      "eties": 9263,
      "etimes": 9264,
      "ovan": 9265,
      "ivity": 9266,
      "illi": 9267,
      "lair": 9268,
      "ckumentary": 9269,
      "avi": 9270,
      "sha": 9271,
      "Shang": 9272,
      "Shave": 9273,
      "Insp": 9274,
      "actions": 9275,
      "Thail": 9276,
      "comment": 9277,
      "comics": 9278,
      "dead": 9279,
      "009": 9280,
      "abb": 9281,
      "Aldo": 9282,
      "ugal": 9283,
      "ains": 9284,
      "Leila": 9285,
      "plan": 9286,
      "Seung": 9287,
      "occup": 9288,
      "iki": 9289,
      "ousine": 9290,
      "Arne": 9291,
      "acing": 9292,
      "qui": 9293,
      "orey": 9294,
      "conom": 9295,
      "concl": 9296,
      "concept": 9297,
      "conceived": 9298,
      "Johnston": 9299,
      "Spell": 9300,
      "Spiel": 9301,
      "ernel": 9302,
      "Endy": 9303,
      "Reid": 9304,
      "Rebe": 9305,
      "Reardon": 9306,
      "ips": 9307,
      "Maj": 9308,
      "Maaf": 9309,
      "endously": 9310,
      "iero": 9311,
      "Both": 9312,
      "108": 9313,
      "Willi": 9314,
      "Warwick": 9315,
      "Hara": 9316,
      "pected": 9317,
      "Adol": 9318,
      "Admin": 9319,
      "Peasant": 9320,
      "Mond": 9321,
      "Monsieur": 9322,
      "lesinger": 9323,
      "afa": 9324,
      "Edmond": 9325,
      "12B": 9326,
      "izes": 9327,
      "Wein": 9328,
      "offer": 9329,
      "orning": 9330,
      "Amal": 9331,
      "Amato": 9332,
      "Amazon": 9333,
      "erty": 9334,
      "azar": 9335,
      "azione": 9336,
      "Blas": 9337,
      "Moral": 9338,
      "makers": 9339,
      "Barber": 9340,
      "ajda": 9341,
      "Scho": 9342,
      "Matsu": 9343,
      "Colle": 9344,
      "Colleen": 9345,
      "Abdel": 9346,
      "Smart": 9347,
      "Goose": 9348,
      "Rosem": 9349,
      "partly": 9350,
      "Boyd": 9351,
      "despite": 9352,
      "Allison": 9353,
      "untier": 9354,
      "Patrice": 9355,
      "Patient": 9356,
      "ways": 9357,
      "intendent": 9358,
      "Simmons": 9359,
      "ucker": 9360,
      "anca": 9361,
      "Lucien": 9362,
      "Loyal": 9363,
      "Farrow": 9364,
      "143": 9365,
      "1408": 9366,
      "Garibal": 9367,
      "Shea": 9368,
      "Shetty": 9369,
      "leads": 9370,
      "posed": 9371,
      "Melissa": 9372,
      "Melbourne": 9373,
      "Deva": 9374,
      "Train": 9375,
      "Artist": 9376,
      "woods": 9377,
      "Belle": 9378,
      "Belgian": 9379,
      "hammad": 9380,
      "suicide": 9381,
      "Order": 9382,
      "Josephine": 9383,
      "1776": 9384,
      "Disc": 9385,
      "Keaton": 9386,
      "Stol": 9387,
      "Palms": 9388,
      "Joshua": 9389,
      "Freddie": 9390,
      "Sarge": 9391,
      "Gunj": 9392,
      "Bala": 9393,
      "Sanders": 9394,
      "otional": 9395,
      "Angela": 9396,
      "Said": 9397,
      "Leonardo": 9398,
      "Craw": 9399,
      "Craven": 9400,
      "Liber": 9401,
      "Venk": 9402,
      "Olive": 9403,
      "Missed": 9404,
      "Slipp": 9405,
      "Network": 9406,
      "Huey": 9407,
      "Gods": 9408,
      "Godard": 9409,
      "Talmad": 9410,
      "operation": 9411,
      "Castell": 9412,
      "Players": 9413,
      "Katharine": 9414,
      "ragaz": 9415,
      "Gauntier": 9416,
      "Krzys": 9417,
      "Levitt": 9418,
      "Casabl": 9419,
      "Crows": 9420,
      "Gianfran": 9421,
      "Europa": 9422,
      "Nichols": 9423,
      "Lynch": 9424,
      "Released": 9425,
      "1897": 9426,
      "portrayal": 9427,
      "Accuses": 9428,
      "Brenda": 9429,
      "Brendan": 9430,
      "highly": 9431,
      "Françoise": 9432,
      "Bryant": 9433,
      "Cyborg": 9434,
      "Duty": 9435,
      "Tokat": 9436,
      "Cruz": 9437,
      "Cruise": 9438,
      "Rowland": 9439,
      "oleon": 9440,
      "Wells": 9441,
      "bellion": 9442,
      "Ladd": 9443,
      "President": 9444,
      "Fathers": 9445,
      "Nakamura": 9446,
      "Snitch": 9447,
      "Tails": 9448,
      "Becker": 9449,
      "AIDS": 9450,
      "heimer": 9451,
      "capture": 9452,
      "Superintendent": 9453,
      "Somebody": 9454,
      "Nikolay": 9455,
      "County": 9456,
      "Ohio": 9457,
      "Puerto": 9458,
      "Searle": 9459,
      "Moulin": 9460,
      "Pierson": 9461,
      "Punishment": 9462,
      "magazine": 9463,
      "violence": 9464,
      "stock": 9465,
      "Valentin": 9466,
      "Boulev": 9467,
      "Randall": 9468,
      "Austria": 9469,
      "Bava": 9470,
      "Bavaria": 9471,
      "Briefs": 9472,
      "Audience": 9473,
      "Dresses": 9474,
      "example": 9475,
      "Juliette": 9476,
      "possible": 9477,
      "Johannes": 9478,
      "Wendy": 9479,
      "remains": 9480,
      "Armando": 9481,
      "struggle": 9482,
      "struggles": 9483,
      "Associated": 9484,
      "Ukrainian": 9485,
      "Carnival": 9486,
      "Barker": 9487,
      "Robbins": 9488,
      "Napoleon": 9489,
      "Rouge": 9490,
      "brief": 9491,
      "Godfathers": 9492,
      "whether": 9493,
      "principal": 9494,
      "Benedict": 9495,
      "Tasveer": 9496,
      "Breakfast": 9497,
      "Dhanush": 9498,
      "Mishra": 9499,
      "preceded": 9500,
      "Freedom": 9501,
      "Tremendously": 9502,
      "COVID": 9503,
      "Alessandro": 9504,
      "elebrity": 9505,
      "Bursts": 9506,
      "Thelma": 9507,
      "Continues": 9508,
      "Khoon": 9509,
      "Zayar": 9510,
      "industri": 9511,
      "Mahmoud": 9512,
      "catalogues": 9513,
      "Aparna": 9514,
      "ztof": 9515,
      "meaning": 9516,
      "Elisabeth": 9517,
      "Govind": 9518,
      "Ontario": 9519,
      "Clyde": 9520,
      "Hudson": 9521,
      "Ltd": 9522,
      "Miriam": 9523,
      "Pimpernel": 9524,
      "especially": 9525,
      "Diplomatic": 9526,
      "digitally": 9527,
      "Cuckoo": 9528,
      "Jutra": 9529,
      "Sriniv": 9530,
      "suggest": 9531,
      "wildered": 9532,
      "Thailand": 9533,
      "Administration": 9534,
      "Talmadge": 9535,
      "Krzysztof": 9536,
      "Casablanca": 9537,
      "Boulevard": 9538,
      "34": 9539,
      "3x": 9540,
      "3fal": 9541,
      "4bia": 9542,
      "62": 9543,
      "6th": 9544,
      "678": 9545,
      "Ain": 9546,
      "Atten": 9547,
      "Asp": 9548,
      "Bj": 9549,
      "Bish": 9550,
      "Bub": 9551,
      "Boss": 9552,
      "Bauer": 9553,
      "Botel": 9554,
      "Cim": 9555,
      "Cath": 9556,
      "Dw": 9557,
      "Dict": 9558,
      "Due": 9559,
      "Dutt": 9560,
      "Drew": 9561,
      "Ec": 9562,
      "Eri": 9563,
      "Edit": 9564,
      "EVI": 9565,
      "Fol": 9566,
      "Fong": 9567,
      "Foss": 9568,
      "Faye": 9569,
      "Flying": 9570,
      "Flynn": 9571,
      "Fréd": 9572,
      "Gia": 9573,
      "Give": 9574,
      "Gott": 9575,
      "Gwen": 9576,
      "Hey": 9577,
      "Hern": 9578,
      "Hogan": 9579,
      "Hurst": 9580,
      "Javier": 9581,
      "Kil": 9582,
      "Kit": 9583,
      "Kot": 9584,
      "Kaly": 9585,
      "Kline": 9586,
      "Kuo": 9587,
      "Lay": 9588,
      "Lup": 9589,
      "Mes": 9590,
      "Mister": 9591,
      "Miser": 9592,
      "Nand": 9593,
      "Ove": 9594,
      "Obl": 9595,
      "Pest": 9596,
      "Pup": 9597,
      "Sed": 9598,
      "Sof": 9599,
      "Sort": 9600,
      "Sins": 9601,
      "Till": 9602,
      "Tul": 9603,
      "Tina": 9604,
      "Toshi": 9605,
      "Vert": 9606,
      "Villa": 9607,
      "Won": 9608,
      "WAC": 9609,
      "Witnesses": 9610,
      "ault": 9611,
      "bie": 9612,
      "base": 9613,
      "danger": 9614,
      "eau": 9615,
      "gri": 9616,
      "gis": 9617,
      "git": 9618,
      "gus": 9619,
      "glo": 9620,
      "gave": 9621,
      "hart": 9622,
      "hib": 9623,
      "ials": 9624,
      "jou": 9625,
      "joy": 9626,
      "lady": 9627,
      "lene": 9628,
      "licated": 9629,
      "mot": 9630,
      "mone": 9631,
      "mila": 9632,
      "nur": 9633,
      "piv": 9634,
      "qvist": 9635,
      "sin": 9636,
      "tax": 9637,
      "ui": 9638,
      "uer": 9639,
      "vu": 9640,
      "viance": 9641,
      "wang": 9642,
      "wai": 9643,
      "zin": 9644,
      "zsa": 9645,
      "ás": 9646,
      "íc": 9647,
      "ús": 9648,
      "aru": 9649,
      "aran": 9650,
      "arry": 9651,
      "station": 9652,
      "thal": 9653,
      "threat": 9654,
      "oning": 9655,
      "rier": 9656,
      "atian": 9657,
      "asy": 9658,
      "rington": 9659,
      "iced": 9660,
      "icit": 9661,
      "omov": 9662,
      "eling": 9663,
      "elago": 9664,
      "roo": 9665,
      "itled": 9666,
      "2033": 9667,
      "raj": 9668,
      "toda": 9669,
      "entitled": 9670,
      "emen": 9671,
      "ucines": 9672,
      "osing": 9673,
      "adze": 9674,
      "chosen": 9675,
      "forces": 9676,
      "forms": 9677,
      "Chun": 9678,
      "Chiu": 9679,
      "Channing": 9680,
      "cean": 9681,
      "eti": 9682,
      "Sting": 9683,
      "Stur": 9684,
      "Stage": 9685,
      "Stones": 9686,
      "phrey": 9687,
      "illing": 9688,
      "Itami": 9689,
      "Items": 9690,
      "urer": 9691,
      "arden": 9692,
      "esty": 9693,
      "oted": 9694,
      "otter": 9695,
      "ums": 9696,
      "ianc": 9697,
      "cks": 9698,
      "cket": 9699,
      "evol": 9700,
      "whouse": 9701,
      "nez": 9702,
      "icher": 9703,
      "Shark": 9704,
      "Inch": 9705,
      "eller": 9706,
      "actually": 9707,
      "rano": 9708,
      "abi": 9709,
      "Alpert": 9710,
      "Lei": 9711,
      "Leban": 9712,
      "Sek": 9713,
      "Seitz": 9714,
      "Seattle": 9715,
      "opi": 9716,
      "open": 9717,
      "opera": 9718,
      "uder": 9719,
      "udev": 9720,
      "Arc": 9721,
      "Arna": 9722,
      "ffield": 9723,
      "quina": 9724,
      "conv": 9725,
      "convict": 9726,
      "Lovely": 9727,
      "Nep": 9728,
      "Neumann": 9729,
      "owned": 9730,
      "Enzo": 9731,
      "Reuters": 9732,
      "ipelago": 9733,
      "Mau": 9734,
      "Lovebird": 9735,
      "ickard": 9736,
      "olds": 9737,
      "Bewildered": 9738,
      "Carson": 9739,
      "Caribbe": 9740,
      "Scent": 9741,
      "Scot": 9742,
      "Scanner": 9743,
      "exists": 9744,
      "Hee": 9745,
      "peal": 9746,
      "Adele": 9747,
      "Adano": 9748,
      "Elena": 9749,
      "Frenchmen": 9750,
      "ission": 9751,
      "Guilla": 9752,
      "serv": 9753,
      "125": 9754,
      "izza": 9755,
      "Cons": 9756,
      "Convent": 9757,
      "Convers": 9758,
      "Williamson": 9759,
      "188": 9760,
      "1812": 9761,
      "1870": 9762,
      "offers": 9763,
      "Ames": 9764,
      "McDonald": 9765,
      "epic": 9766,
      "ilda": 9767,
      "Bloss": 9768,
      "227": 9769,
      "election": 9770,
      "Foley": 9771,
      "Performan": 9772,
      "Dane": 9773,
      "Moran": 9774,
      "Brony": 9775,
      "Barrel": 9776,
      "Schl": 9777,
      "Colt": 9778,
      "Minter": 9779,
      "Whore": 9780,
      "keep": 9781,
      "Norbert": 9782,
      "Dreams": 9783,
      "Gentry": 9784,
      "partment": 9785,
      "Tribute": 9786,
      "Triumph": 9787,
      "Evan": 9788,
      "Glen": 9789,
      "Glimming": 9790,
      "inters": 9791,
      "Swickard": 9792,
      "rigan": 9793,
      "Darkly": 9794,
      "Merrill": 9795,
      "maid": 9796,
      "Series": 9797,
      "Singer": 9798,
      "Hoof": 9799,
      "relig": 9800,
      "Raúl": 9801,
      "Garner": 9802,
      "Shear": 9803,
      "Sheffield": 9804,
      "Novel": 9805,
      "Novak": 9806,
      "Josef": 9807,
      "Madge": 9808,
      "Poly": 9809,
      "Andrei": 9810,
      "cari": 9811,
      "Danielle": 9812,
      "Terra": 9813,
      "Organ": 9814,
      "Bait": 9815,
      "Disapproval": 9816,
      "Kee": 9817,
      "Syria": 9818,
      "Luther": 9819,
      "Soon": 9820,
      "sequels": 9821,
      "Redgrave": 9822,
      "showed": 9823,
      "chetti": 9824,
      "Momo": 9825,
      "submission": 9826,
      "Kenji": 9827,
      "Sidd": 9828,
      "prior": 9829,
      "Bread": 9830,
      "Touchdown": 9831,
      "ABCs": 9832,
      "Trogi": 9833,
      "childhood": 9834,
[...]
