{
  "version": "1.0",
  "truncation": null,
  "padding": null,
  "added_tokens": [
    {
      "id": 0,
      "content": "<UNK>",
      "single_word": false,
      "lstrip": false,
      "rstrip": false,
      "normalized": false,
      "special": true
    },
    {
      "id": 1,
      "content": "<PAD>",
      "single_word": false,
      "lstrip": false,
      "rstrip": false,
      "normalized": false,
      "special": true
    },
    {
      "id": 2,
      "content": "<MASK>",
      "single_word": false,
      "lstrip": false,
      "rstrip": false,
      "normalized": false,
      "special": true
    },
    {
      "id": 3,
      "content": "<SOS>",
      "single_word": false,
      "lstrip": false,
      "rstrip": false,
      "normalized": false,
      "special": true
    },
    {
      "id": 4,
      "content": "<EOS>",
      "single_word": false,
      "lstrip": false,
      "rstrip": false,
      "normalized": false,
      "special": true
    },
    {
      "id": 5,
      "content": "<SOT>",
      "single_word": false,
      "lstrip": false,
      "rstrip": false,
      "normalized": false,
      "special": true
    },
    {
      "id": 6,
      "content": "<EOT>",
      "single_word": false,
      "lstrip": false,
      "rstrip": false,
      "normalized": false,
      "special": true
    },
    {
      "id": 7,
      "content": "<SUBJ>",
      "single_word": false,
      "lstrip": false,
      "rstrip": false,
      "normalized": false,
      "special": true
    },
    {
      "id": 8,
      "content": "<PRED>",
      "single_word": false,
      "lstrip": false,
      "rstrip": false,
      "normalized": false,
      "special": true
    },
    {
      "id": 9,
      "content": "<OBJ>",
      "single_word": false,
      "lstrip": false,
      "rstrip": false,
      "normalized": false,
      "special": true
    },
    {
      "id": 10,
      "content": "<Text2RDF>",
      "single_word": false,
      "lstrip": false,
      "rstrip": false,
      "normalized": false,
      "special": true
    },
    {
      "id": 11,
      "content": "<RDF2Text>",
      "single_word": false,
      "lstrip": false,
      "rstrip": false,
      "normalized": false,
      "special": true
    },
    {
      "id": 12,
      "content": "<CONTINUERDF>",
      "single_word": false,
      "lstrip": false,
      "rstrip": false,
      "normalized": false,
      "special": true
    },
    {
      "id": 13,
      "content": "<MASKTASK>",
      "single_word": false,
      "lstrip": false,
      "rstrip": false,
      "normalized": false,
      "special": true
    }
  ],
  "normalizer": null,
  "pre_tokenizer": {
    "type": "Sequence",
    "pretokenizers": [
      {
        "type": "Split",
        "pattern": {
          "String": "_"
        },
        "behavior": "Removed",
        "invert": false
      },
      {
        "type": "Whitespace"
      }
    ]
  },
  "post_processor": null,
  "decoder": null,
  "model": {
    "type": "BPE",
    "dropout": null,
    "unk_token": "<UNK>",
    "continuing_subword_prefix": null,
    "end_of_word_suffix": null,
    "fuse_unk": false,
    "byte_fallback": false,
    "ignore_merges": false,
    "vocab": {
      "<UNK>": 0,
      "<PAD>": 1,
      "<MASK>": 2,
      "<SOS>": 3,
      "<EOS>": 4,
      "<SOT>": 5,
      "<EOT>": 6,
      "<SUBJ>": 7,
      "<PRED>": 8,
      "<OBJ>": 9,
      "<Text2RDF>": 10,
      "<RDF2Text>": 11,
      "<CONTINUERDF>": 12,
      "<MASKTASK>": 13,
      "!": 14,
      "\"": 15,
      "#": 16,
      "$": 17,
      "%": 18,
      "&": 19,
      "'": 20,
      "(": 21,
      ")": 22,
      "*": 23,
      "+": 24,
      ",": 25,
      "-": 26,
      ".": 27,
      "/": 28,
      "0": 29,
      "1": 30,
      "2": 31,
      "3": 32,
      "4": 33,
      "5": 34,
      "6": 35,
      "7": 36,
      "8": 37,
      "9": 38,
      ":": 39,
      ";": 40,
      "<": 41,
      "=": 42,
      ">": 43,
      "?": 44,
      "A": 45,
      "B": 46,
      "C": 47,
      "D": 48,
      "E": 49,
      "F": 50,
      "G": 51,
      "H": 52,
      "I": 53,
      "J": 54,
      "K": 55,
      "L": 56,
      "M": 57,
      "N": 58,
      "O": 59,
      "P": 60,
      "Q": 61,
      "R": 62,
      "S": 63,
      "T": 64,
      "U": 65,
      "V": 66,
      "W": 67,
      "X": 68,
      "Y": 69,
      "Z": 70,
      "[": 71,
      "]": 72,
      "`": 73,
      "a": 74,
      "b": 75,
      "c": 76,
      "d": 77,
      "e": 78,
      "f": 79,
      "g": 80,
      "h": 81,
      "i": 82,
      "j": 83,
      "k": 84,
      "l": 85,
      "m": 86,
      "n": 87,
      "o": 88,
      "p": 89,
      "q": 90,
      "r": 91,
      "s": 92,
      "t": 93,
      "u": 94,
      "v": 95,
      "w": 96,
      "x": 97,
      "y": 98,
      "z": 99,
      "{": 100,
      "}": 101,
      "~": 102,
      "£": 103,
      "°": 104,
      "½": 105,
      "À": 106,
      "Á": 107,
      "Å": 108,
      "Ç": 109,
      "È": 110,
      "É": 111,
      "Î": 112,
      "Ó": 113,
      "Ö": 114,
      "Ø": 115,
      "Ü": 116,
      "Þ": 117,
      "ß": 118,
      "à": 119,
      "á": 120,
      "â": 121,
      "ã": 122,
      "ä": 123,
      "å": 124,
      "æ": 125,
      "ç": 126,
      "è": 127,
      "é": 128,
      "ê": 129,
      "ë": 130,
      "ì": 131,
      "í": 132,
      "î": 133,
      "ï": 134,
      "ð": 135,
      "ñ": 136,
      "ò": 137,
      "ó": 138,
      "ô": 139,
      "õ": 140,
      "ö": 141,
      "ø": 142,
      "ù": 143,
      "ú": 144,
      "û": 145,
      "ü": 146,
      "ý": 147,
      "ā": 148,
      "ă": 149,
      "ą": 150,
      "ć": 151,
      "č": 152,
      "Đ": 153,
      "đ": 154,
      "ē": 155,
      "ė": 156,
      "ę": 157,
      "ě": 158,
      "ğ": 159,
      "ĩ": 160,
      "ī": 161,
      "İ": 162,
      "ı": 163,
      "Ľ": 164,
      "Ł": 165,
      "ł": 166,
      "ń": 167,
      "ň": 168,
      "Ō": 169,
      "ō": 170,
      "ő": 171,
      "ř": 172,
      "ś": 173,
      "ş": 174,
      "Š": 175,
      "š": 176,
      "ũ": 177,
      "ū": 178,
      "Ż": 179,
      "ż": 180,
      "Ž": 181,
      "ž": 182,
      "ơ": 183,
      "ư": 184,
      "ǎ": 185,
      "ǒ": 186,
      "ǔ": 187,
      "Ș": 188,
      "ș": 189,
      "ț": 190,
      "ɐ": 191,
      "ɔ": 192,
      "ə": 193,
      "ɛ": 194,
      "ɪ": 195,
      "ɻ": 196,
      "ʃ": 197,
      "ʋ": 198,
      "ʎ": 199,
      "ʏ": 200,
      "ʻ": 201,
      "ʿ": 202,
      "ˈ": 203,
      "ː": 204,
      "̩": 205,
      "̯": 206,
      "Ε": 207,
      "ά": 208,
      "έ": 209,
      "ί": 210,
      "α": 211,
      "δ": 212,
      "ε": 213,
      "ι": 214,
      "κ": 215,
      "λ": 216,
      "ρ": 217,
      "ς": 218,
      "τ": 219,
      "χ": 220,
      "ω": 221,
      "ό": 222,
      "Г": 223,
      "И": 224,
      "Л": 225,
      "О": 226,
      "П": 227,
      "Р": 228,
      "С": 229,
      "а": 230,
      "б": 231,
      "в": 232,
      "г": 233,
      "д": 234,
      "е": 235,
      "ж": 236,
      "з": 237,
      "и": 238,
      "й": 239,
      "к": 240,
      "л": 241,
      "м": 242,
      "н": 243,
      "о": 244,
      "п": 245,
      "р": 246,
      "с": 247,
      "т": 248,
      "у": 249,
      "ф": 250,
      "х": 251,
      "ц": 252,
      "ч": 253,
      "ш": 254,
      "щ": 255,
      "ы": 256,
      "ь": 257,
      "ю": 258,
      "я": 259,
      "א": 260,
      "ב": 261,
      "ג": 262,
      "ד": 263,
      "ה": 264,
      "ו": 265,
      "ח": 266,
      "י": 267,
      "ך": 268,
      "ל": 269,
      "ם": 270,
      "מ": 271,
      "פ": 272,
      "צ": 273,
      "ר": 274,
      "ש": 275,
      "ת": 276,
      "ؤ": 277,
      "ا": 278,
      "ب": 279,
      "ة": 280,
      "ت": 281,
      "ج": 282,
      "ح": 283,
      "خ": 284,
      "د": 285,
      "ر": 286,
      "س": 287,
      "ص": 288,
      "ض": 289,
      "ط": 290,
      "ع": 291,
      "ف": 292,
      "ك": 293,
      "م": 294,
      "ن": 295,
      "ه": 296,
      "و": 297,
      "ي": 298,
      "١": 299,
      "٨": 300,
      "ک": 301,
      "گ": 302,
      "ں": 303,
      "ہ": 304,
      "ی": 305,
      "۲": 306,
      "۳": 307,
      "۴": 308,
      "۵": 309,
      "क": 310,
      "र": 311,
      "ल": 312,
      "ा": 313,
      "ि": 314,
      "ी": 315,
      "्": 316,
      "५": 317,
      "६": 318,
      "ট": 319,
      "দ": 320,
      "শ": 321,
      "া": 322,
      "ં": 323,
      "ટ": 324,
      "ન": 325,
      "ફ": 326,
      "મ": 327,
      "િ": 328,
      "ુ": 329,
      "૧": 330,
      "૨": 331,
      "ಕ": 332,
      "ನ": 333,
      "ರ": 334,
      "ಸ": 335,
      "ಾ": 336,
      "ೇ": 337,
      "್": 338,
      "೧": 339,
      "೮": 340,
      "ම": 341,
      "ය": 342,
      "්": 343,
      "ා": 344,
      "ก": 345,
      "ค": 346,
      "ฆ": 347,
      "ง": 348,
      "จ": 349,
      "ช": 350,
      "ต": 351,
      "น": 352,
      "บ": 353,
      "ฝ": 354,
      "พ": 355,
      "ม": 356,
      "ย": 357,
      "ร": 358,
      "ล": 359,
      "ว": 360,
      "ส": 361,
      "ห": 362,
      "อ": 363,
      "ะ": 364,
      "ั": 365,
      "า": 366,
      "ี": 367,
      "ุ": 368,
      "ู": 369,
      "เ": 370,
      "แ": 371,
      "่": 372,
      "้": 373,
      "က": 374,
      "င": 375,
      "န": 376,
      "ပ": 377,
      "ဗ": 378,
      "ဘ": 379,
      "မ": 380,
      "ရ": 381,
      "လ": 382,
      "သ": 383,
      "ိ": 384,
      "ီ": 385,
      "ု": 386,
      "ူ": 387,
      "ဲ": 388,
      "့": 389,
      "း": 390,
      "်": 391,
      "ျ": 392,
      "ှ": 393,
      "၀": 394,
      "၁": 395,
      "၃": 396,
      "၄": 397,
      "၉": 398,
      "၊": 399,
      "ა": 400,
      "გ": 401,
      "დ": 402,
      "ე": 403,
      "ი": 404,
      "კ": 405,
      "ლ": 406,
      "მ": 407,
      "ნ": 408,
      "ო": 409,
      "რ": 410,
      "ტ": 411,
      "უ": 412,
      "ც": 413,
      "ላ": 414,
      "መ": 415,
      "በ": 416,
      "ታ": 417,
      "ት": 418,
      "ኋ": 419,
      "ዓ": 420,
      "፭": 421,
      "፻": 422,
      "ḥ": 423,
      "ṭ": 424,
      "ạ": 425,
      "ẻ": 426,
      "ế": 427,
      "ễ": 428,
      "ớ": 429,
      "ủ": 430,
      "–": 431,
      "—": 432,
      "‘": 433,
      "’": 434,
      "“": 435,
      "”": 436,
      "„": 437,
      "⁄": 438,
      "₹": 439,
      "〇": 440,
      "〜": 441,
      "あ": 442,
      "い": 443,
      "う": 444,
      "こ": 445,
      "さ": 446,
      "す": 447,
      "た": 448,
      "ち": 449,
      "で": 450,
      "と": 451,
      "な": 452,
      "に": 453,
      "の": 454,
      "れ": 455,
      "を": 456,
      "ん": 457,
      "イ": 458,
      "ェ": 459,
      "エ": 460,
      "カ": 461,
      "ク": 462,
      "サ": 463,
      "シ": 464,
      "ジ": 465,
      "ス": 466,
      "ズ": 467,
      "セ": 468,
      "タ": 469,
      "チ": 470,
      "ッ": 471,
      "ト": 472,
      "ド": 473,
      "ナ": 474,
      "ノ": 475,
      "ハ": 476,
      "パ": 477,
      "マ": 478,
      "ミ": 479,
      "ラ": 480,
      "リ": 481,
      "ル": 482,
      "ン": 483,
      "・": 484,
      "ー": 485,
      "一": 486,
      "七": 487,
      "万": 488,
      "三": 489,
      "上": 490,
      "不": 491,
      "九": 492,
      "乳": 493,
      "二": 494,
      "五": 495,
      "亥": 496,
      "人": 497,
      "他": 498,
      "你": 499,
      "僕": 500,
      "元": 501,
      "光": 502,
      "入": 503,
      "八": 504,
      "公": 505,
      "兵": 506,
      "円": 507,
      "冒": 508,
      "分": 509,
      "刺": 510,
      "功": 511,
      "十": 512,
      "向": 513,
      "命": 514,
      "哀": 515,
      "唐": 516,
      "四": 517,
      "城": 518,
      "士": 519,
      "壯": 520,
      "夏": 521,
      "大": 522,
      "天": 523,
      "夫": 524,
      "女": 525,
      "她": 526,
      "妻": 527,
      "子": 528,
      "客": 529,
      "家": 530,
      "寒": 531,
      "對": 532,
      "小": 533,
      "少": 534,
      "山": 535,
      "岁": 536,
      "島": 537,
      "帝": 538,
      "底": 539,
      "復": 540,
      "忘": 541,
      "恋": 542,
      "悼": 543,
      "情": 544,
      "想": 545,
      "愛": 546,
      "應": 547,
      "成": 548,
      "我": 549,
      "房": 550,
      "拳": 551,
      "效": 552,
      "日": 553,
      "早": 554,
      "時": 555,
      "月": 556,
      "束": 557,
      "林": 558,
      "樓": 559,
      "武": 560,
      "歲": 561,
      "殺": 562,
      "決": 563,
      "海": 564,
      "熟": 565,
      "爱": 566,
      "物": 567,
      "犬": 568,
      "猛": 569,
      "生": 570,
      "由": 571,
      "當": 572,
      "疯": 573,
      "瘋": 574,
      "百": 575,
      "的": 576,
      "盲": 577,
      "真": 578,
      "私": 579,
      "租": 580,
      "紀": 581,
      "約": 582,
      "組": 583,
      "絕": 584,
      "者": 585,
      "能": 586,
      "自": 587,
      "與": 588,
      "若": 589,
      "茲": 590,
      "营": 591,
      "虎": 592,
      "蛇": 593,
      "蟬": 594,
      "衛": 595,
      "衣": 596,
      "語": 597,
      "讐": 598,
      "记": 599,
      "说": 600,
      "豹": 601,
      "赫": 602,
      "輝": 603,
      "辉": 604,
      "辛": 605,
      "返": 606,
      "郎": 607,
      "重": 608,
      "金": 609,
      "錦": 610,
      "険": 611,
      "隔": 612,
      "離": 613,
      "難": 614,
      "革": 615,
      "飛": 616,
      "飞": 617,
      "馬": 618,
      "骰": 619,
      "鬼": 620,
      "鴨": 621,
      "鷹": 622,
      "鸭": 623,
      "龍": 624,
      "ꯁ": 625,
      "ꯃ": 626,
      "ꯆ": 627,
      "ꯇ": 628,
      "ꯉ": 629,
      "ꯍ": 630,
      "ꯒ": 631,
      "ꯕ": 632,
      "ꯗ": 633,
      "ꯡ": 634,
      "ꯤ": 635,
      "ꯥ": 636,
      "ꯨ": 637,
      "꯲": 638,
      "꯳": 639,
      "거": 640,
      "공": 641,
      "괴": 642,
      "교": 643,
      "기": 644,
      "끝": 645,
      "나": 646,
      "너": 647,
      "녀": 648,
      "년": 649,
      "는": 650,
      "데": 651,
      "로": 652,
      "를": 653,
      "리": 654,
      "메": 655,
      "모": 656,
      "미": 657,
      "분": 658,
      "빈": 659,
      "삼": 660,
      "세": 661,
      "소": 662,
      "속": 663,
      "스": 664,
      "시": 665,
      "아": 666,
      "않": 667,
      "야": 668,
      "엔": 669,
      "역": 670,
      "열": 671,
      "영": 672,
      "워": 673,
      "으": 674,
      "은": 675,
      "을": 676,
      "의": 677,
      "이": 678,
      "잊": 679,
      "쟁": 680,
      "전": 681,
      "즈": 682,
      "지": 683,
      "집": 684,
      "추": 685,
      "칠": 686,
      "트": 687,
      "포": 688,
      "한": 689,
      "화": 690,
      "０": 691,
      "１": 692,
      "db": 693,
      "OT": 694,
      "BJ": 695,
      "dbr": 696,
      "in": 697,
      "an": 698,
      "er": 699,
      "ar": 700,
      "PR": 701,
      "SU": 702,
      "PRE": 703,
      "EOT": 704,
      "OBJ": 705,
      "SOT": 706,
      "dbo": 707,
      "SUBJ": 708,
      "PRED": 709,
      "st": 710,
      "il": 711,
      "th": 712,
      "re": 713,
      "on": 714,
      "ing": 715,
      "or": 716,
      "ilm": 717,
      "ed": 718,
      "en": 719,
      "film": 720,
      "al": 721,
      "the": 722,
      "as": 723,
      "at": 724,
      "star": 725,
      "ri": 726,
      "and": 727,
      "di": 728,
      "ring": 729,
      "ct": 730,
      "starring": 731,
      "is": 732,
      "es": 733,
      "ro": 734,
      "ic": 735,
      "20": 736,
      "el": 737,
      "of": 738,
      "it": 739,
      "he": 740,
      "am": 741,
      "rect": 742,
      "om": 743,
      "direct": 744,
      "by": 745,
      "ou": 746,
      "ter": 747,
      "le": 748,
      "ay": 749,
      "ion": 750,
      "The": 751,
      "to": 752,
      "19": 753,
      "ra": 754,
      "os": 755,
      "du": 756,
      "ut": 757,
      "wri": 758,
      "em": 759,
      "us": 760,
      "00": 761,
      "ol": 762,
      "pro": 763,
      "ad": 764,
      "ch": 765,
      "was": 766,
      "ag": 767,
      "ent": 768,
      "un": 769,
      "director": 770,
      "produ": 771,
      "201": 772,
      "et": 773,
      "produc": 774,
      "writer": 775,
      "iv": 776,
      "directed": 777,
      "ig": 778,
      "Ch": 779,
      "id": 780,
      "ir": 781,
      "St": 782,
      "It": 783,
      "im": 784,
      "ang": 785,
      "ac": 786,
      "for": 787,
      "producer": 788,
      "ill": 789,
      "but": 790,
      "ph": 791,
      "omp": 792,
      "200": 793,
      "ov": 794,
      "est": 795,
      "ard": 796,
      "um": 797,
      "ak": 798,
      "ul": 799,
      "ow": 800,
      "ot": 801,
      "og": 802,
      "ers": 803,
      "usic": 804,
      "ur": 805,
      "ays": 806,
      "age": 807,
      "ie": 808,
      "ber": 809,
      "ce": 810,
      "music": 811,
      "av": 812,
      "ev": 813,
      "res": 814,
      "ased": 815,
      "10": 816,
      "In": 817,
      "all": 818,
      "stri": 819,
      "ompos": 820,
      "wh": 821,
      "man": 822,
      "ation": 823,
      "ian": 824,
      "stribut": 825,
      "ear": 826,
      "omposer": 827,
      "oc": 828,
      "distribut": 829,
      "ich": 830,
      "sh": 831,
      "ith": 832,
      "Days": 833,
      "act": 834,
      "An": 835,
      "Sh": 836,
      "Composer": 837,
      "musicComposer": 838,
      "Mar": 839,
      "ab": 840,
      "inem": 841,
      "distributor": 842,
      "Film": 843,
      "rele": 844,
      "oun": 845,
      "angu": 846,
      "anguage": 847,
      "our": 848,
      "de": 849,
      "ap": 850,
      "ten": 851,
      "raph": 852,
      "language": 853,
      "mer": 854,
      "se": 855,
      "cinem": 856,
      "com": 857,
      "ht": 858,
      "ne": 859,
      "ia": 860,
      "12": 861,
      "ograph": 862,
      "ry": 863,
      "pl": 864,
      "ram": 865,
      "released": 866,
      "ish": 867,
      "fe": 868,
      "with": 869,
      "atograph": 870,
      "Al": 871,
      "cinematograph": 872,
      "od": 873,
      "be": 874,
      "ath": 875,
      "ell": 876,
      "ore": 877,
      "..": 878,
      "ies": 879,
      "ain": 880,
      "ary": 881,
      "13": 882,
      "ran": 883,
      "oh": 884,
      "edit": 885,
      "tten": 886,
      "rom": 887,
      "ight": 888,
      "cinematography": 889,
      "Se": 890,
      "ast": 891,
      "100": 892,
      "written": 893,
      "ong": 894,
      "ict": 895,
      "ik": 896,
      "op": 897,
      "ee": 898,
      "ican": 899,
      "from": 900,
      "24": 901,
      "ort": 902,
      "sc": 903,
      "30": 904,
      "Th": 905,
      "Amer": 906,
      "ly": 907,
      "Ro": 908,
      "ann": 909,
      "art": 910,
      "22": 911,
      "up": 912,
      "ory": 913,
      "ug": 914,
      "editing": 915,
      "American": 916,
      "ward": 917,
      "ack": 918,
      "ah": 919,
      "qu": 920,
      "ud": 921,
      "ist": 922,
      "Hour": 923,
      "als": 924,
      "18": 925,
      "De": 926,
      "ere": 927,
      "ai": 928,
      "ures": 929,
      "ears": 930,
      "con": 931,
      "dram": 932,
      "000": 933,
      "Un": 934,
      "21": 935,
      "drama": 936,
      "der": 937,
      "ip": 938,
      "son": 939,
      "out": 940,
      "ust": 941,
      "ant": 942,
      "Le": 943,
      "Ar": 944,
      "ge": 945,
      "les": 946,
      "stars": 947,
      "who": 948,
      "199": 949,
      "Hours": 950,
      "Indi": 951,
      "actor": 952,
      "own": 953,
      "ren": 954,
      "la": 955,
      "per": 956,
      "ount": 957,
      "inut": 958,
      "edy": 959,
      "ass": 960,
      "estiv": 961,
      "Ne": 962,
      "ok": 963,
      "mi": 964,
      "Joh": 965,
      "ue": 966,
      "ive": 967,
      "one": 968,
      "En": 969,
      "ser": 970,
      "also": 971,
      "his": 972,
      "Years": 973,
      "pre": 974,
      "ine": 975,
      "ide": 976,
      ":'": 977,
      "11": 978,
      "comedy": 979,
      "aw": 980,
      "rit": 981,
      "produced": 982,
      "ess": 983,
      "estival": 984,
      "af": 985,
      "lo": 986,
      "au": 987,
      "Re": 988,
      "ck": 989,
      "ember": 990,
      "ub": 991,
      "ani": 992,
      "ate": 993,
      "te": 994,
      "ally": 995,
      "aj": 996,
      "end": 997,
      "pt": 998,
      "reen": 999,
      "John": 1000,
      "Par": 1001,
      "ros": 1002,
      "Minut": 1003,
      "ure": 1004,
      "ates": 1005,
      "Festival": 1006,
      "ational": 1007,
      "36": 1008,
      "ction": 1009,
      "li": 1010,
      "pe": 1011,
      "ex": 1012,
      "that": 1013,
      "ame": 1014,
      "ern": 1015,
      "tern": 1016,
      "15": 1017,
      "inc": 1018,
      "are": 1019,
      "ated": 1020,
      "its": 1021,
      "bert": 1022,
      "...": 1023,
      "Dav": 1024,
      "ment": 1025,
      "Pict": 1026,
      "Indian": 1027,
      "wo": 1028,
      "40": 1029,
      "oth": 1030,
      "co": 1031,
      "198": 1032,
      "Chri": 1033,
      "based": 1034,
      "count": 1035,
      "ous": 1036,
      "Fran": 1037,
      "und": 1038,
      "Night": 1039,
      "ity": 1040,
      "ins": 1041,
      "story": 1042,
      "att": 1043,
      "ument": 1044,
      "War": 1045,
      "uk": 1046,
      "oll": 1047,
      "Award": 1048,
      "ound": 1049,
      "Pictures": 1050,
      "ick": 1051,
      "Mich": 1052,
      "ocument": 1053,
      "Cl": 1054,
      "ana": 1055,
      "series": 1056,
      "14": 1057,
      "if": 1058,
      "Best": 1059,
      "irst": 1060,
      "Minutes": 1061,
      "Be": 1062,
      "Car": 1063,
      "ost": 1064,
      "ord": 1065,
      "Pe": 1066,
      "ocumentary": 1067,
      "Men": 1068,
      "ited": 1069,
      "ial": 1070,
      "me": 1071,
      "reet": 1072,
      "196": 1073,
      "old": 1074,
      "Har": 1075,
      "ks": 1076,
      "ile": 1077,
      "Sp": 1078,
      "ternational": 1079,
      "195": 1080,
      "ese": 1081,
      "country": 1082,
      "Ger": 1083,
      "play": 1084,
      "az": 1085,
      "ael": 1086,
      "red": 1087,
      "Bl": 1088,
      "ton": 1089,
      "iller": 1090,
      "which": 1091,
      "ld": 1092,
      "wor": 1093,
      "Street": 1094,
      "Robert": 1095,
      "ric": 1096,
      "ff": 1097,
      "ane": 1098,
      "ele": 1099,
      "2012": 1100,
      "ical": 1101,
      "And": 1102,
      "17": 1103,
      "ob": 1104,
      "oy": 1105,
      "197": 1106,
      "tit": 1107,
      "ner": 1108,
      "uc": 1109,
      "16": 1110,
      "ach": 1111,
      "io": 1112,
      "ence": 1113,
      "ade": 1114,
      "feat": 1115,
      "Christ": 1116,
      "off": 1117,
      "25": 1118,
      "Me": 1119,
      "premi": 1120,
      "screen": 1121,
      "Ge": 1122,
      "port": 1123,
      "ind": 1124,
      "Michael": 1125,
      "Ab": 1126,
      "ru": 1127,
      "ke": 1128,
      "ts": 1129,
      "rev": 1130,
      "Fe": 1131,
      "Sc": 1132,
      "her": 1133,
      "ose": 1134,
      "ress": 1135,
      ":...": 1136,
      "ina": 1137,
      "2019": 1138,
      "ley": 1139,
      "ove": 1140,
      "ake": 1141,
      "ock": 1142,
      "Ap": 1143,
      "Li": 1144,
      "2011": 1145,
      "International": 1146,
      "Bro": 1147,
      "Di": 1148,
      "ice": 1149,
      "2014": 1150,
      "ime": 1151,
      "50": 1152,
      "documentary": 1153,
      "about": 1154,
      "Rich": 1155,
      "iss": 1156,
      "United": 1157,
      "As": 1158,
      "enn": 1159,
      "New": 1160,
      "Mc": 1161,
      "Man": 1162,
      "Ph": 1163,
      "first": 1164,
      "ered": 1165,
      "rece": 1166,
      "eng": 1167,
      "we": 1168,
      "Jun": 1169,
      "ox": 1170,
      "ived": 1171,
      "David": 1172,
      "ver": 1173,
      "German": 1174,
      "Mal": 1175,
      "2007": 1176,
      "Ac": 1177,
      "May": 1178,
      "my": 1179,
      "ater": 1180,
      "iew": 1181,
      "States": 1182,
      "ace": 1183,
      "Pro": 1184,
      "ree": 1185,
      "amil": 1186,
      "ames": 1187,
      "ters": 1188,
      "23": 1189,
      "Ma": 1190,
      "ril": 1191,
      "udi": 1192,
      "ons": 1193,
      "2015": 1194,
      "2017": 1195,
      "ross": 1196,
      "He": 1197,
      "riller": 1198,
      "ond": 1199,
      "oman": 1200,
      "thriller": 1201,
      "ens": 1202,
      "short": 1203,
      "received": 1204,
      "Love": 1205,
      "tain": 1206,
      "ony": 1207,
      "ings": 1208,
      "2016": 1209,
      "has": 1210,
      "ase": 1211,
      "illion": 1212,
      "ever": 1213,
      "Nor": 1214,
      "han": 1215,
      "kn": 1216,
      "irl": 1217,
      "ali": 1218,
      "2008": 1219,
      "app": 1220,
      "Geor": 1221,
      "Je": 1222,
      "2001": 1223,
      "Richard": 1224,
      "Jan": 1225,
      "ovie": 1226,
      "Mon": 1227,
      "Mor": 1228,
      "comp": 1229,
      "2013": 1230,
      "Ste": 1231,
      "Jul": 1232,
      "Sing": 1233,
      "aul": 1234,
      "Will": 1235,
      "over": 1236,
      "27": 1237,
      "ari": 1238,
      "roman": 1239,
      "Films": 1240,
      "after": 1241,
      "47": 1242,
      "Am": 1243,
      "Bri": 1244,
      "Col": 1245,
      "Jon": 1246,
      "incl": 1247,
      "Sou": 1248,
      "tra": 1249,
      "El": 1250,
      "had": 1251,
      "won": 1252,
      "ya": 1253,
      "inal": 1254,
      "2010": 1255,
      "ave": 1256,
      "June": 1257,
      ").": 1258,
      "TV": 1259,
      "Wh": 1260,
      "Is": 1261,
      "Mo": 1262,
      "We": 1263,
      "na": 1264,
      "char": 1265,
      "2009": 1266,
      "ror": 1267,
      "ara": 1268,
      "2000": 1269,
      "ney": 1270,
      "alian": 1271,
      "uss": 1272,
      "ung": 1273,
      "premiered": 1274,
      "hi": 1275,
      "pi": 1276,
      "tic": 1277,
      "were": 1278,
      "ome": 1279,
      "Char": 1280,
      "ott": 1281,
      "ollow": 1282,
      "cast": 1283,
      "ank": 1284,
      "ents": 1285,
      "ury": 1286,
      "Ang": 1287,
      "),": 1288,
      "Raj": 1289,
      "omin": 1290,
      "James": 1291,
      "Mil": 1292,
      "ark": 1293,
      "emy": 1294,
      "follow": 1295,
      "ise": 1296,
      "ale": 1297,
      "their": 1298,
      "193": 1299,
      "ign": 1300,
      "even": 1301,
      "known": 1302,
      "includ": 1303,
      "Paul": 1304,
      "ma": 1305,
      "indi": 1306,
      "title": 1307,
      "45": 1308,
      "iam": 1309,
      "not": 1310,
      "ron": 1311,
      "action": 1312,
      "ugh": 1313,
      "Cor": 1314,
      "nov": 1315,
      "Nights": 1316,
      "48": 1317,
      "ier": 1318,
      "anish": 1319,
      "ada": 1320,
      "Life": 1321,
      "Af": 1322,
      "Cent": 1323,
      "Don": 1324,
      "crit": 1325,
      "roles": 1326,
      "ett": 1327,
      "Fren": 1328,
      "ans": 1329,
      "eld": 1330,
      "French": 1331,
      "28": 1332,
      "Em": 1333,
      "cre": 1334,
      "yn": 1335,
      "ision": 1336,
      "lead": 1337,
      "other": 1338,
      "ces": 1339,
      "mak": 1340,
      "rig": 1341,
      "Awards": 1342,
      "George": 1343,
      "88": 1344,
      "Ad": 1345,
      "Ale": 1346,
      "Con": 1347,
      "Ros": 1348,
      "fore": 1349,
      "two": 1350,
      "esh": 1351,
      "Co": 1352,
      "Day": 1353,
      "Pat": 1354,
      "ations": 1355,
      "Ber": 1356,
      "Mur": 1357,
      "Wal": 1358,
      "gl": 1359,
      "hor": 1360,
      "made": 1361,
      "nomin": 1362,
      "ics": 1363,
      "ely": 1364,
      "tertain": 1365,
      "Chin": 1366,
      "Mark": 1367,
      "Sch": 1368,
      "Tamil": 1369,
      "iction": 1370,
      "Jack": 1371,
      "ted": 1372,
      "vi": 1373,
      "war": 1374,
      "films": 1375,
      "ite": 1376,
      "omen": 1377,
      "under": 1378,
      "Dec": 1379,
      "80": 1380,
      "At": 1381,
      "Girl": 1382,
      "liv": 1383,
      "ve": 1384,
      "2020": 1385,
      "William": 1386,
      "any": 1387,
      "29": 1388,
      "Ag": 1389,
      "Jap": 1390,
      "pos": 1391,
      "ster": 1392,
      "ris": 1393,
      "Entertain": 1394,
      "Produ": 1395,
      "Japan": 1396,
      "Jo": 1397,
      "cond": 1398,
      "romantic": 1399,
      "Entertainment": 1400,
      "49": 1401,
      "Ben": 1402,
      "night": 1403,
      "ther": 1404,
      "2021": 1405,
      "dep": 1406,
      "sequ": 1407,
      "All": 1408,
      "iews": 1409,
      "December": 1410,
      "Bh": 1411,
      "Gu": 1412,
      "Hindi": 1413,
      "ij": 1414,
      "min": 1415,
      "movie": 1416,
      "2018": 1417,
      "ots": 1418,
      "release": 1419,
      "debut": 1420,
      "April": 1421,
      "77": 1422,
      "Ed": 1423,
      "gen": 1424,
      "sup": 1425,
      "ideo": 1426,
      "ounds": 1427,
      "Go": 1428,
      "Lee": 1429,
      "lin": 1430,
      "ty": 1431,
      "rel": 1432,
      "ors": 1433,
      "theat": 1434,
      "els": 1435,
      "ademy": 1436,
      "production": 1437,
      "Academy": 1438,
      "Dev": 1439,
      "award": 1440,
      "orig": 1441,
      "Brit": 1442,
      "Sam": 1443,
      "ail": 1444,
      "iz": 1445,
      "million": 1446,
      "ork": 1447,
      "ica": 1448,
      "Nin": 1449,
      "cri": 1450,
      "part": 1451,
      "ash": 1452,
      "elev": 1453,
      "Peter": 1454,
      "South": 1455,
      "Av": 1456,
      "time": 1457,
      "ilip": 1458,
      "Sept": 1459,
      "September": 1460,
      "Gold": 1461,
      "led": 1462,
      "Italian": 1463,
      "urn": 1464,
      "ike": 1465,
      "Spanish": 1466,
      "feature": 1467,
      "Miles": 1468,
      "horror": 1469,
      "elevision": 1470,
      "ib": 1471,
      "oot": 1472,
      "anc": 1473,
      "olog": 1474,
      "novel": 1475,
      "42": 1476,
      "Bal": 1477,
      "Her": 1478,
      "Hol": 1479,
      "je": 1480,
      "ps": 1481,
      "su": 1482,
      "same": 1483,
      "during": 1484,
      "umb": 1485,
      "shot": 1486,
      "Shar": 1487,
      "charact": 1488,
      "Dani": 1489,
      "Part": 1490,
      "Up": 1491,
      "West": 1492,
      "men": 1493,
      "ues": 1494,
      "yl": 1495,
      "Frank": 1496,
      "Wee": 1497,
      "gro": 1498,
      "tin": 1499,
      "ene": 1500,
      "ird": 1501,
      "2004": 1502,
      "ult": 1503,
      "March": 1504,
      "world": 1505,
      "ucc": 1506,
      "British": 1507,
      "Aug": 1508,
      "Ba": 1509,
      "fiction": 1510,
      "ober": 1511,
      "101": 1512,
      "August": 1513,
      "Or": 1514,
      "Ra": 1515,
      "Russ": 1516,
      "Sl": 1517,
      "York": 1518,
      "ced": 1519,
      "reviews": 1520,
      "Oct": 1521,
      "Tom": 1522,
      "sk": 1523,
      "ves": 1524,
      "way": 1525,
      "itt": 1526,
      "umar": 1527,
      "Carl": 1528,
      "Century": 1529,
      "October": 1530,
      "Bra": 1531,
      "Mad": 1532,
      "cl": 1533,
      "ha": 1534,
      "ys": 1535,
      "Jose": 1536,
      "par": 1537,
      "sl": 1538,
      "arth": 1539,
      "2002": 1540,
      "You": 1541,
      "che": 1542,
      "des": 1543,
      "land": 1544,
      "ual": 1545,
      "well": 1546,
      "ze": 1547,
      "int": 1548,
      "ories": 1549,
      "1920": 1550,
      "2006": 1551,
      "oung": 1552,
      "Bar": 1553,
      "Er": 1554,
      "Mat": 1555,
      "Per": 1556,
      "Ram": 1557,
      "Sm": 1558,
      "Sund": 1559,
      "Women": 1560,
      "bor": 1561,
      "ep": 1562,
      "gan": 1563,
      "med": 1564,
      "uary": 1565,
      "rab": 1566,
      "wood": 1567,
      "January": 1568,
      "Ex": 1569,
      "She": 1570,
      "go": 1571,
      "oo": 1572,
      "sel": 1573,
      "wn": 1574,
      "win": 1575,
      "igh": 1576,
      "ugu": 1577,
      "life": 1578,
      "follows": 1579,
      "including": 1580,
      "Com": 1581,
      "Ev": 1582,
      "Lane": 1583,
      "jas": 1584,
      "mar": 1585,
      "oon": 1586,
      "uck": 1587,
      "ions": 1588,
      "Malay": 1589,
      "Alex": 1590,
      "Chinese": 1591,
      "72": 1592,
      ":$": 1593,
      "Act": 1594,
      "East": 1595,
      "Fox": 1596,
      "San": 1597,
      "Sil": 1598,
      "get": 1599,
      "hist": 1600,
      "name": 1601,
      "sch": 1602,
      "video": 1603,
      "inter": 1604,
      "ild": 1605,
      "rough": 1606,
      "oug": 1607,
      "ubl": 1608,
      "65": 1609,
      "Cinem": 1610,
      "My": 1611,
      "Red": 1612,
      "Allo": 1613,
      "Under": 1614,
      "Ninjas": 1615,
      "Joseph": 1616,
      "Nov": 1617,
      "Pri": 1618,
      "Ray": 1619,
      "Sk": 1620,
      "bre": 1621,
      "oor": 1622,
      "three": 1623,
      "44": 1624,
      "Aust": 1625,
      "Later": 1626,
      "iet": 1627,
      "sen": 1628,
      "set": 1629,
      "ouse": 1630,
      "Studi": 1631,
      "been": 1632,
      "Gh": 1633,
      "Jos": 1634,
      "La": 1635,
      "Pl": 1636,
      "adi": 1637,
      "cial": 1638,
      "dem": 1639,
      "lie": 1640,
      "mas": 1641,
      "ood": 1642,
      "rat": 1643,
      "year": 1644,
      "alam": 1645,
      "ason": 1646,
      "2022": 1647,
      "amed": 1648,
      "rac": 1649,
      "ather": 1650,
      "Park": 1651,
      "work": 1652,
      "features": 1653,
      "nominated": 1654,
      "Daniel": 1655,
      "Bul": 1656,
      "City": 1657,
      "Kar": 1658,
      "Pal": 1659,
      "Qu": 1660,
      "Su": 1661,
      "Year": 1662,
      "hu": 1663,
      "ield": 1664,
      "into": 1665,
      "ret": 1666,
      "ald": 1667,
      "they": 1668,
      "cted": 1669,
      "Engl": 1670,
      "sequel": 1671,
      "08": 1672,
      "Dee": 1673,
      "Ter": 1674,
      "air": 1675,
      "bet": 1676,
      "ience": 1677,
      "most": 1678,
      "able": 1679,
      "being": 1680,
      "orean": 1681,
      "screenplay": 1682,
      "Ass": 1683,
      "Philip": 1684,
      "Production": 1685,
      "uccess": 1686,
      "33": 1687,
      "Dar": 1688,
      "Del": 1689,
      "Kh": 1690,
      "Sal": 1691,
      "Til": 1692,
      "bo": 1693,
      "bro": 1694,
      "ger": 1695,
      "success": 1696,
      "years": 1697,
      "ino": 1698,
      "rav": 1699,
      "erson": 1700,
      "actress": 1701,
      "Rob": 1702,
      "500": 1703,
      "adu": 1704,
      "gross": 1705,
      "rand": 1706,
      "television": 1707,
      "through": 1708,
      "reg": 1709,
      "filmmak": 1710,
      "dian": 1711,
      "ama": 1712,
      "olf": 1713,
      "adap": 1714,
      "unn": 1715,
      "ainst": 1716,
      "India": 1717,
      "Cana": 1718,
      "Gar": 1719,
      "bl": 1720,
      "ix": 1721,
      "mon": 1722,
      "rue": 1723,
      "ance": 1724,
      "ston": 1725,
      "rem": 1726,
      "20th": 1727,
      "acc": 1728,
      "while": 1729,
      "Jean": 1730,
      "Girls": 1731,
      "original": 1732,
      "Weeks": 1733,
      "November": 1734,
      "Canadian": 1735,
      "26": 1736,
      "31": 1737,
      ":.": 1738,
      "King": 1739,
      "Pr": 1740,
      "Ru": 1741,
      "Tel": 1742,
      "Wor": 1743,
      "no": 1744,
      "por": 1745,
      "publ": 1746,
      "tran": 1747,
      "show": 1748,
      "editor": 1749,
      "Thom": 1750,
      "ween": 1751,
      "support": 1752,
      "52": 1753,
      "64": 1754,
      "71": 1755,
      ":%": 1756,
      "Ak": 1757,
      "Kill": 1758,
      "ca": 1759,
      "him": 1760,
      "sele": 1761,
      "vers": 1762,
      "anth": 1763,
      "amp": 1764,
      "ivers": 1765,
      "Story": 1766,
      "place": 1767,
      "This": 1768,
      "crime": 1769,
      "Gl": 1770,
      "Gun": 1771,
      "Lau": 1772,
      "Luc": 1773,
      "Moh": 1774,
      "Te": 1775,
      "rey": 1776,
      "rish": 1777,
      "perfor": 1778,
      "between": 1779,
      "Bo": 1780,
      "Jim": 1781,
      "One": 1782,
      "Ron": 1783,
      "Val": 1784,
      "nd": 1785,
      "pres": 1786,
      "ody": 1787,
      "1971": 1788,
      "critics": 1789,
      "Malayalam": 1790,
      "English": 1791,
      "66": 1792,
      "On": 1793,
      "Tim": 1794,
      "ka": 1795,
      "oph": 1796,
      "side": 1797,
      "ini": 1798,
      "before": 1799,
      "1001": 1800,
      "ople": 1801,
      "posit": 1802,
      "Japanese": 1803,
      "World": 1804,
      "\".": 1805,
      "300": 1806,
      "Bern": 1807,
      "Ha": 1808,
      "Hen": 1809,
      "Rav": 1810,
      "Tor": 1811,
      "col": 1812,
      "day": 1813,
      "ler": 1814,
      "ta": 1815,
      "ines": 1816,
      "ref": 1817,
      "ull": 1818,
      "Sha": 1819,
      "lywood": 1820,
      "Scott": 1821,
      "After": 1822,
      "Che": 1823,
      "Jay": 1824,
      "Kim": 1825,
      "Mu": 1826,
      "Sto": 1827,
      "compos": 1828,
      "four": 1829,
      "tak": 1830,
      "za": 1831,
      "ille": 1832,
      "ala": 1833,
      "ita": 1834,
      "China": 1835,
      "Feb": 1836,
      "Sundar": 1837,
      "Cinema": 1838,
      "filmmaker": 1839,
      "Telugu": 1840,
      "70": 1841,
      "Bel": 1842,
      "Do": 1843,
      "How": 1844,
      "Ken": 1845,
      "Lar": 1846,
      "Out": 1847,
      "Van": 1848,
      "har": 1849,
      "inst": 1850,
      "real": 1851,
      "Leag": 1852,
      "assins": 1853,
      "everal": 1854,
      "North": 1855,
      "Singh": 1856,
      "Austr": 1857,
      "Des": 1858,
      "Far": 1859,
      "Hill": 1860,
      "Idi": 1861,
      "ham": 1862,
      "pol": 1863,
      "ush": 1864,
      "ider": 1865,
      "Sex": 1866,
      "science": 1867,
      "ists": 1868,
      "Christmas": 1869,
      "ruary": 1870,
      "July": 1871,
      "theatric": 1872,
      "Assassins": 1873,
      "Thomas": 1874,
      "February": 1875,
      "Green": 1876,
      "Jr": 1877,
      "Sw": 1878,
      "dy": 1879,
      "ling": 1880,
      "ura": 1881,
      "wide": 1882,
      "yan": 1883,
      "ati": 1884,
      "rick": 1885,
      "dis": 1886,
      "amer": 1887,
      "Martin": 1888,
      "Art": 1889,
      "Andre": 1890,
      "Studios": 1891,
      "Leagues": 1892,
      "Eric": 1893,
      "Earth": 1894,
      "Med": 1895,
      "Sim": 1896,
      "came": 1897,
      "den": 1898,
      "fin": 1899,
      "va": 1900,
      "role": 1901,
      "where": 1902,
      "new": 1903,
      "cinematographer": 1904,
      "opra": 1905,
      "Warner": 1906,
      "screened": 1907,
      "appear": 1908,
      "Brian": 1909,
      "Smith": 1910,
      "composed": 1911,
      "60": 1912,
      "Ah": 1913,
      "Bab": 1914,
      "Lou": 1915,
      "Mi": 1916,
      "Mac": 1917,
      "Pol": 1918,
      "Rue": 1919,
      "Sol": 1920,
      "Ve": 1921,
      "Wolf": 1922,
      "have": 1923,
      "spe": 1924,
      "around": 1925,
      "this": 1926,
      "edd": 1927,
      "2005": 1928,
      "cons": 1929,
      "About": 1930,
      "Productions": 1931,
      "Fath": 1932,
      "Gord": 1933,
      "II": 1934,
      "Ke": 1935,
      "Ko": 1936,
      "Kap": 1937,
      "Nag": 1938,
      "Woman": 1939,
      "Wood": 1940,
      "ba": 1941,
      "ble": 1942,
      "oto": 1943,
      "several": 1944,
      "vent": 1945,
      "young": 1946,
      "Stev": 1947,
      "ikal": 1948,
      "que": 1949,
      "1996": 1950,
      "1957": 1951,
      "premiere": 1952,
      "Steph": 1953,
      "Charles": 1954,
      "Angel": 1955,
      "ject": 1956,
      "histor": 1957,
      "Cali": 1958,
      "Dis": 1959,
      "Hell": 1960,
      "Mer": 1961,
      "Mid": 1962,
      "Net": 1963,
      "Roman": 1964,
      "da": 1965,
      "do": 1966,
      "days": 1967,
      "ef": 1968,
      "ein": 1969,
      "iy": 1970,
      "more": 1971,
      "filmed": 1972,
      "rag": 1973,
      "berg": 1974,
      "second": 1975,
      "Second": 1976,
      "anny": 1977,
      "Direct": 1978,
      "Russian": 1979,
      "3F": 1980,
      "Fl": 1981,
      "First": 1982,
      "Hong": 1983,
      "Oliv": 1984,
      "Rounds": 1985,
      "Ser": 1986,
      "Sun": 1987,
      "Sum": 1988,
      "composer": 1989,
      "ja": 1990,
      "kar": 1991,
      "sp": 1992,
      "tell": 1993,
      "along": 1994,
      "ato": 1995,
      "events": 1996,
      "coming": 1997,
      "Sea": 1998,
      "Chris": 1999,
      "Franc": 2000,
      "Brid": 2001,
      "Columb": 2002,
      "depend": 2003,
      "character": 2004,
      "ough": 2005,
      "Bulle": 2006,
      "performan": 2007,
      "Gordon": 2008,
      "55": 2009,
      "Can": 2010,
      "Gi": 2011,
      "God": 2012,
      "Kong": 2013,
      "Kumar": 2014,
      "Korean": 2015,
      "Lond": 2016,
      "Mani": 2017,
      "No": 2018,
      "National": 2019,
      "Tan": 2020,
      "Tro": 2021,
      "Wedd": 2022,
      "back": 2023,
      "ey": 2024,
      "later": 2025,
      "run": 2026,
      "sub": 2027,
      "anim": 2028,
      "rec": 2029,
      "ream": 2030,
      "ico": 2031,
      "ional": 2032,
      "ete": 2033,
      "ford": 2034,
      "ular": 2035,
      "urt": 2036,
      "Christian": 2037,
      "awards": 2038,
      "supporting": 2039,
      "selected": 2040,
      "London": 2041,
      "Du": 2042,
      "Dates": 2043,
      "Documentary": 2044,
      "Land": 2045,
      "Sup": 2046,
      "Vay": 2047,
      "bud": 2048,
      "box": 2049,
      "gas": 2050,
      "hav": 2051,
      "hack": 2052,
      "ji": 2053,
      "ken": 2054,
      "ray": 2055,
      "van": 2056,
      "án": 2057,
      "orn": 2058,
      "ena": 2059,
      "enk": 2060,
      "asing": 2061,
      "ries": 2062,
      "ital": 2063,
      "chi": 2064,
      "ident": 2065,
      "10th": 2066,
      "ocal": 2067,
      "ocus": 2068,
      "ship": 2069,
      "fect": 2070,
      "athan": 2071,
      "Roy": 2072,
      "1990": 2073,
      "1965": 2074,
      "Feet": 2075,
      "ground": 2076,
      "3D": 2077,
      ":(": 2078,
      "Bu": 2079,
      "Boy": 2080,
      "Cann": 2081,
      "Jum": 2082,
      "Just": 2083,
      "gre": 2084,
      "ien": 2085,
      "lit": 2086,
      "main": 2087,
      "pri": 2088,
      "xed": 2089,
      "ince": 2090,
      "thers": 2091,
      "orm": 2092,
      "enue": 2093,
      "asons": 2094,
      "empt": 2095,
      "use": 2096,
      "unt": 2097,
      "2003": 2098,
      "Ann": 2099,
      "plot": 2100,
      "ika": 2101,
      "180": 2102,
      "1994": 2103,
      "mixed": 2104,
      "Meters": 2105,
      "Walter": 2106,
      "book": 2107,
      "transl": 2108,
      "//": 2109,
      "Bak": 2110,
      "Bob": 2111,
      "Danny": 2112,
      "Kann": 2113,
      "Mag": 2114,
      "Pounds": 2115,
      "Sus": 2116,
      "Ver": 2117,
      "Var": 2118,
      "Vik": 2119,
      "bi": 2120,
      "hard": 2121,
      "ire": 2122,
      "ife": 2123,
      "nar": 2124,
      "pra": 2125,
      "she": 2126,
      "uri": 2127,
      "them": 2128,
      "ats": 2129,
      "rist": 2130,
      "riend": 2131,
      "Anth": 2132,
      "exper": 2133,
      "Golden": 2134,
      "Alexand": 2135,
      "Guns": 2136,
      "Columbia": 2137,
      "Ari": 2138,
      "Bros": 2139,
      "Beng": 2140,
      "Cro": 2141,
      "Sar": 2142,
      "Ten": 2143,
      "down": 2144,
      "eu": 2145,
      "ira": 2146,
      "non": 2147,
      "zo": 2148,
      "inv": 2149,
      "diff": 2150,
      "ages": 2151,
      "against": 2152,
      "ardo": 2153,
      "umber": 2154,
      "evin": 2155,
      "1968": 2156,
      "Month": 2157,
      "ijay": 2158,
      "Avenue": 2159,
      "Idiots": 2160,
      "Bullets": 2161,
      "Anthony": 2162,
      "37": 2163,
      "Ash": 2164,
      "Bill": 2165,
      "DV": 2166,
      "Rog": 2167,
      "Son": 2168,
      "best": 2169,
      "cent": 2170,
      "don": 2171,
      "focus": 2172,
      "gar": 2173,
      "iro": 2174,
      "ially": 2175,
      "rs": 2176,
      "some": 2177,
      "wan": 2178,
      "elle": 2179,
      "aces": 2180,
      "ished": 2181,
      "scri": 2182,
      "cont": 2183,
      "titled": 2184,
      "Edward": 2185,
      "Hollywood": 2186,
      "worldwide": 2187,
      "Carlos": 2188,
      "Ronin": 2189,
      "Stephen": 2190,
      "Arab": 2191,
      "Bah": 2192,
      "Down": 2193,
      "Gro": 2194,
      "Jac": 2195,
      "Rod": 2196,
      "Vijay": 2197,
      "Wil": 2198,
      "ban": 2199,
      "find": 2200,
      "field": 2201,
      "ga": 2202,
      "last": 2203,
      "rd": 2204,
      "ti": 2205,
      "isa": 2206,
      "ism": 2207,
      "itz": 2208,
      "ution": 2209,
      "when": 2210,
      "ants": 2211,
      "1991": 2212,
      "Minute": 2213,
      "lix": 2214,
      "Clock": 2215,
      "Christoph": 2216,
      "Steve": 2217,
      "Kannada": 2218,
      "DVD": 2219,
      "script": 2220,
      "Kevin": 2221,
      "Les": 2222,
      "Us": 2223,
      "Vas": 2224,
      "Wong": 2225,
      "foot": 2226,
      "gi": 2227,
      "jour": 2228,
      "mem": 2229,
      "rong": 2230,
      "song": 2231,
      "uro": 2232,
      "wee": 2233,
      "woman": 2234,
      "ata": 2235,
      "ised": 2236,
      "ette": 2237,
      "iger": 2238,
      "sey": 2239,
      "Arth": 2240,
      "Harry": 2241,
      "office": 2242,
      "revol": 2243,
      "1931": 2244,
      "Adam": 2245,
      "positive": 2246,
      "Henry": 2247,
      "Sundarikal": 2248,
      "Media": 2249,
      "dependent": 2250,
      "budget": 2251,
      "1st": 2252,
      "35": 2253,
      "67": 2254,
      "BC": 2255,
      "Comp": 2256,
      "Gram": 2257,
      "Mah": 2258,
      "Muk": 2259,
      "Movie": 2260,
      "Na": 2261,
      "Sri": 2262,
      "Sid": 2263,
      "Ways": 2264,
      "flix": 2265,
      "gu": 2266,
      "ges": 2267,
      "iu": 2268,
      "king": 2269,
      "minut": 2270,
      "ool": 2271,
      "ved": 2272,
      "ych": 2273,
      "ative": 2274,
      "let": 2275,
      "took": 2276,
      "aded": 2277,
      "cher": 2278,
      "form": 2279,
      "1000": 2280,
      "Things": 2281,
      "anta": 2282,
      "awa": 2283,
      "Param": 2284,
      "365": 2285,
      "1985": 2286,
      "Class": 2287,
      "Angry": 2288,
      "Patrick": 2289,
      "ology": 2290,
      "characters": 2291,
      "adur": 2292,
      "adapt": 2293,
      "Midnight": 2294,
      "Netflix": 2295,
      "Seconds": 2296,
      "tells": 2297,
      "Canada": 2298,
      "Jump": 2299,
      "Bahadur": 2300,
      "Christopher": 2301,
      "Cy": 2302,
      "Den": 2303,
      "Dut": 2304,
      "Ka": 2305,
      "Mas": 2306,
      "Million": 2307,
      "Pra": 2308,
      "Was": 2309,
      "aid": 2310,
      "dom": 2311,
      "fare": 2312,
      "graph": 2313,
      "hom": 2314,
      "mu": 2315,
      "mit": 2316,
      "miss": 2317,
      "ning": 2318,
      "ras": 2319,
      "sil": 2320,
      "sim": 2321,
      "ero": 2322,
      "ert": 2323,
      "only": 2324,
      "ington": 2325,
      "ator": 2326,
      "ature": 2327,
      "anger": 2328,
      "uma": 2329,
      "ules": 2330,
      "come": 2331,
      "anner": 2332,
      "189": 2333,
      "Leo": 2334,
      "previ": 2335,
      "teen": 2336,
      "pect": 2337,
      "myster": 2338,
      "pired": 2339,
      "Murder": 2340,
      "Deep": 2341,
      "Andrew": 2342,
      "Vikram": 2343,
      "previous": 2344,
      "54": 2345,
      "Bir": 2346,
      "Cast": 2347,
      "Dan": 2348,
      "Dwar": 2349,
      "Greg": 2350,
      "Hall": 2351,
      "Lu": 2352,
      "Lyn": 2353,
      "Rock": 2354,
      "Way": 2355,
      "band": 2356,
      "dev": 2357,
      "fl": 2358,
      "five": 2359,
      "father": 2360,
      "ki": 2361,
      "sur": 2362,
      "dit": 2363,
      "oms": 2364,
      "cept": 2365,
      "ians": 2366,
      "death": 2367,
      "Seasons": 2368,
      "anna": 2369,
      "Univers": 2370,
      "ante": 2371,
      "Reg": 2372,
      "1982": 2373,
      "Roberts": 2374,
      "Jones": 2375,
      "ological": 2376,
      "Western": 2377,
      "Disney": 2378,
      "silent": 2379,
      "7th": 2380,
      "Bur": 2381,
      "Fore": 2382,
      "Gen": 2383,
      "Hel": 2384,
      "Live": 2385,
      "Mak": 2386,
      "Not": 2387,
      "Ol": 2388,
      "Rev": 2389,
      "Rah": 2390,
      "Rele": 2391,
      "bed": 2392,
      "boy": 2393,
      "cap": 2394,
      "cop": 2395,
      "dra": 2396,
      "ful": 2397,
      "friend": 2398,
      "loc": 2399,
      "sound": 2400,
      "uo": 2401,
      "wro": 2402,
      "yo": 2403,
      "than": 2404,
      "enc": 2405,
      "Star": 2406,
      "Marc": 2407,
      "cinema": 2408,
      "quest": 2409,
      "Lew": 2410,
      "1997": 2411,
      "France": 2412,
      "Before": 2413,
      "Max": 2414,
      "company": 2415,
      "Roses": 2416,
      "public": 2417,
      "historical": 2418,
      "wrote": 2419,
      "01": 2420,
      "32": 2421,
      "4th": 2422,
      "Gra": 2423,
      "Hor": 2424,
      "Ju": 2425,
      "Kan": 2426,
      "Mot": 2427,
      "Ring": 2428,
      "Ren": 2429,
      "Reven": 2430,
      "Two": 2431,
      "Yuma": 2432,
      "both": 2433,
      "final": 2434,
      "jo": 2435,
      "nam": 2436,
      "ness": 2437,
      "vid": 2438,
      "wa": 2439,
      "yd": 2440,
      "international": 2441,
      "stud": 2442,
      "tha": 2443,
      "atter": 2444,
      "diers": 2445,
      "disc": 2446,
      "ition": 2447,
      "directorial": 2448,
      "ogy": 2449,
      "mann": 2450,
      "distributed": 2451,
      "dec": 2452,
      "rant": 2453,
      "open": 2454,
      "score": 2455,
      "1987": 2456,
      "offic": 2457,
      "Moon": 2458,
      "right": 2459,
      "gener": 2460,
      "relation": 2461,
      "Devil": 2462,
      "urns": 2463,
      "Hero": 2464,
      "takes": 2465,
      "animated": 2466,
      "Arthur": 2467,
      "Revenge": 2468,
      "41": 2469,
      "46": 2470,
      "76": 2471,
      "800": 2472,
      "Cla": 2473,
      "Ford": 2474,
      "Hay": 2475,
      "Jenn": 2476,
      "Kiss": 2477,
      "Lo": 2478,
      "Mile": 2479,
      "Nam": 2480,
      "Our": 2481,
      "Run": 2482,
      "Win": 2483,
      "car": 2484,
      "del": 2485,
      "girl": 2486,
      "ious": 2487,
      "kin": 2488,
      "leng": 2489,
      "ny": 2490,
      "po": 2491,
      "true": 2492,
      "uel": 2493,
      "ily": 2494,
      "ities": 2495,
      "omb": 2496,
      "leg": 2497,
      "ayan": 2498,
      "Chan": 2499,
      "illip": 2500,
      "aka": 2501,
      "musical": 2502,
      "sex": 2503,
      "commer": 2504,
      "became": 2505,
      "lyn": 2506,
      "laim": 2507,
      "people": 2508,
      "inspired": 2509,
      "Space": 2510,
      "rilogy": 2511,
      "Jeff": 2512,
      "Singap": 2513,
      "Charlie": 2514,
      "Berlin": 2515,
      "Again": 2516,
      "Joe": 2517,
      "depict": 2518,
      "theaters": 2519,
      "Slave": 2520,
      "self": 2521,
      "grossed": 2522,
      "remake": 2523,
      "Australian": 2524,
      "Kapoor": 2525,
      "Bridges": 2526,
      "Baker": 2527,
      "differ": 2528,
      "Paramount": 2529,
      "relationship": 2530,
      "\",": 2531,
      "600": 2532,
      "Bren": 2533,
      "Dal": 2534,
      "Fall": 2535,
      "Hate": 2536,
      "Im": 2537,
      "Jason": 2538,
      "Law": 2539,
      "Miller": 2540,
      "Nar": 2541,
      "Tri": 2542,
      "US": 2543,
      "Yu": 2544,
      "aut": 2545,
      "call": 2546,
      "ec": 2547,
      "gang": 2548,
      "gian": 2549,
      "hal": 2550,
      "mand": 2551,
      "ni": 2552,
      "sing": 2553,
      "six": 2554,
      "uf": 2555,
      "inally": 2556,
      "ano": 2557,
      "oni": 2558,
      "enes": 2559,
      "enter": 2560,
      "itch": 2561,
      "heed": 2562,
      "used": 2563,
      "ades": 2564,
      "una": 2565,
      "Chand": 2566,
      "Chopra": 2567,
      "allel": 2568,
      "ella": 2569,
      "Sean": 2570,
      "aired": 2571,
      "Army": 2572,
      "actors": 2573,
      "Davis": 2574,
      "Steps": 2575,
      "critical": 2576,
      "group": 2577,
      "Ern": 2578,
      "version": 2579,
      "Howard": 2580,
      "Vegas": 2581,
      "Summer": 2582,
      "adaptation": 2583,
      "Kisses": 2584,
      "Bron": 2585,
      "Din": 2586,
      "Ho": 2587,
      "Han": 2588,
      "Language": 2589,
      "Nick": 2590,
      "Sa": 2591,
      "Sand": 2592,
      "Sony": 2593,
      "To": 2594,
      "Vict": 2595,
      "bin": 2596,
      "cou": 2597,
      "ft": 2598,
      "fran": 2599,
      "hy": 2600,
      "kins": 2601,
      "line": 2602,
      "mo": 2603,
      "mark": 2604,
      "pop": 2605,
      "ude": 2606,
      "vo": 2607,
      "vis": 2608,
      "zi": 2609,
      "ili": 2610,
      "ences": 2611,
      "ically": 2612,
      "elo": 2613,
      "1917": 2614,
      "acs": 2615,
      "photo": 2616,
      "ocks": 2617,
      "abri": 2618,
      "Alan": 2619,
      "America": 2620,
      "Leon": 2621,
      "1999": 2622,
      "Rey": 2623,
      "Warri": 2624,
      "uki": 2625,
      "Broad": 2626,
      "track": 2627,
      "ankar": 2628,
      "lives": 2629,
      "psych": 2630,
      "grossing": 2631,
      "Kingdom": 2632,
      "present": 2633,
      "theatrically": 2634,
      "mission": 2635,
      "68": 2636,
      "Az": 2637,
      "Camer": 2638,
      "Euro": 2639,
      "For": 2640,
      "Hav": 2641,
      "Hans": 2642,
      "Hrs": 2643,
      "Music": 2644,
      "Mike": 2645,
      "Ni": 2646,
      "Pan": 2647,
      "Pak": 2648,
      "Rand": 2649,
      "Ret": 2650,
      "Rif": 2651,
      "Tam": 2652,
      "Tok": 2653,
      "Tex": 2654,
      "Tony": 2655,
      "Vin": 2656,
      "banner": 2657,
      "cult": 2658,
      "hig": 2659,
      "house": 2660,
      "iod": 2661,
      "ko": 2662,
      "rin": 2663,
      "since": 2664,
      "went": 2665,
      "independent": 2666,
      "studi": 2667,
      "tham": 2668,
      "ingers": 2669,
      "ales": 2670,
      "ayam": 2671,
      "top": 2672,
      "emble": 2673,
      "aged": 2674,
      "Sher": 2675,
      "Alf": 2676,
      "Ali": 2677,
      "Degre": 2678,
      "Johnson": 2679,
      "expl": 2680,
      "Black": 2681,
      "1977": 2682,
      "Feature": 2683,
      "ensemble": 2684,
      "When": 2685,
      "Bhatt": 2686,
      "ucks": 2687,
      "black": 2688,
      "polit": 2689,
      "Maniacs": 2690,
      "Foreign": 2691,
      "length": 2692,
      "Victor": 2693,
      "photograph": 2694,
      "Texas": 2695,
      "Degrees": 2696,
      "Bre": 2697,
      "Bol": 2698,
      "Dun": 2699,
      "Die": 2700,
      "Fingers": 2701,
      "Gian": 2702,
      "Il": 2703,
      "Khan": 2704,
      "Krish": 2705,
      "Luk": 2706,
      "Mill": 2707,
      "Miss": 2708,
      "Nik": 2709,
      "Rise": 2710,
      "Rules": 2711,
      "Sen": 2712,
      "Sang": 2713,
      "Tak": 2714,
      "bas": 2715,
      "jee": 2716,
      "lim": 2717,
      "mil": 2718,
      "mond": 2719,
      "ré": 2720,
      "ral": 2721,
      "tal": 2722,
      "stand": 2723,
      "third": 2724,
      "ona": 2725,
      "ori": 2726,
      "rik": 2727,
      "elop": 2728,
      "hest": 2729,
      "1921": 2730,
      "emale": 2731,
      "Indon": 2732,
      "iano": 2733,
      "section": 2734,
      "plays": 2735,
      "ladi": 2736,
      "Neath": 2737,
      "Parallel": 2738,
      "360": 2739,
      "attle": 2740,
      "1963": 2741,
      "Brown": 2742,
      "Produced": 2743,
      "such": 2744,
      "Philipp": 2745,
      "Swed": 2746,
      "hardt": 2747,
      "Releasing": 2748,
      "psychological": 2749,
      "highest": 2750,
      "Indones": 2751,
      "69": 2752,
      "Bos": 2753,
      "Gil": 2754,
      "Gop": 2755,
      "Hu": 2756,
      "Jer": 2757,
      "Jane": 2758,
      "Kn": 2759,
      "Lind": 2760,
      "Mus": 2761,
      "Mex": 2762,
      "Now": 2763,
      "Ot": 2764,
      "Over": 2765,
      "Tur": 2766,
      "Young": 2767,
      "aum": 2768,
      "fan": 2769,
      "hand": 2770,
      "jer": 2771,
      "kov": 2772,
      "list": 2773,
      "mid": 2774,
      "nia": 2775,
      "ypt": 2776,
      "ón": 2777,
      "arn": 2778,
      "stories": 2779,
      "thew": 2780,
      "iser": 2781,
      "Strong": 2782,
      "ange": 2783,
      "allo": 2784,
      "Anna": 2785,
      "ello": 2786,
      "ights": 2787,
      "Secre": 2788,
      "rence": 2789,
      "aff": 2790,
      "Paris": 2791,
      "Hari": 2792,
      "1954": 2793,
      "Blocks": 2794,
      "Brook": 2795,
      "Corpor": 2796,
      "Ross": 2797,
      "Schne": 2798,
      "Actor": 2799,
      "Underground": 2800,
      "Play": 2801,
      "Ravi": 2802,
      "Soldiers": 2803,
      "Califor": 2804,
      "Cannes": 2805,
      "week": 2806,
      "Company": 2807,
      "Universal": 2808,
      "Havana": 2809,
      "05": 2810,
      "Air": 2811,
      "Bad": 2812,
      "Back": 2813,
      "Cre": 2814,
      "Card": 2815,
      "Eg": 2816,
      "FF": 2817,
      "Fre": 2818,
      "Fern": 2819,
      "Fred": 2820,
      "Gill": 2821,
      "Hart": 2822,
      "Lisa": 2823,
      "Min": 2824,
      "Mel": 2825,
      "Met": 2826,
      "Nat": 2827,
      "Pu": 2828,
      "Pre": 2829,
      "Rain": 2830,
      "Sy": 2831,
      "Tra": 2832,
      "bel": 2833,
      "coll": 2834,
      "ho": 2835,
      "hour": 2836,
      "hai": 2837,
      "home": 2838,
      "post": 2839,
      "sa": 2840,
      "sit": 2841,
      "soc": 2842,
      "tim": 2843,
      "vin": 2844,
      "view": 2845,
      "ür": 2846,
      "aro": 2847,
      "ars": 2848,
      "araj": 2849,
      "then": 2850,
      "though": 2851,
      "onto": 2852,
      "room": 2853,
      "eland": 2854,
      "oul": 2855,
      "oss": 2856,
      "due": 2857,
      "eman": 2858,
      "iving": 2859,
      "irc": 2860,
      "ula": 2861,
      "aven": 2862,
      "earch": 2863,
      "shown": 2864,
      "Anne": 2865,
      "Mario": 2866,
      "Albert": 2867,
      "began": 2868,
      "oney": 2869,
      "ift": 2870,
      "Harris": 2871,
      "1970": 2872,
      "screenwriter": 2873,
      "Screen": 2874,
      "Morgan": 2875,
      "includes": 2876,
      "Afric": 2877,
      "Actress": 2878,
      "break": 2879,
      "adapted": 2880,
      "Ahmed": 2881,
      "Weddings": 2882,
      "Boys": 2883,
      "Alexander": 2884,
      "focuses": 2885,
      "footage": 2886,
      "mystery": 2887,
      "Lewis": 2888,
      "different": 2889,
      "Corporation": 2890,
      "California": 2891,
      "39": 2892,
      "51": 2893,
      "Dou": 2894,
      "Ever": 2895,
      "Fa": 2896,
      "Fab": 2897,
      "Gary": 2898,
      "House": 2899,
      "Ja": 2900,
      "Ky": 2901,
      "Kay": 2902,
      "Los": 2903,
      "Sub": 2904,
      "Tat": 2905,
      "Tay": 2906,
      "Trav": 2907,
      "Ven": 2908,
      "Yo": 2909,
      "Ze": 2910,
      "bers": 2911,
      "cy": 2912,
      "can": 2913,
      "hum": 2914,
      "ied": 2915,
      "lor": 2916,
      "met": 2917,
      "person": 2918,
      "sign": 2919,
      "tri": 2920,
      "ven": 2921,
      "will": 2922,
      "ared": 2923,
      "rie": 2924,
      "anda": 2925,
      "ela": 2926,
      "osh": 2927,
      "osely": 2928,
      "utt": 2929,
      "adh": 2930,
      "ively": 2931,
      "Chile": 2932,
      "ida": 2933,
      "aki": 2934,
      "musician": 2935,
      "Shankar": 2936,
      "abor": 2937,
      "odd": 2938,
      "13th": 2939,
      "oper": 2940,
      "Three": 2941,
      "istan": 2942,
      "gether": 2943,
      "loyd": 2944,
      "Dave": 2945,
      "ments": 2946,
      "others": 2947,
      "1988": 2948,
      "enna": 2949,
      "Germany": 2950,
      "23rd": 2951,
      "Heaven": 2952,
      "Monke": 2953,
      "Moore": 2954,
      "pire": 2955,
      "created": 2956,
      "making": 2957,
      "Sharma": 2958,
      "ski": 2959,
      "ittle": 2960,
      "Brad": 2961,
      "Evil": 2962,
      "school": 2963,
      "Toronto": 2964,
      "refer": 2965,
      "Oliver": 2966,
      "Francis": 2967,
      "performance": 2968,
      "biograph": 2969,
      "Jacob": 2970,
      "revolves": 2971,
      "soundtrack": 2972,
      "commercial": 2973,
      "called": 2974,
      "Europe": 2975,
      "Blo": 2976,
      "Bru": 2977,
      "Cra": 2978,
      "Doll": 2979,
      "Danger": 2980,
      "Grant": 2981,
      "Hit": 2982,
      "Ham": 2983,
      "Kal": 2984,
      "Kir": 2985,
      "Lev": 2986,
      "Mik": 2987,
      "Mau": 2988,
      "Oka": 2989,
      "Ric": 2990,
      "Rach": 2991,
      "Sin": 2992,
      "Sath": 2993,
      "Squ": 2994,
      "Twas": 2995,
      "Tai": 2996,
      "Wall": 2997,
      "ded": 2998,
      "dri": 2999,
      "ez": 3000,
      "here": 3001,
      "ius": 3002,
      "ker": 3003,
      "mur": 3004,
      "ped": 3005,
      "uring": 3006,
      "yam": 3007,
      "zy": 3008,
      "thor": 3009,
      "alia": 3010,
      "asy": 3011,
      "ising": 3012,
      "round": 3013,
      "icol": 3014,
      "2036": 3015,
      "ami": 3016,
      "1948": 3017,
      "child": 3018,
      "entry": 3019,
      "Steven": 3020,
      "phy": 3021,
      "Shaw": 3022,
      "ablo": 3023,
      "ohn": 3024,
      "Road": 3025,
      "Death": 3026,
      "1993": 3027,
      "Clar": 3028,
      "1969": 3029,
      "azi": 3030,
      "Brothers": 3031,
      "Distribut": 3032,
      "amily": 3033,
      "originally": 3034,
      "ized": 3035,
      "partic": 3036,
      "ylum": 3037,
      "published": 3038,
      "himself": 3039,
      "colle": 3040,
      "special": 3041,
      "effect": 3042,
      "record": 3043,
      "Gener": 3044,
      "Cameras": 3045,
      "Monkeys": 3046,
      "84": 3047,
      "Bla": 3048,
      "Dor": 3049,
      "Daw": 3050,
      "Fer": 3051,
      "Hal": 3052,
      "Hear": 3053,
      "Kat": 3054,
      "Kate": 3055,
      "Lim": 3056,
      "Last": 3057,
      "Lloyd": 3058,
      "Mem": 3059,
      "Matt": 3060,
      "Orig": 3061,
      "Port": 3062,
      "Sel": 3063,
      "Tu": 3064,
      "Tou": 3065,
      "Town": 3066,
      "Television": 3067,
      "XX": 3068,
      "ball": 3069,
      "bene": 3070,
      "cur": 3071,
      "each": 3072,
      "km": 3073,
      "named": 3074,
      "som": 3075,
      "tre": 3076,
      "ye": 3077,
      "yer": 3078,
      "ía": 3079,
      "inile": 3080,
      "ery": 3081,
      "asi": 3082,
      "die": 3083,
      "among": 3084,
      "direction": 3085,
      "town": 3086,
      "ement": 3087,
      "chn": 3088,
      "ural": 3089,
      "Anton": 3090,
      "Shah": 3091,
      "Marie": 3092,
      "abb": 3093,
      "Dead": 3094,
      "rent": 3095,
      "period": 3096,
      "away": 3097,
      "audi": 3098,
      "ending": 3099,
      "exual": 3100,
      "incip": 3101,
      "attempt": 3102,
      "Warren": 3103,
      "oster": 3104,
      "olds": 3105,
      "key": 3106,
      "Murphy": 3107,
      "29th": 3108,
      "Allen": 3109,
      "Holm": 3110,
      "Barry": 3111,
      "unny": 3112,
      "Mohamed": 3113,
      "Shafe": 3114,
      "install": 3115,
      "theatrical": 3116,
      "Polish": 3117,
      "Super": 3118,
      "Justice": 3119,
      "ormal": 3120,
      "Wilson": 3121,
      "Rifles": 3122,
      "Schneider": 3123,
      "Dougl": 3124,
      "\")": 3125,
      "')": 3126,
      "AD": 3127,
      "Age": 3128,
      "Box": 3129,
      "Call": 3130,
      "Dam": 3131,
      "Dark": 3132,
      "Filip": 3133,
      "Gor": 3134,
      "Gabri": 3135,
      "Jag": 3136,
      "Od": 3137,
      "Oper": 3138,
      "Po": 3139,
      "Rose": 3140,
      "Spe": 3141,
      "Viet": 3142,
      "Watt": 3143,
      "Wife": 3144,
      "Your": 3145,
      "family": 3146,
      "ju": 3147,
      "long": 3148,
      "mun": 3149,
      "mir": 3150,
      "num": 3151,
      "rated": 3152,
      "seven": 3153,
      "vari": 3154,
      "women": 3155,
      "era": 3156,
      "ating": 3157,
      "starred": 3158,
      "dic": 3159,
      "2046": 3160,
      "aya": 3161,
      "ives": 3162,
      "igar": 3163,
      "across": 3164,
      "illo": 3165,
      "ova": 3166,
      "whose": 3167,
      "many": 3168,
      "Shots": 3169,
      "ples": 3170,
      "scenes": 3171,
      "loosely": 3172,
      "Picture": 3173,
      "1981": 3174,
      "1984": 3175,
      "ordan": 3176,
      "People": 3177,
      "Peking": 3178,
      "1959": 3179,
      "played": 3180,
      "Abbas": 3181,
      "Asylum": 3182,
      "romance": 3183,
      "Jonah": 3184,
      "Isab": 3185,
      "following": 3186,
      "Code": 3187,
      "Atl": 3188,
      "class": 3189,
      "Matthew": 3190,
      "born": 3191,
      "Silver": 3192,
      "José": 3193,
      "Parker": 3194,
      "Robin": 3195,
      "acclaim": 3196,
      "Valley": 3197,
      "Below": 3198,
      "venture": 3199,
      "alongside": 3200,
      "Francs": 3201,
      "performances": 3202,
      "invol": 3203,
      "Grams": 3204,
      "minutes": 3205,
      "mujer": 3206,
      "Juan": 3207,
      "Warriors": 3208,
      "studio": 3209,
      "political": 3210,
      "Missing": 3211,
      "limited": 3212,
      "Philippines": 3213,
      "Nowhere": 3214,
      "Douglas": 3215,
      "Vietnam": 3216,
      "Watts": 3217,
      ".\"": 3218,
      "4x": 3219,
      "AR": 3220,
      "Aut": 3221,
      "Bed": 3222,
      "Cour": 3223,
      "Crist": 3224,
      "Danish": 3225,
      "Ek": 3226,
      "Gay": 3227,
      "Gov": 3228,
      "Grac": 3229,
      "Ib": 3230,
      "Iran": 3231,
      "Jor": 3232,
      "Kell": 3233,
      "Kings": 3234,
      "Lin": 3235,
      "Less": 3236,
      "Nation": 3237,
      "Nich": 3238,
      "Pas": 3239,
      "Pos": 3240,
      "Pun": 3241,
      "Pow": 3242,
      "Pages": 3243,
      "Sak": 3244,
      "Sain": 3245,
      "Search": 3246,
      "Video": 3247,
      "Wa": 3248,
      "Wang": 3249,
      "cen": 3250,
      "fal": 3251,
      "gin": 3252,
      "hel": 3253,
      "how": 3254,
      "idi": 3255,
      "kal": 3256,
      "light": 3257,
      "ms": 3258,
      "ng": 3259,
      "nel": 3260,
      "pr": 3261,
      "py": 3262,
      "ple": 3263,
      "uz": 3264,
      "wife": 3265,
      "zh": 3266,
      "år": 3267,
      "iles": 3268,
      "rest": 3269,
      "order": 3270,
      "ried": 3271,
      "dig": 3272,
      "ison": 3273,
      "elf": 3274,
      "outh": 3275,
      "1942": 3276,
      "1944": 3277,
      "osexual": 3278,
      "ems": 3279,
      "ola": 3280,
      "prof": 3281,
      "project": 3282,
      "etition": 3283,
      "Cho": 3284,
      "Chen": 3285,
      "Chow": 3286,
      "Stories": 3287,
      "acia": 3288,
      "fort": 3289,
      "illa": 3290,
      "ovic": 3291,
      "ards": 3292,
      "102": 3293,
      "what": 3294,
      "ichi": 3295,
      "comes": 3296,
      "athi": 3297,
      "Seth": 3298,
      "aster": 3299,
      "Dean": 3300,
      "icking": 3301,
      "meg": 3302,
      "1950": 3303,
      "enny": 3304,
      "Phere": 3305,
      "comple": 3306,
      "Elli": 3307,
      "Empire": 3308,
      "leading": 3309,
      "Cole": 3310,
      "nominations": 3311,
      "Williams": 3312,
      "rising": 3313,
      "Joan": 3314,
      "49th": 3315,
      "Darling": 3316,
      "month": 3317,
      "Lucas": 3318,
      "Bernard": 3319,
      "refers": 3320,
      "Louis": 3321,
      "Angeles": 3322,
      "Calibre": 3323,
      "Director": 3324,
      "Bengali": 3325,
      "Rodrig": 3326,
      "Leslie": 3327,
      "Dutch": 3328,
      "homosexual": 3329,
      "develop": 3330,
      "generally": 3331,
      "popular": 3332,
      "Broadway": 3333,
      "photography": 3334,
      "Indonesian": 3335,
      "Otto": 3336,
      "iseries": 3337,
      "hours": 3338,
      "Taylor": 3339,
      "Bruce": 3340,
      "murder": 3341,
      "Clarke": 3342,
      "Shafeeu": 3343,
      "mujeres": 3344,
      "4x4": 3345,
      "38": 3346,
      "56": 3347,
      "61": 3348,
      "89": 3349,
      ":!": 3350,
      "Aar": 3351,
      "Bas": 3352,
      "Bry": 3353,
      "Cio": 3354,
      "Cross": 3355,
      "Circ": 3356,
      "Dr": 3357,
      "Dem": 3358,
      "Dhan": 3359,
      "Dale": 3360,
      "Es": 3361,
      "Gang": 3362,
      "ID": 3363,
      "Jordan": 3364,
      "Ker": 3365,
      "Kam": 3366,
      "Kath": 3367,
      "Let": 3368,
      "Mand": 3369,
      "Mir": 3370,
      "More": 3371,
      "Nicol": 3372,
      "Os": 3373,
      "Off": 3374,
      "Pust": 3375,
      "Pier": 3376,
      "Prab": 3377,
      "Rol": 3378,
      "Raw": 3379,
      "Rick": 3380,
      "SS": 3381,
      "Sat": 3382,
      "Ts": 3383,
      "Time": 3384,
      "Ul": 3385,
      "Vish": 3386,
      "Vinc": 3387,
      "Wake": 3388,
      "bal": 3389,
      "cate": 3390,
      "fè": 3391,
      "ić": 3392,
      "ku": 3393,
      "kumar": 3394,
      "lu": 3395,
      "lan": 3396,
      "mod": 3397,
      "math": 3398,
      "make": 3399,
      "ns": 3400,
      "på": 3401,
      "so": 3402,
      "sopra": 3403,
      "ving": 3404,
      "val": 3405,
      "vuo": 3406,
      "filming": 3407,
      "aly": 3408,
      "ashi": 3409,
      "atch": 3410,
      "rid": 3411,
      "rison": 3412,
      "itness": 3413,
      "het": 3414,
      "1945": 3415,
      "osuf": 3416,
      "prog": 3417,
      "iven": 3418,
      "Chatter": 3419,
      "idy": 3420,
      "Stu": 3421,
      "Stan": 3422,
      "iment": 3423,
      "early": 3424,
      "ighty": 3425,
      "Thai": 3426,
      "anning": 3427,
      "upta": 3428,
      "erek": 3429,
      "estivals": 3430,
      "exec": 3431,
      "ousand": 3432,
      "1956": 3433,
      "portato": 3434,
      "Across": 3435,
      "Acacia": 3436,
      "Norway": 3437,
      "Jonathan": 3438,
      "trav": 3439,
      "White": 3440,
      "più": 3441,
      "1939": 3442,
      "ettes": 3443,
      "Walt": 3444,
      "Att": 3445,
      "Against": 3446,
      "miniseries": 3447,
      "42nd": 3448,
      "Week": 3449,
      "sky": 3450,
      "Brady": 3451,
      "history": 3452,
      "Ghost": 3453,
      "Josh": 3454,
      "Terror": 3455,
      "successful": 3456,
      "anthology": 3457,
      "Team": 3458,
      "Romance": 3459,
      "Sunil": 3460,
      "Wedding": 3461,
      "reaming": 3462,
      "Months": 3463,
      "Billy": 3464,
      "friends": 3465,
      "vidas": 3466,
      "illipo": 3467,
      "Singaporean": 3468,
      "depicts": 3469,
      "Returns": 3470,
      "Krishna": 3471,
      "Yoosuf": 3472,
      "Dollars": 3473,
      "Taiwan": 3474,
      "incipal": 3475,
      "installment": 3476,
      "Nichol": 3477,
      "Posillipo": 3478,
      "Cioè": 3479,
      "fèv": 3480,
      "vuoi": 3481,
      "Chatterjee": 3482,
      ".%": 3483,
      ".,": 3484,
      "3000": 3485,
      "57": 3486,
      "Ay": 3487,
      "Bor": 3488,
      "Bes": 3489,
      "Bunny": 3490,
      "Cigar": 3491,
      "Da": 3492,
      "Earn": 3493,
      "Fra": 3494,
      "Field": 3495,
      "Gon": 3496,
      "Gri": 3497,
      "Hir": 3498,
      "Haw": 3499,
      "Hung": 3500,
      "Ki": 3501,
      "Kra": 3502,
      "Ly": 3503,
      "Mos": 3504,
      "Mish": 3505,
      "Make": 3506,
      "Mighty": 3507,
      "Nico": 3508,
      "Number": 3509,
      "Niger": 3510,
      "Pros": 3511,
      "Ral": 3512,
      "Rum": 3513,
      "Ryan": 3514,
      "So": 3515,
      "Seven": 3516,
      "Ti": 3517,
      "Tis": 3518,
      "Trilogy": 3519,
      "Vladi": 3520,
      "br": 3521,
      "ben": 3522,
      "bell": 3523,
      "cro": 3524,
      "camp": 3525,
      "festival": 3526,
      "festivals": 3527,
      "gent": 3528,
      "hman": 3529,
      "jun": 3530,
      "jav": 3531,
      "kjav": 3532,
      "love": 3533,
      "number": 3534,
      "pen": 3535,
      "pand": 3536,
      "rug": 3537,
      "så": 3538,
      "sport": 3539,
      "vir": 3540,
      "ware": 3541,
      "wyn": 3542,
      "ík": 3543,
      "sty": 3544,
      "edles": 3545,
      "riage": 3546,
      "hee": 3547,
      "hester": 3548,
      "ione": 3549,
      "together": 3550,
      "uts": 3551,
      "adcast": 3552,
      "agar": 3553,
      "igg": 3554,
      "Child": 3555,
      "Stud": 3556,
      "overs": 3557,
      "uled": 3558,
      "berto": 3559,
      "iana": 3560,
      "Mary": 3561,
      "abe": 3562,
      "cinemas": 3563,
      "12th": 3564,
      "beca": 3565,
      "orton": 3566,
      "303": 3567,
      "22FF": 3568,
      "ques": 3569,
      "quake": 3570,
      "Unc": 3571,
      "ountain": 3572,
      "ajor": 3573,
      "ifican": 3574,
      "iley": 3575,
      "Blue": 3576,
      "worth": 3577,
      "25th": 3578,
      "Geoff": 3579,
      "resses": 3580,
      "amesh": 3581,
      "Norwe": 3582,
      "Mont": 3583,
      "Julie": 3584,
      "Donald": 3585,
      "aily": 3586,
      "featured": 3587,
      "Baby": 3588,
      "Orfèv": 3589,
      "design": 3590,
      "Barb": 3591,
      "epis": 3592,
      "Command": 3593,
      "sched": 3594,
      "atherine": 3595,
      "Quai": 3596,
      "broadcast": 3597,
      "Rule": 3598,
      "Simon": 3599,
      "Godf": 3600,
      "having": 3601,
      "emption": 3602,
      "praised": 3603,
      "Dwarves": 3604,
      "location": 3605,
      "Reykjav": 3606,
      "Metro": 3607,
      "biographical": 3608,
      "Distribution": 3609,
      "effects": 3610,
      "Atlanta": 3611,
      "Letters": 3612,
      "Earnhardt": 3613,
      "Orfèvres": 3614,
      "Reykjavík": 3615,
      "2B": 3616,
      "400": 3617,
      "But": 3618,
      "Bus": 3619,
      "Bord": 3620,
      "Cal": 3621,
      "Count": 3622,
      "Camp": 3623,
      "Dyl": 3624,
      "Fan": 3625,
      "Faces": 3626,
      "Foster": 3627,
      "Hil": 3628,
      "High": 3629,
      "Hiro": 3630,
      "Ir": 3631,
      "Jes": 3632,
      "Jam": 3633,
      "Joy": 3634,
      "Kore": 3635,
      "Long": 3636,
      "Mr": 3637,
      "Mitch": 3638,
      "Noon": 3639,
      "Path": 3640,
      "Ramesh": 3641,
      "Siv": 3642,
      "Ticking": 3643,
      "Vi": 3644,
      "Winc": 3645,
      "Wise": 3646,
      "Wash": 3647,
      "Yank": 3648,
      "bill": 3649,
      "bast": 3650,
      "dle": 3651,
      "fs": 3652,
      "fall": 3653,
      "found": 3654,
      "high": 3655,
      "just": 3656,
      "lar": 3657,
      "mal": 3658,
      "now": 3659,
      "nie": 3660,
      "pa": 3661,
      "sol": 3662,
      "sett": 3663,
      "wal": 3664,
      "inf": 3665,
      "stit": 3666,
      "ilar": 3667,
      "thuk": 3668,
      "asan": 3669,
      "rog": 3670,
      "1918": 3671,
      "1940": 3672,
      "1927": 3673,
      "ute": 3674,
      "ements": 3675,
      "add": 3676,
      "chan": 3677,
      "ently": 3678,
      "ets": 3679,
      "Chang": 3680,
      "ima": 3681,
      "ulla": 3682,
      "otel": 3683,
      "shi": 3684,
      "Mart": 3685,
      "Filming": 3686,
      "elli": 3687,
      "ighting": 3688,
      "annel": 3689,
      "Lead": 3690,
      "Arts": 3691,
      "Argent": 3692,
      "1998": 3693,
      "assin": 3694,
      "Needles": 3695,
      "team": 3696,
      "lif": 3697,
      "liz": 3698,
      "1980": 3699,
      "Franco": 3700,
      "ifer": 3701,
      "eleine": 3702,
      "featuring": 3703,
      "Phil": 3704,
      "Georg": 3705,
      "Jules": 3706,
      "Web": 3707,
      "Cont": 3708,
      "Jackie": 3709,
      "poss": 3710,
      "Goldwyn": 3711,
      "Madeleine": 3712,
      "borg": 3713,
      "winning": 3714,
      "Silent": 3715,
      "demand": 3716,
      "rett": 3717,
      "Terry": 3718,
      "Pras": 3719,
      "Mule": 3720,
      "Fathoms": 3721,
      "Nagar": 3722,
      "reams": 3723,
      "Royston": 3724,
      "Justin": 3725,
      "until": 3726,
      "Sarah": 3727,
      "Tenants": 3728,
      "Roger": 3729,
      "century": 3730,
      "Motion": 3731,
      "Jennifer": 3732,
      "Ernest": 3733,
      "Alfred": 3734,
      "Luke": 3735,
      "Swedish": 3736,
      "Fernand": 3737,
      "collabor": 3738,
      "significan": 3739,
      "various": 3740,
      "Aaron": 3741,
      "Vincent": 3742,
      "categ": 3743,
      "Cigarettes": 3744,
      "Uncaged": 3745,
      "Norwegian": 3746,
      "Dylan": 3747,
      "Winchester": 3748,
      "Washington": 3749,
      "Yankovic": 3750,
      "06": 3751,
      "140": 3752,
      "59": 3753,
      "Amy": 3754,
      "Band": 3755,
      "Bell": 3756,
      "Cat": 3757,
      "Dumb": 3758,
      "Daily": 3759,
      "Gé": 3760,
      "Grand": 3761,
      "Hugh": 3762,
      "Jud": 3763,
      "Kick": 3764,
      "Lock": 3765,
      "Mick": 3766,
      "Oh": 3767,
      "Pim": 3768,
      "Pac": 3769,
      "Pass": 3770,
      "Paces": 3771,
      "Relo": 3772,
      "Say": 3773,
      "Ur": 3774,
      "Vis": 3775,
      "With": 3776,
      "Zero": 3777,
      "bu": 3778,
      "bur": 3779,
      "bles": 3780,
      "cia": 3781,
      "cover": 3782,
      "eight": 3783,
      "fant": 3784,
      "gn": 3785,
      "got": 3786,
      "game": 3787,
      "hol": 3788,
      "happ": 3789,
      "hazi": 3790,
      "lot": 3791,
      "live": 3792,
      "late": 3793,
      "mor": 3794,
      "mat": 3795,
      "mov": 3796,
      "mot": 3797,
      "mult": 3798,
      "net": 3799,
      "pan": 3800,
      "sm": 3801,
      "sent": 3802,
      "var": 3803,
      "von": 3804,
      "wart": 3805,
      "xt": 3806,
      "xter": 3807,
      "yen": 3808,
      "zer": 3809,
      "zel": 3810,
      "ör": 3811,
      "ün": 3812,
      "anormal": 3813,
      "eral": 3814,
      "aries": 3815,
      "thi": 3816,
      "reys": 3817,
      "ora": 3818,
      "atic": 3819,
      "heures": 3820,
      "amb": 3821,
      "tos": 3822,
      "1915": 3823,
      "1926": 3824,
      "oshi": 3825,
      "dul": 3826,
      "olution": 3827,
      "prot": 3828,
      "adventure": 3829,
      "aga": 3830,
      "eta": 3831,
      "ivity": 3832,
      "igal": 3833,
      "irth": 3834,
      "Its": 3835,
      "phans": 3836,
      "owan": 3837,
      "aves": 3838,
      "Short": 3839,
      "Maria": 3840,
      "commun": 3841,
      "127": 3842,
      "plus": 3843,
      "isha": 3844,
      "Alone": 3845,
      "athers": 3846,
      "Third": 3847,
      "Leave": 3848,
      "perity": 3849,
      "Enri": 3850,
      "Endra": 3851,
      "author": 3852,
      "Republic": 3853,
      "aja": 3854,
      "endra": 3855,
      "lier": 3856,
      "150": 3857,
      "countries": 3858,
      "Clucks": 3859,
      "ified": 3860,
      "Become": 3861,
      "1953": 3862,
      "Blast": 3863,
      "André": 3864,
      "Meet": 3865,
      "McC": 3866,
      "very": 3867,
      "Jew": 3868,
      "Souza": 3869,
      "Weird": 3870,
      "critic": 3871,
      "credi": 3872,
      "viol": 3873,
      "Guy": 3874,
      "Party": 3875,
      "Frankie": 3876,
      "Redemption": 3877,
      "Skies": 3878,
      "Joshi": 3879,
      "Deeware": 3880,
      "position": 3881,
      "ullen": 3882,
      "Shaheed": 3883,
      "Storeys": 3884,
      "Australia": 3885,
      "Woods": 3886,
      "Directed": 3887,
      "narrat": 3888,
      "Benghazi": 3889,
      "Group": 3890,
      "1898": 3891,
      "Dwarfs": 3892,
      "capt": 3893,
      "Ringo": 3894,
      "student": 3895,
      "official": 3896,
      "auty": 3897,
      "presented": 3898,
      "Diego": 3899,
      "Secret": 3900,
      "Syri": 3901,
      "social": 3902,
      "Ricardo": 3903,
      "Generations": 3904,
      "Supermen": 3905,
      "Special": 3906,
      "Kelly": 3907,
      "Roland": 3908,
      "itnesses": 3909,
      "imental": 3910,
      "Prosperity": 3911,
      "Vladimir": 3912,
      "Korea": 3913,
      "thukulla": 3914,
      "significant": 3915,
      "Reloaded": 3916,
      "Endrathukulla": 3917,
      "Deewarein": 3918,
      "2D": 3919,
      "813": 3920,
      "92": 3921,
      "Au": 3922,
      "By": 3923,
      "Bit": 3924,
      "Bay": 3925,
      "Based": 3926,
      "Brand": 3927,
      "Cur": 3928,
      "Cap": 3929,
      "Cost": 3930,
      "Derek": 3931,
      "Dresses": 3932,
      "Gre": 3933,
      "Hann": 3934,
      "Happ": 3935,
      "Ish": 3936,
      "Kō": 3937,
      "Lip": 3938,
      "Mol": 3939,
      "OV": 3940,
      "Other": 3941,
      "Sle": 3942,
      "Set": 3943,
      "Sant": 3944,
      "Tif": 3945,
      "Vent": 3946,
      "Wu": 3947,
      "Winter": 3948,
      "aar": 3949,
      "ci": 3950,
      "cu": 3951,
      "coh": 3952,
      "dan": 3953,
      "dam": 3954,
      "full": 3955,
      "female": 3956,
      "gra": 3957,
      "ghan": 3958,
      "hus": 3959,
      "low": 3960,
      "lock": 3961,
      "ming": 3962,
      "pse": 3963,
      "ting": 3964,
      "tig": 3965,
      "ually": 3966,
      "via": 3967,
      "yond": 3968,
      "zar": 3969,
      "zes": 3970,
      "inn": 3971,
      "intern": 3972,
      "erie": 3973,
      "erous": 3974,
      "ila": 3975,
      "there": 3976,
      "ont": 3977,
      "alg": 3978,
      "ators": 3979,
      "rop": 3980,
      "ould": 3981,
      "too": 3982,
      "uture": 3983,
      "009": 3984,
      "Chad": 3985,
      "Italy": 3986,
      "former": 3987,
      "event": 3988,
      "resp": 3989,
      "respect": 3990,
      "108": 3991,
      "strict": 3992,
      "shoot": 3993,
      "Anand": 3994,
      "Shay": 3995,
      "Marty": 3996,
      "comed": 3997,
      "12B": 3998,
      "scene": 3999,
      "There": 4000,
      "ught": 4001,
      "qui": 4002,
      "istani": 4003,
      "aix": 4004,
      "contin": 4005,
      "uster": 4006,
      "law": 4007,
      "pernel": 4008,
      "uez": 4009,
      "ernment": 4010,
      "1989": 4011,
      "Clark": 4012,
      "143": 4013,
      "Beck": 4014,
      "Beyond": 4015,
      "Menon": 4016,
      "Blade": 4017,
      "1776": 4018,
      "Richter": 4019,
      "Mayer": 4020,
      "Maaf": 4021,
      "onso": 4022,
      "competition": 4023,
      "Colin": 4024,
      "Colle": 4025,
      "charest": 4026,
      "Raju": 4027,
      "followed": 4028,
      "Afghan": 4029,
      "Adri": 4030,
      "Schmid": 4031,
      "Jackson": 4032,
      "genre": 4033,
      "Orphans": 4034,
      "Russell": 4035,
      "descri": 4036,
      "Sundance": 4037,
      "ought": 4038,
      "racles": 4039,
      "Palms": 4040,
      "Quest": 4041,
      "Khoon": 4042,
      "Ruth": 4043,
      "Mohan": 4044,
      "Serge": 4045,
      "Bucharest": 4046,
      "Arabian": 4047,
      "members": 4048,
      "Mukesh": 4049,
      "Cyborg": 4050,
      "Luis": 4051,
      "Lynn": 4052,
      "Wayne": 4053,
      "rights": 4054,
      "Devils": 4055,
      "Winters": 4056,
      "ombie": 4057,
      "entered": 4058,
      "Tokat": 4059,
      "wenty": 4060,
      "Gopi": 4061,
      "Jeremy": 4062,
      "handled": 4063,
      "Egypt": 4064,
      "Venice": 4065,
      "personal": 4066,
      "Craig": 4067,
      "Touch": 4068,
      "Holmes": 4069,
      "Filipino": 4070,
      "Autum": 4071,
      "Govind": 4072,
      "months": 4073,
      "Circus": 4074,
      "Dhanush": 4075,
      "Pierre": 4076,
      "Stuart": 4077,
      "execut": 4078,
      "Attack": 4079,
      "Nicholas": 4080,
      "Mishra": 4081,
      "crore": 4082,
      "Godfathers": 4083,
      "Mitchell": 4084,
      "Fernando": 4085,
      "1408": 4086,
      "Pimpernel": 4087,
      "cohol": 4088,
      "120": 4089,
      "34": 4090,
      "3x": 4091,
      "3fal": 4092,
      "4b": 4093,
      "90": 4094,
      "Aj": 4095,
      "Ath": 4096,
      "Audi": 4097,
      "Around": 4098,
      "BO": 4099,
      "Bou": 4100,
      "Brun": 4101,
      "Catherine": 4102,
      "Dub": 4103,
      "Fel": 4104,
      "Fear": 4105,
      "Fighting": 4106,
      "Gur": 4107,
      "Give": 4108,
      "Hers": 4109,
      "Ku": 4110,
      "Kur": 4111,
      "Kla": 4112,
      "Lam": 4113,
      "Lions": 4114,
      "Local": 4115,
      "Nay": 4116,
      "Nathan": 4117,
      "Ob": 4118,
      "Ost": 4119,
      "Osc": 4120,
      "Pablo": 4121,
      "Sures": 4122,
      "Sins": 4123,
      "Tre": 4124,
      "Tales": 4125,
      "Vol": 4126,
      "Vid": 4127,
      "Witnesses": 4128,
      "ao": 4129,
      "aam": 4130,
      "bow": 4131,
      "cor": 4132,
      "cas": 4133,
      "care": 4134,
      "fer": 4135,
      "future": 4136,
      "gel": 4137,
      "gov": 4138,
      "given": 4139,
      "hl": 4140,
      "held": 4141,
      "lis": 4142,
      "mm": 4143,
      "nik": 4144,
      "ois": 4145,
      "pict": 4146,
      "para": 4147,
      "pite": 4148,
      "tar": 4149,
      "vide": 4150,
      "zil": 4151,
      "én": 4152,
      "éric": 4153,
      "init": 4154,
      "inten": 4155,
      "anu": 4156,
      "aran": 4157,
      "street": 4158,
      "read": 4159,
      "report": 4160,
      "remade": 4161,
      "rich": 4162,
      "rice": 4163,
      "andro": 4164,
      "did": 4165,
      "eson": 4166,
      "roff": 4167,
      "2033": 4168,
      "1919": 4169,
      "rap": 4170,
      "rael": 4171,
      "adron": 4172,
      "cho": 4173,
      "ides": 4174,
      "idered": 4175,
      "Items": 4176,
      "ompson": 4177,
      "oviet": 4178,
      "esty": 4179,
      "ogan": 4180,
      "Shark": 4181,
      "Shroff": 4182,
      "ounced": 4183,
      "neg": 4184,
      "plin": 4185,
      "Thompson": 4186,
      "artist": 4187,
      "227": 4188,
      "22nd": 4189,
      "ahi": 4190,
      "ahl": 4191,
      "quer": 4192,
      "1812": 4193,
      "1860": 4194,
      "aire": 4195,
      "less": 4196,
      "oka": 4197,
      "End": 4198,
      "itself": 4199,
      "othy": 4200,
      "meen": 4201,
      "ksand": 4202,
      "Anderson": 4203,
      "Proposition": 4204,
      "Headed": 4205,
      "Mormon": 4206,
      "Who": 4207,
      "Israel": 4208,
      "Frenchmen": 4209,
      "Aleksand": 4210,
      "Guj": 4211,
      "Samuel": 4212,
      "Bait": 4213,
      "Rao": 4214,
      "ska": 4215,
      "Brazil": 4216,
      "yssey": 4217,
      "Eva": 4218,
      "Prize": 4219,
      "Sky": 4220,
      "Austin": 4221,
      "Studio": 4222,
      "Place": 4223,
      "racy": 4224,
      "brothers": 4225,
      "52nd": 4226,
      "Chest": 4227,
      "However": 4228,
      "Larry": 4229,
      "Earthquake": 4230,
      "Miracles": 4231,
      "Romanian": 4232,
      "daugh": 4233,
      "Olivier": 4234,
      "Troub": 4235,
      "havan": 4236,
      "prison": 4237,
      "contro": 4238,
      "journey": 4239,
      "678": 4240,
      "similar": 4241,
      "pects": 4242,
      "surv": 4243,
      "Olsen": 4244,
      "opening": 4245,
      "Heroes": 4246,
      "Runner": 4247,
      "Dalmat": 4248,
      "Lawrence": 4249,
      "Bronx": 4250,
      "voice": 4251,
      "milit": 4252,
      "African": 4253,
      "reference": 4254,
      "Rachel": 4255,
      "Gabriel": 4256,
      "numerous": 4257,
      "Bedroom": 4258,
      "completed": 4259,
      "Offic": 4260,
      "Prabhu": 4261,
      "Vishal": 4262,
      "sports": 4263,
      "Geoffrey": 4264,
      "scheduled": 4265,
      "Borders": 4266,
      "Argentine": 4267,
      "collaboration": 4268,
      "narrative": 4269,
      "Touchdown": 4270,
      "Autumns": 4271,
      "3x3D": 4272,
      "3faltig": 4273,
      "4bia": 4274,
      "Suresh": 4275,
      "Dalmatians": 4276,
      "3rd": 4277,
      "5x": 4278,
      "588": 4279,
      "62": 4280,
      "633": 4281,
      "7aum": 4282,
      "96": 4283,
      "Ball": 4284,
      "Bird": 4285,
      "Cru": 4286,
      "Cyn": 4287,
      "Cint": 4288,
      "Der": 4289,
      "Dad": 4290,
      "Dig": 4291,
      "Dul": 4292,
      "Dog": 4293,
      "Ey": 4294,
      "Ele": 4295,
      "Four": 4296,
      "Fuk": 4297,
      "Ga": 4298,
      "Gol": 4299,
      "Gree": 4300,
      "Gib": 4301,
      "Gator": 4302,
      "His": 4303,
      "Hard": 4304,
      "HBO": 4305,
      "Ian": 4306,
      "Jav": 4307,
      "Kul": 4308,
      "Kub": 4309,
      "Kaz": 4310,
      "Kille": 4311,
      "Kurt": 4312,
      "Len": 4313,
      "Lud": 4314,
      "Lord": 4315,
      "Lank": 4316,
      "Little": 4317,
      "Mast": 4318,
      "Mend": 4319,
      "Mountain": 4320,
      "Nak": 4321,
      "Por": 4322,
      "Pad": 4323,
      "Sem": 4324,
      "Sul": 4325,
      "Sab": 4326,
      "Sah": 4327,
      "Syl": 4328,
      "Splin": 4329,
      "Usel": 4330,
      "Vir": 4331,
      "Venk": 4332,
      "Zw": 4333,
      "Zombie": 4334,
      "bomb": 4335,
      "cour": 4336,
      "city": 4337,
      "camer": 4338,
      "cially": 4339,
      "det": 4340,
      "date": 4341,
      "gh": 4342,
      "gr": 4343,
      "gate": 4344,
      "hil": 4345,
      "hit": 4346,
      "ky": 4347,
      "kill": 4348,
      "kete": 4349,
      "ml": 4350,
      "nor": 4351,
      "och": 4352,
      "ode": 4353,
      "pass": 4354,
      "tz": 4355,
      "try": 4356,
      "take": 4357,
      "tty": 4358,
      "turn": 4359,
      "trilogy": 4360,
      "uter": 4361,
      "vu": 4362,
      "wing": 4363,
      "wick": 4364,
      "would": 4365,
      "zam": 4366,
      "ár": 4367,
      "ined": 4368,
      "indu": 4369,
      "erg": 4370,
      "stein": 4371,
      "thia": 4372,
      "rew": 4373,
      "org": 4374,
      "ened": 4375,
      "alog": 4376,
      "asa": 4377,
      "ately": 4378,
      "dialog": 4379,
      "ringhee": 4380,
      "rob": 4381,
      "Theat": 4382,
      "1912": 4383,
      "1922": 4384,
      "empor": 4385,
      "using": 4386,
      "chise": 4387,
      "eti": 4388,
      "iden": 4389,
      "ache": 4390,
      "illage": 4391,
      "ovann": 4392,
      "ume": 4393,
      "akes": 4394,
      "owers": 4395,
      "ersey": 4396,
      "Inch": 4397,
      "Shin": 4398,
      "Shiv": 4399,
      "Shoot": 4400,
      "abi": 4401,
      "Filmfare": 4402,
      "comic": 4403,
      "comics": 4404,
      "125": 4405,
      "odes": 4406,
      "oren": 4407,
      "aine": 4408,
      "Sebast": 4409,
      "anned": 4410,
      "arts": 4411,
      "22Pimpernel": 4412,
      "ista": 4413,
      "ister": 4414,
      "conv": 4415,
      "211": 4416,
      "ustaf": 4417,
      "owns": 4418,
      "auto": 4419,
      "Reward": 4420,
      "Paradi": 4421,
      "roses": 4422,
      "attack": 4423,
      "Clover": 4424,
      "1492": 4425,
      "Beats": 4426,
      "Beauty": 4427,
      "Carats": 4428,
      "1962": 4429,
      "azione": 4430,
      "Blind": 4431,
      "1974": 4432,
      "16th": 4433,
      "1612": 4434,
      "Meh": 4435,
      "portray": 4436,
      "Screams": 4437,
      "Broken": 4438,
      "Manuel": 4439,
      "Moroc": 4440,
      "What": 4441,
      "Whit": 4442,
      "Angels": 4443,
      "1933": 4444,
      "included": 4445,
      "ronic": 4446,
      "etti": 4447,
      "Conquest": 4448,
      "Patel": 4449,
      "Bert": 4450,
      "livan": 4451,
      "777": 4452,
      "ancy": 4453,
      "ancing": 4454,
      "fictional": 4455,
      "YouTu": 4456,
      "Perfect": 4457,
      "eping": 4458,
      "Shetty": 4459,
      "marks": 4460,
      "Silva": 4461,
      "Redroses": 4462,
      "Khal": 4463,
      "throughout": 4464,
      "Laura": 4465,
      "Boom": 4466,
      "Once": 4467,
      "Aftermath": 4468,
      "police": 4469,
      "Artists": 4470,
      "considered": 4471,
      "Fathers": 4472,
      "Keith": 4473,
      "Suspects": 4474,
      "narrated": 4475,
      "experien": 4476,
      "experimental": 4477,
      "Arivu": 4478,
      "Arabic": 4479,
      "Rocky": 4480,
      "Revolution": 4481,
      "cope": 4482,
      "Claude": 4483,
      "sexual": 4484,
      "Jeffrey": 4485,
      "Pakistani": 4486,
      "Tokyo": 4487,
      "Vinod": 4488,
      "explo": 4489,
      "Muskete": 4490,
      "Mexican": 4491,
      "Mexico": 4492,
      "listed": 4493,
      "belie": 4494,
      "Levitt": 4495,
      "Squadron": 4496,
      "particip": 4497,
      "Dawn": 4498,
      "Hearts": 4499,
      "Odyssey": 4500,
      "Graceland": 4501,
      "Powell": 4502,
      "Chowringhee": 4503,
      "program": 4504,
      "Stanley": 4505,
      "Ghosts": 4506,
      "Fraidy": 4507,
      "Barbara": 4508,
      "Joyce": 4509,
      "Vienna": 4510,
      "possib": 4511,
      "Lockdown": 4512,
      "fantasy": 4513,
      "Syria": 4514,
      "Austri": 4515,
      "Sleeping": 4516,
      "paradis": 4517,
      "5x2": 4518,
      "Cynthia": 4519,
      "Cinta": 4520,
      "Digital": 4521,
      "Sullivan": 4522,
      "Splinters": 4523,
      "Useless": 4524,
      "Paradise": 4525,
      "Cloverfield": 4526,
      "Musketeers": 4527,
      "+:": 4528,
      "3G": 4529,
      "442": 4530,
      "7G": 4531,
      "Ai": 4532,
      "BS": 4533,
      "Br": 4534,
      "Ban": 4535,
      "Big": 4536,
      "Bang": 4537,
      "Bac": 4538,
      "Bett": 4539,
      "Bij": 4540,
      "Bike": 4541,
      "Ballo": 4542,
      "Cam": 4543,
      "Cong": 4544,
      "Cop": 4545,
      "Cory": 4546,
      "Cant": 4547,
      "Come": 4548,
      "Curt": 4549,
      "Dri": 4550,
      "Ec": 4551,
      "Fell": 4552,
      "Fair": 4553,
      "Female": 4554,
      "Hold": 4555,
      "Jersey": 4556,
      "Kol": 4557,
      "Kid": 4558,
      "Kott": 4559,
      "Knight": 4560,
      "Kuo": 4561,
      "Lor": 4562,
      "Luna": 4563,
      "Mason": 4564,
      "Ng": 4565,
      "Nand": 4566,
      "Nol": 4567,
      "Ngu": 4568,
      "Ok": 4569,
      "Pa": 4570,
      "Pers": 4571,
      "Patt": 4572,
      "Pick": 4573,
      "Paix": 4574,
      "Que": 4575,
      "Ras": 4576,
      "Rag": 4577,
      "Rill": 4578,
      "Rider": 4579,
      "Sur": 4580,
      "Song": 4581,
      "Sue": 4582,
      "Sny": 4583,
      "Soviet": 4584,
      "Test": 4585,
      "Trev": 4586,
      "Tür": 4587,
      "Twenty": 4588,
      "Viv": 4589,
      "Vers": 4590,
      "Wat": 4591,
      "Wright": 4592,
      "Zen": 4593,
      "birth": 4594,
      "cer": 4595,
      "cle": 4596,
      "gles": 4597,
      "grand": 4598,
      "hip": 4599,
      "jay": 4600,
      "kish": 4601,
      "los": 4602,
      "mag": 4603,
      "mart": 4604,
      "mess": 4605,
      "major": 4606,
      "nan": 4607,
      "nes": 4608,
      "rut": 4609,
      "sy": 4610,
      "sati": 4611,
      "views": 4612,
      "ville": 4613,
      "wu": 4614,
      "west": 4615,
      "wald": 4616,
      "ín": 4617,
      "eri": 4618,
      "erv": 4619,
      "arian": 4620,
      "inger": 4621,
      "enie": 4622,
      "aser": 4623,
      "died": 4624,
      "rowh": 4625,
      "2048": 4626,
      "elt": 4627,
      "often": 4628,
      "ito": 4629,
      "rad": 4630,
      "emen": 4631,
      "emic": 4632,
      "002": 4633,
      "oli": 4634,
      "addit": 4635,
      "chili": 4636,
      "unch": 4637,
      "uneral": 4638,
      "idan": 4639,
      "iram": 4640,
      "Stard": 4641,
      "imi": 4642,
      "estig": 4643,
      "akis": 4644,
      "otal": 4645,
      "avail": 4646,
      "Instit": 4647,
      "white": 4648,
      "ationally": 4649,
      "shan": 4650,
      "acting": 4651,
      "Antop": 4652,
      "Marriage": 4653,
      "Marbles": 4654,
      "deal": 4655,
      "apocal": 4656,
      "tened": 4657,
      "neth": 4658,
      "athinile": 4659,
      "elling": 4660,
      "ains": 4661,
      "eep": 4662,
      "eeth": 4663,
      "Roth": 4664,
      "Rooms": 4665,
      "announced": 4666,
      "22Weird": 4667,
      "upcoming": 4668,
      "1870": 4669,
      "conc": 4670,
      "Leigh": 4671,
      "1995": 4672,
      "assassin": 4673,
      "Neil": 4674,
      "Johann": 4675,
      "lost": 4676,
      "auf": 4677,
      "Rein": 4678,
      "Johnny": 4679,
      "ured": 4680,
      "incident": 4681,
      "404": 4682,
      "othing": 4683,
      "Frances": 4684,
      "Claire": 4685,
      "Carro": 4686,
      "Harrowh": 4687,
      "1955": 4688,
      "playing": 4689,
      "azar": 4690,
      "Blades": 4691,
      "works": 4692,
      "17th": 4693,
      "Phillip": 4694,
      "Maan": 4695,
      "kness": 4696,
      "Juliet": 4697,
      "Colony": 4698,
      "Jononi": 4699,
      "Moons": 4700,
      "november": 4701,
      "Conquer": 4702,
      "Rosen": 4703,
      "Ago": 4704,
      "491": 4705,
      "sequences": 4706,
      "Allan": 4707,
      "Bhag": 4708,
      "Raise": 4709,
      "sets": 4710,
      "Lao": 4711,
      "adia": 4712,
      "return": 4713,
      "Delpy": 4714,
      "Principal": 4715,
      "iversary": 4716,
      "Jimmy": 4717,
      "Bernsen": 4718,
      "Kenneth": 4719,
      "appeared": 4720,
      "Baba": 4721,
      "Vega": 4722,
      "Wolfgang": 4723,
      "Bridge": 4724,
      "Trogi": 4725,
      "subject": 4726,
      "eteen": 4727,
      "Vayathinile": 4728,
      "orni": 4729,
      "Varma": 4730,
      "praise": 4731,
      "Jacques": 4732,
      "giorni": 4733,
      "jours": 4734,
      "Sidney": 4735,
      "minute": 4736,
      "simpl": 4737,
      "Birch": 4738,
      "Helen": 4739,
      "Rahul": 4740,
      "Graham": 4741,
      "Kanya": 4742,
      "Motels": 4743,
      "opened": 4744,
      "Singapore": 4745,
      "singer": 4746,
      "Sandra": 4747,
      "franco": 4748,
      "franchise": 4749,
      "visual": 4750,
      "Gianfranco": 4751,
      "Turkish": 4752,
      "Brooklyn": 4753,
      "Freeman": 4754,
      "sitcom": 4755,
      "Faith": 4756,
      "Francisco": 4757,
      "Wallace": 4758,
      "children": 4759,
      "Blazes": 4760,
      "audience": 4761,
      "Robinson": 4762,
      "Rodrigo": 4763,
      "Rawden": 4764,
      "Nigerian": 4765,
      "Ralph": 4766,
      "Georgia": 4767,
      "Contact": 4768,
      "Prasad": 4769,
      "category": 4770,
      "small": 4771,
      "Enrique": 4772,
      "2DTV": 4773,
      "Ventures": 4774,
      "Afghanistan": 4775,
      "executive": 4776,
      "Lionsgate": 4777,
      "Obama": 4778,
      "Oscar": 4779,
      "government": 4780,
      "reported": 4781,
      "Aleksandr": 4782,
      "daughter": 4783,
      "Trouble": 4784,
      "Sebastian": 4785,
      "YouTube": 4786,
      "4426": 4787,
      "Balloons": 4788,
      "Rillington": 4789,
      "Snyder": 4790,
      "martial": 4791,
      "Stardom": 4792,
      "Harrowhouse": 4793,
      "Conquerors": 4794,
      "03": 4795,
      "AF": 4796,
      "Bee": 4797,
      "BBC": 4798,
      "Cass": 4799,
      "Crit": 4800,
      "Cob": 4801,
      "Dhe": 4802,
      "Dreaming": 4803,
      "Dancing": 4804,
      "Fish": 4805,
      "Fort": 4806,
      "Funeral": 4807,
      "Gr": 4808,
      "Grav": 4809,
      "Hop": 4810,
      "Hati": 4811,
      "Irel": 4812,
      "Ichi": 4813,
      "Jess": 4814,
      "Jün": 4815,
      "Kil": 4816,
      "Kav": 4817,
      "Kish": 4818,
      "Lang": 4819,
      "Lot": 4820,
      "Lies": 4821,
      "MA": 4822,
      "Mack": 4823,
      "Nad": 4824,
      "Nim": 4825,
      "Naj": 4826,
      "Oba": 4827,
      "Pi": 4828,
      "Pé": 4829,
      "Pin": 4830,
      "Pand": 4831,
      "Pres": 4832,
      "Puri": 4833,
      "Pigal": 4834,
      "Rit": 4835,
      "Rid": 4836,
      "Rak": 4837,
      "Suk": 4838,
      "Some": 4839,
      "Soph": 4840,
      "Todd": 4841,
      "Tzam": 4842,
      "Vo": 4843,
      "Vista": 4844,
      "Wri": 4845,
      "Ward": 4846,
      "Zh": 4847,
      "bs": 4848,
      "bon": 4849,
      "bra": 4850,
      "bus": 4851,
      "buster": 4852,
      "cal": 4853,
      "cord": 4854,
      "cari": 4855,
      "canc": 4856,
      "cending": 4857,
      "dh": 4858,
      "done": 4859,
      "feld": 4860,
      "gun": 4861,
      "iation": 4862,
      "ials": 4863,
      "kid": 4864,
      "ll": 4865,
      "little": 4866,
      "mons": 4867,
      "mother": 4868,
      "nal": 4869,
      "nur": 4870,
      "never": 4871,
      "piv": 4872,
      "sie": 4873,
      "ued": 4874,
      "whe": 4875,
      "wig": 4876,
      "xus": 4877,
      "ypse": 4878,
      "zio": 4879,
      "–'": 4880,
      "arna": 4881,
      "str": 4882,
      "stage": 4883,
      "stant": 4884,
      "those": 4885,
      "alk": 4886,
      "aland": 4887,
      "although": 4888,
      "asu": 4889,
      "atkal": 4890,
      "started": 4891,
      "riya": 4892,
      "ischer": 4893,
      "row": 4894,
      "hetic": 4895,
      "amin": 4896,
      "omon": 4897,
      "termin": 4898,
      "emi": 4899,
      "emies": 4900,
      "usion": 4901,
      "ention": 4902,
      "entire": 4903,
      "directors": 4904,
      "ival": 4905,
      "Chap": 4906,
      "Channing": 4907,
      "Chalg": 4908,
      "ided": 4909,
      "imp": 4910,
      "ovan": 4911,
      "ester": 4912,
      "uli": 4913,
      "owski": 4914,
      "otas": 4915,
      "otic": 4916,
      "cean": 4917,
      "10ml": 4918,
      "occur": 4919,
      "Anil": 4920,
      "Shift": 4921,
      "Margar": 4922,
      "María": 4923,
      "apart": 4924,
      "seen": 4925,
      "season": 4926,
      "123": 4927,
      "ishing": 4928,
      "Seung": 4929,
      "That": 4930,
      "Thus": 4931,
      "anniversary": 4932,
      "upon": 4933,
      "quel": 4934,
      "udes": 4935,
      "2149": 4936,
      "iple": 4937,
      "ipper": 4938,
      "Nexus": 4939,
      "Engel": 4940,
      "Enemies": 4941,
      "serv": 4942,
      "essa": 4943,
      "techn": 4944,
      "Parody": 4945,
      "Paranormal": 4946,
      "1986": 4947,
      "Franç": 4948,
      "Clowns": 4949,
      "144": 4950,
      "Mencari": 4951,
      "1966": 4952,
      "Harm": 4953,
      "1958": 4954,
      "Streets": 4955,
      "Mega": 4956,
      "porting": 4957,
      "Scale": 4958,
      "ockbuster": 4959,
      "Diary": 4960,
      "Diaries": 4961,
      "Asia": 4962,
      "Maya": 4963,
      "Prod": 4964,
      "Maiden": 4965,
      "Head": 4966,
      "Stefan": 4967,
      "include": 4968,
      "trap": 4969,
      "Milton": 4970,
      "1935": 4971,
      "notable": 4972,
      "Corbin": 4973,
      "Central": 4974,
      "Donovan": 4975,
      "Emil": 4976,
      "Murali": 4977,
      "Chinoy": 4978,
      "Bened": 4979,
      "Bhar": 4980,
      "Going": 4981,
      "Good": 4982,
      "ails": 4983,
      "Sharmeen": 4984,
      "Baxter": 4985,
      "Slaves": 4986,
      "parla": 4987,
      "Matsu": 4988,
      "Small": 4989,
      "goes": 4990,
      "uckle": 4991,
      "Malaya": 4992,
      "Myster": 4993,
      "rata": 4994,
      "Palmer": 4995,
      "Darkness": 4996,
      "brother": 4997,
      "noir": 4998,
      "trans": 4999,
      "Glenn": 5000,
      "Laurence": 5001,
      "Board": 5002,
      "666": 5003,
      "taking": 5004,
      "Descending": 5005,
      "Farm": 5006,
      "Idiotas": 5007,
      "finished": 5008,
      "iyayam": 5009,
      "Supporting": 5010,
      "Vayadu": 5011,
      "Boyle": 5012,
      "Ariz": 5013,
      "Crown": 5014,
      "investig": 5015,
      "Naatkal": 5016,
      "formation": 5017,
      "mitted": 5018,
      "Murderer": 5019,
      "Rahman": 5020,
      "Horas": 5021,
      "Horse": 5022,
      "students": 5023,
      "discuss": 5024,
      "Heroines": 5025,
      "point": 5026,
      "Ernst": 5027,
      "Leonard": 5028,
      "Pakistan": 5029,
      "Bollywood": 5030,
      "Knuckle": 5031,
      "Turkey": 5032,
      "yptic": 5033,
      "Harihar": 5034,
      "Rainbow": 5035,
      "Fabian": 5036,
      "Zealand": 5037,
      "European": 5038,
      "Sathy": 5039,
      "Memory": 5040,
      "Memories": 5041,
      "XXX": 5042,
      "abbat": 5043,
      "attempts": 5044,
      "Operazione": 5045,
      "Isabelle": 5046,
      "Court": 5047,
      "digital": 5048,
      "Tsang": 5049,
      "hetti": 5050,
      "travel": 5051,
      "abeth": 5052,
      "designed": 5053,
      "Fanboy": 5054,
      "Pathé": 5055,
      "Judy": 5056,
      "Mickey": 5057,
      "morto": 5058,
      "multiple": 5059,
      "credited": 5060,
      "Brandon": 5061,
      "Happens": 5062,
      "Tiffin": 5063,
      "internationally": 5064,
      "comedian": 5065,
      "Athiyayam": 5066,
      "Audience": 5067,
      "picture": 5068,
      "military": 5069,
      "Officials": 5070,
      "Birdland": 5071,
      "Eyes": 5072,
      "Congress": 5073,
      "Türken": 5074,
      "available": 5075,
      "Institute": 5076,
      "apocalyptic": 5077,
      "Maaniram": 5078,
      "Ireland": 5079,
      "Jünger": 5080,
      "Obaid": 5081,
      "Pigalle": 5082,
      "Tzameti": 5083,
      "pivotal": 5084,
      "Chalgrin": 5085,
      ")(": 5086,
      "212": 5087,
      "4D": 5088,
      "419": 5089,
      "7500": 5090,
      "99": 5091,
      ":-": 5092,
      "AM": 5093,
      "Adi": 5094,
      "Bin": 5095,
      "Bon": 5096,
      "Bet": 5097,
      "Bres": 5098,
      "Bran": 5099,
      "Bever": 5100,
      "Burn": 5101,
      "Born": 5102,
      "Ca": 5103,
      "Cav": 5104,
      "Care": 5105,
      "Cels": 5106,
      "Cowan": 5107,
      "Dow": 5108,
      "Dud": 5109,
      "E5": 5110,
      "Eerie": 5111,
      "EE5": 5112,
      "Fle": 5113,
      "Frig": 5114,
      "Fire": 5115,
      "Gal": 5116,
      "Gos": 5117,
      "Gall": 5118,
      "Glo": 5119,
      "Hy": 5120,
      "Horton": 5121,
      "Id": 5122,
      "Iron": 5123,
      "Job": 5124,
      "Kon": 5125,
      "Kom": 5126,
      "Kane": 5127,
      "Led": 5128,
      "Lost": 5129,
      "Lama": 5130,
      "Mut": 5131,
      "Mun": 5132,
      "Mother": 5133,
      "Ner": 5134,
      "Nir": 5135,
      "Never": 5136,
      "Nair": 5137,
      "Nothing": 5138,
      "PC": 5139,
      "Pity": 5140,
      "Paz": 5141,
      "Press": 5142,
      "Poo": 5143,
      "RR": 5144,
      "Rh": 5145,
      "Rank": 5146,
      "Si": 5147,
      "Sor": 5148,
      "Sad": 5149,
      "Sai": 5150,
      "Snow": 5151,
      "Tem": 5152,
      "UK": 5153,
      "Xmas": 5154,
      "Ye": 5155,
      "Yun": 5156,
      "ZEE5": 5157,
      "bol": 5158,
      "cles": 5159,
      "cue": 5160,
      "fail": 5161,
      "gio": 5162,
      "hin": 5163,
      "hind": 5164,
      "htened": 5165,
      "jan": 5166,
      "like": 5167,
      "lodd": 5168,
      "mp": 5169,
      "nation": 5170,
      "oj": 5171,
      "oir": 5172,
      "page": 5173,
      "past": 5174,
      "pallo": 5175,
      "rang": 5176,
      "said": 5177,
      "vor": 5178,
      "vol": 5179,
      "waj": 5180,
      "wari": 5181,
      "zon": 5182,
      "ée": 5183,
      "ños": 5184,
      "stad": 5185,
      "still": 5186,
      "stru": 5187,
      "thing": 5188,
      "thir": 5189,
      "thousand": 5190,
      "rep": 5191,
      "reed": 5192,
      "eda": 5193,
      "edon": 5194,
      "alo": 5195,
      "alry": 5196,
      "theme": 5197,
      "rier": 5198,
      "ribut": 5199,
      "ander": 5200,
      "isited": 5201,
      "esa": 5202,
      "rodu": 5203,
      "2061": 5204,
      "elements": 5205,
      "itas": 5206,
      "omi": 5207,
      "They": 5208,
      "1911": 5209,
      "1916": 5210,
      "uses": 5211,
      "ushi": 5212,
      "008": 5213,
      "olzh": 5214,
      "promin": 5215,
      "chang": 5216,
      "Chi": 5217,
      "Chat": 5218,
      "Chak": 5219,
      "Strik": 5220,
      "iman": 5221,
      "producers": 5222,
      "ović": 5223,
      "ardwaj": 5224,
      "umi": 5225,
      "ummer": 5226,
      "aking": 5227,
      "akrish": 5228,
      "ulous": 5229,
      "ows": 5230,
      "urch": 5231,
      "eva": 5232,
      "resul": 5233,
      "1040": 5234,
      "Inside": 5235,
      "Invent": 5236,
      "whom": 5237,
      "iane": 5238,
      "iance": 5239,
      "distribution": 5240,
      "itha": 5241,
      "Another": 5242,
      "Shir": 5243,
      "Shades": 5244,
      "Mars": 5245,
      "Marsh": 5246,
      "Marco": 5247,
      "Marins": 5248,
      "deep": 5249,
      "appro": 5250,
      "merich": 5251,
      "see": 5252,
      "plic": 5253,
      "rams": 5254,
      "within": 5255,
      "without": 5256,
      "Aless": 5257,
      "aint": 5258,
      "ohra": 5259,
      "asters": 5260,
      "iko": 5261,
      "ope": 5262,
      "305": 5263,
      "lyric": 5264,
      "ahn": 5265,
      "uda": 5266,
      "1888": 5267,
      "1871": 5268,
      "Deg": 5269,
      "aiy": 5270,
      "conf": 5271,
      "contain": 5272,
      "confl": 5273,
      "21mu": 5274,
      "Lean": 5275,
      "1992": 5276,
      "pregn": 5277,
      "aftern": 5278,
      "Reed": 5279,
      "aniz": 5280,
      "text": 5281,
      "ended": 5282,
      "cost": 5283,
      "Michele": 5284,
      "Carol": 5285,
      "Carlo": 5286,
      "mez": 5287,
      "1961": 5288,
      "1964": 5289,
      "Harrison": 5290,
      "1952": 5291,
      "azine": 5292,
      "Blu": 5293,
      "Blake": 5294,
      "Robertson": 5295,
      "1973": 5296,
      "1976": 5297,
      "titudes": 5298,
      "ucin": 5299,
      "Abdul": 5300,
      "Apocal": 5301,
      "Libr": 5302,
      "District": 5303,
      "issa": 5304,
      "vert": 5305,
      "ensen": 5306,
      "onym": 5307,
      "every": 5308,
      "computer": 5309,
      "Julian": 5310,
      "Whore": 5311,
      "Charlot": 5312,
      "Corm": 5313,
      "Emmy": 5314,
      "Emmerich": 5315,
      "crew": 5316,
      "881": 5317,
      "Chintham": 5318,
      "Attitudes": 5319,
      "therland": 5320,
      "Bhardwaj": 5321,
      "ija": 5322,
      "778": 5323,
      "awarded": 5324,
      "Nineteen": 5325,
      "Daniels": 5326,
      "Slade": 5327,
      "Tommy": 5328,
      "introdu": 5329,
      "Ramón": 5330,
      "media": 5331,
      "Comes": 5332,
      "Comedy": 5333,
      "Comfort": 5334,
      "marily": 5335,
      "Reddy": 5336,
      "Raymond": 5337,
      "Skipper": 5338,
      "iety": 5339,
      "Ghante": 5340,
      "Bulgar": 5341,
      "Suz": 5342,
      "mostly": 5343,
      "Philippe": 5344,
      "unning": 5345,
      "Glory": 5346,
      "Luciano": 5347,
      "Mohabbat": 5348,
      "Timothy": 5349,
      "Haasan": 5350,
      "Stock": 5351,
      "fourth": 5352,
      "Despite": 5353,
      "disaster": 5354,
      "Simmons": 5355,
      "Vayadh": 5356,
      "Vayasu": 5357,
      "enko": 5358,
      "great": 5359,
      "primarily": 5360,
      "unting": 5361,
      "Susan": 5362,
      "Verne": 5363,
      "Alexandre": 5364,
      "Rogers": 5365,
      "journal": 5366,
      "revolution": 5367,
      "Classic": 5368,
      "Cycles": 5369,
      "mysterious": 5370,
      "previously": 5371,
      "Birth": 5372,
      "Castle": 5373,
      "Gregory": 5374,
      "ceptional": 5375,
      "Revisited": 5376,
      "locations": 5377,
      "Claudi": 5378,
      "Dalai": 5379,
      "Dinesh": 5380,
      "Randall": 5381,
      "standing": 5382,
      "Sweden": 5383,
      "Secrecy": 5384,
      "Africa": 5385,
      "Fabulous": 5386,
      "Tatum": 5387,
      "Travis": 5388,
      "human": 5389,
      "Dangerous": 5390,
      "Square": 5391,
      "particular": 5392,
      "Origin": 5393,
      "Operation": 5394,
      "Iranian": 5395,
      "Elliot": 5396,
      "Elliott": 5397,
      "modern": 5398,
      "Terrorists": 5399,
      "Taiwanese": 5400,
      "Campbell": 5401,
      "Saying": 5402,
      "quired": 5403,
      "described": 5404,
      "Questions": 5405,
      "Bruno": 5406,
      "career": 5407,
      "negative": 5408,
      "camera": 5409,
      "trying": 5410,
      "dialogue": 5411,
      "Theatre": 5412,
      "explores": 5413,
      "Holding": 5414,
      "Kottayam": 5415,
      "Nguyen": 5416,
      "Trevor": 5417,
      "message": 5418,
      "Johannes": 5419,
      "Gravitas": 5420,
      "Sophie": 5421,
      "kidn": 5422,
      "François": 5423,
      "Prodolzh": 5424,
      "Mystery": 5425,
      "Arizona": 5426,
      "Crowning": 5427,
      "4192": 5428,
      "Beverly": 5429,
      "Cavalry": 5430,
      "Celsius": 5431,
      "Dudley": 5432,
      "Frightened": 5433,
      "Neram": 5434,
      "loddrett": 5435,
      "Strikes": 5436,
      "lyrics": 5437,
      "conflict": 5438,
      "afternoon": 5439,
      "Apocalypse": 5440,
      "Charlotte": 5441,
      "Chinthamani": 5442,
      "Vayadhinile": 5443,
      "Prodolzhenie": 5444,
      "118": 5445,
      "6ix": 5446,
      "75": 5447,
      "711": 5448,
      "81": 5449,
      ":&": 5450,
      "Bing": 5451,
      "Bach": 5452,
      "Battle": 5453,
      "Cr": 5454,
      "Cu": 5455,
      "Cin": 5456,
      "Cer": 5457,
      "Cle": 5458,
      "Cart": 5459,
      "Cons": 5460,
      "Cec": 5461,
      "Clif": 5462,
      "COV": 5463,
      "DK": 5464,
      "Dy": 5465,
      "Dí": 5466,
      "Div": 5467,
      "Domin": 5468,
      "Dots": 5469,
      "Doug": 5470,
      "Dhar": 5471,
      "Drag": 5472,
      "Diane": 5473,
      "Emer": 5474,
      "Eug": 5475,
      "Eston": 5476,
      "Eliz": 5477,
      "Echo": 5478,
      "Fri": 5479,
      "Gó": 5480,
      "Gan": 5481,
      "Gul": 5482,
      "Gau": 5483,
      "Gadi": 5484,
      "Gladi": 5485,
      "Hon": 5486,
      "Him": 5487,
      "Haz": 5488,
      "Horn": 5489,
      "If": 5490,
      "Irish": 5491,
      "IPC": 5492,
      "Jaf": 5493,
      "Judi": 5494,
      "Kai": 5495,
      "Kris": 5496,
      "Krist": 5497,
      "Lal": 5498,
      "Low": 5499,
      "Lie": 5500,
      "Lap": 5501,
      "Mou": 5502,
      "Mod": 5503,
      "Mann": 5504,
      "Mass": 5505,
      "Maz": 5506,
      "Mullen": 5507,
      "Ny": 5508,
      "Oly": 5509,
      "Old": 5510,
      "Ocean": 5511,
      "PM": 5512,
      "Pen": 5513,
      "Pic": 5514,
      "Pay": 5515,
      "Pag": 5516,
      "Pet": 5517,
      "Rel": 5518,
      "Rad": 5519,
      "Raf": 5520,
      "Rub": 5521,
      "Rising": 5522,
      "Seng": 5523,
      "Santa": 5524,
      "Tr": 5525,
      "Tin": 5526,
      "Tol": 5527,
      "Uz": 5528,
      "Va": 5529,
      "Wes": 5530,
      "Yan": 5531,
      "Yen": 5532,
      "Yam": 5533,
      "Yards": 5534,
      "ae": 5535,
      "bie": 5536,
      "battle": 5537,
      "cad": 5538,
      "cul": 5539,
      "cele": 5540,
      "claim": 5541,
      "din": 5542,
      "document": 5543,
      "drag": 5544,
      "drop": 5545,
      "ead": 5546,
      "far": 5547,
      "ged": 5548,
      "hid": 5549,
      "hers": 5550,
      "ium": 5551,
      "job": 5552,
      "jamin": 5553,
      "lad": 5554,
      "lov": 5555,
      "lman": 5556,
      "lab": 5557,
      "lia": 5558,
      "mph": 5559,
      "ned": 5560,
      "nine": 5561,
      "oe": 5562,
      "ole": 5563,
      "pital": 5564,
      "rard": 5565,
      "rays": 5566,
      "say": 5567,
      "tas": 5568,
      "tab": 5569,
      "ule": 5570,
      "uation": 5571,
      "vs": 5572,
      "youth": 5573,
      "zie": 5574,
      "ák": 5575,
      "íc": 5576,
      "inian": 5577,
      "iness": 5578,
      "infl": 5579,
      "anime": 5580,
      "anya": 5581,
      "another": 5582,
      "erto": 5583,
      "erotic": 5584,
      "arin": 5585,
      "arost": 5586,
      "ility": 5587,
      "oned": 5588,
      "onse": 5589,
      "online": 5590,
      "orc": 5591,
      "oro": 5592,
      "oria": 5593,
      "eder": 5594,
      "altern": 5595,
      "aton": 5596,
      "atory": 5597,
      "atural": 5598,
      "rise": 5599,
      "dio": 5600,
      "ises": 5601,
      "rots": 5602,
      "20va": 5603,
      "2067": 5604,
      "2081": 5605,
      "elph": 5606,
      "elson": 5607,
      "eline": 5608,
      "amous": 5609,
      "leton": 5610,
      "1936": 5611,
      "1914": 5612,
      "raj": 5613,
      "race": 5614,
      "raham": 5615,
      "ospital": 5616,
      "usep": 5617,
      "adan": 5618,
      "ador": 5619,
      "adelph": 5620,
      "change": 5621,
      "channel": 5622,
      "chronic": 5623,
      "agon": 5624,
      "agne": 5625,
      "unter": 5626,
      "univers": 5627,
      "ivil": 5628,
      "igan": 5629,
      "Chiu": 5630,
      "Stup": 5631,
      "imag": 5632,
      "imath": 5633,
      "acy": 5634,
      "account": 5635,
      "accept": 5636,
      "forts": 5637,
      "forces": 5638,
      "esthetic": 5639,
      "umm": 5640,
      "akh": 5641,
      "aks": 5642,
      "akal": 5643,
      "beron": 5644,
      "aver": 5645,
      "Inter": 5646,
      "Into": 5647,
      "Independent": 5648,
      "earth": 5649,
      "Anim": 5650,
      "Show": 5651,
      "Marion": 5652,
      "Martha": 5653,
      "abdam": 5654,
      "def": 5655,
      "common": 5656,
      "few": 5657,
      "Alcohol": 5658,
      "bek": 5659,
      "become": 5660,
      "ored": 5661,
      "ohan": 5662,
      "Seattle": 5663,
      "iku": 5664,
      "Thail": 5665,
      "Thala": 5666,
      "Thousand": 5667,
      "ahr": 5668,
      "quette": 5669,
      "istry": 5670,
      "18th": 5671,
      "1857": 5672,
      "Deut": 5673,
      "Arun": 5674,
      "Arrog": 5675,
      "afia": 5676,
      "Reid": 5677,
      "Reyn": 5678,
      "Record": 5679,
      "ajid": 5680,
      "3688": 5681,
      "peal": 5682,
      "exp": 5683,
      "erno": 5684,
      "erner": 5685,
      "ernatural": 5686,
      "Davies": 5687,
      "ific": 5688,
      "Carm": 5689,
      "Peters": 5690,
      "Menen": 5691,
      "1960": 5692,
      "Harold": 5693,
      "Spenc": 5694,
      "Anders": 5695,
      "1978": 5696,
      "1979": 5697,
      "acho": 5698,
      "Abraham": 5699,
      "ruth": 5700,
      "review": 5701,
      "Feku": 5702,
      "Scenes": 5703,
      "Scaff": 5704,
      "Apoor": 5705,
      "Broke": 5706,
      "Died": 5707,
      "Diablo": 5708,
      "imeters": 5709,
      "issue": 5710,
      "engers": 5711,
      "weig": 5712,
      "Malas": 5713,
      "Maldi": 5714,
      "Morin": 5715,
      "Julia": 5716,
      "romanized": 5717,
      "Améric": 5718,
      "inald": 5719,
      "While": 5720,
      "Weiss": 5721,
      "naa": 5722,
      "araaja": 5723,
      "Charing": 5724,
      "1934": 5725,
      "mail": 5726,
      "indivi": 5727,
      "Emman": 5728,
      "Cook": 5729,
      "Berg": 5730,
      "Berry": 5731,
      "vey": 5732,
      "Edo": 5733,
      "supernatural": 5734,
      "rell": 5735,
      "Aval": 5736,
      "Balaam": 5737,
      "suff": 5738,
      "Sharif": 5739,
      "haas": 5740,
      "Mats": 5741,
      "Exceptional": 5742,
      "Evans": 5743,
      "Activity": 5744,
      "gets": 5745,
      "interview": 5746,
      "interviews": 5747,
      "Ghosh": 5748,
      "demi": 5749,
      "working": 5750,
      "Karan": 5751,
      "Suriya": 5752,
      "accident": 5753,
      "select": 5754,
      "antha": 5755,
      "Laurent": 5756,
      "Valent": 5757,
      "Haunting": 5758,
      "taken": 5759,
      "Lars": 5760,
      "Desai": 5761,
      "Bablu": 5762,
      "Poland": 5763,
      "Fathimath": 5764,
      "efforts": 5765,
      "Giovann": 5766,
      "Giusep": 5767,
      "background": 5768,
      "subsequ": 5769,
      "Bobby": 5770,
      "contempor": 5771,
      "football": 5772,
      "Wasn": 5773,
      "Hallucin": 5774,
      "Reginald": 5775,
      "Making": 5776,
      "decided": 5777,
      "Namrata": 5778,
      "girls": 5779,
      "ayanan": 5780,
      "halkov": 5781,
      "single": 5782,
      "market": 5783,
      "Musical": 5784,
      "Alfonso": 5785,
      "Dunam": 5786,
      "Ilaiy": 5787,
      "Gilles": 5788,
      "Puerto": 5789,
      "times": 5790,
      "Screenplay": 5791,
      "Kalpan": 5792,
      "Kiran": 5793,
      "Mikhalkov": 5794,
      "Maurice": 5795,
      "Sathabdam": 5796,
      "Ferr": 5797,
      "Heart": 5798,
      "treme": 5799,
      "Antonio": 5800,
      "Damon": 5801,
      "involved": 5802,
      "Vietnamese": 5803,
      "Joris": 5804,
      "Jorge": 5805,
      "Punj": 5806,
      "help": 5807,
      "profess": 5808,
      "Esmer": 5809,
      "Gonz": 5810,
      "Hawkins": 5811,
      "Hungarian": 5812,
      "Kiarost": 5813,
      "Nicole": 5814,
      "campagne": 5815,
      "pandemic": 5816,
      "because": 5817,
      "episode": 5818,
      "episodes": 5819,
      "Jamie": 5820,
      "setting": 5821,
      "Philadelph": 5822,
      "Visnaa": 5823,
      "community": 5824,
      "husband": 5825,
      "respectively": 5826,
      "Martyr": 5827,
      "Schmidt": 5828,
      "Egyptian": 5829,
      "Klaus": 5830,
      "Ostagar": 5831,
      "videos": 5832,
      "initially": 5833,
      "intended": 5834,
      "controvers": 5835,
      "Javier": 5836,
      "experiences": 5837,
      "Curtis": 5838,
      "Drive": 5839,
      "Pattie": 5840,
      "Rasheed": 5841,
      "Version": 5842,
      "Dhehaas": 5843,
      "Written": 5844,
      "Margaret": 5845,
      "apartment": 5846,
      "trapped": 5847,
      "reprising": 5848,
      "Shirley": 5849,
      "Degree": 5850,
      "Library": 5851,
      "Claudia": 5852,
      "kidnapp": 5853,
      "COVID": 5854,
      "Elizabeth": 5855,
      "Gómez": 5856,
      "Gladiators": 5857,
      "Hazaar": 5858,
      "Olymp": 5859,
      "Stupid": 5860,
      "Thailand": 5861,
      "Thalaiv": 5862,
      "Arrogant": 5863,
      "Spencer": 5864,
      "Scaffolds": 5865,
      "Apoorva": 5866,
      "Américas": 5867,
      "individu": 5868,
      "Babluani": 5869,
      "Giovanni": 5870,
      "Giuseppe": 5871,
      "Hallucinatory": 5872,
      "Ilaiyaraaja": 5873,
      "Kalpanakal": 5874,
      "Kiarostami": 5875,
      "Philadelphia": 5876,
      "2L": 5877,
      "388": 5878,
      "420": 5879,
      "6th": 5880,
      "Ach": 5881,
      "ABC": 5882,
      "Bear": 5883,
      "Bart": 5884,
      "Bost": 5885,
      "Bhas": 5886,
      "Banc": 5887,
      "Bucks": 5888,
      "Cand": 5889,
      "Cos": 5890,
      "Cres": 5891,
      "Cine": 5892,
      "Cub": 5893,
      "Caj": 5894,
      "Das": 5895,
      "Dall": 5896,
      "Dunn": 5897,
      "ES": 5898,
      "Et": 5899,
      "Eji": 5900,
      "Erik": 5901,
      "Ewing": 5902,
      "Fi": 5903,
      "Fu": 5904,
      "Fid": 5905,
      "Fact": 5906,
      "Fah": 5907,
      "Fond": 5908,
      "Fiction": 5909,
      "Frag": 5910,
      "Friend": 5911,
      "Gand": 5912,
      "Gig": 5913,
      "Gee": 5914,
      "Hz": 5915,
      "Has": 5916,
      "Hag": 5917,
      "Hot": 5918,
      "Hee": 5919,
      "Hern": 5920,
      "Hoff": 5921,
      "Hamil": 5922,
      "Home": 5923,
      "Hotel": 5924,
      "Hunter": 5925,
      "IN": 5926,
      "Ily": 5927,
      "Iru": 5928,
      "Jy": 5929,
      "Jared": 5930,
      "Kin": 5931,
      "Kent": 5932,
      "Kot": 5933,
      "Kirst": 5934,
      "Lá": 5935,
      "Lik": 5936,
      "Loren": 5937,
      "MM": 5938,
      "Má": 5939,
      "Mam": 5940,
      "Mom": 5941,
      "Mess": 5942,
      "Mumb": 5943,
      "Mustaf": 5944,
      "Nev": 5945,
      "Nith": 5946,
      "Omar": 5947,
      "Oleg": 5948,
      "Ped": 5949,
      "Prom": 5950,
      "Poll": 5951,
      "Publ": 5952,
      "Penk": 5953,
      "Ry": 5954,
      "Rat": 5955,
      "Rem": 5956,
      "Rent": 5957,
      "Rup": 5958,
      "Rud": 5959,
      "Rabb": 5960,
      "Sir": 5961,
      "Sav": 5962,
      "Sud": 5963,
      "Sau": 5964,
      "Sven": 5965,
      "Tir": 5966,
      "Tang": 5967,
      "Tran": 5968,
      "Tob": 5969,
      "Tues": 5970,
      "Vitt": 5971,
      "Voor": 5972,
      "Whe": 5973,
      "Wild": 5974,
      "Yi": 5975,
      "Yoo": 5976,
      "aesthetic": 5977,
      "bar": 5978,
      "bri": 5979,
      "bike": 5980,
      "bbed": 5981,
      "cat": 5982,
      "cow": 5983,
      "doll": 5984,
      "dwin": 5985,
      "drug": 5986,
      "ek": 5987,
      "fund": 5988,
      "fif": 5989,
      "famous": 5990,
      "gest": 5991,
      "ght": 5992,
      "hop": 5993,
      "jad": 5994,
      "killer": 5995,
      "lv": 5996,
      "lä": 5997,
      "lal": 5998,
      "lav": 5999,
      "latter": 6000,
      "may": 6001,
      "mut": 6002,
      "mass": 6003,
      "masters": 6004,
      "nu": 6005,
      "nell": 6006,
      "oop": 6007,
      "pin": 6008,
      "pal": 6009,
      "pel": 6010,
      "pay": 6011,
      "sw": 6012,
      "sus": 6013,
      "saw": 6014,
      "ux": 6015,
      "vind": 6016,
      "wen": 6017,
      "wel": 6018,
      "wants": 6019,
      "Álv": 6020,
      "és": 6021,
      "ña": 6022,
      "ödi": 6023,
      "üs": 6024,
      "dberg": 6025,
      "ining": 6026,
      "inde": 6027,
      "inik": 6028,
      "erman": 6029,
      "stry": 6030,
      "stop": 6031,
      "state": 6032,
      "stasy": 6033,
      "ilo": 6034,
      "ils": 6035,
      "rez": 6036,
      "reun": 6037,
      "once": 6038,
      "eds": 6039,
      "enge": 6040,
      "almost": 6041,
      "asim": 6042,
      "rieu": 6043,
      "isation": 6044,
      "escap": 6045,
      "escope": 6046,
      "roe": 6047,
      "road": 6048,
      "roft": 6049,
      "icide": 6050,
      "2040": 6051,
      "2049": 6052,
      "ofor": 6053,
      "hees": 6054,
      "head": 6055,
      "heav": 6056,
      "heist": 6057,
      "teran": 6058,
      "lee": 6059,
      "ayed": 6060,
      "ionally": 6061,
      "told": 6062,
      "raf": 6063,
      "osen": 6064,
      "dubbed": 6065,
      "writing": 6066,
      "embre": 6067,
      "olph": 6068,
      "provid": 6069,
      "adoss": 6070,
      "chall": 6071,
      "agi": 6072,
      "agn": 6073,
      "aghetti": 6074,
      "Cheng": 6075,
      "Chung": 6076,
      "Chron": 6077,
      "Stall": 6078,
      "Storm": 6079,
      "angi": 6080,
      "acquired": 6081,
      "oved": 6082,
      "ota": 6083,
      "ogh": 6084,
      "urer": 6085,
      "urally": 6086,
      "earned": 6087,
      "ocide": 6088,
      "shay": 6089,
      "shad": 6090,
      "shaw": 6091,
      "Shane": 6092,
      "Shyam": 6093,
      "Mariy": 6094,
      "Marathi": 6095,
      "ounc": 6096,
      "deals": 6097,
      "tens": 6098,
      "seok": 6099,
      "iah": 6100,
      "plac": 6101,
      "ploy": 6102,
      "Alli": 6103,
      "Alberto": 6104,
      "oda": 6105,
      "athy": 6106,
      "orey": 6107,
      "ained": 6108,
      "ohne": 6109,
      "edited": 6110,
      "Seg": 6111,
      "wards": 6112,
      "1848": 6113,
      "Deo": 6114,
      "concept": 6115,
      "dramat": 6116,
      "Untitled": 6117,
      "derick": 6118,
      "outside": 6119,
      "Leban": 6120,
      "Arb": 6121,
      "Arn": 6122,
      "Arlet": 6123,
      "Arjun": 6124,
      "Neill": 6125,
      "oking": 6126,
      "ivek": 6127,
      "serial": 6128,
      "preced": 6129,
      "ineau": 6130,
      "aware": 6131,
      "loor": 6132,
      "Rez": 6133,
      "tech": 6134,
      "pton": 6135,
      "Parrots": 6136,
      "ctions": 6137,
      "pez": 6138,
      "ernova": 6139,
      "mental": 6140,
      "woo": 6141,
      "othika": 6142,
      "ously": 6143,
      "inski": 6144,
      "uke": 6145,
      "uko": 6146,
      "icka": 6147,
      "icks": 6148,
      "Michel": 6149,
      "ordin": 6150,
      "Harald": 6151,
      "Spain": 6152,
      "Spaghetti": 6153,
      "Gerald": 6154,
      "Christensen": 6155,
      "Meyer": 6156,
      "portrays": 6157,
      "Abel": 6158,
      "Apples": 6159,
      "Apache": 6160,
      "Appeal": 6161,
      "Asian": 6162,
      "McG": 6163,
      "McDon": 6164,
      "McNam": 6165,
      "Malcol": 6166,
      "Norman": 6167,
      "aliz": 6168,
      "Georgian": 6169,
      "Richards": 6170,
      "Janet": 6171,
      "Steel": 6172,
      "475": 6173,
      "Amber": 6174,
      "Brien": 6175,
      "trail": 6176,
      "Wei": 6177,
      "ometer": 6178,
      "anka": 6179,
      "Rajesh": 6180,
      "Rajkumar": 6181,
      "1937": 6182,
      "Corb": 6183,
      "Corp": 6184,
      "Corona": 6185,
      "Centimeters": 6186,
      "Emma": 6187,
      "88th": 6188,
      "Alek": 6189,
      "Patten": 6190,
      "Murray": 6191,
      "nomination": 6192,
      "Schwe": 6193,
      "posures": 6194,
      "Joel": 6195,
      "Benjamin": 6196,
      "debutant": 6197,
      "Baldwin": 6198,
      "Herz": 6199,
      "Upon": 6200,
      "yler": 6201,
      "ucci": 6202,
      "101st": 6203,
      "Tomas": 6204,
      "Madhu": 6205,
      "Perlman": 6206,
      "Ramakrish": 6207,
      "Extermin": 6208,
      "Extreme": 6209,
      "Exposures": 6210,
      "uguese": 6211,
      "Evan": 6212,
      "Sanjay": 6213,
      "Cinematograph": 6214,
      "Priya": 6215,
      "Karl": 6216,
      "Palest": 6217,
      "hua": 6218,
      "Darren": 6219,
      "Delaware": 6220,
      "Khoo": 6221,
      "Salim": 6222,
      "Salma": 6223,
      "Salomon": 6224,
      "regard": 6225,
      "Ruin": 6226,
      "showed": 6227,
      "64th": 6228,
      "Akshay": 6229,
      "Glass": 6230,
      "Techn": 6231,
      "Sundaram": 6232,
      "Farida": 6233,
      "urai": 6234,
      "consist": 6235,
      "baum": 6236,
      "Stevens": 6237,
      "quez": 6238,
      "Angelo": 6239,
      "historically": 6240,
      "Middle": 6241,
      "ragaz": 6242,
      "Flor": 6243,
      "Flights": 6244,
      "spel": 6245,
      "Godfather": 6246,
      "Noel": 6247,
      "submission": 6248,
      "Supernova": 6249,
      "Buen": 6250,
      "Buena": 6251,
      "mainly": 6252,
      "praising": 6253,
      "experience": 6254,
      "Croat": 6255,
      "diffic": 6256,
      "Sonia": 6257,
      "contribut": 6258,
      "Grover": 6259,
      "Wilford": 6260,
      "finds": 6261,
      "Gramam": 6262,
      "Mahesh": 6263,
      "Siddh": 6264,
      "Denis": 6265,
      "Dutta": 6266,
      "1897": 6267,
      "teenage": 6268,
      "Deepak": 6269,
      "Castro": 6270,
      "flicka": 6271,
      "Registry": 6272,
      "Makun": 6273,
      "discover": 6274,
      "officer": 6275,
      "Haytham": 6276,
      "legend": 6277,
      "lynn": 6278,
      "depicting": 6279,
      "Narayanan": 6280,
      "Tribeca": 6281,
      "half": 6282,
      "Chandra": 6283,
      "Warrior": 6284,
      "Randy": 6285,
      "culturally": 6286,
      "Nikita": 6287,
      "Traue": 6288,
      "Everett": 6289,
      "Jaime": 6290,
      "Kyle": 6291,
      "Travesty": 6292,
      "uttikal": 6293,
      "Sinan": 6294,
      "college": 6295,
      "recorded": 6296,
      "Portuguese": 6297,
      "Boxes": 6298,
      "Gorō": 6299,
      "dicembre": 6300,
      "Isabel": 6301,
      "ARY": 6302,
      "Cristina": 6303,
      "Ibn": 6304,
      "Punk": 6305,
      "Choice": 6306,
      "Joanne": 6307,
      "Rodriguez": 6308,
      "Basil": 6309,
      "Bryan": 6310,
      "Mandarin": 6311,
      "Weekend": 6312,
      "Gonchar": 6313,
      "Tiwari": 6314,
      "styliz": 6315,
      "iggs": 6316,
      "Montreal": 6317,
      "Jesse": 6318,
      "inferno": 6319,
      "1980s": 6320,
      "Webb": 6321,
      "Bands": 6322,
      "Géla": 6323,
      "Gérard": 6324,
      "Grandmasters": 6325,
      "Pacino": 6326,
      "Urugu": 6327,
      "Collection": 6328,
      "Israeli": 6329,
      "Gujral": 6330,
      "Brazilian": 6331,
      "Greek": 6332,
      "Kubrick": 6333,
      "Lankan": 6334,
      "Zwie": 6335,
      "details": 6336,
      "killed": 6337,
      "industry": 6338,
      "robber": 6339,
      "Morocco": 6340,
      "possible": 6341,
      "Austria": 6342,
      "Betty": 6343,
      "Ecstasy": 6344,
      "Kids": 6345,
      "Persian": 6346,
      "Songs": 6347,
      "magazine": 6348,
      "Francesco": 6349,
      "Carrot": 6350,
      "Phillips": 6351,
      "simply": 6352,
      "Jessica": 6353,
      "Kilometer": 6354,
      "Ridley": 6355,
      "Zhang": 6356,
      "occurred": 6357,
      "Bharath": 6358,
      "Farmhouse": 6359,
      "Gossel": 6360,
      "Globe": 6361,
      "Komödi": 6362,
      "Rhys": 6363,
      "nationwide": 6364,
      "prominent": 6365,
      "Inventions": 6366,
      "onymous": 6367,
      "Bulgarian": 6368,
      "journalist": 6369,
      "Clifford": 6370,
      "Díaz": 6371,
      "Radha": 6372,
      "Sengupta": 6373,
      "dragspel": 6374,
      "influ": 6375,
      "Reynolds": 6376,
      "Weissman": 6377,
      "Emmanu": 6378,
      "Edoardo": 6379,
      "professional": 6380,
      "Thalaivangi": 6381,
      "2LDK": 6382,
      "Bhaskar": 6383,
      "Bancroft": 6384,
      "Ejiofor": 6385,
      "Fonda": 6386,
      "Hamilton": 6387,
      "Jyothika": 6388,
      "Mumbai": 6389,
      "Mustafa": 6390,
      "Nithya": 6391,
      "Penkuttikal": 6392,
      "Rabbit": 6393,
      "Voorhees": 6394,
      "Wheel": 6395,
      "aesthetically": 6396,
      "challeng": 6397,
      "Mariyam": 6398,
      "Arletta": 6399,
      "McNamara": 6400,
      "Malcolm": 6401,
      "Exterminate": 6402,
      "Siddharth": 6403,
      "stylized": 6404,
      "Komödiant": 6405,
      "033": 6406,
      "1Up": 6407,
      "5150": 6408,
      "79": 6409,
      "713": 6410,
      "Aff": 6411,
      "AID": 6412,
      "BI": 6413,
      "Bav": 6414,
      "Bram": 6415,
      "Bong": 6416,
      "Bud": 6417,
      "Bok": 6418,
      "Both": 6419,
      "Bite": 6420,
      "BAF": 6421,
      "CJ": 6422,
      "Cus": 6423,
      "Cli": 6424,
      "Coll": 6425,
      "Cze": 6426,
      "Cohn": 6427,
      "Cullen": 6428,
      "Dh": 6429,
      "Dim": 6430,
      "Dill": 6431,
      "Dum": 6432,
      "Dur": 6433,
      "Dell": 6434,
      "Dong": 6435,
      "Dana": 6436,
      "Dhu": 6437,
      "Diana": 6438,
      "Ep": 6439,
      "Ein": 6440,
      "FC": 6441,
      "FE": 6442,
      "Fong": 6443,
      "Frit": 6444,
      "Fame": 6445,
      "Fors": 6446,
      "Foot": 6447,
      "Fitz": 6448,
      "Gard": 6449,
      "Game": 6450,
      "Gene": 6451,
      "Gelo": 6452,
      "Gift": 6453,
      "Gogh": 6454,
      "Hem": 6455,
      "Hum": 6456,
      "Hath": 6457,
      "Haj": 6458,
      "Hund": 6459,
      "Hunt": 6460,
      "Iv": 6461,
      "IFC": 6462,
      "Jas": 6463,
      "Jang": 6464,
      "Kus": 6465,
      "Kend": 6466,
      "Kob": 6467,
      "Klos": 6468,
      "Lé": 6469,
      "Ló": 6470,
      "Lum": 6471,
      "Loc": 6472,
      "Light": 6473,
      "Lup": 6474,
      "Latt": 6475,
      "Living": 6476,
      "Lives": 6477,
      "MS": 6478,
      "Mov": 6479,
      "Mith": 6480,
      "Mate": 6481,
      "Mothers": 6482,
      "Nana": 6483,
      "Niles": 6484,
      "Nelson": 6485,
      "Own": 6486,
      "Pir": 6487,
      "Pap": 6488,
      "Pod": 6489,
      "Pop": 6490,
      "Pist": 6491,
      "Pere": 6492,
      "Penn": 6493,
      "Poon": 6494,
      "Pete": 6495,
      "Ran": 6496,
      "Res": 6497,
      "Rom": 6498,
      "Rang": 6499,
      "Rican": 6500,
      "Renn": 6501,
      "Rolf": 6502,
      "Rita": 6503,
      "Sie": 6504,
      "Sip": 6505,
      "Sign": 6506,
      "Sán": 6507,
      "TA": 6508,
      "Tit": 6509,
      "Till": 6510,
      "Tog": 6511,
      "Take": 6512,
      "Tuss": 6513,
      "True": 6514,
      "Um": 6515,
      "Ufan": 6516,
      "Vern": 6517,
      "Vana": 6518,
      "Viley": 6519,
      "Vohra": 6520,
      "Wan": 6521,
      "Yak": 6522,
      "Yann": 6523,
      "Yuri": 6524,
      "Zee": 6525,
      "aign": 6526,
      "bing": 6527,
      "bes": 6528,
      "bank": 6529,
      "bigg": 6530,
      "cra": 6531,
      "cross": 6532,
      "case": 6533,
      "dog": 6534,
      "doc": 6535,
      "dark": 6536,
      "dvar": 6537,
      "ei": 6538,
      "eal": 6539,
      "fd": 6540,
      "fu": 6541,
      "fst": 6542,
      "fav": 6543,
      "fact": 6544,
      "für": 6545,
      "gde": 6546,
      "glo": 6547,
      "hr": 6548,
      "hak": 6549,
      "hood": 6550,
      "hotel": 6551,
      "ias": 6552,
      "ique": 6553,
      "jul": 6554,
      "ked": 6555,
      "kash": 6556,
      "local": 6557,
      "lüs": 6558,
      "mad": 6559,
      "mach": 6560,
      "male": 6561,
      "nio": 6562,
      "nier": 6563,
      "pent": 6564,
      "press": 6565,
      "paid": 6566,
      "rn": 6567,
      "ration": 6568,
      "rone": 6569,
      "running": 6570,
      "sold": 6571,
      "spi": 6572,
      "soon": 6573,
      "till": 6574,
      "test": 6575,
      "tour": 6576,
      "tele": 6577,
      "tries": 6578,
      "ua": 6579,
      "uto": 6580,
      "utos": 6581,
      "vas": 6582,
      "vig": 6583,
      "vall": 6584,
      "vian": 6585,
      "village": 6586,
      "wi": 6587,
      "wang": 6588,
      "x10": 6589,
      "yin": 6590,
      "yama": 6591,
      "zak": 6592,
      "zman": 6593,
      "zemen": 6594,
      "Öz": 6595,
      "ías": 6596,
      "íne": 6597,
      "ет": 6598,
      "inz": 6599,
      "inne": 6600,
      "anor": 6601,
      "ering": 6602,
      "arch": 6603,
      "streaming": 6604,
      "strug": 6605,
      "things": 6606,
      "thought": 6607,
      "reat": 6608,
      "ening": 6609,
      "atively": 6610,
      "andra": 6611,
      "andez": 6612,
      "cting": 6613,
      "ctor": 6614,
      "ctive": 6615,
      "isi": 6616,
      "espe": 6617,
      "icy": 6618,
      "icz": 6619,
      "itally": 6620,
      "ampi": 6621,
      "Them": 6622,
      "Theo": 6623,
      "total": 6624,
      "1941": 6625,
      "1905": 6626,
      "rait": 6627,
      "duo": 6628,
      "utti": 6629,
      "user": 6630,
      "olin": 6631,
      "olini": 6632,
      "ado": 6633,
      "chard": 6634,
      "chart": 6635,
      "agu": 6636,
      "aging": 6637,
      "unes": 6638,
      "ety": 6639,
      "etje": 6640,
      "iver": 6641,
      "Chaw": 6642,
      "Chenn": 6643,
      "Chance": 6644,
      "Chody": 6645,
      "Channel": 6646,
      "Chaser": 6647,
      "Chains": 6648,
      "idence": 6649,
      "Stand": 6650,
      "Stone": 6651,
      "State": 6652,
      "import": 6653,
      "imately": 6654,
      "angal": 6655,
      "forced": 6656,
      "oven": 6657,
      "aku": 6658,
      "akul": 6659,
      "owley": 6660,
      "ogn": 6661,
      "ership": 6662,
      "evan": 6663,
      "1014": 6664,
      "10x10": 6665,
      "Intern": 6666,
      "alli": 6667,
      "earlier": 6668,
      "ociation": 6669,
      "actual": 6670,
      "Anita": 6671,
      "Shan": 6672,
      "Marin": 6673,
      "dez": 6674,
      "neo": 6675,
      "pling": 6676,
      "planned": 6677,
      "rama": 6678,
      "Alice": 6679,
      "Alert": 6680,
      "Although": 6681,
      "bec": 6682,
      "becoming": 6683,
      "begin": 6684,
      "becomes": 6685,
      "behind": 6686,
      "atha": 6687,
      "301": 6688,
      "302": 6689,
      "3022": 6690,
      "Ther": 6691,
      "Thor": 6692,
      "Thong": 6693,
      "artists": 6694,
      "22g": 6695,
      "upathi": 6696,
      "ugadoss": 6697,
      "Americans": 6698,
      "qual": 6699,
      "Deb": 6700,
      "Debor": 6701,
      "conne": 6702,
      "contra": 6703,
      "Union": 6704,
      "Unknown": 6705,
      "Leg": 6706,
      "Leah": 6707,
      "Leung": 6708,
      "Armand": 6709,
      "Johar": 6710,
      "pread": 6711,
      "Reza": 6712,
      "aji": 6713,
      "area": 6714,
      "code": 6715,
      "Franz": 6716,
      "attan": 6717,
      "Micha": 6718,
      "Michelle": 6719,
      "ifa": 6720,
      "Beery": 6721,
      "Beetje": 6722,
      "Carn": 6723,
      "Carr": 6724,
      "Carmen": 6725,
      "Carrie": 6726,
      "Pep": 6727,
      "Peaks": 6728,
      "meet": 6729,
      "Spike": 6730,
      "player": 6731,
      "azon": 6732,
      "aney": 6733,
      "election": 6734,
      "Andy": 6735,
      "1972": 6736,
      "achi": 6737,
      "Christina": 6738,
      "screening": 6739,
      "keinem": 6740,
      "revenge": 6741,
      "Feat": 6742,
      "Aparna": 6743,
      "Newman": 6744,
      "Manoj": 6745,
      "Jung": 6746,
      "Acres": 6747,
      "Mayam": 6748,
      "Project": 6749,
      "Hegde": 6750,
      "Heinz": 6751,
      "shortly": 6752,
      "hash": 6753,
      "Normal": 6754,
      "appa": 6755,
      "appears": 6756,
      "Morrison": 6757,
      "compared": 6758,
      "Stewart": 6759,
      "27A": 6760,
      "Amal": 6761,
      "Amrit": 6762,
      "Amazon": 6763,
      "Color": 6764,
      "trag": 6765,
      "Ismail": 6766,
      "piracy": 6767,
      "Raja": 6768,
      "Rajat": 6769,
      "Rajinik": 6770,
      "1932": 6771,
      "actions": 6772,
      "iera": 6773,
      "Emily": 6774,
      "Constant": 6775,
      "Coins": 6776,
      "Murugadoss": 6777,
      "Schlüs": 6778,
      "8090": 6779,
      "living": 6780,
      "veteran": 6781,
      "risis": 6782,
      "Bhat": 6783,
      "Guild": 6784,
      "minutos": 6785,
      "debuted": 6786,
      "genocide": 6787,
      "super": 6788,
      "elsen": 6789,
      "elsohn": 6790,
      "ize": 6791,
      "izing": 6792,
      "crim": 6793,
      "Avengers": 6794,
      "Balbon": 6795,
      "Herzel": 6796,
      "suicide": 6797,
      "Sharon": 6798,
      "Bailey": 6799,
      "Russia": 6800,
      "club": 6801,
      "paro": 6802,
      "parody": 6803,
      "chez": 6804,
      "Smart": 6805,
      "epic": 6806,
      "Explic": 6807,
      "Sheher": 6808,
      "going": 6809,
      "selves": 6810,
      "winner": 6811,
      "marines": 6812,
      "married": 6813,
      "schland": 6814,
      "schlä": 6815,
      "interest": 6816,
      "ilding": 6817,
      "Myers": 6818,
      "Prison": 6819,
      "Ghai": 6820,
      "Ghaint": 6821,
      "Joshua": 6822,
      "liefd": 6823,
      "worked": 6824,
      "Suj": 6825,
      "Delights": 6826,
      "Khanna": 6827,
      "Salv": 6828,
      "Garner": 6829,
      "Princ": 6830,
      "Ruby": 6831,
      "Glover": 6832,
      "performed": 6833,
      "president": 6834,
      "preserv": 6835,
      "Times": 6836,
      "Toro": 6837,
      "colpi": 6838,
      "Shaolin": 6839,
      "Cheung": 6840,
      "708090": 6841,
      "Beloved": 6842,
      "instead": 6843,
      "Desert": 6844,
      "Martino": 6845,
      "appearance": 6846,
      "Babu": 6847,
      "MacDonald": 6848,
      "Macedon": 6849,
      "speaking": 6850,
      "Koen": 6851,
      "Angela": 6852,
      "Flora": 6853,
      "Sergio": 6854,
      "Suman": 6855,
      "Magn": 6856,
      "Verliefd": 6857,
      "Varman": 6858,
      "themes": 6859,
      "themselves": 6860,
      "Crow": 6861,
      "Sarath": 6862,
      "Ashok": 6863,
      "Ashley": 6864,
      "Edwards": 6865,
      "itzer": 6866,
      "memoir": 6867,
      "songs": 6868,
      "weeks": 6869,
      "guer": 6870,
      "Massey": 6871,
      "Prakash": 6872,
      "Lynch": 6873,
      "Regard": 6874,
      "Burm": 6875,
      "Starring": 6876,
      "Renzo": 6877,
      "general": 6878,
      "delayed": 6879,
      "Brent": 6880,
      "Falling": 6881,
      "Impossible": 6882,
      "Chandler": 6883,
      "Bronzemen": 6884,
      "Saak": 6885,
      "could": 6886,
      "couple": 6887,
      "Leonid": 6888,
      "Broadcast": 6889,
      "Nihil": 6890,
      "culture": 6891,
      "Sherlock": 6892,
      "Victoria": 6893,
      "standard": 6894,
      "Indonesia": 6895,
      "Boseman": 6896,
      "Bosworth": 6897,
      "aumont": 6898,
      "affair": 6899,
      "Brooke": 6900,
      "Created": 6901,
      "Fernán": 6902,
      "Natkal": 6903,
      "Preston": 6904,
      "beln": 6905,
      "oulos": 6906,
      "Jae": 6907,
      "Subhash": 6908,
      "Tattoo": 6909,
      "humor": 6910,
      "trip": 6911,
      "references": 6912,
      "Blooper": 6913,
      "driver": 6914,
      "Limo": 6915,
      "Originally": 6916,
      "Selva": 6917,
      "current": 6918,
      "Marieke": 6919,
      "Oddvar": 6920,
      "Gracia": 6921,
      "Pascal": 6922,
      "Searchlight": 6923,
      "centers": 6924,
      "cenzo": 6925,
      "principal": 6926,
      "digitally": 6927,
      "1950s": 6928,
      "developed": 6929,
      "Kerala": 6930,
      "Mandy": 6931,
      "Nicolas": 6932,
      "Oswald": 6933,
      "Kraus": 6934,
      "Moscow": 6935,
      "Tisca": 6936,
      "pense": 6937,
      "Countries": 6938,
      "Hiroki": 6939,
      "Ohio": 6940,
      "burg": 6941,
      "motion": 6942,
      "protest": 6943,
      "protagon": 6944,
      "Kōji": 6945,
      "eventually": 6946,
      "response": 6947,
      "shooting": 6948,
      "Gibson": 6949,
      "Mendelsohn": 6950,
      "Sylv": 6951,
      "Venkates": 6952,
      "course": 6953,
      "organiz": 6954,
      "autobiographical": 6955,
      "attacks": 6956,
      "Bertrand": 6957,
      "programme": 6958,
      "birthday": 6959,
      "assassination": 6960,
      "Bhagat": 6961,
      "Critics": 6962,
      "Cobbers": 6963,
      "Hopkins": 6964,
      "Kishore": 6965,
      "whether": 6966,
      "Emilio": 6967,
      "Benedict": 6968,
      "Carey": 6969,
      "pregnancy": 6970,
      "Certain": 6971,
      "Dragon": 6972,
      "Kaiba": 6973,
      "Uzbek": 6974,
      "ícula": 6975,
      "orcism": 6976,
      "accepted": 6977,
      "average": 6978,
      "Showtime": 6979,
      "Deutschland": 6980,
      "Records": 6981,
      "Maldivian": 6982,
      "subsequently": 6983,
      "Crescenzo": 6984,
      "Cajun": 6985,
      "Fragments": 6986,
      "Gandhi": 6987,
      "Hernandez": 6988,
      "Hoffman": 6989,
      "Pedro": 6990,
      "Promises": 6991,
      "película": 6992,
      "suspense": 6993,
      "Chronology": 6994,
      "Allied": 6995,
      "Arbore": 6996,
      "ordinary": 6997,
      "alized": 6998,
      "trailer": 6999,
      "Herzfeld": 7000,
      "Palestinian": 7001,
      "consisting": 7002,
      "ragazze": 7003,
      "Florida": 7004,
      "Croatian": 7005,
      "difficult": 7006,
      "Uruguayan": 7007,
      "Zwiebeln": 7008,
      "Emmanuelle": 7009,
      "AIDS": 7010,
      "BAFTA": 7011,
      "Cusack": 7012,
      "Cliff": 7013,
      "Czech": 7014,
      "Dhuvas": 7015,
      "Geloof": 7016,
      "Hathaway": 7017,
      "Kloser": 7018,
      "López": 7019,
      "Sánchez": 7020,
      "Tussi": 7021,
      "Vileyrey": 7022,
      "biggest": 7023,
      "especially": 7024,
      "Chennai": 7025,
      "Chodyangal": 7026,
      "Internet": 7027,
      "beginning": 7028,
      "Deborah": 7029,
      "Rajinikanth": 7030,
      "Schlüssel": 7031,
      "Herzelinde": 7032,
      "Explicit": 7033,
      "schläfst": 7034,
      "preservation": 7035,
      "protagonist": 7036,
      "2gether": 7037,
      "321": 7038,
      "3pol": 7039,
      "5B": 7040,
      "616": 7041,
      "752": 7042,
      "87": 7043,
      "AT": 7044,
      "Aure": 7045,
      "Arav": 7046,
      "Bō": 7047,
      "Bent": 7048,
      "Bog": 7049,
      "Bast": 7050,
      "Benn": 7051,
      "Bond": 7052,
      "Burns": 7053,
      "Blier": 7054,
      "Cic": 7055,
      "Cout": 7056,
      "Counc": 7057,
      "Corey": 7058,
      "Dos": 7059,
      "Dust": 7060,
      "Esc": 7061,
      "Ela": 7062,
      "Fin": 7063,
      "Fay": 7064,
      "Fram": 7065,
      "From": 7066,
      "Five": 7067,
      "Fate": 7068,
      "Found": 7069,
      "Fif": 7070,
      "Fras": 7071,
      "FBI": 7072,
      "Gö": 7073,
      "Gam": 7074,
      "Gav": 7075,
      "Grig": 7076,
      "Gray": 7077,
      "Hou": 7078,
      "Holl": 7079,
      "Hob": 7080,
      "Hyam": 7081,
      "Hogan": 7082,
      "Huli": 7083,
      "Ira": 7084,
      "Ich": 7085,
      "Ice": 7086,
      "Ivan": 7087,
      "Ign": 7088,
      "Jai": 7089,
      "Jury": 7090,
      "Kr": 7091,
      "Kw": 7092,
      "Kilm": 7093,
      "Kas": 7094,
      "Kel": 7095,
      "Kit": 7096,
      "Kem": 7097,
      "Kun": 7098,
      "Kuk": 7099,
      "Kaul": 7100,
      "Korm": 7101,
      "KMS": 7102,
      "Lt": 7103,
      "Las": 7104,
      "Lav": 7105,
      "Lab": 7106,
      "Lai": 7107,
      "Line": 7108,
      "Lake": 7109,
      "Lenn": 7110,
      "Lover": 7111,
      "MG": 7112,
      "MP": 7113,
      "Main": 7114,
      "Mort": 7115,
      "Mai": 7116,
      "Mane": 7117,
      "MTV": 7118,
      "Mung": 7119,
      "Moss": 7120,
      "Master": 7121,
      "Major": 7122,
      "Nav": 7123,
      "Nap": 7124,
      "Nations": 7125,
      "Named": 7126,
      "Ngas": 7127,
      "Nazi": 7128,
      "Nuts": 7129,
      "Okin": 7130,
      "Ping": 7131,
      "Pis": 7132,
      "Pang": 7133,
      "Pill": 7134,
      "Pip": 7135,
      "Pitt": 7136,
      "Prem": 7137,
      "Rim": 7138,
      "Rish": 7139,
      "Roh": 7140,
      "Rip": 7141,
      "Rust": 7142,
      "Rens": 7143,
      "Rome": 7144,
      "Rights": 7145,
      "Renny": 7146,
      "Sz": 7147,
      "Som": 7148,
      "Sent": 7149,
      "Sig": 7150,
      "Sev": 7151,
      "Soc": 7152,
      "Sug": 7153,
      "Sob": 7154,
      "Ted": 7155,
      "Toh": 7156,
      "Top": 7157,
      "Toy": 7158,
      "Table": 7159,
      "Toni": 7160,
      "Tyler": 7161,
      "Vot": 7162,
      "Vanc": 7163,
      "Village": 7164,
      "Vivek": 7165,
      "Wing": 7166,
      "Wag": 7167,
      "Want": 7168,
      "Wend": 7169,
      "Woo": 7170,
      "Wrong": 7171,
      "Wadia": 7172,
      "Wahr": 7173,
      "Yip": 7174,
      "Yoon": 7175,
      "Yuki": 7176,
      "Zim": 7177,
      "Zack": 7178,
      "Zoo": 7179,
      "aon": 7180,
      "aur": 7181,
      "años": 7182,
      "bring": 7183,
      "bum": 7184,
      "bul": 7185,
      "bian": 7186,
      "bach": 7187,
      "burn": 7188,
      "cing": 7189,
      "cut": 7190,
      "cell": 7191,
      "cup": 7192,
      "cess": 7193,
      "cott": 7194,
      "circ": 7195,
      "cía": 7196,
      "covers": 7197,
      "dar": 7198,
      "dhar": 7199,
      "días": 7200,
      "een": 7201,
      "fre": 7202,
      "fig": 7203,
      "fac": 7204,
      "fred": 7205,
      "gie": 7206,
      "gren": 7207,
      "gins": 7208,
      "gained": 7209,
      "hn": 7210,
      "hoff": 7211,
      "hail": 7212,
      "ior": 7213,
      "iel": 7214,
      "ient": 7215,
      "iated": 7216,
      "jin": 7217,
      "jit": 7218,
      "jandro": 7219,
      "kl": 7220,
      "kle": 7221,
      "kow": 7222,
      "kanth": 7223,
      "khar": 7224,
      "len": 7225,
      "lack": 7226,
      "lene": 7227,
      "ller": 7228,
      "mis": 7229,
      "mou": 7230,
      "mos": 7231,
      "mig": 7232,
      "must": 7233,
      "mockbuster": 7234,
      "near": 7235,
      "normal": 7236,
      "pm": 7237,
      "pil": 7238,
      "put": 7239,
      "pag": 7240,
      "pun": 7241,
      "pir": 7242,
      "pow": 7243,
      "pie": 7244,
      "pati": 7245,
      "sin": 7246,
      "san": 7247,
      "sung": 7248,
      "sales": 7249,
      "south": 7250,
      "tan": 7251,
      "tman": 7252,
      "tte": 7253,
      "uth": 7254,
      "vy": 7255,
      "vict": 7256,
      "wim": 7257,
      "wai": 7258,
      "want": 7259,
      "wides": 7260,
      "xe": 7261,
      "yuki": 7262,
      "zers": 7263,
      "zzi": 7264,
      "ão": 7265,
      "één": 7266,
      "ów": 7267,
      "öm": 7268,
      "ński": 7269,
      "Šer": 7270,
      "žija": 7271,
      "iner": 7272,
      "inton": 7273,
      "anne": 7274,
      "erad": 7275,
      "arl": 7276,
      "aring": 7277,
      "ario": 7278,
      "sten": 7279,
      "stat": 7280,
      "stra": 7281,
      "stem": 7282,
      "states": 7283,
      "stated": 7284,
      "stock": 7285,
      "thal": 7286,
      "thus": 7287,
      "threat": 7288,
      "reasons": 7289,
      "ones": 7290,
      "orio": 7291,
      "orama": 7292,
      "educ": 7293,
      "enan": 7294,
      "enberg": 7295,
      "alleg": 7296,
      "alcohol": 7297,
      "these": 7298,
      "asher": 7299,
      "rival": 7300,
      "andan": 7301,
      "diri": 7302,
      "dies": 7303,
      "rock": 7304,
      "2030": 7305,
      "elin": 7306,
      "iting": 7307,
      "itution": 7308,
      "heit": 7309,
      "amar": 7310,
      "amir": 7311,
      "directly": 7312,
      "ouver": 7313,
      "term": 7314,
      "left": 7315,
      "ayo": 7316,
      "toon": 7317,
      "1928": 7318,
      "1949": 7319,
      "1946": 7320,
      "rahim": 7321,
      "osum": 7322,
      "utty": 7323,
      "olo": 7324,
      "olia": 7325,
      "adrat": 7326,
      "advert": 7327,
      "ager": 7328,
      "again": 7329,
      "aghavan": 7330,
      "unte": 7331,
      "etch": 7332,
      "etime": 7333,
      "igee": 7334,
      "igrams": 7335,
      "Chir": 7336,
      "Chik": 7337,
      "Chose": 7338,
      "Church": 7339,
      "idoo": 7340,
      "Stiles": 7341,
      "imal": 7342,
      "forman": 7343,
      "ovich": 7344,
      "ovsky": 7345,
      "estic": 7346,
      "ako": 7347,
      "aker": 7348,
      "otto": 7349,
      "urban": 7350,
      "iev": 7351,
      "ceived": 7352,
      "avi": 7353,
      "eves": 7354,
      "resh": 7355,
      "Ind": 7356,
      "Init": 7357,
      "Indo": 7358,
      "ianca": 7359,
      "acted": 7360,
      "activ": 7361,
      "Ana": 7362,
      "Ant": 7363,
      "Shu": 7364,
      "Shuk": 7365,
      "Marvin": 7366,
      "aband": 7367,
      "deau": 7368,
      "apt": 7369,
      "apted": 7370,
      "seg": 7371,
      "comment": 7372,
      "commen": 7373,
      "committed": 7374,
      "hta": 7375,
      "neigh": 7376,
      "nejo": 7377,
      "1232": 7378,
      "ryn": 7379,
      "plat": 7380,
      "ishop": 7381,
      "Aldri": 7382,
      "Altman": 7383,
      "bey": 7384,
      "athara": 7385,
      "elled": 7386,
      "arya": 7387,
      "13Hrs": 7388,
      "Seez": 7389,
      "iklab": 7390,
      "247": 7391,
      "Role": 7392,
      "Roots": 7393,
      "Roberto": 7394,
      "Rojul": 7395,
      "ahan": 7396,
      "quin": 7397,
      "udo": 7398,
      "udev": 7399,
      "Def": 7400,
      "21st": 7401,
      "anti": 7402,
      "Arm": 7403,
      "Arch": 7404,
      "Arquette": 7405,
      "Arvind": 7406,
      "owned": 7407,
      "Neal": 7408,
      "Netherland": 7409,
      "Neerad": 7410,
      "oks": 7411,
      "Johanna": 7412,
      "served": 7413,
      "prequel": 7414,
      "inez": 7415,
      "idea": 7416,
      "rity": 7417,
      "auer": 7418,
      "Rehman": 7419,
      "Reeves": 7420,
      "cker": 7421,
      "Parolini": 7422,
      "Minuten": 7423,
      "exam": 7424,
      "expand": 7425,
      "Davidi": 7426,
      "coinc": 7427,
      "storyline": 7428,
      "attention": 7429,
      "ukwu": 7430,
      "Club": 7431,
      "Bees": 7432,
      "Peas": 7433,
      "mean": 7434,
      "meter": 7435,
      "1967": 7436,
      "Harlin": 7437,
      "Block": 7438,
      "Blanc": 7439,
      "aneously": 7440,
      "eley": 7441,
      "Andr": 7442,
      "1762": 7443,
      "oyle": 7444,
      "nero": 7445,
      "nered": 7446,
      "Christie": 7447,
      "Mei": 7448,
      "Megan": 7449,
      "hero": 7450,
      "Dix": 7451,
      "issues": 7452,
      "issued": 7453,
      "ennis": 7454,
      "Newton": 7455,
      "McGra": 7456,
      "McCorm": 7457,
      "Mania": 7458,
      "receiving": 7459,
      "Junger": 7460,
      "Heather": 7461,
      "ondo": 7462,
      "shortlisted": 7463,
      "Mona": 7464,
      "Willy": 7465,
      "Willis": 7466,
      "aftermath": 7467,
      "47A": 7468,
      "Amit": 7469,
      "Sourav": 7470,
      "Soumit": 7471,
      "Elm": 7472,
      "Island": 7473,
      "MoPic": 7474,
      "Weis": 7475,
      "ungda": 7476,
      "Angus": 7477,
      "noted": 7478,
      "Cornejo": 7479,
      "create": 7480,
      "makers": 7481,
      "rigan": 7482,
      "Adapted": 7483,
      "Alejandro": 7484,
      "Cool": 7485,
      "Walks": 7486,
      "Walker": 7487,
      "Schwart": 7488,
      "808": 7489,
      "498": 7490,
      "Guest": 7491,
      "Goes": 7492,
      "lines": 7493,
      "typ": 7494,
      "relig": 7495,
      "Deva": 7496,
      "Devaraj": 7497,
      "iza": 7498,
      "ashant": 7499,
      "Ava": 7500,
      "Baltas": 7501,
      "Herbert": 7502,
      "Holt": 7503,
      "Sharman": 7504,
      "Upcoming": 7505,
      "ultaneously": 7506,
      "Organ": 7507,
      "Madness": 7508,
      "close": 7509,
      "slav": 7510,
      "Youth": 7511,
      "Matungda": 7512,
      "Period": 7513,
      "Raman": 7514,
      "borough": 7515,
      "ucka": 7516,
      "Acts": 7517,
      "Santo": 7518,
      "Skidoo": 7519,
      "Ghanta": 7520,
      "Palathara": 7521,
      "Quadrat": 7522,
      "Sule": 7523,
      "England": 7524,
      "Terence": 7525,
      "Teresa": 7526,
      "Salazar": 7527,
      "adul": 7528,
      "unners": 7529,
      "Garland": 7530,
      "Garcia": 7531,
      "García": 7532,
      "Prince": 7533,
      "Prashant": 7534,
      "Telescope": 7535,
      "porn": 7536,
      "porter": 7537,
      "shows": 7538,
      "Killari": 7539,
      "verse": 7540,
      "Glen": 7541,
      "Teen": 7542,
      "risha": 7543,
      "presents": 7544,
      "Ones": 7545,
      "Only": 7546,
      "Henri": 7547,
      "Torres": 7548,
      "color": 7549,
      "Cheh": 7550,
      "Stoll": 7551,
      "706": 7552,
      "Kenji": 7553,
      "Outstanding": 7554,
      "institution": 7555,
      "reality": 7556,
      "Northern": 7557,
      "ushū": 7558,
      "Swan": 7559,
      "Andrea": 7560,
      "Simran": 7561,
      "cameo": 7562,
      "financ": 7563,
      "news": 7564,
      "newcom": 7565,
      "Miri": 7566,
      "consider": 7567,
      "Nagesh": 7568,
      "Discover": 7569,
      "iyama": 7570,
      "Flight": 7571,
      "spin": 7572,
      "Tanaka": 7573,
      "Trobol": 7574,
      "Duvall": 7575,
      "buddy": 7576,
      "Cannon": 7577,
      "liter": 7578,
      "Annette": 7579,
      "translated": 7580,
      "Magic": 7581,
      "Croft": 7582,
      "Sonho": 7583,
      "focused": 7584,
      "Arabica": 7585,
      "banks": 7586,
      "Vasil": 7587,
      "Vasili": 7588,
      "memory": 7589,
      "Mahad": 7590,
      "Muker": 7591,
      "Sridhar": 7592,
      "lette": 7593,
      "forms": 7594,
      "Denise": 7595,
      "Dutt": 7596,
      "simultaneously": 7597,
      "Castell": 7598,
      "ditional": 7599,
      "Makes": 7600,
      "Released": 7601,
      "bedžija": 7602,
      "ency": 7603,
      "discovers": 7604,
      "poom": 7605,
      "commercially": 7606,
      "Brendan": 7607,
      "Naresh": 7608,
      "Narasim": 7609,
      "Yuen": 7610,
      "Hole": 7611,
      "marking": 7612,
      "voic": 7613,
      "Reyes": 7614,
      "Azifa": 7615,
      "Nielsen": 7616,
      "Panahi": 7617,
      "Randolph": 7618,
      "Sherman": 7619,
      "Break": 7620,
      "Bolt": 7621,
      "Duncan": 7622,
      "Giann": 7623,
      "Mills": 7624,
      "Milligrams": 7625,
      "Nikol": 7626,
      "Takah": 7627,
      "Philippine": 7628,
      "Gopal": 7629,
      "Linda": 7630,
      "Lindsey": 7631,
      "middle": 7632,
      "Rossi": 7633,
      "weekly": 7634,
      "Creations": 7635,
      "Frederick": 7636,
      "timate": 7637,
      "1970s": 7638,
      "breaks": 7639,
      "Bradford": 7640,
      "Bloom": 7641,
      "Bloody": 7642,
      "Mikhail": 7643,
      "collection": 7644,
      "asiri": 7645,
      "Callosum": 7646,
      "Jagd": 7647,
      "classic": 7648,
      "Ibrahim": 7649,
      "Pasiklab": 7650,
      "Saini": 7651,
      "false": 7652,
      "print": 7653,
      "Sethupathi": 7654,
      "development": 7655,
      "89th": 7656,
      "Kathryn": 7657,
      "Miranda": 7658,
      "Ultimate": 7659,
      "578": 7660,
      "Besant": 7661,
      "Griff": 7662,
      "Hirani": 7663,
      "Nigeria": 7664,
      "campaign": 7665,
      "Butler": 7666,
      "Hilton": 7667,
      "justice": 7668,
      "soldiers": 7669,
      "Martíne": 7670,
      "Hughes": 7671,
      "building": 7672,
      "gotten": 7673,
      "happened": 7674,
      "network": 7675,
      "McCr": 7676,
      "Jewison": 7677,
      "violent": 7678,
      "violence": 7679,
      "Costner": 7680,
      "Kōichi": 7681,
      "Mohanlal": 7682,
      "Felix": 7683,
      "Trejo": 7684,
      "Vidhu": 7685,
      "rapper": 7686,
      "Gujar": 7687,
      "Cruz": 7688,
      "Fukushū": 7689,
      "Ludin": 7690,
      "Padilla": 7691,
      "Sylvia": 7692,
      "grass": 7693,
      "portrayed": 7694,
      "Bacon": 7695,
      "Canton": 7696,
      "Viva": 7697,
      "ruti": 7698,
      "satiric": 7699,
      "western": 7700,
      "addition": 7701,
      "additional": 7702,
      "concern": 7703,
      "Fisher": 7704,
      "Nadine": 7705,
      "Pierson": 7706,
      "business": 7707,
      "cancer": 7708,
      "Matsuyama": 7709,
      "Sathyaraj": 7710,
      "Courtney": 7711,
      "Breslow": 7712,
      "Burnat": 7713,
      "Fleischer": 7714,
      "Idris": 7715,
      "changes": 7716,
      "results": 7717,
      "Marshall": 7718,
      "Abdulla": 7719,
      "Suzuki": 7720,
      "greatest": 7721,
      "Cartas": 7722,
      "Dyke": 7723,
      "Ganesh": 7724,
      "Reliance": 7725,
      "herself": 7726,
      "ákur": 7727,
      "Intertitle": 7728,
      "Malasana": 7729,
      "Valentin": 7730,
      "contemporary": 7731,
      "Ferrara": 7732,
      "Punjabi": 7733,
      "kidnapped": 7734,
      "Geezers": 7735,
      "Hotstar": 7736,
      "Kotz": 7737,
      "Likas": 7738,
      "Lorenzo": 7739,
      "Tuesdays": 7740,
      "Vittorio": 7741,
      "dollari": 7742,
      "welve": 7743,
      "Álvaro": 7744,
      "escape": 7745,
      "heavily": 7746,
      "ployed": 7747,
      "Lebanese": 7748,
      "techni": 7749,
      "Corbett": 7750,
      "Corpus": 7751,
      "Middleton": 7752,
      "Goncharov": 7753,
      "Bongaon": 7754,
      "Collins": 7755,
      "Forsy": 7756,
      "Pirates": 7757,
      "Pistol": 7758,
      "Rennie": 7759,
      "machine": 7760,
      "spirit": 7761,
      "Prisoners": 7762,
      "Princess": 7763,
      "Burmese": 7764,
      "orcisms": 7765,
      "Bōken": 7766,
      "Council": 7767,
      "Frames": 7768,
      "Hyams": 7769,
      "Kilmer": 7770,
      "Kormákur": 7771,
      "MPH": 7772,
      "Mungiu": 7773,
      "Ngasigee": 7774,
      "Okinawa": 7775,
      "Rensil": 7776,
      "Toho": 7777,
      "Vancouver": 7778,
      "Wagner": 7779,
      "Wahrheit": 7780,
      "Šerbedžija": 7781,
      "Aldrich": 7782,
      "Seezan": 7783,
      "Netherlands": 7784,
      "McGrath": 7785,
      "Soumitra": 7786,
      "Baltasar": 7787,
      "Organisation": 7788,
      "Quadratmeter": 7789,
      "Discovery": 7790,
      "Martínez": 7791,
      "(\"": 7792,
      "2by": 7793,
      "4Ch": 7794,
      "465": 7795,
      "4gotten": 7796,
      "5ive": 7797,
      "63": 7798,
      "78": 7799,
      "8MM": 7800,
      "Ax": 7801,
      "Ast": 7802,
      "Are": 7803,
      "Aish": 7804,
      "Ats": 7805,
      "Ayo": 7806,
      "Aidan": 7807,
      "Bé": 7808,
      "Bag": 7809,
      "Bow": 7810,
      "Bass": 7811,
      "Bates": 7812,
      "Billion": 7813,
      "Bank": 7814,
      "Buck": 7815,
      "Bush": 7816,
      "Biggs": 7817,
      "Cri": 7818,
      "Cates": 7819,
      "Cind": 7820,
      "Cox": 7821,
      "Camil": 7822,
      "Center": 7823,
      "Coster": 7824,
      "DJ": 7825,
      "Dom": 7826,
      "Dion": 7827,
      "Dir": 7828,
      "Doc": 7829,
      "Dup": 7830,
      "Date": 7831,
      "Dick": 7832,
      "Dante": 7833,
      "Doyle": 7834,
      "Dennis": 7835,
      "Ei": 7836,
      "Edu": 7837,
      "Eid": 7838,
      "Eros": 7839,
      "Eli": 7840,
      "Etern": 7841,
      "Eve": 7842,
      "Earl": 7843,
      "Fon": 7844,
      "Feld": 7845,
      "Flet": 7846,
      "Fré": 7847,
      "Fried": 7848,
      "Fanning": 7849,
      "Frog": 7850,
      "Finn": 7851,
      "Fischer": 7852,
      "Feder": 7853,
      "Floor": 7854,
      "Gy": 7855,
      "Gas": 7856,
      "Gem": 7857,
      "Gus": 7858,
      "Gir": 7859,
      "Gab": 7860,
      "Genn": 7861,
      "Gross": 7862,
      "Gries": 7863,
      "Gustaf": 7864,
      "Gaumont": 7865,
      "Hut": 7866,
      "Hus": 7867,
      "Hid": 7868,
      "Hod": 7869,
      "Hug": 7870,
      "Here": 7871,
      "Hub": 7872,
      "Hind": 7873,
      "Huss": 7874,
      "Hoot": 7875,
      "Hurt": 7876,
      "Hospital": 7877,
      "Hwang": 7878,
      "IV": 7879,
      "Iz": 7880,
      "Iñ": 7881,
      "Ima": 7882,
      "IFF": 7883,
      "IMA": 7884,
      "JC": 7885,
      "Jin": 7886,
      "Jia": 7887,
      "Jaid": 7888,
      "Kes": 7889,
      "Kle": 7890,
      "Ket": 7891,
      "Kie": 7892,
      "Kall": 7893,
      "Kear": 7894,
      "Koth": 7895,
      "Kark": 7896,
      "Karth": 7897,
      "Krue": 7898,
      "Kenny": 7899,
      "Lan": 7900,
      "Lat": 7901,
      "Lit": 7902,
      "Lion": 7903,
      "Lach": 7904,
      "Lung": 7905,
      "Ladd": 7906,
      "Logan": 7907,
      "Mall": 7908,
      "Mia": 7909,
      "Math": 7910,
      "Mell": 7911,
      "Most": 7912,
      "Mond": 7913,
      "Mash": 7914,
      "Mrs": 7915,
      "Mafia": 7916,
      "Né": 7917,
      "Non": 7918,
      "Nit": 7919,
      "Nish": 7920,
      "Nah": 7921,
      "Nass": 7922,
      "Naf": 7923,
      "Nord": 7924,
      "Naz": 7925,
      "Norton": 7926,
      "Og": 7927,
      "Op": 7928,
      "Oph": 7929,
      "Oru": 7930,
      "Pam": 7931,
      "Pul": 7932,
      "Past": 7933,
      "Pinto": 7934,
      "PBS": 7935,
      "Pelin": 7936,
      "Qi": 7937,
      "Rap": 7938,
      "Rug": 7939,
      "Rats": 7940,
      "Runners": 7941,
      "Sé": 7942,
      "Sut": 7943,
      "Sap": 7944,
      "Sart": 7945,
      "Sound": 7946,
      "Siss": 7947,
      "Sree": 7948,
      "Sunder": 7949,
      "Sica": 7950,
      "Six": 7951,
      "Several": 7952,
      "Srin": 7953,
      "Sula": 7954,
      "Senna": 7955,
      "Sagar": 7956,
      "Saga": 7957,
      "Ty": 7958,
      "Tar": 7959,
      "Tage": 7960,
      "Tour": 7961,
      "Tong": 7962,
      "Tann": 7963,
      "Tele": 7964,
      "Tina": 7965,
      "Tara": 7966,
      "Tsu": 7967,
      "Twin": 7968,
      "Trem": 7969,
      "Turt": 7970,
      "Tiger": 7971,
      "Tracy": 7972,
      "Tutti": 7973,
      "Trisha": 7974,
      "Urs": 7975,
      "Vill": 7976,
      "Wy": 7977,
      "Witt": 7978,
      "Werner": 7979,
      "Xia": 7980,
      "Xtab": 7981,
      "Yus": 7982,
      "Yang": 7983,
      "Yog": 7984,
      "Yong": 7985,
      "Yuk": 7986,
      "Zak": 7987,
      "Zha": 7988,
      "Zweig": 7989,
      "Zappa": 7990,
      "aim": 7991,
      "aac": 7992,
      "aust": 7993,
      "bit": 7994,
      "bad": 7995,
      "big": 7996,
      "bour": 7997,
      "bio": 7998,
      "bari": 7999,
      "bott": 8000,
      "body": 8001,
      "bhardt": 8002,
      "batch": 8003,
      "brich": 8004,
      "bicy": 8005,
      "cá": 8006,
      "cel": 8007,
      "cock": 8008,
      "clif": 8009,
      "civil": 8010,
      "ding": 8011,
      "das": 8012,
      "dou": 8013,
      "dest": 8014,
      "dates": 8015,
      "dated": 8016,
      "dred": 8017,
      "dete": 8018,
      "danger": 8019,
      "déric": 8020,
      "ew": 8021,
      "eau": 8022,
      "ether": 8023,
      "fat": 8024,
      "fol": 8025,
      "fad": 8026,
      "fram": 8027,
      "fast": 8028,
      "fron": 8029,
      "figh": 8030,
      "gal": 8031,
      "gri": 8032,
      "gis": 8033,
      "gay": 8034,
      "give": 8035,
      "gess": 8036,
      "gley": 8037,
      "giving": 8038,
      "hab": 8039,
      "hart": 8040,
      "iya": 8041,
      "iberon": 8042,
      "kre": 8043,
      "kung": 8044,
      "kha": 8045,
      "lic": 8046,
      "lam": 8047,
      "lay": 8048,
      "lap": 8049,
      "lived": 8050,
      "mel": 8051,
      "mine": 8052,
      "mates": 8053,
      "money": 8054,
      "mountain": 8055,
      "nin": 8056,
      "ping": 8057,
      "pet": 8058,
      "pris": 8059,
      "pair": 8060,
      "piger": 8061,
      "poned": 8062,
      "qi": 8063,
      "rk": 8064,
      "rt": 8065,
      "rup": 8066,
      "rural": 8067,
      "si": 8068,
      "sz": 8069,
      "sun": 8070,
      "sour": 8071,
      "sud": 8072,
      "save": 8073,
      "selling": 8074,
      "semi": 8075,
      "summer": 8076,
      "tr": 8077,
      "tro": 8078,
      "tone": 8079,
      "uil": 8080,
      "uals": 8081,
      "uous": 8082,
      "vé": 8083,
      "viving": 8084,
      "wid": 8085,
      "wani": 8086,
      "wali": 8087,
      "wara": 8088,
      "wala": 8089,
      "wski": 8090,
      "watch": 8091,
      "xi": 8092,
      "ying": 8093,
      "yot": 8094,
      "yards": 8095,
      "zier": 8096,
      "ël": 8097,
      "ñana": 8098,
      "öl": 8099,
      "ńska": 8100,
      "ink": 8101,
      "information": 8102,
      "ances": 8103,
      "anja": 8104,
      "anabe": 8105,
      "error": 8106,
      "erakul": 8107,
      "aris": 8108,
      "ares": 8109,
      "arine": 8110,
      "army": 8111,
      "armed": 8112,
      "stal": 8113,
      "strand": 8114,
      "iled": 8115,
      "rene": 8116,
      "request": 8117,
      "ono": 8118,
      "ingly": 8119,
      "orable": 8120,
      "edo": 8121,
      "eni": 8122,
      "entertain": 8123,
      "alth": 8124,
      "alie": 8125,
      "alini": 8126,
      "album": 8127,
      "asil": 8128,
      "atz": 8129,
      "atsu": 8130,
      "ataka": 8131,
      "riel": 8132,
      "andran": 8133,
      "dier": 8134,
      "dieu": 8135,
      "icio": 8136,
      "205": 8137,
      "elu": 8138,
      "itō": 8139,
      "itation": 8140,
      "itious": 8141,
      "aman": 8142,
      "lex": 8143,
      "lez": 8144,
      "Theod": 8145,
      "towards": 8146,
      "rage": 8147,
      "osed": 8148,
      "duk": 8149,
      "dup": 8150,
      "emot": 8151,
      "olt": 8152,
      "prov": 8153,
      "proble": 8154,
      "process": 8155,
      "propag": 8156,
      "addi": 8157,
      "adam": 8158,
      "adhy": 8159,
      "added": 8160,
      "chor": 8161,
      "ched": 8162,
      "chadam": 8163,
      "agg": 8164,
      "ago": 8165,
      "agle": 8166,
      "ague": 8167,
      "agreed": 8168,
      "une": 8169,
      "unted": 8170,
      "unoor": 8171,
      "writers": 8172,
      "Chor": 8173,
      "Chit": 8174,
      "Chou": 8175,
      "Chong": 8176,
      "Chau": 8177,
      "Champ": 8178,
      "ido": 8179,
      "idere": 8180,
      "Sté": 8181,
      "imo": 8182,
      "images": 8183,
      "acio": 8184,
      "illian": 8185,
      "bute": 8186,
      "phone": 8187,
      "phys": 8188,
      "aksh": 8189,
      "ulu": 8190,
      "ogram": 8191,
      "cee": 8192,
      "result": 8193,
      "rescue": 8194,
      "10vor": 8195,
      "Ins": 8196,
      "allow": 8197,
      "alluri": 8198,
      "why": 8199,
      "oco": 8200,
      "occa": 8201,
      "sha": 8202,
      "Anj": 8203,
      "Anto": 8204,
      "Anoop": 8205,
      "Shol": 8206,
      "Shak": 8207,
      "Shann": 8208,
      "Shaf": 8209,
      "Shruti": 8210,
      "Marg": 8211,
      "Marine": 8212,
      "Marina": 8213,
      "Mariano": 8214,
      "Marguer": 8215,
      "abh": 8216,
      "abel": 8217,
      "abort": 8218,
      "Filmed": 8219,
      "ounter": 8220,
      "decl": 8221,
      "ape": 8222,
      "htar": 8223,
      "122": 8224,
      "ographic": 8225,
      "plans": 8226,
      "fected": 8227,
      "Alab": 8228,
      "Aldo": 8229,
      "Also": 8230,
      "ells": 8231,
      "rana": 8232,
      "astro": 8233,
      "ikawa": 8234,
      "opp": 8235,
      "24th": 8236,
      "orty": 8237,
      "sche": 8238,
      "3096": 8239,
      "Thu": 8240,
      "Than": 8241,
      "Thir": 8242,
      "Thier": 8243,
      "Thalluri": 8244,
      "Room": 8245,
      "annadh": 8246,
      "uge": 8247,
      "quatt": 8248,
      "udh": 8249,
      "istic": 8250,
      "istance": 8251,
      "Depar": 8252,
      "Dexter": 8253,
      "condu": 8254,
      "convent": 8255,
      "conceived": 8256,
      "dramatic": 8257,
      "ips": 8258,
      "outbreak": 8259,
      "antic": 8260,
      "antyo": 8261,
      "Leeson": 8262,
      "Aron": 8263,
      "Arri": 8264,
      "Arne": 8265,
      "Arons": 8266,
      "renamed": 8267,
      "launch": 8268,
      "assador": 8269,
      "Enzo": 8270,
      "Ennio": 8271,
      "serves": 8272,
      "serious": 8273,
      "serving": 8274,
      "11th": 8275,
      "awi": 8276,
      "aub": 8277,
      "auw": 8278,
      "Request": 8279,
      "cks": 8280,
      "ckin": 8281,
      "endes": 8282,
      "Johns": 8283,
      "Parr": 8284,
      "Paranja": 8285,
      "coast": 8286,
      "icki": 8287,
      "141": 8288,
      "iff": 8289,
      "Beau": 8290,
      "meets": 8291,
      "Spring": 8292,
      "players": 8293,
      "azade": 8294,
      "ffield": 8295,
      "Andrey": 8296,
      "170": 8297,
      "obu": 8298,
      "oyage": 8299,
      "titles": 8300,
      "titular": 8301,
      "offers": 8302,
      "Meg": 8303,
      "Gebhardt": 8304,
      "Abu": 8305,
      "Abhin": 8306,
      "reveal": 8307,
      "Sche": 8308,
      "Liu": 8309,
      "Liz": 8310,
      "imeter": 8311,
      "McIn": 8312,
      "McLach": 8313,
      "Manik": 8314,
      "Manfred": 8315,
      "engine": 8316,
      "Male": 8317,
      "iewicz": 8318,
      "Mathew": 8319,
      "Heidi": 8320,
      "onds": 8321,
      "taine": 8322,
      "Nora": 8323,
      "Norbert": 8324,
      "know": 8325,
      "Jeyam": 8326,
      "Monica": 8327,
      "Monroe": 8328,
      "Monogram": 8329,
      "Morning": 8330,
      "compet": 8331,
      "compete": 8332,
      "ault": 8333,
      "Amr": 8334,
      "Amore": 8335,
      "trained": 8336,
      "training": 8337,
      "traordinary": 8338,
      "traditional": 8339,
      "Elor": 8340,
      "Elba": 8341,
      "Why": 8342,
      "Isaac": 8343,
      "Islam": 8344,
      "Modiri": 8345,
      "Weber": 8346,
      "Weinst": 8347,
      "Charl": 8348,
      "Mildred": 8349,
      "1938": 8350,
      "Paula": 8351,
      "Pauline": 8352,
      "Corinne": 8353,
      "novella": 8354,
      "Emad": 8355,
      "leads": 8356,
      "makes": 8357,
      "Contin": 8358,
      "Connell": 8359,
      "foreign": 8360,
      "twood": 8361,
      "Waldem": 8362,
      "horne": 8363,
      "nominee": 8364,
      "School": 8365,
      "underground": 8366,
      "undercover": 8367,
      "veerakul": 8368,
      "Agn": 8369,
      "posed": 8370,
      "Entertainments": 8371,
      "Bening": 8372,
      "depart": 8373,
      "depiction": 8374,
      "minor": 8375,
      "minchadam": 8376,
      "Edmond": 8377,
      "Eddie": 8378,
      "Edgren": 8379,
      "suppl": 8380,
      "related": 8381,
      "Sami": 8382,
      "ashar": 8383,
      "Southwest": 8384,
      "ibel": 8385,
      "Bala": 8386,
      "Bales": 8387,
      "Balcá": 8388,
      "jeev": 8389,
      "uccidere": 8390,
      "Orange": 8391,
      "Slater": 8392,
      "Madhavan": 8393,
      "clim": 8394,
      "parate": 8395,
      "paranormal": 8396,
      "chek": 8397,
      "Permission": 8398,
      "Perera": 8399,
      "Rampling": 8400,
      "medi": 8401,
      "Exorcisms": 8402,
      "marriage": 8403,
      "Eastman": 8404,
      "Santos": 8405,
      "Silence": 8406,
      "Cinemas": 8407,
      "Prix": 8408,
      "Prime": 8409,
      "Skye": 8410,
      "Lax": 8411,
      "LaFon": 8412,
      "adit": 8413,
      "racing": 8414,
      "workers": 8415,
      "Bull": 8416,
      "Palm": 8417,
      "Quinn": 8418,
      "Quiberon": 8419,
      "332": 8420,
      "Delhi": 8421,
      "brought": 8422,
      "gerald": 8423,
      "accused": 8424,
      "Pratt": 8425,
      "showing": 8426,
      "Akbari": 8427,
      "Akhtar": 8428,
      "selection": 8429,
      "versions": 8430,
      "Lauren": 8431,
      "Laurel": 8432,
      "Laurie": 8433,
      "Lucy": 8434,
      "Teens": 8435,
      "Ontar": 8436,
      "Bernal": 8437,
      "Hao": 8438,
      "Ravich": 8439,
      "Ravishing": 8440,
      "Chetan": 8441,
      "Jayan": 8442,
      "Jayak": 8443,
      "Much": 8444,
      "Muham": 8445,
      "Belize": 8446,
      "Kenyan": 8447,
      "Larrieu": 8448,
      "Vanessa": 8449,
      "Austral": 8450,
      "Greenstreet": 8451,
      "appearing": 8452,
      "Louise": 8453,
      "MacLean": 8454,
      "spec": 8455,
      "consists": 8456,
      "Kodi": 8457,
      "historic": 8458,
      "Hellmut": 8459,
      "Romania": 8460,
      "seconds": 8461,
      "Serv": 8462,
      "Series": 8463,
      "karat": 8464,
      "spy": 8465,
      "space": 8466,
      "telling": 8467,
      "Bullet": 8468,
      "Giri": 8469,
      "Noé": 8470,
      "backdrop": 8471,
      "animation": 8472,
      "recogn": 8473,
      "DuVern": 8474,
      "Landau": 8475,
      "Bako": 8476,
      "Magnum": 8477,
      "Verd": 8478,
      "Varai": 8479,
      "Vargas": 8480,
      "Alexandra": 8481,
      "euil": 8482,
      "Ashwin": 8483,
      "Rogen": 8484,
      "Soni": 8485,
      "centres": 8486,
      "garnered": 8487,
      "Vijaygi": 8488,
      "Lesley": 8489,
      "Vasquez": 8490,
      "Competition": 8491,
      "Sridev": 8492,
      "Srikanth": 8493,
      "Sidh": 8494,
      "vedi": 8495,
      "format": 8496,
      "Cyril": 8497,
      "Pradeep": 8498,
      "graphic": 8499,
      "raske": 8500,
      "Andrews": 8501,
      "Danilo": 8502,
      "surround": 8503,
      "Forest": 8504,
      "Helg": 8505,
      "Helge": 8506,
      "Note": 8507,
      "Olav": 8508,
      "boys": 8509,
      "copy": 8510,
      "fully": 8511,
      "Marcel": 8512,
      "32A": 8513,
      "study": 8514,
      "decision": 8515,
      "officially": 8516,
      "80000": 8517,
      "Jenna": 8518,
      "Namib": 8519,
      "kinson": 8520,
      "poem": 8521,
      "Spacek": 8522,
      "Trip": 8523,
      "TriStar": 8524,
      "Yuwu": 8525,
      "ufact": 8526,
      "heeda": 8527,
      "Toiv": 8528,
      "coup": 8529,
      "couples": 8530,
      "marked": 8531,
      "visuals": 8532,
      "Cameron": 8533,
      "Panorama": 8534,
      "Return": 8535,
      "Vinessa": 8536,
      "studios": 8537,
      "explor": 8538,
      "Duning": 8539,
      "Jerry": 8540,
      "Know": 8541,
      "Lindsay": 8542,
      "Youngson": 8543,
      "kovich": 8544,
      "ónica": 8545,
      "Brooks": 8546,
      "weekend": 8547,
      "Backyards": 8548,
      "Minh": 8549,
      "Melissa": 8550,
      "Natalia": 8551,
      "Preminchadam": 8552,
      "Rainer": 8553,
      "postponed": 8554,
      "situation": 8555,
      "society": 8556,
      "viewers": 8557,
      "arajan": 8558,
      "oulder": 8559,
      "Faust": 8560,
      "Faasil": 8561,
      "Kyaw": 8562,
      "Subway": 8563,
      "tribute": 8564,
      "vennero": 8565,
      "Chilean": 8566,
      "operation": 8567,
      "schools": 8568,
      "Jacobs": 8569,
      "Hampton": 8570,
      "Kirk": 8571,
      "Levine": 8572,
      "childhood": 8573,
      "Shawn": 8574,
      "recording": 8575,
      "84C": 8576,
      "Blair": 8577,
      "Original": 8578,
      "Tuhus": 8579,
      "treat": 8580,
      "yeon": 8581,
      "Antony": 8582,
      "audiences": 8583,
      "Superfigh": 8584,
      "Goran": 8585,
      "Jagannadh": 8586,
      "involves": 8587,
      "Auteuil": 8588,
      "Cristian": 8589,
      "Irani": 8590,
      "Power": 8591,
      "Sakveerakul": 8592,
      "Saint": 8593,
      "Saints": 8594,
      "Waheeda": 8595,
      "helped": 8596,
      "Choi": 8597,
      "complex": 8598,
      "murdered": 8599,
      "89mm": 8600,
      "Esben": 8601,
      "Katha": 8602,
      "Katharine": 8603,
      "Rawal": 8604,
      "travels": 8605,
      "Besser": 8606,
      "Ralston": 8607,
      "bellion": 8608,
      "viral": 8609,
      "style": 8610,
      "Children": 8611,
      "Busan": 8612,
      "Hiroshi": 8613,
      "Irving": 8614,
      "Noonan": 8615,
      "billing": 8616,
      "large": 8617,
      "Martinez": 8618,
      "Webber": 8619,
      "Alfredo": 8620,
      "categories": 8621,
      "Bellows": 8622,
      "Paco": 8623,
      "Without": 8624,
      "movies": 8625,
      "movement": 8626,
      "Andrés": 8627,
      "Jewish": 8628,
      "criticism": 8629,
      "captured": 8630,
      "Great": 8631,
      "Hannah": 8632,
      "Isha": 8633,
      "Ishaya": 8634,
      "Molly": 8635,
      "Santoro": 8636,
      "Chadwick": 8637,
      "Shaye": 8638,
      "continues": 8639,
      "Question": 8640,
      "Ajayan": 8641,
      "Boucher": 8642,
      "Guru": 8643,
      "Hersch": 8644,
      "Hershman": 8645,
      "Lambert": 8646,
      "Ostkre": 8647,
      "prisoners": 8648,
      "survival": 8649,
      "Fukuda": 8650,
      "Gaby": 8651,
      "Goldberg": 8652,
      "Gibbs": 8653,
      "Hardy": 8654,
      "Lanka": 8655,
      "Mendes": 8656,
      "Porter": 8657,
      "Semester": 8658,
      "Virgin": 8659,
      "bombing": 8660,
      "court": 8661,
      "north": 8662,
      "passed": 8663,
      "turned": 8664,
      "árrit": 8665,
      "conviction": 8666,
      "Mehran": 8667,
      "portrayal": 8668,
      "Moroccan": 8669,
      "Khalid": 8670,
      "Austrian": 8671,
      "Banks": 8672,
      "Biju": 8673,
      "Camacho": 8674,
      "Fairbanks": 8675,
      "Knights": 8676,
      "Queen": 8677,
      "Quebec": 8678,
      "Surviving": 8679,
      "Watanabe": 8680,
      "grandfather": 8681,
      "system": 8682,
      "Juliette": 8683,
      "Pérez": 8684,
      "Pandey": 8685,
      "Ritter": 8686,
      "Sukumar": 8687,
      "cancelled": 8688,
      "ström": 8689,
      "entirely": 8690,
      "impact": 8691,
      "service": 8692,
      "technology": 8693,
      "Stefanie": 8694,
      "Goodman": 8695,
      "Smallhorne": 8696,
      "Hyde": 8697,
      "Pooja": 8698,
      "Sorry": 8699,
      "failed": 8700,
      "volunte": 8701,
      "Marsden": 8702,
      "particularly": 8703,
      "Cecchi": 8704,
      "Dominic": 8705,
      "Eugene": 8706,
      "Gulshan": 8707,
      "Jafari": 8708,
      "Judith": 8709,
      "Mazur": 8710,
      "Ruben": 8711,
      "Wesley": 8712,
      "celebr": 8713,
      "claims": 8714,
      "documents": 8715,
      "chronicles": 8716,
      "Gonzalo": 8717,
      "controversial": 8718,
      "Barton": 8719,
      "Boston": 8720,
      "Dallas": 8721,
      "Factory": 8722,
      "Fahadh": 8723,
      "Friends": 8724,
      "Pollard": 8725,
      "Tangos": 8726,
      "Tobias": 8727,
      "funded": 8728,
      "reunion": 8729,
      "provided": 8730,
      "preceded": 8731,
      "Rezendes": 8732,
      "McDonough": 8733,
      "Madhuri": 8734,
      "Ramakrishna": 8735,
      "Cinematography": 8736,
      "robbery": 8737,
      "Gosselin": 8738,
      "Wheeling": 8739,
      "challenges": 8740,
      "Bramantyo": 8741,
      "Dellal": 8742,
      "Einar": 8743,
      "Foote": 8744,
      "Fitzgerald": 8745,
      "Gameau": 8746,
      "Ivens": 8747,
      "Lumet": 8748,
      "Perez": 8749,
      "Rescue": 8750,
      "Together": 8751,
      "global": 8752,
      "teleplay": 8753,
      "Standard": 8754,
      "important": 8755,
      "contrast": 8756,
      "Carnage": 8757,
      "Pepper": 8758,
      "Sheherazade": 8759,
      "Macedonian": 8760,
      "Magnolia": 8761,
      "Aravind": 8762,
      "Faye": 8763,
      "Fifty": 8764,
      "Fraser": 8765,
      "Hobart": 8766,
      "Kukunoor": 8767,
      "Ltd": 8768,
      "Pillai": 8769,
      "Rimawi": 8770,
      "frequ": 8771,
      "patients": 8772,
      "widespread": 8773,
      "Initially": 8774,
      "Shukla": 8775,
      "commenced": 8776,
      "Rojullo": 8777,
      "examines": 8778,
      "meaning": 8779,
      "498A": 8780,
      "adult": 8781,
      "pornographic": 8782,
      "Miriam": 8783,
      "Holechek": 8784,
      "Nikolai": 8785,
      "Gujarati": 8786,
      "satirical": 8787,
      "2by4": 8788,
      "4Chosen": 8789,
      "Cindy": 8790,
      "Feldman": 8791,
      "Fletcher": 8792,
      "Frédéric": 8793,
      "Finnish": 8794,
      "Federico": 8795,
      "Girard": 8796,
      "Hussain": 8797,
      "Iñárrit": 8798,
      "Krueger": 8799,
      "Nassar": 8800,
      "Pastrana": 8801,
      "Sartana": 8802,
      "Sriniv": 8803,
      "Xtabai": 8804,
      "Zhao": 8805,
      "cliffe": 8806,
      "detective": 8807,
      "adhyay": 8808,
      "Champions": 8809,
      "10vor10": 8810,
      "Marguerite": 8811,
      "Thierry": 8812,
      "quattro": 8813,
      "Depardieu": 8814,
      "Aronsohn": 8815,
      "launched": 8816,
      "Requests": 8817,
      "McLachlan": 8818,
      "Mathews": 8819,
      "Jeyamohan": 8820,
      "Weinstein": 8821,
      "Waldemar": 8822,
      "Balcázar": 8823,
      "LaFontaine": 8824,
      "Ontario": 8825,
      "DuVernay": 8826,
      "Vijaygiri": 8827,
      "Sridevi": 8828,
      "Superfighters": 8829,
      "Ostkreuz": 8830,
      "!)": 8831,
      "!:": 8832,
      "2nd": 8833,
      "3100": 8834,
      "5Gang": 8835,
      "61st": 8836,
      "82": 8837,
      "9th": 8838,
      "900": 8839,
      "AA": 8840,
      "AN": 8841,
      "AS": 8842,
      "AY": 8843,
      "Ade": 8844,
      "Atten": 8845,
      "Aub": 8846,
      "Action": 8847,
      "Aver": 8848,
      "Aung": 8849,
      "Aashi": 8850,
      "BN": 8851,
      "Bj": 8852,
      "Bis": 8853,
      "Bort": 8854,
      "Bly": 8855,
      "Bug": 8856,
      "Baj": 8857,
      "Bous": 8858,
      "Baz": 8859,
      "Bale": 8860,
      "Bille": 8861,
      "Burt": 8862,
      "Banner": 8863,
      "Bár": 8864,
      "Bianca": 8865,
      "Bapt": 8866,
      "Bishop": 8867,
      "CG": 8868,
      "Ci": 8869,
      "Cá": 8870,
      "Cun": 8871,
      "Cul": 8872,
      "Cain": 8873,
      "Cran": 8874,
      "Cup": 8875,
      "Cere": 8876,
      "Cott": 8877,
      "Cumber": 8878,
      "Civil": 8879,
      "Cumm": 8880,
      "Dé": 8881,
      "Dũ": 8882,
      "Dra": 8883,
      "Dol": 8884,
      "Duk": 8885,
      "Dru": 8886,
      "Dacc": 8887,
      "Dhy": 8888,
      "Ducks": 8889,
      "Dyer": 8890,
      "Dassin": 8891,
      "EN": 8892,
      "Ef": 8893,
      "Est": 8894,
      "Eil": 8895,
      "Eis": 8896,
      "Ely": 8897,
      "Eren": 8898,
      "Eile": 8899,
      "Each": 8900,
      "Ethan": 8901,
      "Easa": 8902,
      "Fä": 8903,
      "Fion": 8904,
      "Fent": 8905,
      "Ful": 8906,
      "Fass": 8907,
      "Fund": 8908,
      "Fille": 8909,
      "Focus": 8910,
      "Falk": 8911,
      "Flynn": 8912,
      "Gow": 8913,
      "Goh": 8914,
      "Gast": 8915,
      "Gug": 8916,
      "Gla": 8917,
      "Gide": 8918,
      "Goy": 8919,
      "Gret": 8920,
      "Gori": 8921,
      "Gupta": 8922,
      "HN": 8923,
      "Hat": 8924,
      "Hiv": 8925,
      "Hust": 8926,
      "Hend": 8927,
      "Hane": 8928,
      "Hoy": 8929,
      "Hamer": 8930,
      "Hanna": 8931,
      "Hovann": 8932,
      "Hume": 8933,
      "Homi": 8934,
      "Ig": 8935,
      "Iann": 8936,
      "Icon": 8937,
      "Ji": 8938,
      "Jū": 8939,
      "Jus": 8940,
      "Jain": 8941,
      "Jade": 8942,
      "Jake": 8943,
      "Jha": 8944,
      "Jenk": 8945,
      "Jahn": 8946,
      "Kri": 8947,
      "Kang": 8948,
      "Koh": 8949,
      "Kok": 8950,
      "Kare": 8951,
      "Kind": 8952,
      "Kara": 8953,
      "Kras": 8954,
      "Katherine": 8955,
      "Kunch": 8956,
      "Kiku": 8957,
      "Kinski": 8958,
      "Kudo": 8959,
      "Lư": 8960,
      "Lon": 8961,
      "Liv": 8962,
      "Lund": 8963,
      "Loy": 8964,
      "Lott": 8965,
      "Like": 8966,
      "Luck": 8967,
      "Lena": 8968,
      "Lori": 8969,
      "Lafia": 8970,
      "Lerner": 8971,
      "Mü": 8972,
      "Mit": 8973,
      "Mang": 8974,
      "Mav": 8975,
      "Must": 8976,
      "Mant": 8977,
      "Mine": 8978,
      "Mach": 8979,
      "Made": 8980,
      "Mapp": 8981,
      "Mix": 8982,
      "NY": 8983,
      "Nu": 8984,
      "Nou": 8985,
      "Nun": 8986,
      "Nac": 8987,
      "Nath": 8988,
      "Nell": 8989,
      "Nave": 8990,
      "Nadi": 8991,
      "Niro": 8992,
      "Nahi": 8993,
      "Nadia": 8994,
      "Nacho": 8995,
      "Nils": 8996,
      "OC": 8997,
      "OD": 8998,
      "Oj": 8999,
      "Ore": 9000,
      "Ori": 9001,
      "Ola": 9002,
      "Oley": 9003,
      "Oster": 9004,
      "Others": 9005,
      "Opr": 9006,
      "Oberon": 9007,
      "Owen": 9008,
      "PA": 9009,
      "Ps": 9010,
      "Pá": 9011,
      "Pil": 9012,
      "Ple": 9013,
      "Pid": 9014,
      "Pur": 9015,
      "Page": 9016,
      "Pia": 9017,
      "Paw": 9018,
      "Piy": 9019,
      "Payam": 9020,
      "Pyot": 9021,
      "Ri": 9022,
      "Rut": 9023,
      "Riv": 9024,
      "Rian": 9025,
      "Rab": 9026,
      "Rai": 9027,
      "Rana": 9028,
      "Rica": 9029,
      "Rib": 9030,
      "Rene": 9031,
      "Rush": 9032,
      "Rowan": 9033,
      "Rowley": 9034,
      "SR": 9035,
      "Sn": 9036,
      "Sä": 9037,
      "Sic": 9038,
      "Ster": 9039,
      "Sac": 9040,
      "Sot": 9041,
      "Sack": 9042,
      "Smi": 9043,
      "Saw": 9044,
      "Sally": 9045,
      "Smy": 9046,
      "Sara": 9047,
      "Since": 9048,
      "Syd": 9049,
      "Sajid": 9050,
      "Tomp": 9051,
      "Tul": 9052,
      "Tot": 9053,
      "Tie": 9054,
      "Tev": 9055,
      "Tab": 9056,
      "Tate": 9057,
      "Tutt": 9058,
      "Trent": 9059,
      "Tae": 9060,
      "Truth": 9061,
      "Tunes": 9062,
      "Twelve": 9063,
      "UN": 9064,
      "Uk": 9065,
      "Vu": 9066,
      "Vy": 9067,
      "Vil": 9068,
      "Vel": 9069,
      "Voll": 9070,
      "Vater": 9071,
      "Vaid": 9072,
      "Vidy": 9073,
      "Vigal": 9074,
      "VOD": 9075,
      "Wen": 9076,
      "Wis": 9077,
      "Wak": 9078,
      "Wai": 9079,
      "Wind": 9080,
      "Wyn": 9081,
      "Winst": 9082,
      "Wurt": 9083,
      "Yas": 9084,
      "Yell": 9085,
      "Yves": 9086,
      "Yvon": 9087,
      "Yoshi": 9088,
      "Yadan": 9089,
      "Zar": 9090,
      "Zing": 9091,
      "Zsa": 9092,
      "Zolt": 9093,
      "ax": 9094,
      "bb": 9095,
      "bart": 9096,
      "bears": 9097,
      "blo": 9098,
      "base": 9099,
      "billion": 9100,
      "bara": 9101,
      "brat": 9102,
      "brand": 9103,
      "bjer": 9104,
      "banned": 9105,
      "baker": 9106,
      "cz": 9107,
      "cart": 9108,
      "cens": 9109,
      "cable": 9110,
      "center": 9111,
      "centered": 9112,
      "crisis": 9113,
      "dal": 9114,
      "dhan": 9115,
      "dream": 9116,
      "drew": 9117,
      "eil": 9118,
      "eth": 9119,
      "eed": 9120,
      "fi": 9121,
      "fo": 9122,
      "fem": 9123,
      "fun": 9124,
      "fill": 9125,
      "fik": 9126,
      "fany": 9127,
      "fert": 9128,
      "felt": 9129,
      "gev": 9130,
      "games": 9131,
      "gave": 9132,
      "gupta": 9133,
      "guez": 9134,
      "hon": 9135,
      "hos": 9136,
      "hous": 9137,
      "host": 9138,
      "hold": 9139,
      "hara": 9140,
      "hala": 9141,
      "hwa": 9142,
      "hospital": 9143,
      "hattan": 9144,
      "huge": 9145,
      "iPh": 9146,
      "iwe": 9147,
      "ińska": 9148,
      "jat": 9149,
      "jos": 9150,
      "jung": 9151,
      "jica": 9152,
      "jeta": 9153,
      "kä": 9154,
      "kes": 9155,
      "kir": 9156,
      "kie": 9157,
      "kka": 9158,
      "kata": 9159,
      "keep": 9160,
      "ls": 9161,
      "log": 9162,
      "lish": 9163,
      "lik": 9164,
      "lmann": 9165,
      "loss": 9166,
      "mom": 9167,
      "mill": 9168,
      "mers": 9169,
      "mare": 9170,
      "mob": 9171,
      "move": 9172,
      "nh": 9173,
      "national": 9174,
      "nick": 9175,
      "nett": 9176,
      "nati": 9177,
      "oi": 9178,
      "oiu": 9179,
      "oples": 9180,
      "pes": 9181,
      "pard": 9182,
      "pot": 9183,
      "pers": 9184,
      "pur": 9185,
      "pick": 9186,
      "pron": 9187,
      "pitch": 9188,
      "rz": 9189,
      "rí": 9190,
      "rum": 9191,
      "rne": 9192,
      "rare": 9193,
      "rase": 9194,
      "rgen": 9195,
      "range": 9196,
      "sb": 9197,
      "sɛ": 9198,
      "sam": 9199,
      "sion": 9200,
      "sav": 9201,
      "sug": 9202,
      "syn": 9203,
      "suke": 9204,
      "truth": 9205,
      "uan": 9206,
      "uer": 9207,
      "vt": 9208,
      "vill": 9209,
      "vest": 9210,
      "voc": 9211,
      "vate": 9212,
      "vana": 9213,
      "vign": 9214,
      "wet": 9215,
      "wall": 9216,
      "wrap": 9217,
      "ym": 9218,
      "yon": 9219,
      "yal": 9220,
      "yne": 9221,
      "yju": 9222,
      "yanka": 9223,
      "zz": 9224,
      "zin": 9225,
      "zen": 9226,
      "zong": 9227,
      "zza": 9228,
      "zawa": 9229,
      "Éric": 9230,
      "ález": 9231,
      "än": 9232,
      "ær": 9233,
      "ình": 9234,
      "öh": 9235,
      "ørn": 9236,
      "ühl": 9237,
      "Đình": 9238,
      "ęś": 9239,
      "ğlu": 9240,
      "şer": 9241,
      "ơng": 9242,
      "ни": 9243,
      "ри": 9244,
      "–%": 9245,
      "inard": 9246,
      "insh": 9247,
      "inash": 9248,
      "inenko": 9249,
      "anes": 9250,
      "anmar": 9251,
      "anonymous": 9252,
      "eria": 9253,
      "erate": 9254,
      "ardi": 9255,
      "aram": 9256,
      "arist": 9257,
      "araki": 9258,
      "arrest": 9259,
      "arwal": 9260,
      "arcer": 9261,
      "station": 9262,
      "ilst": 9263,
      "thling": 9264,
      "reactions": 9265,
      "reissued": 9266,
      "reporter": 9267,
      "ingham": 9268,
      "orth": 9269,
      "edg": 9270,
      "alan": 9271,
      "alle": 9272,
      "alone": 9273,
      "theson": 9274,
      "themed": 9275,
      "asetti": 9276,
      "atra": 9277,
      "ativity": 9278,
      "rio": 9279,
      "riman": 9280,
      "ricon": 9281,
      "rika": 9282,
      "andy": 9283,
      "dist": 9284,
      "dict": 9285,
      "dison": 9286,
      "dibu": 9287,
      "rington": 9288,
      "ctronic": 9289,
      "isal": 9290,
      "isch": 9291,
      "isian": 9292,
      "island": 9293,
      "esch": 9294,
      "escu": 9295,
      "rol": 9296,
      "roian": 9297,
      "rode": 9298,
      "ician": 9299,
      "icia": 9300,
      "eli": 9301,
      "elton": 9302,
      "eleven": 9303,
      "elhos": 9304,
      "iti": 9305,
      "itra": 9306,
      "hek": 9307,
      "hev": 9308,
      "heim": 9309,
      "heard": 9310,
      "amm": 9311,
      "amana": 9312,
      "amura": 9313,
      "omy": 9314,
      "territ": 9315,
      "terror": 9316,
      "lea": 9317,
      "lear": 9318,
      "leck": 9319,
      "learn": 9320,
      "ayashi": 9321,
      "190": 9322,
      "1947": 9323,
      "raz": 9324,
      "rail": 9325,
      "rath": 9326,
      "radic": 9327,
      "osa": 9328,
      "uti": 9329,
      "write": 9330,
      "wright": 9331,
      "emph": 9332,
      "emore": 9333,
      "usz": 9334,
      "usch": 9335,
      "uset": 9336,
      "ushan": 9337,
      "olim": 9338,
      "olate": 9339,
      "olades": 9340,
      "prote": 9341,
      "ader": 9342,
      "adav": 9343,
      "advent": 9344,
      "cha": 9345,
      "chap": 9346,
      "agers": 9347,
      "agher": 9348,
      "ented": 9349,
      "unde": 9350,
      "unser": 9351,
      "unori": 9352,
      "etim": 9353,
      "igl": 9354,
      "igence": 9355,
      "Ching": 9356,
      "Chic": 9357,
      "Chase": 9358,
      "Chapp": 9359,
      "Chitt": 9360,
      "Chuck": 9361,
      "Chuki": 9362,
      "idel": 9363,
      "iday": 9364,
      "iru": 9365,
      "irano": 9366,
      "irudh": 9367,
      "Stor": 9368,
      "Stark": 9369,
      "Stella": 9370,
      "Sticks": 9371,
      "accomp": 9372,
      "illy": 9373,
      "illat": 9374,
      "phne": 9375,
      "phane": 9376,
      "esta": 9377,
      "estab": 9378,
      "ulx": 9379,
      "ulation": 9380,
      "otinenko": 9381,
      "iej": 9382,
      "berling": 9383,
      "cea": 9384,
      "ceed": 9385,
      "avani": 9386,
      "avision": 9387,
      "avoor": 9388,
      "evidence": 9389,
      "Ing": 9390,
      "Inst": 9391,
      "Inge": 9392,
      "Infin": 9393,
      "Indra": 9394,
      "whilst": 9395,
      "manip": 9396,
      "mante": 9397,
      "managed": 9398,
      "manzar": 9399,
      "manufact": 9400,
      "ocrat": 9401,
      "occup": 9402,
      "ociated": 9403,
      "ocaust": 9404,
      "ocolate": 9405,
      "ichael": 9406,
      "shu": 9407,
      "shar": 9408,
      "shit": 9409,
      "shik": 9410,
      "sheng": 9411,
      "shika": 9412,
      "ither": 9413,
      "ithra": 9414,
      "Ank": 9415,
      "Anup": 9416,
      "Anwar": 9417,
      "Anato": 9418,
      "Ananya": 9419,
      "Anchor": 9420,
      "Anirudh": 9421,
      "Shi": 9422,
      "Sho": 9423,
      "Shri": 9424,
      "Shot": 9425,
      "Shack": 9426,
      "Shru": 9427,
      "Shwe": 9428,
      "Shiu": 9429,
      "Shamir": 9430,
      "Shyju": 9431,
      "Marks": 9432,
      "Marcks": 9433,
      "abo": 9434,
      "ably": 9435,
      "abana": 9436,
      "abella": 9437,
      "tended": 9438,
      "commem": 9439,
      "commission": 9440,
      "nehy": 9441,
      "next": 9442,
      "nebaker": 9443,
      "rysty": 9444,
      "plo": 9445,
      "plan": 9446,
      "plom": 9447,
      "plant": 9448,
      "plass": 9449,
      "places": 9450,
      "Alas": 9451,
      "Alain": 9452,
      "Alison": 9453,
      "Alonso": 9454,
      "Almanzar": 9455,
      "odor": 9456,
      "bee": 9457,
      "beck": 9458,
      "begins": 9459,
      "eller": 9460,
      "ieson": 9461,
      "rants": 9462,
      "edition": 9463,
      "rome": 9464,
      "Sek": 9465,
      "Sez": 9466,
      "Seitz": 9467,
      "100th": 9468,
      "ikhor": 9469,
      "ikumar": 9470,
      "opal": 9471,
      "opport": 9472,
      "opoulos": 9473,
      "eeb": 9474,
      "eef": 9475,
      "eetha": 9476,
      "Thand": 9477,
      "Thaine": 9478,
      "lyle": 9479,
      "Roque": 9480,
      "Rooney": 9481,
      "Rozier": 9482,
      "anno": 9483,
      "annah": 9484,
      "arta": 9485,
      "uparna": 9486,
      "acko": 9487,
      "ahar": 9488,
      "quene": 9489,
      "udrama": 9490,
      "Deol": 9491,
      "Debut": 9492,
      "Debi": 9493,
      "Dewan": 9494,
      "Debra": 9495,
      "erejeta": 9496,
      "constru": 9497,
      "context": 9498,
      "Unfinished": 9499,
      "Unlike": 9500,
      "uste": 9501,
      "ustrated": 9502,
      "anton": 9503,
      "Leth": 9504,
      "Leif": 9505,
      "Leeds": 9506,
      "Arna": 9507,
      "Armen": 9508,
      "Arora": 9509,
      "Arshad": 9510,
      "geon": 9511,
      "rendra": 9512,
      "pero": 9513,
      "assign": 9514,
      "association": 9515,
      "Neo": 9516,
      "oko": 9517,
      "Enter": 9518,
      "Enough": 9519,
      "serán": 9520,
      "hishek": 9521,
      "prevent": 9522,
      "inehart": 9523,
      "111": 9524,
      "ritiman": 9525,
      "essor": 9526,
      "essed": 9527,
      "loose": 9528,
      "Reich": 9529,
      "Reiser": 9530,
      "Rebellion": 9531,
      "anied": 9532,
      "teaser": 9533,
      "ption": 9534,
      "Parlic": 9535,
      "rosawa": 9536,
      "roslav": 9537,
      "peace": 9538,
      "pected": 9539,
      "excl": 9540,
      "examp": 9541,
      "extens": 9542,
      "incre": 9543,
      "incarcer": 9544,
      "arez": 9545,
      "Daves": 9546,
      "405": 9547,
      "1983": 9548,
      "unden": 9549,
      "inside": 9550,
      "inspir": 9551,
      "uka": 9552,
      "oller": 9553,
      "ickly": 9554,
      "Michigan": 9555,
      "Clive": 9556,
      "Close": 9557,
      "Clinton": 9558,
      "ifically": 9559,
      "Bea": 9560,
      "Beir": 9561,
      "Beij": 9562,
      "Carlyle": 9563,
      "Peña": 9564,
      "Peirano": 9565,
      "Pequene": 9566,
      "Harvey": 9567,
      "Harshika": 9568,
      "1951": 9569,
      "Gerd": 9570,
      "azz": 9571,
      "Blanka": 9572,
      "Blasetti": 9573,
      "illermo": 9574,
      "175": 9575,
      "1770": 9576,
      "object": 9577,
      "acha": 9578,
      "acht": 9579,
      "aching": 9580,
      "achuset": 9581,
      "adey": 9582,
      "Christine": 9583,
      "offerson": 9584,
      "Meera": 9585,
      "Mehta": 9586,
      "Methling": 9587,
      "Geeson": 9588,
      "Abrams": 9589,
      "Abhishek": 9590,
      "ruit": 9591,
      "Scar": 9592,
      "herjee": 9593,
      "Liber": 9594,
      "Brody": 9595,
      "Asano": 9596,
      "McK": 9597,
      "McMan": 9598,
      "McKen": 9599,
      "McMullen": 9600,
      "McQueen": 9601,
      "Mank": 9602,
      "Manisha": 9603,
      "Manhattan": 9604,
      "receive": 9605,
      "webs": 9606,
      "wealth": 9607,
      "Mali": 9608,
      "Malays": 9609,
      "Malte": 9610,
      "Malkovich": 9611,
      "Prog": 9612,
      "Matheson": 9613,
      "Headey": 9614,
      "ensive": 9615,
      "apping": 9616,
      "Jeeva": 9617,
      "Janis": 9618,
      "Monty": 9619,
      "Mori": 9620,
      "Morse": 9621,
      "Moritz": 9622,
      "Morales": 9623,
      "Morrone": 9624,
      "Morricon": 9625,
      "compan": 9626,
      "Singer": 9627,
      "Willie": 9628,
      "Amar": 9629,
      "Amol": 9630,
      "Amato": 9631,
      "Bright": 9632,
      "Jonson": 9633,
      "Elle": 9634,
      "Elmore": 9635,
      "Elsie": 9636,
      "inale": 9637,
      "Moht": 9638,
      "Mooney": 9639,
      "Mojica": 9640,
      "charged": 9641,
      "Rajk": 9642,
      "Rajan": 9643,
      "arkar": 9644,
      "alekha": 9645,
      "mañana": 9646,
      "indigen": 9647,
      "note": 9648,
      "Corban": 9649,
      "Cornel": 9650,
      "Aftab": 9651,
      "Emm": 9652,
      "Emir": 9653,
      "leader": 9654,
      "maker": 9655,
      "Conway": 9656,
      "Conrad": 9657,
      "Roshan": 9658,
      "Cooper": 9659,
      "Coelhos": 9660,
      "Patrice": 9661,
      "Marko": 9662,
      "Atanu": 9663,
      "Williamson": 9664,
      "anyon": 9665,
      "Agarwal": 9666,
      "499": 9667,
      "Beno": 9668,
      "Benicio": 9669,
      "sequence": 9670,
      "Allison": 9671,
      "Bhama": 9672,
      "Bhushan": 9673,
      "Guill": 9674,
      "Guhan": 9675,
[...]
