{
  "version": "1.0",
  "truncation": null,
  "padding": null,
  "added_tokens": [
    {
      "id": 0,
      "content": "<UNK>",
      "single_word": false,
      "lstrip": false,
      "rstrip": false,
      "normalized": false,
      "special": true
    },
    {
      "id": 1,
      "content": "<PAD>",
      "single_word": false,
      "lstrip": false,
      "rstrip": false,
      "normalized": false,
      "special": true
    },
    {
      "id": 2,
      "content": "<MASK>",
      "single_word": false,
      "lstrip": false,
      "rstrip": false,
      "normalized": false,
      "special": true
    },
    {
      "id": 3,
      "content": "<SOT>",
      "single_word": false,
      "lstrip": false,
      "rstrip": false,
      "normalized": false,
      "special": true
    },
    {
      "id": 4,
      "content": "<EOT>",
      "single_word": false,
      "lstrip": false,
      "rstrip": false,
      "normalized": false,
      "special": true
    },
    {
      "id": 5,
      "content": "<SUBJ>",
      "single_word": false,
      "lstrip": false,
      "rstrip": false,
      "normalized": false,
      "special": true
    },
    {
      "id": 6,
      "content": "<PRED>",
      "single_word": false,
      "lstrip": false,
      "rstrip": false,
      "normalized": false,
      "special": true
    },
    {
      "id": 7,
      "content": "<OBJ>",
      "single_word": false,
      "lstrip": false,
      "rstrip": false,
      "normalized": false,
      "special": true
    },
    {
      "id": 8,
      "content": "<Text2RDF>",
      "single_word": false,
      "lstrip": false,
      "rstrip": false,
      "normalized": false,
      "special": true
    },
    {
      "id": 9,
      "content": "<RDF2Text>",
      "single_word": false,
      "lstrip": false,
      "rstrip": false,
      "normalized": false,
      "special": true
    },
    {
      "id": 10,
      "content": "<CONTINUERDF>",
      "single_word": false,
      "lstrip": false,
      "rstrip": false,
      "normalized": false,
      "special": true
    }
  ],
  "normalizer": null,
  "pre_tokenizer": {
    "type": "Sequence",
    "pretokenizers": [
      {
        "type": "Split",
        "pattern": {
          "String": "_"
        },
        "behavior": "Removed",
        "invert": false
      },
      {
        "type": "Whitespace"
      }
    ]
  },
  "post_processor": null,
  "decoder": null,
  "model": {
    "type": "BPE",
    "dropout": null,
    "unk_token": "<UNK>",
    "continuing_subword_prefix": null,
    "end_of_word_suffix": null,
    "fuse_unk": false,
    "byte_fallback": false,
    "ignore_merges": false,
    "vocab": {
      "<UNK>": 0,
      "<PAD>": 1,
      "<MASK>": 2,
      "<SOT>": 3,
      "<EOT>": 4,
      "<SUBJ>": 5,
      "<PRED>": 6,
      "<OBJ>": 7,
      "<Text2RDF>": 8,
      "<RDF2Text>": 9,
      "<CONTINUERDF>": 10,
      "!": 11,
      "\"": 12,
      "$": 13,
      "%": 14,
      "&": 15,
      "'": 16,
      "(": 17,
      ")": 18,
      "*": 19,
      "+": 20,
      ",": 21,
      "-": 22,
      ".": 23,
      "/": 24,
      "0": 25,
      "1": 26,
      "2": 27,
      "3": 28,
      "4": 29,
      "5": 30,
      "6": 31,
      "7": 32,
      "8": 33,
      "9": 34,
      ":": 35,
      ";": 36,
      "<": 37,
      ">": 38,
      "?": 39,
      "A": 40,
      "B": 41,
      "C": 42,
      "D": 43,
      "E": 44,
      "F": 45,
      "G": 46,
      "H": 47,
      "I": 48,
      "J": 49,
      "K": 50,
      "L": 51,
      "M": 52,
      "N": 53,
      "O": 54,
      "P": 55,
      "Q": 56,
      "R": 57,
      "S": 58,
      "T": 59,
      "U": 60,
      "V": 61,
      "W": 62,
      "X": 63,
      "Y": 64,
      "Z": 65,
      "[": 66,
      "]": 67,
      "a": 68,
      "b": 69,
      "c": 70,
      "d": 71,
      "e": 72,
      "f": 73,
      "g": 74,
      "h": 75,
      "i": 76,
      "j": 77,
      "k": 78,
      "l": 79,
      "m": 80,
      "n": 81,
      "o": 82,
      "p": 83,
      "q": 84,
      "r": 85,
      "s": 86,
      "t": 87,
      "u": 88,
      "v": 89,
      "w": 90,
      "x": 91,
      "y": 92,
      "z": 93,
      "~": 94,
      "°": 95,
      "½": 96,
      "Á": 97,
      "É": 98,
      "Ö": 99,
      "Þ": 100,
      "ß": 101,
      "à": 102,
      "á": 103,
      "ä": 104,
      "å": 105,
      "æ": 106,
      "ç": 107,
      "è": 108,
      "é": 109,
      "ê": 110,
      "ë": 111,
      "í": 112,
      "î": 113,
      "ð": 114,
      "ñ": 115,
      "ó": 116,
      "ô": 117,
      "õ": 118,
      "ö": 119,
      "ø": 120,
      "ù": 121,
      "ú": 122,
      "û": 123,
      "ü": 124,
      "ă": 125,
      "ć": 126,
      "č": 127,
      "đ": 128,
      "ğ": 129,
      "ĩ": 130,
      "ī": 131,
      "İ": 132,
      "ı": 133,
      "ł": 134,
      "Ō": 135,
      "ō": 136,
      "ś": 137,
      "ş": 138,
      "š": 139,
      "ū": 140,
      "Ż": 141,
      "ǒ": 142,
      "ș": 143,
      "ɐ": 144,
      "ɔ": 145,
      "ɛ": 146,
      "ɪ": 147,
      "ʃ": 148,
      "ʎ": 149,
      "ʏ": 150,
      "ˈ": 151,
      "ː": 152,
      "̩": 153,
      "̯": 154,
      "Ε": 155,
      "ά": 156,
      "ί": 157,
      "α": 158,
      "δ": 159,
      "ε": 160,
      "ι": 161,
      "κ": 162,
      "λ": 163,
      "ρ": 164,
      "ς": 165,
      "τ": 166,
      "χ": 167,
      "ό": 168,
      "И": 169,
      "О": 170,
      "П": 171,
      "Р": 172,
      "С": 173,
      "а": 174,
      "б": 175,
      "в": 176,
      "г": 177,
      "д": 178,
      "е": 179,
      "ж": 180,
      "з": 181,
      "и": 182,
      "й": 183,
      "к": 184,
      "л": 185,
      "м": 186,
      "н": 187,
      "о": 188,
      "п": 189,
      "р": 190,
      "с": 191,
      "т": 192,
      "у": 193,
      "ф": 194,
      "х": 195,
      "ц": 196,
      "ш": 197,
      "щ": 198,
      "ы": 199,
      "ь": 200,
      "я": 201,
      "א": 202,
      "ב": 203,
      "ג": 204,
      "ד": 205,
      "ה": 206,
      "ו": 207,
      "י": 208,
      "ך": 209,
      "ל": 210,
      "ם": 211,
      "מ": 212,
      "פ": 213,
      "ר": 214,
      "خ": 215,
      "ر": 216,
      "ض": 217,
      "ط": 218,
      "ف": 219,
      "م": 220,
      "و": 221,
      "ي": 222,
      "١": 223,
      "٨": 224,
      "ی": 225,
      "ট": 226,
      "দ": 227,
      "শ": 228,
      "া": 229,
      "ก": 230,
      "ง": 231,
      "ม": 232,
      "ย": 233,
      "ส": 234,
      "อ": 235,
      "เ": 236,
      "၀": 237,
      "၁": 238,
      "၄": 239,
      "ა": 240,
      "ე": 241,
      "ი": 242,
      "მ": 243,
      "ტ": 244,
      "ც": 245,
      "ế": 246,
      "–": 247,
      "—": 248,
      "‘": 249,
      "’": 250,
      "“": 251,
      "”": 252,
      "„": 253,
      "⁄": 254,
      "₹": 255,
      "〜": 256,
      "う": 257,
      "こ": 258,
      "た": 259,
      "ち": 260,
      "と": 261,
      "に": 262,
      "の": 263,
      "イ": 264,
      "カ": 265,
      "ク": 266,
      "セ": 267,
      "チ": 268,
      "ッ": 269,
      "ト": 270,
      "ド": 271,
      "ハ": 272,
      "ミ": 273,
      "リ": 274,
      "・": 275,
      "三": 276,
      "上": 277,
      "不": 278,
      "二": 279,
      "五": 280,
      "人": 281,
      "僕": 282,
      "円": 283,
      "冒": 284,
      "分": 285,
      "刺": 286,
      "十": 287,
      "向": 288,
      "夏": 289,
      "天": 290,
      "夫": 291,
      "妻": 292,
      "子": 293,
      "客": 294,
      "寒": 295,
      "島": 296,
      "帝": 297,
      "復": 298,
      "恋": 299,
      "愛": 300,
      "應": 301,
      "我": 302,
      "效": 303,
      "日": 304,
      "束": 305,
      "樓": 306,
      "殺": 307,
      "決": 308,
      "海": 309,
      "爱": 310,
      "物": 311,
      "犬": 312,
      "由": 313,
      "疯": 314,
      "瘋": 315,
      "百": 316,
      "的": 317,
      "真": 318,
      "私": 319,
      "紀": 320,
      "約": 321,
      "組": 322,
      "者": 323,
      "能": 324,
      "自": 325,
      "若": 326,
      "蟬": 327,
      "衛": 328,
      "衣": 329,
      "語": 330,
      "讐": 331,
      "说": 332,
      "郎": 333,
      "金": 334,
      "錦": 335,
      "険": 336,
      "難": 337,
      "馬": 338,
      "骰": 339,
      "鴨": 340,
      "鸭": 341,
      "분": 342,
      "시": 343,
      "아": 344,
      "엔": 345,
      "열": 346,
      "이": 347,
      "지": 348,
      "한": 349,
      "０": 350,
      "１": 351,
      "db": 352,
      "BJ": 353,
      "OT": 354,
      "dbr": 355,
      "in": 356,
      "an": 357,
      "er": 358,
      "ar": 359,
      "st": 360,
      "ED": 361,
      "EOT": 362,
      "OBJ": 363,
      "PR": 364,
      "SU": 365,
      "SOT": 366,
      "dbo": 367,
      "PRED": 368,
      "SUBJ": 369,
      "il": 370,
      "th": 371,
      "or": 372,
      "re": 373,
      "on": 374,
      "ing": 375,
      "ilm": 376,
      "en": 377,
      "ed": 378,
      "film": 379,
      "the": 380,
      "at": 381,
      "al": 382,
      "as": 383,
      "star": 384,
      "di": 385,
      "it": 386,
      "is": 387,
      "ct": 388,
      "and": 389,
      "ring": 390,
      "starring": 391,
      "es": 392,
      "ic": 393,
      "10": 394,
      "ro": 395,
      "el": 396,
      "am": 397,
      "rect": 398,
      "of": 399,
      "direct": 400,
      "he": 401,
      "ou": 402,
      "om": 403,
      "20": 404,
      "by": 405,
      "ri": 406,
      "le": 407,
      "ion": 408,
      "ra": 409,
      "The": 410,
      "os": 411,
      "rit": 412,
      "to": 413,
      "ol": 414,
      "ut": 415,
      "em": 416,
      "12": 417,
      "ay": 418,
      "writ": 419,
      "us": 420,
      "du": 421,
      "ent": 422,
      "director": 423,
      "ad": 424,
      "19": 425,
      "ch": 426,
      "was": 427,
      "pro": 428,
      "13": 429,
      "et": 430,
      "..": 431,
      "ag": 432,
      "100": 433,
      "un": 434,
      "produ": 435,
      "for": 436,
      "produc": 437,
      "writer": 438,
      "directed": 439,
      "ig": 440,
      "ir": 441,
      "ov": 442,
      "id": 443,
      "iv": 444,
      "la": 445,
      "00": 446,
      "It": 447,
      "ur": 448,
      "est": 449,
      "ph": 450,
      "im": 451,
      "og": 452,
      "ang": 453,
      "lo": 454,
      "Ch": 455,
      "ck": 456,
      "11": 457,
      "ers": 458,
      "but": 459,
      "ce": 460,
      "ard": 461,
      "omp": 462,
      "ak": 463,
      "man": 464,
      "St": 465,
      "producer": 466,
      "ill": 467,
      "18": 468,
      "ian": 469,
      ":'": 470,
      "wh": 471,
      "An": 472,
      "ber": 473,
      "ha": 474,
      "ul": 475,
      "usic": 476,
      "ie": 477,
      "age": 478,
      "ter": 479,
      "music": 480,
      "stri": 481,
      "Al": 482,
      "ev": 483,
      "ot": 484,
      "um": 485,
      "200": 486,
      "res": 487,
      "15": 488,
      "ompos": 489,
      "14": 490,
      "act": 491,
      "oun": 492,
      "Mar": 493,
      "ation": 494,
      "stribut": 495,
      "ht": 496,
      "ased": 497,
      "distribut": 498,
      "...": 499,
      "inem": 500,
      "all": 501,
      "omposer": 502,
      "ear": 503,
      "ab": 504,
      "de": 505,
      "ith": 506,
      "Film": 507,
      "mer": 508,
      "raph": 509,
      "De": 510,
      "Composer": 511,
      "ey": 512,
      "angu": 513,
      "distributor": 514,
      "In": 515,
      "musicComposer": 516,
      "anguage": 517,
      "cinem": 518,
      "ish": 519,
      "ograph": 520,
      "av": 521,
      "ow": 522,
      "ath": 523,
      "language": 524,
      "ten": 525,
      "ry": 526,
      "atograph": 527,
      "ight": 528,
      "cinematograph": 529,
      "sh": 530,
      "our": 531,
      "ich": 532,
      "ram": 533,
      "com": 534,
      "if": 535,
      "rele": 536,
      "Th": 537,
      "be": 538,
      "ap": 539,
      "cinematography": 540,
      "se": 541,
      "22": 542,
      ":...": 543,
      "Sh": 544,
      "Jo": 545,
      "ict": 546,
      "ast": 547,
      "ne": 548,
      "ican": 549,
      "ary": 550,
      "ia": 551,
      "ies": 552,
      "with": 553,
      "ays": 554,
      "16": 555,
      "ort": 556,
      "edit": 557,
      "od": 558,
      "ist": 559,
      "qu": 560,
      "released": 561,
      "ory": 562,
      "art": 563,
      "written": 564,
      "rom": 565,
      "op": 566,
      "Amer": 567,
      "ip": 568,
      "oc": 569,
      "000": 570,
      "ere": 571,
      "ly": 572,
      "sc": 573,
      "ears": 574,
      "American": 575,
      "Se": 576,
      "ward": 577,
      "ate": 578,
      "ain": 579,
      "Ro": 580,
      "su": 581,
      "als": 582,
      "ass": 583,
      "editing": 584,
      "17": 585,
      "ran": 586,
      "ug": 587,
      "ik": 588,
      "ud": 589,
      "199": 590,
      "from": 591,
      "out": 592,
      "hn": 593,
      "les": 594,
      "per": 595,
      "Ar": 596,
      "ong": 597,
      "inut": 598,
      "ds": 599,
      "Days": 600,
      "ac": 601,
      "ust": 602,
      "ore": 603,
      "Le": 604,
      "con": 605,
      "ren": 606,
      "ell": 607,
      "ok": 608,
      "pl": 609,
      "ann": 610,
      "ant": 611,
      "mi": 612,
      "pe": 613,
      "ures": 614,
      "who": 615,
      "actor": 616,
      "dram": 617,
      "Years": 618,
      "der": 619,
      "his": 620,
      "ess": 621,
      "En": 622,
      "Men": 623,
      "Minut": 624,
      "John": 625,
      "ue": 626,
      "ine": 627,
      "ge": 628,
      "drama": 629,
      "Re": 630,
      "ins": 631,
      "one": 632,
      "stars": 633,
      "ember": 634,
      "And": 635,
      "te": 636,
      "uk": 637,
      "ount": 638,
      "that": 639,
      "ure": 640,
      "io": 641,
      "edy": 642,
      "Un": 643,
      "ated": 644,
      "produced": 645,
      "ide": 646,
      "Ra": 647,
      "ive": 648,
      "estiv": 649,
      "Ab": 650,
      "Pict": 651,
      "ick": 652,
      "own": 653,
      "also": 654,
      "ai": 655,
      "Minutes": 656,
      "Par": 657,
      "pt": 658,
      "ours": 659,
      "comedy": 660,
      "Dav": 661,
      "We": 662,
      "tit": 663,
      "are": 664,
      "fe": 665,
      "estival": 666,
      "Ne": 667,
      "ser": 668,
      "Mo": 669,
      "af": 670,
      "co": 671,
      "ld": 672,
      "bert": 673,
      "son": 674,
      "101": 675,
      "Pictures": 676,
      "pre": 677,
      "ame": 678,
      "au": 679,
      "irst": 680,
      "Indi": 681,
      "Festival": 682,
      "ack": 683,
      "ding": 684,
      "ep": 685,
      "ical": 686,
      "ife": 687,
      "Ap": 688,
      "War": 689,
      "ost": 690,
      "ani": 691,
      "Hours": 692,
      "enn": 693,
      "ous": 694,
      "2011": 695,
      "ah": 696,
      "oy": 697,
      "ve": 698,
      "ws": 699,
      "ern": 700,
      "erman": 701,
      "story": 702,
      "rist": 703,
      "Cl": 704,
      "up": 705,
      "red": 706,
      "reen": 707,
      "30": 708,
      "count": 709,
      "port": 710,
      "inc": 711,
      "ction": 712,
      "195": 713,
      ":$": 714,
      "Be": 715,
      "ity": 716,
      "ument": 717,
      "ocument": 718,
      "ex": 719,
      "ril": 720,
      "ile": 721,
      "ates": 722,
      "Allo": 723,
      "Award": 724,
      "Sp": 725,
      "az": 726,
      "ment": 727,
      "ocumentary": 728,
      "ton": 729,
      "wor": 730,
      "ese": 731,
      "ley": 732,
      "which": 733,
      "ally": 734,
      "ss": 735,
      "ther": 736,
      "ice": 737,
      "Har": 738,
      "Night": 739,
      "based": 740,
      "her": 741,
      "ele": 742,
      "ove": 743,
      "Ge": 744,
      "ans": 745,
      "play": 746,
      "Best": 747,
      "Mc": 748,
      "Ph": 749,
      "aw": 750,
      "lock": 751,
      "ial": 752,
      "eng": 753,
      "its": 754,
      "ational": 755,
      "08": 756,
      "25": 757,
      "Ros": 758,
      "ls": 759,
      "ris": 760,
      "wo": 761,
      "ounds": 762,
      ":.": 763,
      "den": 764,
      "Christ": 765,
      "Ang": 766,
      "Indian": 767,
      ":%": 768,
      "Fran": 769,
      "Til": 770,
      "Robert": 771,
      "country": 772,
      "Me": 773,
      "ib": 774,
      "ru": 775,
      "att": 776,
      "amil": 777,
      "und": 778,
      "Fe": 779,
      "Love": 780,
      "icha": 781,
      "off": 782,
      "All": 783,
      "German": 784,
      "Micha": 785,
      "ks": 786,
      "ob": 787,
      "ror": 788,
      "ings": 789,
      "end": 790,
      "ens": 791,
      "1001": 792,
      "iller": 793,
      "tern": 794,
      "Er": 795,
      "Will": 796,
      "ff": 797,
      "ames": 798,
      "196": 799,
      "ime": 800,
      "ake": 801,
      "ever": 802,
      "Con": 803,
      "Ma": 804,
      "documentary": 805,
      "ub": 806,
      "rece": 807,
      "screen": 808,
      "Michael": 809,
      "21": 810,
      "Bro": 811,
      "Rich": 812,
      "Wh": 813,
      "first": 814,
      "me": 815,
      "ver": 816,
      "char": 817,
      "David": 818,
      "Je": 819,
      "Jan": 820,
      "Jos": 821,
      "iam": 822,
      "ered": 823,
      "ited": 824,
      "ovie": 825,
      "Mur": 826,
      "udi": 827,
      "anish": 828,
      "rev": 829,
      "ence": 830,
      "fore": 831,
      "ived": 832,
      "ress": 833,
      "feat": 834,
      "series": 835,
      "Bl": 836,
      "Col": 837,
      "ach": 838,
      "iz": 839,
      "alian": 840,
      "roman": 841,
      "Films": 842,
      "Richard": 843,
      "Car": 844,
      "fol": 845,
      "han": 846,
      "Nights": 847,
      "ternational": 848,
      "received": 849,
      "71": 850,
      "Us": 851,
      "ara": 852,
      "ilip": 853,
      "Di": 854,
      "adi": 855,
      "ane": 856,
      "2010": 857,
      "olf": 858,
      "emy": 859,
      "ade": 860,
      "ign": 861,
      "Dec": 862,
      "United": 863,
      "premi": 864,
      "Ac": 865,
      "Bri": 866,
      "Com": 867,
      "Rounds": 868,
      "bo": 869,
      "had": 870,
      "any": 871,
      "2012": 872,
      "2021": 873,
      "Cor": 874,
      "cre": 875,
      "ke": 876,
      "mon": 877,
      "riller": 878,
      "ind": 879,
      "rig": 880,
      "about": 881,
      "April": 882,
      "December": 883,
      "He": 884,
      "May": 885,
      "Nor": 886,
      "has": 887,
      "mas": 888,
      "not": 889,
      "ney": 890,
      "night": 891,
      "tic": 892,
      "we": 893,
      "were": 894,
      "thriller": 895,
      "reet": 896,
      "10th": 897,
      "2015": 898,
      "uss": 899,
      "Geor": 900,
      "William": 901,
      ").": 902,
      ":(": 903,
      "Gir": 904,
      "Jap": 905,
      "Mal": 906,
      "Sc": 907,
      "Was": 908,
      "che": 909,
      "lish": 910,
      "my": 911,
      "ner": 912,
      "anese": 913,
      "over": 914,
      "180": 915,
      "hack": 916,
      "ound": 917,
      "International": 918,
      "title": 919,
      "3F": 920,
      "Ale": 921,
      "Go": 922,
      "Jack": 923,
      "eph": 924,
      "min": 925,
      "ird": 926,
      "Italian": 927,
      "ury": 928,
      "Street": 929,
      "short": 930,
      "//": 931,
      "Mon": 932,
      "Sou": 933,
      "Tamil": 934,
      "Wolf": 935,
      "led": 936,
      "tain": 937,
      "ene": 938,
      "ions": 939,
      "eter": 940,
      "lace": 941,
      "Philip": 942,
      "Don": 943,
      "Mor": 944,
      "No": 945,
      "Pro": 946,
      "You": 947,
      "ier": 948,
      "ma": 949,
      "ank": 950,
      "2013": 951,
      "States": 952,
      "ules": 953,
      "incl": 954,
      "Spanish": 955,
      "romantic": 956,
      "James": 957,
      "Mad": 958,
      "Wor": 959,
      "je": 960,
      "pi": 961,
      "omin": 962,
      "rab": 963,
      "197": 964,
      "ideo": 965,
      "Do": 966,
      "Is": 967,
      "Jon": 968,
      "My": 969,
      "Russ": 970,
      "tin": 971,
      "ari": 972,
      "ord": 973,
      "ale": 974,
      "itt": 975,
      "ely": 976,
      "dep": 977,
      "ugh": 978,
      "after": 979,
      "Bla": 980,
      "Cent": 981,
      "East": 982,
      "Jun": 983,
      "Ken": 984,
      "Pa": 985,
      "ces": 986,
      "gro": 987,
      "made": 988,
      "na": 989,
      "si": 990,
      "two": 991,
      "ato": 992,
      "ica": 993,
      "ademy": 994,
      "ult": 995,
      "2008": 996,
      "Angry": 997,
      "Academy": 998,
      "includ": 999,
      "Ad": 1000,
      "Af": 1001,
      "El": 1002,
      "Sam": 1003,
      "West": 1004,
      "bor": 1005,
      "comp": 1006,
      "tra": 1007,
      "yn": 1008,
      "ase": 1009,
      "2019": 1010,
      "2014": 1011,
      "198": 1012,
      "ett": 1013,
      "2007": 1014,
      "Cal": 1015,
      "Mil": 1016,
      "She": 1017,
      "Sol": 1018,
      "gen": 1019,
      "hist": 1020,
      "kn": 1021,
      "nomin": 1022,
      "won": 1023,
      "zi": 1024,
      "inal": 1025,
      "ree": 1026,
      "ason": 1027,
      "ision": 1028,
      "ics": 1029,
      "eld": 1030,
      "elev": 1031,
      "amed": 1032,
      "1000": 1033,
      "under": 1034,
      "2009": 1035,
      "app": 1036,
      "follo": 1037,
      "George": 1038,
      "World": 1039,
      "Av": 1040,
      "Ba": 1041,
      "Bu": 1042,
      "Co": 1043,
      "Ed": 1044,
      "Lane": 1045,
      "One": 1046,
      "crit": 1047,
      "fi": 1048,
      "hor": 1049,
      "movie": 1050,
      "part": 1051,
      "wn": 1052,
      "ors": 1053,
      "rey": 1054,
      "omen": 1055,
      "able": 1056,
      "Eng": 1057,
      "About": 1058,
      "Moon": 1059,
      "Before": 1060,
      "Girls": 1061,
      "Ag": 1062,
      "Boy": 1063,
      "Fren": 1064,
      "Sch": 1065,
      "Ter": 1066,
      "dra": 1067,
      "ki": 1068,
      "no": 1069,
      "time": 1070,
      "ina": 1071,
      "edding": 1072,
      "films": 1073,
      "their": 1074,
      "ome": 1075,
      "lave": 1076,
      "urn": 1077,
      "2004": 1078,
      "action": 1079,
      "iction": 1080,
      "New": 1081,
      "Awards": 1082,
      "French": 1083,
      "Aug": 1084,
      "Gol": 1085,
      "Lu": 1086,
      "Man": 1087,
      "Sm": 1088,
      "Slave": 1089,
      "cri": 1090,
      "hi": 1091,
      "oor": 1092,
      "van": 1093,
      "video": 1094,
      "theat": 1095,
      "ita": 1096,
      "lead": 1097,
      "Things": 1098,
      "premiered": 1099,
      "South": 1100,
      "Paul": 1101,
      "known": 1102,
      "horror": 1103,
      "August": 1104,
      "01": 1105,
      "As": 1106,
      "Clock": 1107,
      "Hate": 1108,
      "Mi": 1109,
      "Our": 1110,
      "Ray": 1111,
      "Tom": 1112,
      "aj": 1113,
      "cast": 1114,
      "ron": 1115,
      "uary": 1116,
      "inter": 1117,
      "ana": 1118,
      "reg": 1119,
      "roles": 1120,
      "ents": 1121,
      "Enter": 1122,
      "Christmas": 1123,
      "January": 1124,
      "Japanese": 1125,
      "elevision": 1126,
      "English": 1127,
      "Ass": 1128,
      "Brit": 1129,
      "Dal": 1130,
      "Ex": 1131,
      "Sha": 1132,
      "Vi": 1133,
      "Wedding": 1134,
      "down": 1135,
      "li": 1136,
      "int": 1137,
      "oman": 1138,
      "rad": 1139,
      "Deep": 1140,
      "Sept": 1141,
      "Art": 1142,
      "tainment": 1143,
      "Russian": 1144,
      "Entertainment": 1145,
      "British": 1146,
      "September": 1147,
      "Ber": 1148,
      "Beng": 1149,
      "Del": 1150,
      "Gl": 1151,
      "Jim": 1152,
      "Rey": 1153,
      "cl": 1154,
      "mar": 1155,
      "med": 1156,
      "pos": 1157,
      "set": 1158,
      "uo": 1159,
      "ino": 1160,
      "ony": 1161,
      "diers": 1162,
      "iss": 1163,
      "ama": 1164,
      "ray": 1165,
      "ution": 1166,
      "ogy": 1167,
      "Str": 1168,
      "Mark": 1169,
      "being": 1170,
      "apt": 1171,
      "charact": 1172,
      "Ben": 1173,
      "Hol": 1174,
      "Or": 1175,
      "Pe": 1176,
      "Ru": 1177,
      "Rules": 1178,
      "cent": 1179,
      "ger": 1180,
      "har": 1181,
      "lie": 1182,
      "non": 1183,
      "same": 1184,
      "vi": 1185,
      "vent": 1186,
      "indi": 1187,
      "ines": 1188,
      "ily": 1189,
      "orig": 1190,
      "193": 1191,
      "194": 1192,
      "Chin": 1193,
      "ull": 1194,
      "debut": 1195,
      "shot": 1196,
      "Neath": 1197,
      "Conqu": 1198,
      "Am": 1199,
      "Em": 1200,
      "Just": 1201,
      "Life": 1202,
      "Pat": 1203,
      "Peter": 1204,
      "Sun": 1205,
      "Women": 1206,
      "award": 1207,
      "mat": 1208,
      "mak": 1209,
      "ise": 1210,
      "rac": 1211,
      "189": 1212,
      "where": 1213,
      "iews": 1214,
      "ott": 1215,
      "2001": 1216,
      "work": 1217,
      "Murder": 1218,
      "right": 1219,
      "Soldiers": 1220,
      "Da": 1221,
      "Dut": 1222,
      "Mat": 1223,
      "Ram": 1224,
      "cc": 1225,
      "cial": 1226,
      "television": 1227,
      "va": 1228,
      "ves": 1229,
      "tha": 1230,
      "rel": 1231,
      "ington": 1232,
      "ater": 1233,
      "rough": 1234,
      "oug": 1235,
      "2000": 1236,
      "production": 1237,
      "akes": 1238,
      "actress": 1239,
      "ations": 1240,
      "release": 1241,
      "Thom": 1242,
      "Secre": 1243,
      "assins": 1244,
      "Raj": 1245,
      "June": 1246,
      "histor": 1247,
      "Ah": 1248,
      "Arab": 1249,
      "Fath": 1250,
      "Her": 1251,
      "La": 1252,
      "Nov": 1253,
      "Qu": 1254,
      "Sk": 1255,
      "Sil": 1256,
      "TV": 1257,
      "fare": 1258,
      "get": 1259,
      "ler": 1260,
      "nov": 1261,
      "name": 1262,
      "ox": 1263,
      "ock": 1264,
      "ras": 1265,
      "spe": 1266,
      "well": 1267,
      "án": 1268,
      "rem": 1269,
      "ite": 1270,
      "elo": 1271,
      "amp": 1272,
      "old": 1273,
      "ung": 1274,
      "hai": 1275,
      "Deg": 1276,
      "ody": 1277,
      "1997": 1278,
      "Roses": 1279,
      "feature": 1280,
      "Brid": 1281,
      "nominated": 1282,
      "Smith": 1283,
      "Assassins": 1284,
      "),": 1285,
      "45": 1286,
      "BC": 1287,
      "Block": 1288,
      "Mid": 1289,
      "Su": 1290,
      "Twas": 1291,
      "cy": 1292,
      "compos": 1293,
      "ka": 1294,
      "oth": 1295,
      "year": 1296,
      "years": 1297,
      "ref": 1298,
      "ator": 1299,
      "ald": 1300,
      "alk": 1301,
      "ose": 1302,
      "ada": 1303,
      "13th": 1304,
      "Char": 1305,
      "erson": 1306,
      "Stev": 1307,
      "illion": 1308,
      "2006": 1309,
      "ika": 1310,
      "1990": 1311,
      "Lee": 1312,
      "teen": 1313,
      "Park": 1314,
      "Class": 1315,
      "world": 1316,
      "Alex": 1317,
      "including": 1318,
      "Boys": 1319,
      "76": 1320,
      "At": 1321,
      "City": 1322,
      "Dani": 1323,
      "Gh": 1324,
      "Hindi": 1325,
      "Kar": 1326,
      "Part": 1327,
      "Sal": 1328,
      "bene": 1329,
      "cor": 1330,
      "fin": 1331,
      "fiction": 1332,
      "gan": 1333,
      "ji": 1334,
      "life": 1335,
      "mand": 1336,
      "most": 1337,
      "oot": 1338,
      "place": 1339,
      "sl": 1340,
      "sp": 1341,
      "vers": 1342,
      "ze": 1343,
      "through": 1344,
      "amer": 1345,
      "oms": 1346,
      "2022": 1347,
      "during": 1348,
      "unt": 1349,
      "Martin": 1350,
      "been": 1351,
      "Shar": 1352,
      "ists": 1353,
      "opra": 1354,
      "sup": 1355,
      "titled": 1356,
      "Joseph": 1357,
      "follows": 1358,
      "Thomas": 1359,
      "November": 1360,
      "Blocks": 1361,
      "composed": 1362,
      "Can": 1363,
      "Cla": 1364,
      "Gu": 1365,
      "Gar": 1366,
      "How": 1367,
      "Jul": 1368,
      "Not": 1369,
      "Sa": 1370,
      "Wife": 1371,
      "bro": 1372,
      "ho": 1373,
      "hol": 1374,
      "iy": 1375,
      "land": 1376,
      "pres": 1377,
      "sel": 1378,
      "tt": 1379,
      "uri": 1380,
      "inst": 1381,
      "tham": 1382,
      "ism": 1383,
      "ouse": 1384,
      "2016": 1385,
      "chi": 1386,
      "igh": 1387,
      "Chile": 1388,
      "Studi": 1389,
      "ians": 1390,
      "Sex": 1391,
      "screenplay": 1392,
      "Philipp": 1393,
      "critics": 1394,
      "Again": 1395,
      "novel": 1396,
      "Midnight": 1397,
      "50": 1398,
      "Aust": 1399,
      "FF": 1400,
      "Hen": 1401,
      "Lou": 1402,
      "Nation": 1403,
      "Ser": 1404,
      "Ver": 1405,
      "bi": 1406,
      "ca": 1407,
      "go": 1408,
      "him": 1409,
      "key": 1410,
      "ling": 1411,
      "run": 1412,
      "way": 1413,
      "zo": 1414,
      "into": 1415,
      "eral": 1416,
      "ild": 1417,
      "real": 1418,
      "102": 1419,
      "2017": 1420,
      "adapt": 1421,
      "ivers": 1422,
      "lot": 1423,
      "illip": 1424,
      "umb": 1425,
      "2002": 1426,
      "Death": 1427,
      "rilogy": 1428,
      "elect": 1429,
      "features": 1430,
      "Century": 1431,
      "Miles": 1432,
      "field": 1433,
      "Strong": 1434,
      "character": 1435,
      "Justice": 1436,
      "Daniel": 1437,
      "\".": 1438,
      "60": 1439,
      ":!": 1440,
      "Bar": 1441,
      "Bel": 1442,
      "Cio": 1443,
      "Gor": 1444,
      "Jason": 1445,
      "Ko": 1446,
      "Mer": 1447,
      "Mas": 1448,
      "Out": 1449,
      "Oper": 1450,
      "Pos": 1451,
      "Rev": 1452,
      "SS": 1453,
      "Way": 1454,
      "ci": 1455,
      "des": 1456,
      "hman": 1457,
      "iro": 1458,
      "ja": 1459,
      "lit": 1460,
      "nel": 1461,
      "so": 1462,
      "sch": 1463,
      "song": 1464,
      "sopra": 1465,
      "select": 1466,
      "tr": 1467,
      "ts": 1468,
      "vuo": 1469,
      "anim": 1470,
      "ona": 1471,
      "ata": 1472,
      "ella": 1473,
      "ades": 1474,
      "Chris": 1475,
      "Steph": 1476,
      "have": 1477,
      "iew": 1478,
      "ummer": 1479,
      "2003": 1480,
      "March": 1481,
      "ocus": 1482,
      "acc": 1483,
      "Param": 1484,
      "enna": 1485,
      "porting": 1486,
      "portato": 1487,
      "wood": 1488,
      "Jean": 1489,
      "Produ": 1490,
      "più": 1491,
      "Edward": 1492,
      "crime": 1493,
      "Dutch": 1494,
      "illipo": 1495,
      "Cioè": 1496,
      "Posillipo": 1497,
      "vuoi": 1498,
      ".%": 1499,
      "03": 1500,
      "05": 1501,
      "Bab": 1502,
      "Cro": 1503,
      "Cinem": 1504,
      "Fox": 1505,
      "King": 1506,
      "Kal": 1507,
      "Lyn": 1508,
      "Mik": 1509,
      "Movie": 1510,
      "Per": 1511,
      "Sing": 1512,
      "Ten": 1513,
      "air": 1514,
      "boy": 1515,
      "ein": 1516,
      "fl": 1517,
      "focus": 1518,
      "gar": 1519,
      "jav": 1520,
      "kjav": 1521,
      "los": 1522,
      "liv": 1523,
      "men": 1524,
      "oto": 1525,
      "other": 1526,
      "ual": 1527,
      "win": 1528,
      "ík": 1529,
      "thqu": 1530,
      "ories": 1531,
      "ret": 1532,
      "ened": 1533,
      "andra": 1534,
      "role": 1535,
      "rid": 1536,
      "oll": 1537,
      "emb": 1538,
      "ems": 1539,
      "ford": 1540,
      "ovic": 1541,
      "while": 1542,
      "ulla": 1543,
      "umar": 1544,
      "ship": 1545,
      "22FF": 1546,
      "Rob": 1547,
      "peri": 1548,
      "uki": 1549,
      "Davis": 1550,
      "1957": 1551,
      "Feet": 1552,
      "screened": 1553,
      "reviews": 1554,
      "Command": 1555,
      "Golden": 1556,
      "Reykjav": 1557,
      "historical": 1558,
      "Reykjavík": 1559,
      "Act": 1560,
      "Blo": 1561,
      "Brad": 1562,
      "Cy": 1563,
      "Du": 1564,
      "Day": 1565,
      "First": 1566,
      "Gi": 1567,
      "Greg": 1568,
      "Ka": 1569,
      "Oct": 1570,
      "Pri": 1571,
      "Sus": 1572,
      "Sid": 1573,
      "Tor": 1574,
      "Tou": 1575,
      "Tok": 1576,
      "Yank": 1577,
      "ced": 1578,
      "dom": 1579,
      "dem": 1580,
      "gu": 1581,
      "lin": 1582,
      "million": 1583,
      "ning": 1584,
      "ober": 1585,
      "por": 1586,
      "pub": 1587,
      "ric": 1588,
      "sy": 1589,
      "sin": 1590,
      "ura": 1591,
      "war": 1592,
      "wing": 1593,
      "around": 1594,
      "iley": 1595,
      "they": 1596,
      "alam": 1597,
      "dis": 1598,
      "osh": 1599,
      "took": 1600,
      "olution": 1601,
      "123": 1602,
      "12th": 1603,
      "lack": 1604,
      "loy": 1605,
      "cks": 1606,
      "rams": 1607,
      "ocal": 1608,
      "succ": 1609,
      "Andre": 1610,
      "India": 1611,
      "1959": 1612,
      "Angel": 1613,
      "1963": 1614,
      "gross": 1615,
      "borg": 1616,
      "Fathoms": 1617,
      "Ghost": 1618,
      "Henry": 1619,
      "Paramount": 1620,
      "October": 1621,
      "Yankovic": 1622,
      "success": 1623,
      "40": 1624,
      "55": 1625,
      "Comp": 1626,
      "Cann": 1627,
      "Dis": 1628,
      "Dev": 1629,
      "Ear": 1630,
      "Hay": 1631,
      "Im": 1632,
      "Jr": 1633,
      "Jer": 1634,
      "Les": 1635,
      "Live": 1636,
      "Might": 1637,
      "Pim": 1638,
      "Rog": 1639,
      "Trilogy": 1640,
      "bet": 1641,
      "bru": 1642,
      "cer": 1643,
      "call": 1644,
      "ef": 1645,
      "ied": 1646,
      "iet": 1647,
      "lor": 1648,
      "ny": 1649,
      "oo": 1650,
      "pp": 1651,
      "plot": 1652,
      "ted": 1653,
      "ved": 1654,
      "ya": 1655,
      "yl": 1656,
      "za": 1657,
      "ini": 1658,
      "inv": 1659,
      "anth": 1660,
      "ark": 1661,
      "ster": 1662,
      "ston": 1663,
      "this": 1664,
      "thuk": 1665,
      "ond": 1666,
      "oni": 1667,
      "filmmak": 1668,
      "ala": 1669,
      "ali": 1670,
      "ital": 1671,
      "olog": 1672,
      "aded": 1673,
      "again": 1674,
      "una": 1675,
      "ider": 1676,
      "loc": 1677,
      "Story": 1678,
      "berg": 1679,
      "hazi": 1680,
      "distributed": 1681,
      "ighting": 1682,
      "cinematographer": 1683,
      "show": 1684,
      "editor": 1685,
      "istan": 1686,
      "Leo": 1687,
      "Endra": 1688,
      "Reg": 1689,
      "Weird": 1690,
      "France": 1691,
      "Febru": 1692,
      "ffic": 1693,
      "Columb": 1694,
      "book": 1695,
      "ween": 1696,
      "six": 1697,
      "Terror": 1698,
      "Weddings": 1699,
      "Benghazi": 1700,
      "Rule": 1701,
      "original": 1702,
      "1898": 1703,
      "Skies": 1704,
      "Studios": 1705,
      "Philippines": 1706,
      "thquake": 1707,
      "Mighty": 1708,
      "thukulla": 1709,
      "against": 1710,
      "Endrathukulla": 1711,
      "February": 1712,
      "06": 1713,
      "Ari": 1714,
      "Bo": 1715,
      "Bal": 1716,
      "Bill": 1717,
      "Cre": 1718,
      "Cat": 1719,
      "Call": 1720,
      "Cast": 1721,
      "DV": 1722,
      "Ever": 1723,
      "Ger": 1724,
      "Gro": 1725,
      "II": 1726,
      "Ib": 1727,
      "Jac": 1728,
      "Los": 1729,
      "Language": 1730,
      "Mag": 1731,
      "On": 1732,
      "Oka": 1733,
      "Pounds": 1734,
      "Roman": 1735,
      "San": 1736,
      "Tel": 1737,
      "Vas": 1738,
      "Your": 1739,
      "black": 1740,
      "camp": 1741,
      "ft": 1742,
      "four": 1743,
      "ghan": 1744,
      "hand": 1745,
      "named": 1746,
      "sil": 1747,
      "tri": 1748,
      "uel": 1749,
      "ving": 1750,
      "zh": 1751,
      "anak": 1752,
      "illa": 1753,
      "isa": 1754,
      "108": 1755,
      "round": 1756,
      "127": 1757,
      "12B": 1758,
      "009": 1759,
      "ural": 1760,
      "phans": 1761,
      "143": 1762,
      "1408": 1763,
      "Mart": 1764,
      "Dead": 1765,
      "There": 1766,
      "before": 1767,
      "sequ": 1768,
      "que": 1769,
      "oper": 1770,
      "lyn": 1771,
      "sub": 1772,
      "1776": 1773,
      "ugu": 1774,
      "1993": 1775,
      "1996": 1776,
      "pernel": 1777,
      "Abb": 1778,
      "Wee": 1779,
      "eleine": 1780,
      "Meet": 1781,
      "Blue": 1782,
      "ized": 1783,
      "Direct": 1784,
      "premiere": 1785,
      "Malay": 1786,
      "Madeleine": 1787,
      "Schne": 1788,
      "theaters": 1789,
      "Orphans": 1790,
      "Chinese": 1791,
      "racles": 1792,
      "Daily": 1793,
      "Secret": 1794,
      "Arabian": 1795,
      "Quest": 1796,
      "Steve": 1797,
      "Howard": 1798,
      "selected": 1799,
      "animated": 1800,
      "Stephen": 1801,
      "Cyborg": 1802,
      "Tokat": 1803,
      "Pimpernel": 1804,
      "between": 1805,
      "DVD": 1806,
      "Telugu": 1807,
      "silent": 1808,
      "120": 1809,
      "70": 1810,
      "78": 1811,
      "Ak": 1812,
      "Documentary": 1813,
      "Fred": 1814,
      "Fighting": 1815,
      "Give": 1816,
      "Lar": 1817,
      "Last": 1818,
      "Less": 1819,
      "Lau": 1820,
      "Mr": 1821,
      "Mac": 1822,
      "Net": 1823,
      "Ost": 1824,
      "Pol": 1825,
      "Place": 1826,
      "Ren": 1827,
      "Relo": 1828,
      "Sl": 1829,
      "Sto": 1830,
      "Sant": 1831,
      "Tim": 1832,
      "Tak": 1833,
      "Wal": 1834,
      "ba": 1835,
      "bles": 1836,
      "day": 1837,
      "eth": 1838,
      "hal": 1839,
      "ire": 1840,
      "ience": 1841,
      "jour": 1842,
      "ko": 1843,
      "ky": 1844,
      "lic": 1845,
      "minut": 1846,
      "oph": 1847,
      "ood": 1848,
      "ral": 1849,
      "sever": 1850,
      "some": 1851,
      "tell": 1852,
      "uf": 1853,
      "uro": 1854,
      "yan": 1855,
      "ün": 1856,
      "arr": 1857,
      "aries": 1858,
      "ork": 1859,
      "orm": 1860,
      "them": 1861,
      "iser": 1862,
      "ised": 1863,
      "esh": 1864,
      "ami": 1865,
      "ams": 1866,
      "2020": 1867,
      "2018": 1868,
      "ript": 1869,
      "leg": 1870,
      "ione": 1871,
      "dul": 1872,
      "ette": 1873,
      "Items": 1874,
      "low": 1875,
      "1812": 1876,
      "1860": 1877,
      "Ann": 1878,
      "events": 1879,
      "Third": 1880,
      "script": 1881,
      "orean": 1882,
      "cond": 1883,
      "cons": 1884,
      "aired": 1885,
      "Web": 1886,
      "Warner": 1887,
      "ctions": 1888,
      "Harry": 1889,
      "Ern": 1890,
      "When": 1891,
      "charest": 1892,
      "Jeff": 1893,
      "Brian": 1894,
      "Scott": 1895,
      "depend": 1896,
      "Black": 1897,
      "Afghan": 1898,
      "Western": 1899,
      "Bait": 1900,
      "Bucharest": 1901,
      "Miracles": 1902,
      "Dalmat": 1903,
      "posit": 1904,
      "awards": 1905,
      "supporting": 1906,
      "Kingdom": 1907,
      "since": 1908,
      "Earthquake": 1909,
      "Malayalam": 1910,
      "Schneider": 1911,
      "Reloaded": 1912,
      "several": 1913,
      "Dalmatians": 1914,
      "24": 1915,
      "88": 1916,
      "92": 1917,
      "Around": 1918,
      "Bur": 1919,
      "Bern": 1920,
      "Dan": 1921,
      "Dor": 1922,
      "Eg": 1923,
      "Es": 1924,
      "Fra": 1925,
      "Fall": 1926,
      "Gator": 1927,
      "Hall": 1928,
      "Ja": 1929,
      "Kim": 1930,
      "Lev": 1931,
      "Lock": 1932,
      "Med": 1933,
      "Nic": 1934,
      "Pl": 1935,
      "Rif": 1936,
      "Rue": 1937,
      "Rick": 1938,
      "Sw": 1939,
      "Sle": 1940,
      "Summer": 1941,
      "Tis": 1942,
      "Ven": 1943,
      "Vis": 1944,
      "Vay": 1945,
      "Wang": 1946,
      "York": 1947,
      "ban": 1948,
      "best": 1949,
      "col": 1950,
      "eu": 1951,
      "ges": 1952,
      "km": 1953,
      "ken": 1954,
      "kins": 1955,
      "par": 1956,
      "pon": 1957,
      "pra": 1958,
      "pol": 1959,
      "tran": 1960,
      "uer": 1961,
      "view": 1962,
      "wa": 1963,
      "wan": 1964,
      "zes": 1965,
      "ón": 1966,
      "ero": 1967,
      "rees": 1968,
      "enue": 1969,
      "ative": 1970,
      "dit": 1971,
      "eless": 1972,
      "125": 1973,
      "1912": 1974,
      "chdown": 1975,
      "ages": 1976,
      "forman": 1977,
      "idy": 1978,
      "ident": 1979,
      "ange": 1980,
      "aking": 1981,
      "many": 1982,
      "ular": 1983,
      "1492": 1984,
      "athan": 1985,
      "ather": 1986,
      "comm": 1987,
      "coming": 1988,
      "This": 1989,
      "22Pimpernel": 1990,
      "1612": 1991,
      "ople": 1992,
      "1991": 1993,
      "Reward": 1994,
      "Paradi": 1995,
      "eping": 1996,
      "Clover": 1997,
      "azione": 1998,
      "lsen": 1999,
      "Frank": 2000,
      "1968": 2001,
      "Max": 2002,
      "Brook": 2003,
      "Useless": 2004,
      "adian": 2005,
      "miniser": 2006,
      "Monkey": 2007,
      "venture": 2008,
      "Conquest": 2009,
      "Patr": 2010,
      "Matsu": 2011,
      "ough": 2012,
      "Degrees": 2013,
      "Charles": 2014,
      "Canadian": 2015,
      "self": 2016,
      "Cinema": 2017,
      "focuses": 2018,
      "Touchdown": 2019,
      "Ghosts": 2020,
      "Company": 2021,
      "called": 2022,
      "filmmaker": 2023,
      "ological": 2024,
      "Columbia": 2025,
      "dependent": 2026,
      "Fraidy": 2027,
      "Lockdown": 2028,
      "Sleeping": 2029,
      "transl": 2030,
      "Paradise": 2031,
      "Cloverfield": 2032,
      "miniseries": 2033,
      "Monkeys": 2034,
      "+:": 2035,
      "Air": 2036,
      "But": 2037,
      "Dar": 2038,
      "Die": 2039,
      "For": 2040,
      "Fab": 2041,
      "Fore": 2042,
      "Fuk": 2043,
      "Gé": 2044,
      "Gil": 2045,
      "Ha": 2046,
      "Han": 2047,
      "Hel": 2048,
      "Hart": 2049,
      "Hans": 2050,
      "Happ": 2051,
      "Kev": 2052,
      "Kumar": 2053,
      "Lin": 2054,
      "Lor": 2055,
      "Law": 2056,
      "Luna": 2057,
      "Ot": 2058,
      "Pac": 2059,
      "Rill": 2060,
      "Rab": 2061,
      "Rav": 2062,
      "Sel": 2063,
      "Sins": 2064,
      "Sund": 2065,
      "Tz": 2066,
      "Tam": 2067,
      "Tur": 2068,
      "Tai": 2069,
      "US": 2070,
      "Val": 2071,
      "Wood": 2072,
      "back": 2073,
      "cel": 2074,
      "came": 2075,
      "dev": 2076,
      "ira": 2077,
      "ifor": 2078,
      "ku": 2079,
      "kar": 2080,
      "lu": 2081,
      "main": 2082,
      "nan": 2083,
      "num": 2084,
      "ool": 2085,
      "rand": 2086,
      "she": 2087,
      "ty": 2088,
      "wis": 2089,
      "wide": 2090,
      "wden": 2091,
      "youn": 2092,
      "inile": 2093,
      "inally": 2094,
      "erie": 2095,
      "erors": 2096,
      "stand": 2097,
      "filmed": 2098,
      "starred": 2099,
      "disc": 2100,
      "ition": 2101,
      "rowh": 2102,
      "amet": 2103,
      "20th": 2104,
      "let": 2105,
      "rah": 2106,
      "olves": 2107,
      "emen": 2108,
      "empt": 2109,
      "ush": 2110,
      "directorial": 2111,
      "uneral": 2112,
      "fort": 2113,
      "iden": 2114,
      "002": 2115,
      "Chat": 2116,
      "iano": 2117,
      "when": 2118,
      "Anth": 2119,
      "Anne": 2120,
      "ots": 2121,
      "Marbles": 2122,
      "ationship": 2123,
      "cinema": 2124,
      "athinile": 2125,
      "ift": 2126,
      "22Weird": 2127,
      "science": 2128,
      "rant": 2129,
      "rent": 2130,
      "rence": 2131,
      "people": 2132,
      "actors": 2133,
      "Univers": 2134,
      "Raise": 2135,
      "Rawden": 2136,
      "previ": 2137,
      "Harrowh": 2138,
      "awa": 2139,
      "Christoph": 2140,
      "ibre": 2141,
      "attempt": 2142,
      "offic": 2143,
      "Eric": 2144,
      "Bros": 2145,
      "Brown": 2146,
      "What": 2147,
      "José": 2148,
      "Blades": 2149,
      "month": 2150,
      "North": 2151,
      "Japan": 2152,
      "ject": 2153,
      "Jononi": 2154,
      "Blazes": 2155,
      "sius": 2156,
      "Califor": 2157,
      "Avenue": 2158,
      "Moons": 2159,
      "Conquerors": 2160,
      "relationship": 2161,
      "remake": 2162,
      "Bridges": 2163,
      "version": 2164,
      "biograph": 2165,
      "true": 2166,
      "sequel": 2167,
      "Abbas": 2168,
      "tells": 2169,
      "positive": 2170,
      "Vayathinile": 2171,
      "Foreign": 2172,
      "Kevin": 2173,
      "Rillington": 2174,
      "ameti": 2175,
      "previous": 2176,
      "Harrowhouse": 2177,
      "Californ": 2178,
      "34": 2179,
      "49": 2180,
      "Bos": 2181,
      "Bul": 2182,
      "Cel": 2183,
      "Camer": 2184,
      "Dem": 2185,
      "Dig": 2186,
      "Danish": 2187,
      "Euro": 2188,
      "Fan": 2189,
      "Fern": 2190,
      "Funeral": 2191,
      "Gun": 2192,
      "Gang": 2193,
      "Gab": 2194,
      "Green": 2195,
      "Gord": 2196,
      "Hu": 2197,
      "Hor": 2198,
      "Hour": 2199,
      "Jay": 2200,
      "Jag": 2201,
      "Jers": 2202,
      "Jenn": 2203,
      "Jün": 2204,
      "Kat": 2205,
      "Kid": 2206,
      "Kap": 2207,
      "Mah": 2208,
      "Ni": 2209,
      "Nick": 2210,
      "Other": 2211,
      "Offic": 2212,
      "Olsen": 2213,
      "Pr": 2214,
      "Pras": 2215,
      "Rand": 2216,
      "Tra": 2217,
      "Vict": 2218,
      "Ways": 2219,
      "Yo": 2220,
      "bu": 2221,
      "bast": 2222,
      "can": 2223,
      "car": 2224,
      "composer": 2225,
      "days": 2226,
      "foot": 2227,
      "graph": 2228,
      "hu": 2229,
      "hy": 2230,
      "hard": 2231,
      "hington": 2232,
      "ials": 2233,
      "ious": 2234,
      "jay": 2235,
      "light": 2236,
      "ml": 2237,
      "mil": 2238,
      "mit": 2239,
      "met": 2240,
      "more": 2241,
      "pr": 2242,
      "sit": 2243,
      "sim": 2244,
      "tim": 2245,
      "ven": 2246,
      "will": 2247,
      "xter": 2248,
      "–'": 2249,
      "stud": 2250,
      "studi": 2251,
      "thor": 2252,
      "three": 2253,
      "reat": 2254,
      "ature": 2255,
      "ities": 2256,
      "andr": 2257,
      "10ml": 2258,
      "els": 2259,
      "ries": 2260,
      "ional": 2261,
      "emory": 2262,
      "use": 2263,
      "used": 2264,
      "entry": 2265,
      "last": 2266,
      "laim": 2267,
      "photo": 2268,
      "185": 2269,
      "berto": 2270,
      "musician": 2271,
      "ume": 2272,
      "2005": 2273,
      "144": 2274,
      "Thus": 2275,
      "Shift": 2276,
      "Joe": 2277,
      "16th": 2278,
      "such": 2279,
      "Lead": 2280,
      "uke": 2281,
      "fect": 2282,
      "auf": 2283,
      "1950": 2284,
      "Harm": 2285,
      "rison": 2286,
      "Maiden": 2287,
      "Diaries": 2288,
      "Come": 2289,
      "Washington": 2290,
      "Aleks": 2291,
      "Going": 2292,
      "Streets": 2293,
      "Prod": 2294,
      "Jones": 2295,
      "company": 2296,
      "etti": 2297,
      "Calibre": 2298,
      "mark": 2299,
      "century": 2300,
      "originally": 2301,
      "Bridge": 2302,
      "refer": 2303,
      "refers": 2304,
      "Alexand": 2305,
      "present": 2306,
      "adaptation": 2307,
      "Operazione": 2308,
      "Productions": 2309,
      "Lynn": 2310,
      "sych": 2311,
      "loyd": 2312,
      "Angeles": 2313,
      "Cannes": 2314,
      "Afghanistan": 2315,
      "Rifles": 2316,
      "polit": 2317,
      "Brooklyn": 2318,
      "Patrick": 2319,
      "Happens": 2320,
      "Otto": 2321,
      "Tzameti": 2322,
      "Anthony": 2323,
      "Christopher": 2324,
      "California": 2325,
      "Fanboy": 2326,
      "Gordon": 2327,
      "Jersey": 2328,
      "Jünger": 2329,
      "Officials": 2330,
      "\",": 2331,
      "27": 2332,
      "778": 2333,
      "99": 2334,
      ":-": 2335,
      "Au": 2336,
      "Age": 2337,
      "Bun": 2338,
      "Bever": 2339,
      "Dhe": 2340,
      "Eerie": 2341,
      "Far": 2342,
      "Fre": 2343,
      "Fright": 2344,
      "Gon": 2345,
      "Gian": 2346,
      "God": 2347,
      "Hers": 2348,
      "Ichi": 2349,
      "Jor": 2350,
      "Kil": 2351,
      "Kath": 2352,
      "Lama": 2353,
      "Lisa": 2354,
      "Lloyd": 2355,
      "Mu": 2356,
      "Mel": 2357,
      "Mos": 2358,
      "Matt": 2359,
      "Nag": 2360,
      "National": 2361,
      "Oh": 2362,
      "Osc": 2363,
      "Pity": 2364,
      "Rames": 2365,
      "Sar": 2366,
      "Sen": 2367,
      "Sak": 2368,
      "Spe": 2369,
      "Tu": 2370,
      "Tri": 2371,
      "Tay": 2372,
      "Wil": 2373,
      "Xmas": 2374,
      "bit": 2375,
      "band": 2376,
      "find": 2377,
      "gir": 2378,
      "gian": 2379,
      "gram": 2380,
      "game": 2381,
      "home": 2382,
      "idi": 2383,
      "kov": 2384,
      "list": 2385,
      "mur": 2386,
      "nam": 2387,
      "nur": 2388,
      "narr": 2389,
      "och": 2390,
      "post": 2391,
      "psych": 2392,
      "sing": 2393,
      "sur": 2394,
      "side": 2395,
      "ude": 2396,
      "val": 2397,
      "woman": 2398,
      "xed": 2399,
      "ypt": 2400,
      "zar": 2401,
      "ía": 2402,
      "independent": 2403,
      "ance": 2404,
      "ared": 2405,
      "than": 2406,
      "thing": 2407,
      "enie": 2408,
      "ences": 2409,
      "eda": 2410,
      "along": 2411,
      "asing": 2412,
      "1040": 2413,
      "ross": 2414,
      "ried": 2415,
      "olzh": 2416,
      "ement": 2417,
      "ental": 2418,
      "adventure": 2419,
      "cher": 2420,
      "form": 2421,
      "008": 2422,
      "phy": 2423,
      "Stories": 2424,
      "184": 2425,
      "1871": 2426,
      "1888": 2427,
      "Anton": 2428,
      "strict": 2429,
      "Mary": 2430,
      "Marie": 2431,
      "Mario": 2432,
      "ights": 2433,
      "ourt": 2434,
      "comes": 2435,
      "second": 2436,
      "Job": 2437,
      "Joy": 2438,
      "Sebast": 2439,
      "Road": 2440,
      "assin": 2441,
      "udes": 2442,
      "perim": 2443,
      "Arth": 2444,
      "cont": 2445,
      "mixed": 2446,
      "team": 2447,
      "Abdul": 2448,
      "Picture": 2449,
      "titudes": 2450,
      "cohol": 2451,
      "Clif": 2452,
      "portray": 2453,
      "Bee": 2454,
      "Geoff": 2455,
      "obb": 2456,
      "Whore": 2457,
      "very": 2458,
      "revolves": 2459,
      "Colle": 2460,
      "folds": 2461,
      "adia": 2462,
      "Comfort": 2463,
      "mond": 2464,
      "myster": 2465,
      "Isab": 2466,
      "depict": 2467,
      "includes": 2468,
      "Code": 2469,
      "Luis": 2470,
      "Dalai": 2471,
      "Vienna": 2472,
      "Vijay": 2473,
      "lix": 2474,
      "Bengali": 2475,
      "Glory": 2476,
      "poss": 2477,
      "Holding": 2478,
      "1935": 2479,
      "Chintham": 2480,
      "Secrecy": 2481,
      "Ahmed": 2482,
      "worldwide": 2483,
      "Attitudes": 2484,
      "July": 2485,
      "Revolution": 2486,
      "Singap": 2487,
      "period": 2488,
      "Disney": 2489,
      "Leslie": 2490,
      "Terrorists": 2491,
      "Jacob": 2492,
      "Questions": 2493,
      "minutes": 2494,
      "Ernst": 2495,
      "Sundar": 2496,
      "young": 2497,
      "Universal": 2498,
      "Celsius": 2499,
      "Gabri": 2500,
      "Victor": 2501,
      "graphy": 2502,
      "Prodolzh": 2503,
      "Beverly": 2504,
      "Frightened": 2505,
      "Ramesh": 2506,
      "psychological": 2507,
      "Sebastian": 2508,
      "Chinthamani": 2509,
      "Prodolzhenie": 2510,
      "29": 2511,
      "9th": 2512,
      ":&": 2513,
      "Bre": 2514,
      "Bru": 2515,
      "Bron": 2516,
      "Bhar": 2517,
      "Cra": 2518,
      "Cobb": 2519,
      "Des": 2520,
      "Ev": 2521,
      "Fer": 2522,
      "Ford": 2523,
      "Hiro": 2524,
      "Jules": 2525,
      "Kō": 2526,
      "Kay": 2527,
      "Kate": 2528,
      "Kann": 2529,
      "Mill": 2530,
      "Nik": 2531,
      "PM": 2532,
      "Puri": 2533,
      "Red": 2534,
      "Rod": 2535,
      "Rele": 2536,
      "Sim": 2537,
      "Squ": 2538,
      "Te": 2539,
      "Vin": 2540,
      "Vla": 2541,
      "Wright": 2542,
      "Ze": 2543,
      "ace": 2544,
      "bin": 2545,
      "bud": 2546,
      "cou": 2547,
      "cap": 2548,
      "cate": 2549,
      "cult": 2550,
      "do": 2551,
      "del": 2552,
      "fem": 2553,
      "flix": 2554,
      "ga": 2555,
      "gent": 2556,
      "gang": 2557,
      "gant": 2558,
      "ially": 2559,
      "jo": 2560,
      "nol": 2561,
      "oh": 2562,
      "oice": 2563,
      "po": 2564,
      "pse": 2565,
      "panak": 2566,
      "uz": 2567,
      "vis": 2568,
      "wro": 2569,
      "went": 2570,
      "yo": 2571,
      "ypse": 2572,
      "én": 2573,
      "és": 2574,
      "ili": 2575,
      "though": 2576,
      "ori": 2577,
      "order": 2578,
      "ones": 2579,
      "ash": 2580,
      "asan": 2581,
      "die": 2582,
      "itution": 2583,
      "issu": 2584,
      "eson": 2585,
      "rogant": 2586,
      "elle": 2587,
      "elop": 2588,
      "rik": 2589,
      "town": 2590,
      "ola": 2591,
      "add": 2592,
      "prov": 2593,
      "eta": 2594,
      "etnam": 2595,
      "agar": 2596,
      "agne": 2597,
      "iger": 2598,
      "overs": 2599,
      "ida": 2600,
      "ively": 2601,
      "Its": 2602,
      "Chand": 2603,
      "Child": 2604,
      "118": 2605,
      "cept": 2606,
      "aki": 2607,
      "aks": 2608,
      "mann": 2609,
      "Star": 2610,
      "1870": 2611,
      "haas": 2612,
      "termin": 2613,
      "Alcohol": 2614,
      "even": 2615,
      "death": 2616,
      "Dee": 2617,
      "shown": 2618,
      "ichi": 2619,
      "section": 2620,
      "Sean": 2621,
      "ike": 2622,
      "performan": 2623,
      "Arrogant": 2624,
      "across": 2625,
      "Lewis": 2626,
      "plays": 2627,
      "anner": 2628,
      "annel": 2629,
      "ants": 2630,
      "inson": 2631,
      "Rach": 2632,
      "Weiss": 2633,
      "Moh": 2634,
      "Moore": 2635,
      "Mother": 2636,
      "affolds": 2637,
      "Apocal": 2638,
      "incip": 2639,
      "experim": 2640,
      "Rose": 2641,
      "Christian": 2642,
      "ible": 2643,
      "amily": 2644,
      "Feku": 2645,
      "endra": 2646,
      "ensemb": 2647,
      "White": 2648,
      "Murphy": 2649,
      "Carro": 2650,
      "both": 2651,
      "Scaffolds": 2652,
      "Wasn": 2653,
      "Philippe": 2654,
      "jee": 2655,
      "1977": 2656,
      "Jonathan": 2657,
      "naa": 2658,
      "Adam": 2659,
      "Afr": 2660,
      "gener": 2661,
      "appear": 2662,
      "following": 2663,
      "Aval": 2664,
      "drag": 2665,
      "Luc": 2666,
      "Vietnam": 2667,
      "Murderer": 2668,
      "special": 2669,
      "Degree": 2670,
      "tti": 2671,
      "Louis": 2672,
      "himself": 2673,
      "Bablu": 2674,
      "Kalpanak": 2675,
      "Actor": 2676,
      "Sidney": 2677,
      "demi": 2678,
      "public": 2679,
      "grossing": 2680,
      "Castle": 2681,
      "campagne": 2682,
      "Week": 2683,
      "Netflix": 2684,
      "Ostagar": 2685,
      "journey": 2686,
      "Egypt": 2687,
      "Esmer": 2688,
      "Visnaa": 2689,
      "Fabian": 2690,
      "Lawrence": 2691,
      "official": 2692,
      "Bulgar": 2693,
      "photography": 2694,
      "1857": 2695,
      "Austri": 2696,
      "Bunny": 2697,
      "Dhehaas": 2698,
      "Joris": 2699,
      "Oscar": 2700,
      "Joyce": 2701,
      "Arthur": 2702,
      "Kannada": 2703,
      "Square": 2704,
      "categ": 2705,
      "wrote": 2706,
      "Apocalypse": 2707,
      "ensemble": 2708,
      "Babluani": 2709,
      "Kalpanakal": 2710,
      "')": 2711,
      "23": 2712,
      "28": 2713,
      "38": 2714,
      "Ash": 2715,
      "Bol": 2716,
      "Bay": 2717,
      "Bir": 2718,
      "Bach": 2719,
      "Che": 2720,
      "Cur": 2721,
      "Cory": 2722,
      "Dog": 2723,
      "Doug": 2724,
      "Fel": 2725,
      "Flor": 2726,
      "Gill": 2727,
      "Gop": 2728,
      "Ham": 2729,
      "Hill": 2730,
      "Jes": 2731,
      "Ke": 2732,
      "Kn": 2733,
      "Kr": 2734,
      "Kan": 2735,
      "Ker": 2736,
      "Kom": 2737,
      "Kai": 2738,
      "Korean": 2739,
      "Mit": 2740,
      "Mus": 2741,
      "Mass": 2742,
      "Muk": 2743,
      "Mile": 2744,
      "Memory": 2745,
      "Oliv": 2746,
      "Pad": 2747,
      "Pitt": 2748,
      "Rent": 2749,
      "Rid": 2750,
      "Sue": 2751,
      "To": 2752,
      "Trev": 2753,
      "Vik": 2754,
      "Voor": 2755,
      "Ward": 2756,
      "aid": 2757,
      "bill": 2758,
      "cu": 2759,
      "cis": 2760,
      "cism": 2761,
      "da": 2762,
      "ec": 2763,
      "eight": 2764,
      "fa": 2765,
      "five": 2766,
      "festiv": 2767,
      "found": 2768,
      "gra": 2769,
      "hel": 2770,
      "halk": 2771,
      "ij": 2772,
      "iu": 2773,
      "jours": 2774,
      "leng": 2775,
      "later": 2776,
      "mir": 2777,
      "ni": 2778,
      "ness": 2779,
      "oon": 2780,
      "ois": 2781,
      "person": 2782,
      "rs": 2783,
      "rical": 2784,
      "sound": 2785,
      "vari": 2786,
      "ödi": 2787,
      "iner": 2788,
      "erous": 2789,
      "ars": 2790,
      "third": 2791,
      "enth": 2792,
      "edon": 2793,
      "ales": 2794,
      "itz": 2795,
      "ises": 2796,
      "andro": 2797,
      "hees": 2798,
      "oul": 2799,
      "ometer": 2800,
      "osely": 2801,
      "aya": 2802,
      "usep": 2803,
      "1971": 2804,
      "chan": 2805,
      "child": 2806,
      "iva": 2807,
      "ivang": 2808,
      "angal": 2809,
      "ardo": 2810,
      "Ste": 2811,
      "Anna": 2812,
      "Alf": 2813,
      "Ali": 2814,
      "Alan": 2815,
      "respon": 2816,
      "Marqu": 2817,
      "allel": 2818,
      "Invent": 2819,
      "cinemas": 2820,
      "ished": 2821,
      "commer": 2822,
      "ifer": 2823,
      "Thala": 2824,
      "began": 2825,
      "became": 2826,
      "aster": 2827,
      "new": 2828,
      "neth": 2829,
      "artist": 2830,
      "score": 2831,
      "17th": 2832,
      "1994": 2833,
      "less": 2834,
      "Argent": 2835,
      "elli": 2836,
      "plor": 2837,
      "anny": 2838,
      "peal": 2839,
      "pect": 2840,
      "Johnson": 2841,
      "inspi": 2842,
      "Untitled": 2843,
      "icka": 2844,
      "feeu": 2845,
      "101st": 2846,
      "audi": 2847,
      "epis": 2848,
      "Apoor": 2849,
      "enny": 2850,
      "ousand": 2851,
      "303": 2852,
      "countries": 2853,
      "1954": 2854,
      "exp": 2855,
      "experi": 2856,
      "explor": 2857,
      "azar": 2858,
      "worth": 2859,
      "aware": 2860,
      "Roberts": 2861,
      "Feature": 2862,
      "screenwriter": 2863,
      "charov": 2864,
      "Josh": 2865,
      "Colin": 2866,
      "Carl": 2867,
      "Corona": 2868,
      "created": 2869,
      "lished": 2870,
      "Morgan": 2871,
      "Kenneth": 2872,
      "group": 2873,
      "history": 2874,
      "Bucks": 2875,
      "partic": 2876,
      "theatrical": 2877,
      "Extermin": 2878,
      "Shafeeu": 2879,
      "Berlin": 2880,
      "Delaware": 2881,
      "ission": 2882,
      "characters": 2883,
      "ullen": 2884,
      "Silent": 2885,
      "cording": 2886,
      "spel": 2887,
      "adapted": 2888,
      "Barb": 2889,
      "Gorō": 2890,
      "Operation": 2891,
      "Mikhalk": 2892,
      "flicka": 2893,
      "lives": 2894,
      "return": 2895,
      "Giusep": 2896,
      "grossed": 2897,
      "Haytham": 2898,
      "Ariz": 2899,
      "Ibn": 2900,
      "Romance": 2901,
      "Director": 2902,
      "Géla": 2903,
      "Rabbit": 2904,
      "months": 2905,
      "biographical": 2906,
      "Digital": 2907,
      "Europe": 2908,
      "Jennifer": 2909,
      "Prasad": 2910,
      "footage": 2911,
      "studio": 2912,
      "Aleksandr": 2913,
      "political": 2914,
      "Goncharov": 2915,
      "Kilometer": 2916,
      "Special": 2917,
      "girl": 2918,
      "murder": 2919,
      "1848": 2920,
      "Geoffrey": 2921,
      "Sundaram": 2922,
      "Bharath": 2923,
      "budget": 2924,
      "female": 2925,
      "Weissman": 2926,
      "incipal": 2927,
      "Carrot": 2928,
      "dragspel": 2929,
      "Komödi": 2930,
      "Oliver": 2931,
      "Voorhees": 2932,
      "festivals": 2933,
      "length": 2934,
      "ivangi": 2935,
      "Inventions": 2936,
      "Thalaivangi": 2937,
      "Argentine": 2938,
      "Apoorva": 2939,
      "Exterminate": 2940,
      "Mikhalkov": 2941,
      "Giuseppe": 2942,
      "Komödiant": 2943,
      "96": 2944,
      "Az": 2945,
      "Aar": 2946,
      "Bh": 2947,
      "Bak": 2948,
      "Based": 2949,
      "Bud": 2950,
      "Bren": 2951,
      "Bob": 2952,
      "Cer": 2953,
      "Caj": 2954,
      "Court": 2955,
      "Den": 2956,
      "Doll": 2957,
      "Ele": 2958,
      "Filip": 2959,
      "Gr": 2960,
      "Gog": 2961,
      "Gelo": 2962,
      "Grams": 2963,
      "Grant": 2964,
      "His": 2965,
      "Hir": 2966,
      "Hugh": 2967,
      "Hung": 2968,
      "If": 2969,
      "Jam": 2970,
      "Ki": 2971,
      "Kel": 2972,
      "Kam": 2973,
      "Kirst": 2974,
      "Khan": 2975,
      "Khal": 2976,
      "Land": 2977,
      "Long": 2978,
      "Local": 2979,
      "Lond": 2980,
      "Luke": 2981,
      "Mot": 2982,
      "Mex": 2983,
      "Nam": 2984,
      "OV": 2985,
      "Own": 2986,
      "Pi": 2987,
      "Port": 2988,
      "Prom": 2989,
      "Ral": 2990,
      "Rol": 2991,
      "Sn": 2992,
      "So": 2993,
      "Sub": 2994,
      "Sign": 2995,
      "Tro": 2996,
      "Tol": 2997,
      "Tsu": 2998,
      "Var": 2999,
      "Vol": 3000,
      "Video": 3001,
      "Viley": 3002,
      "Wa": 3003,
      "With": 3004,
      "bre": 3005,
      "ble": 3006,
      "ball": 3007,
      "bore": 3008,
      "bell": 3009,
      "banner": 3010,
      "cat": 3011,
      "cover": 3012,
      "doll": 3013,
      "fd": 3014,
      "fut": 3015,
      "ful": 3016,
      "fran": 3017,
      "final": 3018,
      "full": 3019,
      "father": 3020,
      "family": 3021,
      "hil": 3022,
      "hig": 3023,
      "hot": 3024,
      "ix": 3025,
      "lim": 3026,
      "late": 3027,
      "line": 3028,
      "ltim": 3029,
      "mut": 3030,
      "memb": 3031,
      "nie": 3032,
      "nik": 3033,
      "pen": 3034,
      "pent": 3035,
      "pop": 3036,
      "pass": 3037,
      "rn": 3038,
      "rat": 3039,
      "rong": 3040,
      "ralian": 3041,
      "sol": 3042,
      "sla": 3043,
      "sha": 3044,
      "sign": 3045,
      "tar": 3046,
      "tis": 3047,
      "till": 3048,
      "takes": 3049,
      "uck": 3050,
      "var": 3051,
      "views": 3052,
      "wu": 3053,
      "wanese": 3054,
      "women": 3055,
      "x10": 3056,
      "zu": 3057,
      "zy": 3058,
      "zemen": 3059,
      "Öz": 3060,
      "ák": 3061,
      "anime": 3062,
      "eres": 3063,
      "iled": 3064,
      "iles": 3065,
      "orcism": 3066,
      "only": 3067,
      "ingo": 3068,
      "ena": 3069,
      "ati": 3070,
      "alog": 3071,
      "dimir": 3072,
      "dialog": 3073,
      "isha": 3074,
      "anda": 3075,
      "ico": 3076,
      "1014": 3077,
      "10x10": 3078,
      "rop": 3079,
      "elf": 3080,
      "elin": 3081,
      "among": 3082,
      "direction": 3083,
      "hest": 3084,
      "Theo": 3085,
      "oshi": 3086,
      "osuf": 3087,
      "top": 3088,
      "usion": 3089,
      "adcast": 3090,
      "addit": 3091,
      "program": 3092,
      "etje": 3093,
      "etition": 3094,
      "unter": 3095,
      "former": 3096,
      "producers": 3097,
      "iru": 3098,
      "oved": 3099,
      "iving": 3100,
      "ester": 3101,
      "estig": 3102,
      "ima": 3103,
      "loosely": 3104,
      "Chody": 3105,
      "whose": 3106,
      "terjee": 3107,
      "musical": 3108,
      "Aless": 3109,
      "event": 3110,
      "resc": 3111,
      "150": 3112,
      "athi": 3113,
      "shi": 3114,
      "Shir": 3115,
      "Show": 3116,
      "Shank": 3117,
      "qui": 3118,
      "lywood": 3119,
      "aine": 3120,
      "176": 3121,
      "1999": 3122,
      "Army": 3123,
      "Arbore": 3124,
      "conf": 3125,
      "ante": 3126,
      "antas": 3127,
      "Minute": 3128,
      "tech": 3129,
      "Paran": 3130,
      "Parallel": 3131,
      "aff": 3132,
      "preg": 3133,
      "Appeal": 3134,
      "Warren": 3135,
      "Beetje": 3136,
      "Harris": 3137,
      "played": 3138,
      "McC": 3139,
      "Phere": 3140,
      "Franç": 3141,
      "ruth": 3142,
      "attle": 3143,
      "office": 3144,
      "Germany": 3145,
      "every": 3146,
      "araj": 3147,
      "box": 3148,
      "Corp": 3149,
      "Corpor": 3150,
      "notable": 3151,
      "Screen": 3152,
      "Wolfgang": 3153,
      "Donald": 3154,
      "Nowhere": 3155,
      "Nothing": 3156,
      "Madh": 3157,
      "ground": 3158,
      "After": 3159,
      "1984": 3160,
      "nominations": 3161,
      "inald": 3162,
      "Baxter": 3163,
      "Boyle": 3164,
      "Terry": 3165,
      "leading": 3166,
      "aja": 3167,
      "ronic": 3168,
      "Delights": 3169,
      "Holm": 3170,
      "Peaks": 3171,
      "Ruth": 3172,
      "liefd": 3173,
      "Sunil": 3174,
      "gets": 3175,
      "othy": 3176,
      "Charlie": 3177,
      "finished": 3178,
      "until": 3179,
      "Saak": 3180,
      "Austral": 3181,
      "Australian": 3182,
      "Serge": 3183,
      "Verliefd": 3184,
      "Beloved": 3185,
      "design": 3186,
      "school": 3187,
      "033": 3188,
      "Mike": 3189,
      "Blooper": 3190,
      "published": 3191,
      "Andrew": 3192,
      "Imposs": 3193,
      "Jeremy": 3194,
      "Roger": 3195,
      "ylum": 3196,
      "Reginald": 3197,
      "Created": 3198,
      "Macedon": 3199,
      "Renzo": 3200,
      "Santa": 3201,
      "Timothy": 3202,
      "Bernard": 3203,
      "Falling": 3204,
      "Media": 3205,
      "Selva": 3206,
      "Taiwanese": 3207,
      "nancy": 3208,
      "number": 3209,
      "Chatterjee": 3210,
      "Cameras": 3211,
      "Fernand": 3212,
      "Kids": 3213,
      "Kapoor": 3214,
      "Nihil": 3215,
      "Yoosuf": 3216,
      "reference": 3217,
      "Alexander": 3218,
      "Sarah": 3219,
      "Marieke": 3220,
      "Collection": 3221,
      "mystery": 3222,
      "depicts": 3223,
      "Bruce": 3224,
      "Bronzemen": 3225,
      "Cobbers": 3226,
      "Evans": 3227,
      "Nikita": 3228,
      "Vladimir": 3229,
      "Mohamed": 3230,
      "experimental": 3231,
      "generally": 3232,
      "Bulgarian": 3233,
      "Kaiba": 3234,
      "various": 3235,
      "commercial": 3236,
      "inspired": 3237,
      "Arizona": 3238,
      "Aaron": 3239,
      "Cajun": 3240,
      "Gogh": 3241,
      "Geloof": 3242,
      "Kelly": 3243,
      "London": 3244,
      "Promises": 3245,
      "Vileyrey": 3246,
      "future": 3247,
      "highest": 3248,
      "members": 3249,
      "Chodyangal": 3250,
      "Shankar": 3251,
      "Corporation": 3252,
      "Impossible": 3253,
      ".\"": 3254,
      "4th": 3255,
      "66": 3256,
      "Ay": 3257,
      "Audi": 3258,
      "Amy": 3259,
      "Bō": 3260,
      "Bing": 3261,
      "Bang": 3262,
      "Bart": 3263,
      "Cam": 3264,
      "Crist": 3265,
      "Dam": 3266,
      "Dud": 3267,
      "Dates": 3268,
      "Danny": 3269,
      "Ek": 3270,
      "Et": 3271,
      "Ewing": 3272,
      "Fing": 3273,
      "Fate": 3274,
      "Fiction": 3275,
      "Ga": 3276,
      "Gre": 3277,
      "Gri": 3278,
      "Gra": 3279,
      "Gov": 3280,
      "Gib": 3281,
      "Ho": 3282,
      "Hil": 3283,
      "Hon": 3284,
      "Hal": 3285,
      "Hot": 3286,
      "Hong": 3287,
      "Hrs": 3288,
      "Hunter": 3289,
      "Ju": 3290,
      "Jud": 3291,
      "Jess": 3292,
      "KM": 3293,
      "Kur": 3294,
      "Kong": 3295,
      "Kaz": 3296,
      "Kuo": 3297,
      "Len": 3298,
      "Led": 3299,
      "Lum": 3300,
      "Lenn": 3301,
      "Lup": 3302,
      "MP": 3303,
      "Mand": 3304,
      "Met": 3305,
      "Music": 3306,
      "Mey": 3307,
      "Makes": 3308,
      "Nar": 3309,
      "Nat": 3310,
      "Named": 3311,
      "Por": 3312,
      "Ping": 3313,
      "Pal": 3314,
      "Pak": 3315,
      "Pist": 3316,
      "Puer": 3317,
      "Ron": 3318,
      "Ringo": 3319,
      "Sem": 3320,
      "Sony": 3321,
      "Sán": 3322,
      "Sandra": 3323,
      "Tw": 3324,
      "Tan": 3325,
      "Tat": 3326,
      "Tang": 3327,
      "Table": 3328,
      "Tony": 3329,
      "Ultim": 3330,
      "Ve": 3331,
      "Van": 3332,
      "Win": 3333,
      "Wah": 3334,
      "Wadia": 3335,
      "Wrong": 3336,
      "ao": 3337,
      "bur": 3338,
      "burn": 3339,
      "cur": 3340,
      "city": 3341,
      "dr": 3342,
      "dy": 3343,
      "dones": 3344,
      "ez": 3345,
      "festival": 3346,
      "gin": 3347,
      "gun": 3348,
      "great": 3349,
      "high": 3350,
      "ić": 3351,
      "ker": 3352,
      "kish": 3353,
      "kata": 3354,
      "love": 3355,
      "mod": 3356,
      "nat": 3357,
      "nine": 3358,
      "never": 3359,
      "rhe": 3360,
      "sm": 3361,
      "sent": 3362,
      "ski": 3363,
      "tz": 3364,
      "tele": 3365,
      "uring": 3366,
      "uation": 3367,
      "von": 3368,
      "vir": 3369,
      "vind": 3370,
      "wife": 3371,
      "wyn": 3372,
      "yama": 3373,
      "zio": 3374,
      "één": 3375,
      "íne": 3376,
      "international": 3377,
      "anc": 3378,
      "ano": 3379,
      "era": 3380,
      "arost": 3381,
      "str": 3382,
      "ille": 3383,
      "ilio": 3384,
      "thers": 3385,
      "thousand": 3386,
      "ored": 3387,
      "rest": 3388,
      "read": 3389,
      "ont": 3390,
      "onto": 3391,
      "enc": 3392,
      "ending": 3393,
      "enzo": 3394,
      "encer": 3395,
      "edian": 3396,
      "filming": 3397,
      "aly": 3398,
      "started": 3399,
      "dig": 3400,
      "diff": 3401,
      "ically": 3402,
      "elt": 3403,
      "ello": 3404,
      "elve": 3405,
      "ould": 3406,
      "omi": 3407,
      "rie": 3408,
      "rait": 3409,
      "Them": 3410,
      "osum": 3411,
      "too": 3412,
      "ology": 3413,
      "eman": 3414,
      "due": 3415,
      "chall": 3416,
      "13Hrs": 3417,
      "ete": 3418,
      "agi": 3419,
      "igrams": 3420,
      "oviet": 3421,
      "idan": 3422,
      "idered": 3423,
      "iven": 3424,
      "urice": 3425,
      "Chan": 3426,
      "Chak": 3427,
      "Chose": 3428,
      "aken": 3429,
      "manag": 3430,
      "Stor": 3431,
      "Stiles": 3432,
      "whom": 3433,
      "uled": 3434,
      "eva": 3435,
      "respect": 3436,
      "acting": 3437,
      "Marc": 3438,
      "Marcel": 3439,
      "earch": 3440,
      "abeth": 3441,
      "Filming": 3442,
      "Inst": 3443,
      "Indones": 3444,
      "aver": 3445,
      "shan": 3446,
      "shoot": 3447,
      "come": 3448,
      "ifican": 3449,
      "ified": 3450,
      "Short": 3451,
      "Shuk": 3452,
      "Shots": 3453,
      "America": 3454,
      "erek": 3455,
      "Seth": 3456,
      "Roy": 3457,
      "uda": 3458,
      "1995": 3459,
      "contin": 3460,
      "oka": 3461,
      "anni": 3462,
      "dramat": 3463,
      "Menon": 3464,
      "Minuten": 3465,
      "uez": 3466,
      "Rehman": 3467,
      "inski": 3468,
      "Andr": 3469,
      "Abrah": 3470,
      "pta": 3471,
      "afia": 3472,
      "Clark": 3473,
      "ported": 3474,
      "1952": 3475,
      "Spencer": 3476,
      "mental": 3477,
      "Phil": 3478,
      "away": 3479,
      "Franco": 3480,
      "Frances": 3481,
      "Francis": 3482,
      "attack": 3483,
      "Allan": 3484,
      "Willis": 3485,
      "1960": 3486,
      "Maurice": 3487,
      "revolution": 3488,
      "Blier": 3489,
      "izabeth": 3490,
      "romance": 3491,
      "Carlos": 3492,
      "Dix": 3493,
      "District": 3494,
      "Acres": 3495,
      "anya": 3496,
      "riguez": 3497,
      "Norman": 3498,
      "Williams": 3499,
      "chez": 3500,
      "Goes": 3501,
      "Madness": 3502,
      "1974": 3503,
      "1979": 3504,
      "Blake": 3505,
      "Junger": 3506,
      "Elli": 3507,
      "Elizabeth": 3508,
      "Samuel": 3509,
      "trapp": 3510,
      "Bailey": 3511,
      "critic": 3512,
      "critical": 3513,
      "Gold": 3514,
      "theatric": 3515,
      "Asylum": 3516,
      "Raymond": 3517,
      "interview": 3518,
      "interviews": 3519,
      "class": 3520,
      "marks": 3521,
      "sets": 3522,
      "1946": 3523,
      "1948": 3524,
      "Emilio": 3525,
      "Justin": 3526,
      "Ramón": 3527,
      "Arabica": 3528,
      "Hero": 3529,
      "Silv": 3530,
      "Suz": 3531,
      "alking": 3532,
      "teenage": 3533,
      "Sharif": 3534,
      "Claudi": 3535,
      "However": 3536,
      "brother": 3537,
      "lands": 3538,
      "institution": 3539,
      "Austin": 3540,
      "Wayne": 3541,
      "descri": 3542,
      "acclaim": 3543,
      "Produced": 3544,
      "Edwards": 3545,
      "Croft": 3546,
      "Singh": 3547,
      "winning": 3548,
      "Robin": 3549,
      "Actress": 3550,
      "Bloody": 3551,
      "Gregory": 3552,
      "Prize": 3553,
      "Susan": 3554,
      "Toronto": 3555,
      "1232": 3556,
      "effect": 3557,
      "invol": 3558,
      "investig": 3559,
      "location": 3560,
      "Regard": 3561,
      "Callosum": 3562,
      "Group": 3563,
      "Once": 3564,
      "Only": 3565,
      "Vasili": 3566,
      "handled": 3567,
      "Martíne": 3568,
      "Weeks": 3569,
      "Polish": 3570,
      "Walter": 3571,
      "ormal": 3572,
      "Nicol": 3573,
      "Venice": 3574,
      "banks": 3575,
      "praised": 3576,
      "Matsuyama": 3577,
      "Darren": 3578,
      "Fukush": 3579,
      "Linds": 3580,
      "Turkish": 3581,
      "develop": 3582,
      "standard": 3583,
      "Jagd": 3584,
      "Principal": 3585,
      "sitcom": 3586,
      "student": 3587,
      "market": 3588,
      "presented": 3589,
      "Giann": 3590,
      "Taylor": 3591,
      "Abdulla": 3592,
      "Singaporean": 3593,
      "Craig": 3594,
      "Kōji": 3595,
      "Milligrams": 3596,
      "Rodriguez": 3597,
      "Egyptian": 3598,
      "Austria": 3599,
      "category": 3600,
      "Jesse": 3601,
      "Krish": 3602,
      "Ridley": 3603,
      "Trevor": 3604,
      "particip": 3605,
      "Certain": 3606,
      "Dollars": 3607,
      "Kiarost": 3608,
      "Roland": 3609,
      "dollari": 3610,
      "popular": 3611,
      "orcisms": 3612,
      "dialogue": 3613,
      "Shirley": 3614,
      "Showtime": 3615,
      "1762": 3616,
      "antasy": 3617,
      "François": 3618,
      "Corpus": 3619,
      "Bōken": 3620,
      "Dudley": 3621,
      "Fingers": 3622,
      "KMS": 3623,
      "MPH": 3624,
      "Puerto": 3625,
      "Sánchez": 3626,
      "Ultimate": 3627,
      "Wahrhe": 3628,
      "burg": 3629,
      "challeng": 3630,
      "trapped": 3631,
      "theatrically": 3632,
      "Martínez": 3633,
      "Fukushū": 3634,
      "Kiarostami": 3635,
      "Wahrheit": 3636,
      "41": 3637,
      "68": 3638,
      "7th": 3639,
      "AF": 3640,
      "AM": 3641,
      "BS": 3642,
      "By": 3643,
      "Bas": 3644,
      "Bra": 3645,
      "Bad": 3646,
      "Bow": 3647,
      "Bram": 3648,
      "Burn": 3649,
      "BBC": 3650,
      "Brun": 3651,
      "Brand": 3652,
      "Ca": 3653,
      "Cop": 3654,
      "Cates": 3655,
      "Cru": 3656,
      "Camp": 3657,
      "Der": 3658,
      "Dre": 3659,
      "Dun": 3660,
      "Daw": 3661,
      "Dub": 3662,
      "Fa": 3663,
      "Fish": 3664,
      "Fost": 3665,
      "Fair": 3666,
      "Flight": 3667,
      "Gen": 3668,
      "Gos": 3669,
      "Gem": 3670,
      "Gall": 3671,
      "Gary": 3672,
      "Haw": 3673,
      "Hob": 3674,
      "Hunt": 3675,
      "Il": 3676,
      "Ir": 3677,
      "Iv": 3678,
      "Ila": 3679,
      "Jy": 3680,
      "Kin": 3681,
      "Kem": 3682,
      "Kla": 3683,
      "Kings": 3684,
      "Li": 3685,
      "Lam": 3686,
      "Lach": 3687,
      "Lions": 3688,
      "Later": 3689,
      "Mak": 3690,
      "Mith": 3691,
      "Mast": 3692,
      "Must": 3693,
      "Mess": 3694,
      "Mick": 3695,
      "Miller": 3696,
      "Making": 3697,
      "Nir": 3698,
      "Nich": 3699,
      "Naz": 3700,
      "Niger": 3701,
      "Ol": 3702,
      "Op": 3703,
      "Oru": 3704,
      "Po": 3705,
      "Pra": 3706,
      "Path": 3707,
      "Pier": 3708,
      "Pelin": 3709,
      "Que": 3710,
      "Rit": 3711,
      "Ret": 3712,
      "Rag": 3713,
      "Rican": 3714,
      "Rud": 3715,
      "Son": 3716,
      "Sent": 3717,
      "Sang": 3718,
      "Sart": 3719,
      "Srid": 3720,
      "Soviet": 3721,
      "Take": 3722,
      "Television": 3723,
      "Thai": 3724,
      "Tanak": 3725,
      "Um": 3726,
      "Vent": 3727,
      "Vist": 3728,
      "Vern": 3729,
      "Yen": 3730,
      "Year": 3731,
      "Zam": 3732,
      "bs": 3733,
      "bing": 3734,
      "bed": 3735,
      "bri": 3736,
      "banese": 3737,
      "bhard": 3738,
      "cal": 3739,
      "cour": 3740,
      "capt": 3741,
      "camer": 3742,
      "dan": 3743,
      "dou": 3744,
      "ei": 3745,
      "ek": 3746,
      "each": 3747,
      "far": 3748,
      "fre": 3749,
      "fri": 3750,
      "fall": 3751,
      "fif": 3752,
      "feld": 3753,
      "gest": 3754,
      "gate": 3755,
      "gles": 3756,
      "hul": 3757,
      "hum": 3758,
      "how": 3759,
      "held": 3760,
      "iri": 3761,
      "ires": 3762,
      "just": 3763,
      "kre": 3764,
      "lan": 3765,
      "lar": 3766,
      "lam": 3767,
      "lades": 3768,
      "mu": 3769,
      "mal": 3770,
      "mem": 3771,
      "mov": 3772,
      "mot": 3773,
      "mass": 3774,
      "mess": 3775,
      "make": 3776,
      "mach": 3777,
      "mult": 3778,
      "mission": 3779,
      "nal": 3780,
      "net": 3781,
      "oir": 3782,
      "ode": 3783,
      "pa": 3784,
      "pand": 3785,
      "pri": 3786,
      "pla": 3787,
      "ply": 3788,
      "rt": 3789,
      "rary": 3790,
      "sat": 3791,
      "sett": 3792,
      "sky": 3793,
      "ta": 3794,
      "tal": 3795,
      "tas": 3796,
      "turn": 3797,
      "ues": 3798,
      "uart": 3799,
      "ually": 3800,
      "ucc": 3801,
      "vor": 3802,
      "vol": 3803,
      "venn": 3804,
      "voice": 3805,
      "wen": 3806,
      "whe": 3807,
      "wart": 3808,
      "yam": 3809,
      "you": 3810,
      "ет": 3811,
      "ink": 3812,
      "ined": 3813,
      "inik": 3814,
      "erg": 3815,
      "erent": 3816,
      "aru": 3817,
      "arian": 3818,
      "arke": 3819,
      "arna": 3820,
      "still": 3821,
      "stage": 3822,
      "ilar": 3823,
      "illo": 3824,
      "ilding": 3825,
      "then": 3826,
      "orri": 3827,
      "rec": 3828,
      "ons": 3829,
      "enes": 3830,
      "edish": 3831,
      "thews": 3832,
      "theme": 3833,
      "ating": 3834,
      "ashi": 3835,
      "div": 3836,
      "diffic": 3837,
      "ito": 3838,
      "itut": 3839,
      "ison": 3840,
      "10vor": 3841,
      "rob": 3842,
      "elph": 3843,
      "amm": 3844,
      "heav": 3845,
      "heeda": 3846,
      "hetti": 3847,
      "rael": 3848,
      "oss": 3849,
      "toge": 3850,
      "empor": 3851,
      "ayan": 3852,
      "entered": 3853,
      "adh": 3854,
      "adelph": 3855,
      "chart": 3856,
      "chell": 3857,
      "chise": 3858,
      "prof": 3859,
      "aghetti": 3860,
      "ided": 3861,
      "idere": 3862,
      "ivil": 3863,
      "law": 3864,
      "Italy": 3865,
      "urch": 3866,
      "ogram": 3867,
      "Chi": 3868,
      "Chou": 3869,
      "China": 3870,
      "Channel": 3871,
      "cker": 3872,
      "ompson": 3873,
      "aka": 3874,
      "akul": 3875,
      "Stuart": 3876,
      "iana": 3877,
      "white": 3878,
      "term": 3879,
      "Albert": 3880,
      "Alberto": 3881,
      "evi": 3882,
      "otr": 3883,
      "otto": 3884,
      "result": 3885,
      "141": 3886,
      "ounc": 3887,
      "ounter": 3888,
      "Maria": 3889,
      "María": 3890,
      "eart": 3891,
      "dec": 3892,
      "def": 3893,
      "dez": 3894,
      "merich": 3895,
      "Ing": 3896,
      "owley": 3897,
      "owski": 3898,
      "comedian": 3899,
      "That": 3900,
      "Thompson": 3901,
      "beca": 3902,
      "sex": 3903,
      "seen": 3904,
      "Sham": 3905,
      "iah": 3906,
      "within": 3907,
      "odes": 3908,
      "ques": 3909,
      "quest": 3910,
      "quatt": 3911,
      "open": 3912,
      "ocide": 3913,
      "scenes": 3914,
      "Secon": 3915,
      "Rock": 3916,
      "Rooms": 3917,
      "Roots": 3918,
      "assassin": 3919,
      "170": 3920,
      "ught": 3921,
      "Leeson": 3922,
      "Lebanese": 3923,
      "conv": 3924,
      "elling": 3925,
      "anning": 3926,
      "annivers": 3927,
      "annadh": 3928,
      "antyo": 3929,
      "Rein": 3930,
      "Anderson": 3931,
      "ured": 3932,
      "Rahman": 3933,
      "Rahul": 3934,
      "Abel": 3935,
      "icki": 3936,
      "icken": 3937,
      "Nether": 3938,
      "afa": 3939,
      "code": 3940,
      "coast": 3941,
      "author": 3942,
      "Clarke": 3943,
      "Beau": 3944,
      "exec": 3945,
      "Spaghetti": 3946,
      "azade": 3947,
      "herazade": 3948,
      "Gebhard": 3949,
      "McLach": 3950,
      "Christens": 3951,
      "ended": 3952,
      "ternet": 3953,
      "Murray": 3954,
      "Blu": 3955,
      "acho": 3956,
      "Richards": 3957,
      "araaja": 3958,
      "Distribut": 3959,
      "Corm": 3960,
      "credi": 3961,
      "Head": 3962,
      "Heidi": 3963,
      "Norwe": 3964,
      "Girl": 3965,
      "Good": 3966,
      "Jackson": 3967,
      "Mont": 3968,
      "Monogram": 3969,
      "1972": 3970,
      "Islam": 3971,
      "Israel": 3972,
      "ittle": 3973,
      "Center": 3974,
      "born": 3975,
      "comple": 3976,
      "trav": 3977,
      "1986": 3978,
      "Sheherazade": 3979,
      "genre": 3980,
      "Edo": 3981,
      "Smart": 3982,
      "Exorcisms": 3983,
      "Arts": 3984,
      "Glen": 3985,
      "Glass": 3986,
      "Glenn": 3987,
      "viol": 3988,
      "1939": 3989,
      "Amore": 3990,
      "Emman": 3991,
      "Emmerich": 3992,
      "Herz": 3993,
      "Herbert": 3994,
      "speaking": 3995,
      "featured": 3996,
      "others": 3997,
      "othika": 3998,
      "Parker": 3999,
      "Ghosh": 4000,
      "Salim": 4001,
      "finds": 4002,
      "fictional": 4003,
      "Sharma": 4004,
      "Claude": 4005,
      "Julia": 4006,
      "Note": 4007,
      "broadcast": 4008,
      "iyama": 4009,
      "iyaraaja": 4010,
      "Studio": 4011,
      "Philippine": 4012,
      "reality": 4013,
      "Babu": 4014,
      "Lynch": 4015,
      "DuVern": 4016,
      "demand": 4017,
      "Andrea": 4018,
      "Billy": 4019,
      "Romanian": 4020,
      "tribut": 4021,
      "subject": 4022,
      "Directed": 4023,
      "Question": 4024,
      "Laura": 4025,
      "Ostkre": 4026,
      "journal": 4027,
      "considered": 4028,
      "Webb": 4029,
      "Webber": 4030,
      "Jeffrey": 4031,
      "Nico": 4032,
      "Swedish": 4033,
      "colla": 4034,
      "atherine": 4035,
      "commun": 4036,
      "Fukuda": 4037,
      "Haasan": 4038,
      "Helge": 4039,
      "Paces": 4040,
      "Pacino": 4041,
      "Turkey": 4042,
      "Taiwan": 4043,
      "numerous": 4044,
      "attempts": 4045,
      "previously": 4046,
      "Bosworth": 4047,
      "Horn": 4048,
      "Jagannadh": 4049,
      "Randy": 4050,
      "Hershman": 4051,
      "Katha": 4052,
      "Ohio": 4053,
      "kovich": 4054,
      "listed": 4055,
      "Antony": 4056,
      "Cliff": 4057,
      "Clifford": 4058,
      "Isabel": 4059,
      "Gabriel": 4060,
      "Ferr": 4061,
      "Releasing": 4062,
      "point": 4063,
      "performances": 4064,
      "Rachel": 4065,
      "African": 4066,
      "Ashley": 4067,
      "Dougl": 4068,
      "Florida": 4069,
      "Mitchell": 4070,
      "Padilla": 4071,
      "Vikram": 4072,
      "help": 4073,
      "personal": 4074,
      "children": 4075,
      "Alfred": 4076,
      "episode": 4077,
      "explores": 4078,
      "Barbara": 4079,
      "Baker": 4080,
      "Filipino": 4081,
      "Hughes": 4082,
      "Namib": 4083,
      "Ralston": 4084,
      "Snow": 4085,
      "Waheeda": 4086,
      "Without": 4087,
      "significan": 4088,
      "quired": 4089,
      "Paranja": 4090,
      "designed": 4091,
      "Macedonian": 4092,
      "Fernando": 4093,
      "Audience": 4094,
      "Banglades": 4095,
      "Camacho": 4096,
      "Govind": 4097,
      "Judy": 4098,
      "Jessica": 4099,
      "Lumet": 4100,
      "Meyer": 4101,
      "Pistol": 4102,
      "Semester": 4103,
      "Tangos": 4104,
      "small": 4105,
      "teleplay": 4106,
      "different": 4107,
      "Shukla": 4108,
      "Philadelph": 4109,
      "Francesco": 4110,
      "Goldwyn": 4111,
      "Suzuki": 4112,
      "Claudia": 4113,
      "Lindsey": 4114,
      "Bramantyo": 4115,
      "Fisher": 4116,
      "Foster": 4117,
      "Fairbanks": 4118,
      "Hobart": 4119,
      "Ivens": 4120,
      "Ilaiyaraaja": 4121,
      "Jyothika": 4122,
      "Mustafa": 4123,
      "Nichol": 4124,
      "Sartana": 4125,
      "Sridevi": 4126,
      "Tanaka": 4127,
      "Vista": 4128,
      "camera": 4129,
      "multip": 4130,
      "uccidere": 4131,
      "vennero": 4132,
      "difficult": 4133,
      "10vor10": 4134,
      "together": 4135,
      "quattro": 4136,
      "Seconds": 4137,
      "anniversary": 4138,
      "Netherlands": 4139,
      "Gebhardt": 4140,
      "McLachlan": 4141,
      "Christensen": 4142,
      "Norwegian": 4143,
      "DuVernay": 4144,
      "Ostkreuz": 4145,
      "significant": 4146,
      "Philadelphia": 4147,
      "!:": 4148,
      "\")": 4149,
      "1st": 4150,
      "900": 4151,
      "Ara": 4152,
      "Aub": 4153,
      "ABC": 4154,
      "Aisha": 4155,
      "BI": 4156,
      "Band": 4157,
      "Bus": 4158,
      "Bort": 4159,
      "Bly": 4160,
      "Bess": 4161,
      "Bost": 4162,
      "Benn": 4163,
      "Bous": 4164,
      "Bald": 4165,
      "Billion": 4166,
      "Brent": 4167,
      "Cu": 4168,
      "Cum": 4169,
      "Cran": 4170,
      "Cong": 4171,
      "Cind": 4172,
      "Cullen": 4173,
      "Catherine": 4174,
      "Dh": 4175,
      "Das": 4176,
      "Dol": 4177,
      "Dir": 4178,
      "Dacc": 4179,
      "Dassin": 4180,
      "Edu": 4181,
      "Eren": 4182,
      "Els": 4183,
      "Evan": 4184,
      "Fä": 4185,
      "Fri": 4186,
      "Fort": 4187,
      "Falk": 4188,
      "Fond": 4189,
      "Flow": 4190,
      "Fried": 4191,
      "FBI": 4192,
      "Gan": 4193,
      "Gal": 4194,
      "Gand": 4195,
      "Gur": 4196,
      "Gul": 4197,
      "Gram": 4198,
      "Gide": 4199,
      "Goy": 4200,
      "Hy": 4201,
      "Hz": 4202,
      "Hur": 4203,
      "Hog": 4204,
      "Hey": 4205,
      "Hod": 4206,
      "Hell": 4207,
      "Hann": 4208,
      "Hoff": 4209,
      "Haj": 4210,
      "Homi": 4211,
      "Heart": 4212,
      "Izu": 4213,
      "Jū": 4214,
      "Jas": 4215,
      "Judi": 4216,
      "Jord": 4217,
      "Jenna": 4218,
      "Jared": 4219,
      "Kö": 4220,
      "Kon": 4221,
      "Kun": 4222,
      "Kore": 4223,
      "Kane": 4224,
      "Kho": 4225,
      "Korm": 4226,
      "Kenny": 4227,
      "Lal": 4228,
      "Lit": 4229,
      "Lie": 4230,
      "Lies": 4231,
      "Line": 4232,
      "Lai": 4233,
      "Lake": 4234,
      "Lafia": 4235,
      "Mom": 4236,
      "Mol": 4237,
      "Mich": 4238,
      "Mate": 4239,
      "Mau": 4240,
      "Mani": 4241,
      "Maz": 4242,
      "Mans": 4243,
      "Mason": 4244,
      "Mika": 4245,
      "Mullen": 4246,
      "Ng": 4247,
      "Ny": 4248,
      "Nad": 4249,
      "Nav": 4250,
      "Nah": 4251,
      "Nair": 4252,
      "Nadia": 4253,
      "Oj": 4254,
      "Old": 4255,
      "Oley": 4256,
      "Oleg": 4257,
      "Opr": 4258,
      "Py": 4259,
      "Pur": 4260,
      "Pers": 4261,
      "Pip": 4262,
      "Paz": 4263,
      "Prab": 4264,
      "Prem": 4265,
      "Rat": 4266,
      "Rom": 4267,
      "Rish": 4268,
      "Rome": 4269,
      "Rowley": 4270,
      "Sat": 4271,
      "Sri": 4272,
      "Set": 4273,
      "Sir": 4274,
      "Sain": 4275,
      "Sah": 4276,
      "Sup": 4277,
      "Senna": 4278,
      "Sven": 4279,
      "Search": 4280,
      "Tr": 4281,
      "Ty": 4282,
      "Tomp": 4283,
      "Tie": 4284,
      "Tris": 4285,
      "Two": 4286,
      "Tob": 4287,
      "Tara": 4288,
      "Tiru": 4289,
      "Vill": 4290,
      "Vinc": 4291,
      "Vitt": 4292,
      "Vater": 4293,
      "Wu": 4294,
      "Wak": 4295,
      "Wong": 4296,
      "Winter": 4297,
      "Winst": 4298,
      "Yam": 4299,
      "Zar": 4300,
      "Zing": 4301,
      "Zoo": 4302,
      "aim": 4303,
      "br": 4304,
      "bar": 4305,
      "ben": 4306,
      "bom": 4307,
      "bra": 4308,
      "bart": 4309,
      "cr": 4310,
      "cle": 4311,
      "cow": 4312,
      "cart": 4313,
      "cell": 4314,
      "claim": 4315,
      "dri": 4316,
      "dle": 4317,
      "date": 4318,
      "een": 4319,
      "fer": 4320,
      "fat": 4321,
      "fac": 4322,
      "fantasy": 4323,
      "gev": 4324,
      "gde": 4325,
      "games": 4326,
      "gress": 4327,
      "given": 4328,
      "hr": 4329,
      "hom": 4330,
      "hov": 4331,
      "hip": 4332,
      "hours": 4333,
      "hind": 4334,
      "ias": 4335,
      "iation": 4336,
      "ju": 4337,
      "jos": 4338,
      "jeres": 4339,
      "kin": 4340,
      "kill": 4341,
      "kha": 4342,
      "lman": 4343,
      "live": 4344,
      "lene": 4345,
      "lier": 4346,
      "lines": 4347,
      "little": 4348,
      "mm": 4349,
      "mo": 4350,
      "mor": 4351,
      "mou": 4352,
      "mid": 4353,
      "mount": 4354,
      "nio": 4355,
      "put": 4356,
      "piv": 4357,
      "pot": 4358,
      "pict": 4359,
      "past": 4360,
      "pris": 4361,
      "pair": 4362,
      "prison": 4363,
      "pati": 4364,
      "rard": 4365,
      "rural": 4366,
      "sɛ": 4367,
      "soc": 4368,
      "sport": 4369,
      "spi": 4370,
      "sold": 4371,
      "summer": 4372,
      "seven": 4373,
      "said": 4374,
      "ting": 4375,
      "test": 4376,
      "trilogy": 4377,
      "taken": 4378,
      "uy": 4379,
      "viv": 4380,
      "vill": 4381,
      "via": 4382,
      "ville": 4383,
      "wim": 4384,
      "would": 4385,
      "xt": 4386,
      "zz": 4387,
      "zzi": 4388,
      "Ál": 4389,
      "ázar": 4390,
      "ñana": 4391,
      "örn": 4392,
      "ри": 4393,
      "init": 4394,
      "indu": 4395,
      "inard": 4396,
      "inten": 4397,
      "anks": 4398,
      "antha": 4399,
      "eru": 4400,
      "sten": 4401,
      "stat": 4402,
      "stad": 4403,
      "state": 4404,
      "stock": 4405,
      "stories": 4406,
      "ila": 4407,
      "thir": 4408,
      "there": 4409,
      "thling": 4410,
      "threat": 4411,
      "thbart": 4412,
      "ora": 4413,
      "org": 4414,
      "orio": 4415,
      "rew": 4416,
      "reun": 4417,
      "remade": 4418,
      "eni": 4419,
      "ends": 4420,
      "enko": 4421,
      "thew": 4422,
      "atch": 4423,
      "atsu": 4424,
      "ately": 4425,
      "ators": 4426,
      "asa": 4427,
      "asis": 4428,
      "asetti": 4429,
      "did": 4430,
      "dier": 4431,
      "dibu": 4432,
      "itab": 4433,
      "isi": 4434,
      "ctive": 4435,
      "andam": 4436,
      "escap": 4437,
      "ros": 4438,
      "row": 4439,
      "room": 4440,
      "rospe": 4441,
      "eline": 4442,
      "hev": 4443,
      "heard": 4444,
      "oulos": 4445,
      "omon": 4446,
      "omat": 4447,
      "rique": 4448,
      "lett": 4449,
      "raz": 4450,
      "toon": 4451,
      "told": 4452,
      "oli": 4453,
      "olim": 4454,
      "older": 4455,
      "122": 4456,
      "using": 4457,
      "duo": 4458,
      "dual": 4459,
      "entin": 4460,
      "directors": 4461,
      "adan": 4462,
      "adhy": 4463,
      "adoss": 4464,
      "1915": 4465,
      "ets": 4466,
      "etime": 4467,
      "agle": 4468,
      "ague": 4469,
      "unser": 4470,
      "unori": 4471,
      "format": 4472,
      "writers": 4473,
      "iram": 4474,
      "ovich": 4475,
      "images": 4476,
      "lost": 4477,
      "Cho": 4478,
      "Chit": 4479,
      "Chow": 4480,
      "Chandra": 4481,
      "Choice": 4482,
      "111": 4483,
      "11th": 4484,
      "ersen": 4485,
      "ership": 4486,
      "aku": 4487,
      "akis": 4488,
      "manuf": 4489,
      "manzar": 4490,
      "Stella": 4491,
      "18th": 4492,
      "what": 4493,
      "Ana": 4494,
      "Ant": 4495,
      "Anu": 4496,
      "Anim": 4497,
      "Anato": 4498,
      "berling": 4499,
      "happ": 4500,
      "having": 4501,
      "ieg": 4502,
      "Alice": 4503,
      "Also": 4504,
      "Although": 4505,
      "Almanzar": 4506,
      "otal": 4507,
      "uma": 4508,
      "umbo": 4509,
      "Mars": 4510,
      "Marsh": 4511,
      "Martha": 4512,
      "allment": 4513,
      "early": 4514,
      "abo": 4515,
      "deal": 4516,
      "deau": 4517,
      "decl": 4518,
      "Dean": 4519,
      "Debi": 4520,
      "Dewan": 4521,
      "Dexter": 4522,
      "eys": 4523,
      "Inter": 4524,
      "ishop": 4525,
      "avoor": 4526,
      "common": 4527,
      "seok": 4528,
      "Sher": 4529,
      "Shri": 4530,
      "Shay": 4531,
      "Sherman": 4532,
      "Shyam": 4533,
      "Sholder": 4534,
      "Joan": 4535,
      "orty": 4536,
      "orton": 4537,
      "edition": 4538,
      "ister": 4539,
      "quene": 4540,
      "quette": 4541,
      "oples": 4542,
      "Second": 4543,
      "Rothbart": 4544,
      "super": 4545,
      "1770": 4546,
      "ugadoss": 4547,
      "iko": 4548,
      "ikumar": 4549,
      "1998": 4550,
      "outside": 4551,
      "Arvind": 4552,
      "Arquette": 4553,
      "ache": 4554,
      "acio": 4555,
      "acquired": 4556,
      "uste": 4557,
      "Leigh": 4558,
      "contra": 4559,
      "anno": 4560,
      "anton": 4561,
      "pez": 4562,
      "Enric": 4563,
      "Enrique": 4564,
      "Johnny": 4565,
      "inez": 4566,
      "Reid": 4567,
      "text": 4568,
      "ukwu": 4569,
      "Unfinished": 4570,
      "Abrams": 4571,
      "Parlic": 4572,
      "Davy": 4573,
      "titles": 4574,
      "area": 4575,
      "serán": 4576,
      "Moht": 4577,
      "Mohan": 4578,
      "cost": 4579,
      "auw": 4580,
      "ennis": 4581,
      "ahl": 4582,
      "oyage": 4583,
      "wski": 4584,
      "ermann": 4585,
      "Close": 4586,
      "upcoming": 4587,
      "incident": 4588,
      "Space": 4589,
      "works": 4590,
      "Harv": 4591,
      "players": 4592,
      "McQue": 4593,
      "McMullen": 4594,
      "itself": 4595,
      "Rosenth": 4596,
      "Angus": 4597,
      "Methling": 4598,
      "ibor": 4599,
      "Allen": 4600,
      "Erin": 4601,
      "ffi": 4602,
      "1961": 4603,
      "Conn": 4604,
      "Conway": 4605,
      "Mathews": 4606,
      "Broad": 4607,
      "While": 4608,
      "Jeeva": 4609,
      "Jane": 4610,
      "Janis": 4611,
      "Joshi": 4612,
      "Murugadoss": 4613,
      "featuring": 4614,
      "Blasetti": 4615,
      "romanized": 4616,
      "folk": 4617,
      "board": 4618,
      "anyon": 4619,
      "Cornel": 4620,
      "money": 4621,
      "rigan": 4622,
      "Hegde": 4623,
      "Norbert": 4624,
      "Georg": 4625,
      "Georgian": 4626,
      "Malkovich": 4627,
      "chetti": 4628,
      "Godeau": 4629,
      "Monty": 4630,
      "Soumit": 4631,
      "eteran": 4632,
      "mañana": 4633,
      "1973": 4634,
      "Myint": 4635,
      "Russia": 4636,
      "Russell": 4637,
      "ordin": 4638,
      "alekha": 4639,
      "itted": 4640,
      "Blaauw": 4641,
      "Kenji": 4642,
      "Adri": 4643,
      "competition": 4644,
      "track": 4645,
      "traordin": 4646,
      "1985": 4647,
      "1987": 4648,
      "1989": 4649,
      "Milton": 4650,
      "Shett": 4651,
      "genocide": 4652,
      "Ava": 4653,
      "Cole": 4654,
      "Cohn": 4655,
      "Cook": 4656,
      "School": 4657,
      "noosh": 4658,
      "Manuel": 4659,
      "Asia": 4660,
      "Raye": 4661,
      "Tomas": 4662,
      "aji": 4663,
      "Extraordin": 4664,
      "Shaw": 4665,
      "Shafi": 4666,
      "Berg": 4667,
      "Reynol": 4668,
      "clim": 4669,
      "Beno": 4670,
      "Pequene": 4671,
      "center": 4672,
      "1934": 4673,
      "1936": 4674,
      "making": 4675,
      "1895": 4676,
      "rights": 4677,
      "Matthew": 4678,
      "relig": 4679,
      "Rajat": 4680,
      "Rajinik": 4681,
      "Lax": 4682,
      "Skolim": 4683,
      "Silver": 4684,
      "Silberling": 4685,
      "ández": 4686,
      "remain": 4687,
      "Steven": 4688,
      "Stevens": 4689,
      "Alexandra": 4690,
      "Karen": 4691,
      "Karel": 4692,
      "spy": 4693,
      "versions": 4694,
      "Sharon": 4695,
      "Claire": 4696,
      "Guhan": 4697,
      "Garner": 4698,
      "brothers": 4699,
      "hood": 4700,
      "iya": 4701,
      "preser": 4702,
      "selves": 4703,
      "installment": 4704,
      "Chilean": 4705,
      "going": 4706,
      "himo": 4707,
      "running": 4708,
      "Daniels": 4709,
      "Koel": 4710,
      "Merika": 4711,
      "Mashimo": 4712,
      "sched": 4713,
      "Perlman": 4714,
      "flu": 4715,
      "Ducks": 4716,
      "Sidd": 4717,
      "guer": 4718,
      "gupta": 4719,
      "urai": 4720,
      "disaster": 4721,
      "loyed": 4722,
      "successful": 4723,
      "Deva": 4724,
      "Jerzy": 4725,
      "Roggev": 4726,
      "anthology": 4727,
      "locations": 4728,
      "Baltas": 4729,
      "Jacques": 4730,
      "hands": 4731,
      "uelle": 4732,
      "Martinez": 4733,
      "submission": 4734,
      "Larraz": 4735,
      "Poland": 4736,
      "Slagle": 4737,
      "Wallace": 4738,
      "ethu": 4739,
      "themselves": 4740,
      "legal": 4741,
      "Bernal": 4742,
      "Dormer": 4743,
      "Eggles": 4744,
      "Jaime": 4745,
      "Levitt": 4746,
      "Play": 4747,
      "Plate": 4748,
      "colle": 4749,
      "ónica": 4750,
      "Matsuo": 4751,
      "Diego": 4752,
      "Gérard": 4753,
      "Helen": 4754,
      "Ravi": 4755,
      "Valentin": 4756,
      "iraja": 4757,
      "standing": 4758,
      "Chattop": 4759,
      "Northup": 4760,
      "Cameron": 4761,
      "Demon": 4762,
      "Kidd": 4763,
      "Pratt": 4764,
      "Yoav": 4765,
      "building": 4766,
      "situation": 4767,
      "thorne": 4768,
      "1950s": 4769,
      "Alexandre": 4770,
      "Farnoosh": 4771,
      "Freeman": 4772,
      "Nagendra": 4773,
      "Ohrid": 4774,
      "narrative": 4775,
      "singer": 4776,
      "single": 4777,
      "Jobson": 4778,
      "contempor": 4779,
      "portrays": 4780,
      "Singapore": 4781,
      "Jacobo": 4782,
      "Victoria": 4783,
      "Desai": 4784,
      "Hiroki": 4785,
      "Hiroshi": 4786,
      "Released": 4787,
      "Simon": 4788,
      "Zeina": 4789,
      "coup": 4790,
      "cultural": 4791,
      "issue": 4792,
      "performance": 4793,
      "Africa": 4794,
      "Vietnamese": 4795,
      "Bollywood": 4796,
      "Bachchan": 4797,
      "Felix": 4798,
      "Massey": 4799,
      "Mukesh": 4800,
      "Warden": 4801,
      "soundtrack": 4802,
      "itzer": 4803,
      "experiences": 4804,
      "Bharathiraja": 4805,
      "Bhama": 4806,
      "Brendan": 4807,
      "Bobby": 4808,
      "Hungarian": 4809,
      "Khaled": 4810,
      "Motion": 4811,
      "Mexico": 4812,
      "OVA": 4813,
      "Pierson": 4814,
      "break": 4815,
      "catast": 4816,
      "franchise": 4817,
      "hotel": 4818,
      "limited": 4819,
      "slavery": 4820,
      "Özhan": 4821,
      "ákur": 4822,
      "addition": 4823,
      "programme": 4824,
      "Alessandro": 4825,
      "pregnancy": 4826,
      "Madhuri": 4827,
      "Cristiano": 4828,
      "Greif": 4829,
      "Gibson": 4830,
      "Hotstar": 4831,
      "Juan": 4832,
      "Kazunori": 4833,
      "Ledger": 4834,
      "Lennon": 4835,
      "Musical": 4836,
      "Narayan": 4837,
      "Porumbo": 4838,
      "Twelve": 4839,
      "Vega": 4840,
      "drug": 4841,
      "modern": 4842,
      "natural": 4843,
      "digital": 4844,
      "Storeys": 4845,
      "Indonesian": 4846,
      "average": 4847,
      "shooting": 4848,
      "continu": 4849,
      "Abrahams": 4850,
      "Francisco": 4851,
      "attacks": 4852,
      "Dixit": 4853,
      "Silverman": 4854,
      "Nicolai": 4855,
      "Krishna": 4856,
      "Brandon": 4857,
      "Faust": 4858,
      "Irving": 4859,
      "Lionsgate": 4860,
      "Mickey": 4861,
      "Nigerian": 4862,
      "Pathé": 4863,
      "Pierre": 4864,
      "Return": 4865,
      "Sentence": 4866,
      "Sangram": 4867,
      "Ventures": 4868,
      "course": 4869,
      "double": 4870,
      "mujeres": 4871,
      "memoir": 4872,
      "machine": 4873,
      "setting": 4874,
      "youth": 4875,
      "itute": 4876,
      "heavily": 4877,
      "Chouinard": 4878,
      "Shamir": 4879,
      "Rockwell": 4880,
      "Distribution": 4881,
      "Goodman": 4882,
      "Edoardo": 4883,
      "Emmanuelle": 4884,
      "Herzfeld": 4885,
      "journalist": 4886,
      "collabor": 4887,
      "Douglas": 4888,
      "Alfredo": 4889,
      "Bangladesh": 4890,
      "multiple": 4891,
      "Aubrey": 4892,
      "Bandai": 4893,
      "Bortone": 4894,
      "Bousman": 4895,
      "Baldwin": 4896,
      "Congress": 4897,
      "Cindy": 4898,
      "Daccache": 4899,
      "Elsie": 4900,
      "Fäuste": 4901,
      "Fonda": 4902,
      "Flowers": 4903,
      "Gideon": 4904,
      "Hogan": 4905,
      "Hellmut": 4906,
      "Hoffman": 4907,
      "Jordan": 4908,
      "Korea": 4909,
      "Khoo": 4910,
      "Kormákur": 4911,
      "Mikael": 4912,
      "Nadine": 4913,
      "Nahi": 4914,
      "Ojukwu": 4915,
      "Oleynik": 4916,
      "Oprins": 4917,
      "Pyotr": 4918,
      "Purja": 4919,
      "Prabhu": 4920,
      "Ratoff": 4921,
      "Saini": 4922,
      "Supporting": 4923,
      "Tompkins": 4924,
      "Trisha": 4925,
      "Vittorio": 4926,
      "Vaterunser": 4927,
      "Wakam": 4928,
      "mountaine": 4929,
      "pivotal": 4930,
      "patients": 4931,
      "sports": 4932,
      "reunion": 4933,
      "dibujos": 4934,
      "adhyay": 4935,
      "manufact": 4936,
      "Anatole": 4937,
      "Marshall": 4938,
      "supernatural": 4939,
      "Enrico": 4940,
      "Parlichev": 4941,
      "McQueen": 4942,
      "Rosenthal": 4943,
      "Corneliu": 4944,
      "Soumitra": 4945,
      "Shetty": 4946,
      "Reynolds": 4947,
      "Pequeneza": 4948,
      "Rajinikanth": 4949,
      "Skolimowski": 4950,
      "Roggeveen": 4951,
      "Baltasar": 4952,
      "Egglesfield": 4953,
      "Chattopadhyay": 4954,
      "Porumboiu": 4955,
      "0s": 4956,
      "39th": 4957,
      "65": 4958,
      "6th": 4959,
      "64th": 4960,
      ":*": 4961,
      "AY": 4962,
      "Aad": 4963,
      "Ace": 4964,
      "Aure": 4965,
      "Aver": 4966,
      "Aki": 4967,
      "Aung": 4968,
      "ABS": 4969,
      "Aires": 4970,
      "BN": 4971,
      "Bá": 4972,
      "Bon": 4973,
      "Bou": 4974,
      "Bent": 4975,
      "Bet": 4976,
      "Bog": 4977,
      "Bie": 4978,
      "Bear": 4979,
      "Bran": 4980,
      "Bug": 4981,
      "Bell": 4982,
      "Bress": 4983,
      "Bhas": 4984,
      "Bank": 4985,
      "Bett": 4986,
      "Box": 4987,
      "Bij": 4988,
      "Bresc": 4989,
      "Battle": 4990,
      "BAF": 4991,
      "CA": 4992,
      "CG": 4993,
      "Cin": 4994,
      "Cle": 4995,
      "Card": 4996,
      "Cere": 4997,
      "Care": 4998,
      "Cost": 4999,
      "Cec": 5000,
      "Cena": 5001,
      "Civil": 5002,
      "Counc": 5003,
      "Canyon": 5004,
      "CBN": 5005,
      "Dr": 5006,
      "Dí": 5007,
      "Dom": 5008,
      "Dion": 5009,
      "Dur": 5010,
      "Dhar": 5011,
      "Dyl": 5012,
      "Desh": 5013,
      "Dami": 5014,
      "Dwan": 5015,
      "Derek": 5016,
      "Dennis": 5017,
      "Ei": 5018,
      "Est": 5019,
      "Eut": 5020,
      "Eji": 5021,
      "Ets": 5022,
      "FC": 5023,
      "FE": 5024,
      "Fá": 5025,
      "Frit": 5026,
      "Fent": 5027,
      "Fid": 5028,
      "Ful": 5029,
      "Fear": 5030,
      "From": 5031,
      "Fras": 5032,
      "Frid": 5033,
      "Gó": 5034,
      "Glo": 5035,
      "Gia": 5036,
      "Gone": 5037,
      "Gree": 5038,
      "Grad": 5039,
      "Gino": 5040,
      "Gray": 5041,
      "Grac": 5042,
      "Gries": 5043,
      "Hit": 5044,
      "Hou": 5045,
      "Hard": 5046,
      "Hop": 5047,
      "Hep": 5048,
      "Hamil": 5049,
      "Hens": 5050,
      "Hase": 5051,
      "Hors": 5052,
      "Hines": 5053,
      "Hamer": 5054,
      "House": 5055,
      "High": 5056,
      "Hume": 5057,
      "Horton": 5058,
      "Hermann": 5059,
      "IA": 5060,
      "Id": 5061,
      "Ig": 5062,
      "Ian": 5063,
      "Iran": 5064,
      "Icel": 5065,
      "IFC": 5066,
      "Jav": 5067,
      "Jai": 5068,
      "Jake": 5069,
      "Jörn": 5070,
      "Ku": 5071,
      "Ky": 5072,
      "Kit": 5073,
      "Kle": 5074,
      "Kol": 5075,
      "Kut": 5076,
      "Kus": 5077,
      "Kul": 5078,
      "Kab": 5079,
      "Kud": 5080,
      "Kenn": 5081,
      "Krist": 5082,
      "Kub": 5083,
      "Ly": 5084,
      "Ló": 5085,
      "Lat": 5086,
      "Las": 5087,
      "Lab": 5088,
      "Lip": 5089,
      "Linc": 5090,
      "Lind": 5091,
      "Lakes": 5092,
      "Ladd": 5093,
      "Loon": 5094,
      "Living": 5095,
      "Lázar": 5096,
      "MA": 5097,
      "MG": 5098,
      "Mut": 5099,
      "Mun": 5100,
      "Mir": 5101,
      "Mish": 5102,
      "Mack": 5103,
      "Mull": 5104,
      "MTV": 5105,
      "Muri": 5106,
      "NY": 5107,
      "Na": 5108,
      "Nd": 5109,
      "Nj": 5110,
      "Nou": 5111,
      "Nol": 5112,
      "Nun": 5113,
      "Nak": 5114,
      "Nast": 5115,
      "Nip": 5116,
      "Nell": 5117,
      "Nable": 5118,
      "Niro": 5119,
      "OC": 5120,
      "Ore": 5121,
      "Osh": 5122,
      "Orig": 5123,
      "Pin": 5124,
      "Pan": 5125,
      "Pas": 5126,
      "Pet": 5127,
      "Pul": 5128,
      "Pass": 5129,
      "Preg": 5130,
      "Piet": 5131,
      "PFE": 5132,
      "RR": 5133,
      "Ras": 5134,
      "Rum": 5135,
      "Rib": 5136,
      "Rub": 5137,
      "Rolf": 5138,
      "Rica": 5139,
      "Ryan": 5140,
      "Rhy": 5141,
      "Renny": 5142,
      "SP": 5143,
      "Sr": 5144,
      "Sy": 5145,
      "Sut": 5146,
      "Say": 5147,
      "Sig": 5148,
      "Sip": 5149,
      "Sac": 5150,
      "Smy": 5151,
      "Sound": 5152,
      "Syl": 5153,
      "Srik": 5154,
      "Siva": 5155,
      "TA": 5156,
      "Ta": 5157,
      "Tos": 5158,
      "Tem": 5159,
      "Till": 5160,
      "Tran": 5161,
      "Toy": 5162,
      "Trac": 5163,
      "Truth": 5164,
      "UK": 5165,
      "Ub": 5166,
      "Ur": 5167,
      "Uy": 5168,
      "Uz": 5169,
      "Upon": 5170,
      "Vo": 5171,
      "Vall": 5172,
      "Viva": 5173,
      "Vicki": 5174,
      "Voyage": 5175,
      "Wan": 5176,
      "Wat": 5177,
      "Wall": 5178,
      "Woman": 5179,
      "Walk": 5180,
      "Xia": 5181,
      "Yu": 5182,
      "Yū": 5183,
      "Yun": 5184,
      "Yak": 5185,
      "Yann": 5186,
      "Yuk": 5187,
      "Yuri": 5188,
      "Yuki": 5189,
      "Zay": 5190,
      "Zim": 5191,
      "Zero": 5192,
      "Zeta": 5193,
      "Zuck": 5194,
      "aar": 5195,
      "ail": 5196,
      "ael": 5197,
      "aut": 5198,
      "aign": 5199,
      "adul": 5200,
      "bl": 5201,
      "bon": 5202,
      "bal": 5203,
      "bes": 5204,
      "bel": 5205,
      "bus": 5206,
      "bad": 5207,
      "big": 5208,
      "bir": 5209,
      "blo": 5210,
      "bul": 5211,
      "bum": 5212,
      "boc": 5213,
      "bust": 5214,
      "bach": 5215,
      "bird": 5216,
      "boul": 5217,
      "batch": 5218,
      "bacio": 5219,
      "cov": 5220,
      "cot": 5221,
      "cop": 5222,
      "cust": 5223,
      "cup": 5224,
      "cele": 5225,
      "cens": 5226,
      "cable": 5227,
      "court": 5228,
      "covers": 5229,
      "dh": 5230,
      "dɛ": 5231,
      "din": 5232,
      "ded": 5233,
      "dog": 5234,
      "dang": 5235,
      "done": 5236,
      "dark": 5237,
      "drop": 5238,
      "ead": 5239,
      "fam": 5240,
      "flo": 5241,
      "fact": 5242,
      "fav": 5243,
      "fund": 5244,
      "felt": 5245,
      "gs": 5246,
      "gic": 5247,
      "gay": 5248,
      "gov": 5249,
      "got": 5250,
      "gah": 5251,
      "grand": 5252,
      "hl": 5253,
      "hin": 5254,
      "hit": 5255,
      "ham": 5256,
      "hers": 5257,
      "hant": 5258,
      "hib": 5259,
      "hara": 5260,
      "hunt": 5261,
      "hwim": 5262,
      "ien": 5263,
      "iber": 5264,
      "ique": 5265,
      "job": 5266,
      "jury": 5267,
      "jeta": 5268,
      "jandro": 5269,
      "king": 5270,
      "kand": 5271,
      "kes": 5272,
      "kos": 5273,
      "kch": 5274,
      "kann": 5275,
      "kates": 5276,
      "killer": 5277,
      "lal": 5278,
      "long": 5279,
      "lins": 5280,
      "like": 5281,
      "mp": 5282,
      "ming": 5283,
      "mes": 5284,
      "may": 5285,
      "mag": 5286,
      "mig": 5287,
      "mill": 5288,
      "mith": 5289,
      "must": 5290,
      "mine": 5291,
      "mates": 5292,
      "male": 5293,
      "memory": 5294,
      "moon": 5295,
      "ng": 5296,
      "nar": 5297,
      "nant": 5298,
      "oe": 5299,
      "oj": 5300,
      "ole": 5301,
      "oop": 5302,
      "oini": 5303,
      "py": 5304,
      "pal": 5305,
      "pay": 5306,
      "pard": 5307,
      "pact": 5308,
      "pow": 5309,
      "pson": 5310,
      "press": 5311,
      "rass": 5312,
      "rules": 5313,
      "san": 5314,
      "sen": 5315,
      "sam": 5316,
      "say": 5317,
      "saw": 5318,
      "sales": 5319,
      "tre": 5320,
      "tut": 5321,
      "tag": 5322,
      "tone": 5323,
      "take": 5324,
      "truth": 5325,
      "uth": 5326,
      "ule": 5327,
      "uai": 5328,
      "uits": 5329,
      "uchi": 5330,
      "vy": 5331,
      "vit": 5332,
      "vad": 5333,
      "vak": 5334,
      "veteran": 5335,
      "wid": 5336,
      "west": 5337,
      "wish": 5338,
      "wick": 5339,
      "wani": 5340,
      "wedding": 5341,
      "xe": 5342,
      "xier": 5343,
      "ye": 5344,
      "yon": 5345,
      "yen": 5346,
      "yoshi": 5347,
      "zman": 5348,
      "zawa": 5349,
      "ée": 5350,
      "ît": 5351,
      "ña": 5352,
      "ños": 5353,
      "ür": 5354,
      "ат": 5355,
      "ен": 5356,
      "за": 5357,
      "лет": 5358,
      "dberg": 5359,
      "inz": 5360,
      "iness": 5361,
      "inbill": 5362,
      "inelli": 5363,
      "influ": 5364,
      "andi": 5365,
      "ances": 5366,
      "anagi": 5367,
      "ert": 5368,
      "ering": 5369,
      "erot": 5370,
      "erakul": 5371,
      "aro": 5372,
      "arin": 5373,
      "arch": 5374,
      "ario": 5375,
      "armed": 5376,
      "arcer": 5377,
      "sting": 5378,
      "stop": 5379,
      "stant": 5380,
      "stru": 5381,
      "stitution": 5382,
      "staff": 5383,
      "ilo": 5384,
      "ility": 5385,
      "those": 5386,
      "orous": 5387,
      "orable": 5388,
      "orakis": 5389,
      "ream": 5390,
      "reve": 5391,
      "reason": 5392,
      "reform": 5393,
      "recording": 5394,
      "reported": 5395,
      "repris": 5396,
      "once": 5397,
      "oney": 5398,
      "enos": 5399,
      "enden": 5400,
      "enced": 5401,
      "enberg": 5402,
      "eds": 5403,
      "eder": 5404,
      "these": 5405,
      "themed": 5406,
      "atre": 5407,
      "atia": 5408,
      "alo": 5409,
      "alth": 5410,
      "aled": 5411,
      "alia": 5412,
      "almost": 5413,
      "alism": 5414,
      "alleg": 5415,
      "aser": 5416,
      "asom": 5417,
      "asher": 5418,
      "dio": 5419,
      "died": 5420,
      "dice": 5421,
      "dipl": 5422,
      "dici": 5423,
      "itary": 5424,
      "ising": 5425,
      "ischer": 5426,
      "ctor": 5427,
      "ctronic": 5428,
      "andan": 5429,
      "andar": 5430,
      "esco": 5431,
      "eshan": 5432,
      "escu": 5433,
      "roe": 5434,
      "rodu": 5435,
      "ela": 5436,
      "eling": 5437,
      "elmann": 5438,
      "amana": 5439,
      "ofor": 5440,
      "often": 5441,
      "ofilo": 5442,
      "rizio": 5443,
      "lee": 5444,
      "lev": 5445,
      "leto": 5446,
      "left": 5447,
      "rap": 5448,
      "They": 5449,
      "Theatre": 5450,
      "osy": 5451,
      "oln": 5452,
      "olo": 5453,
      "olt": 5454,
      "olhov": 5455,
      "uti": 5456,
      "utive": 5457,
      "emph": 5458,
      "ements": 5459,
      "ayo": 5460,
      "ayuki": 5461,
      "write": 5462,
      "usc": 5463,
      "uses": 5464,
      "ushi": 5465,
      "ention": 5466,
      "1920": 5467,
      "chang": 5468,
      "change": 5469,
      "channel": 5470,
      "chronic": 5471,
      "project": 5472,
      "progress": 5473,
      "protest": 5474,
      "ety": 5475,
      "forces": 5476,
      "forts": 5477,
      "irt": 5478,
      "ova": 5479,
      "ovanni": 5480,
      "iding": 5481,
      "iver": 5482,
      "ivity": 5483,
      "ivadi": 5484,
      "lap": 5485,
      "urban": 5486,
      "esta": 5487,
      "esty": 5488,
      "import": 5489,
      "ogn": 5490,
      "lokch": 5491,
      "Chen": 5492,
      "Chad": 5493,
      "Chik": 5494,
      "Cheng": 5495,
      "Chopra": 5496,
      "Church": 5497,
      "Channing": 5498,
      "Chicken": 5499,
      "ckinbill": 5500,
      "11B": 5501,
      "erse": 5502,
      "ako": 5503,
      "mante": 5504,
      "State": 5505,
      "Stamm": 5506,
      "iane": 5507,
      "why": 5508,
      "Anji": 5509,
      "Anoop": 5510,
      "hail": 5511,
      "havan": 5512,
      "terror": 5513,
      "umi": 5514,
      "umont": 5515,
      "actions": 5516,
      "Mara": 5517,
      "Marion": 5518,
      "Marks": 5519,
      "Margar": 5520,
      "Marcks": 5521,
      "Marguer": 5522,
      "distribution": 5523,
      "earlier": 5524,
      "abol": 5525,
      "abort": 5526,
      "abella": 5527,
      "deep": 5528,
      "Filmfare": 5529,
      "mero": 5530,
      "Def": 5531,
      "Depard": 5532,
      "Independent": 5533,
      "Internet": 5534,
      "Inspi": 5535,
      "ave": 5536,
      "avi": 5537,
      "avvy": 5538,
      "owell": 5539,
      "atha": 5540,
      "athy": 5541,
      "tens": 5542,
      "tenbor": 5543,
      "tenberg": 5544,
      "shirt": 5545,
      "rama": 5546,
      "iffe": 5547,
      "Thu": 5548,
      "Thad": 5549,
      "Thir": 5550,
      "Thier": 5551,
      "Three": 5552,
      "Thurn": 5553,
      "becoming": 5554,
      "becomes": 5555,
      "begin": 5556,
      "become": 5557,
      "appro": 5558,
      "Shil": 5559,
      "Shal": 5560,
      "Shree": 5561,
      "Joh": 5562,
      "neg": 5563,
      "need": 5564,
      "neore": 5565,
      "neigh": 5566,
      "edited": 5567,
      "odor": 5568,
      "artists": 5569,
      "opport": 5570,
      "opened": 5571,
      "oco": 5572,
      "ociation": 5573,
      "occup": 5574,
      "erejeta": 5575,
      "Seg": 5576,
      "Seattle": 5577,
      "ained": 5578,
      "Roberto": 5579,
      "suit": 5580,
      "suke": 5581,
      "ugher": 5582,
      "hnazar": 5583,
      "Arn": 5584,
      "Aron": 5585,
      "Arch": 5586,
      "Arne": 5587,
      "dsmith": 5588,
      "Lew": 5589,
      "Leivadi": 5590,
      "conc": 5591,
      "contain": 5592,
      "confl": 5593,
      "concept": 5594,
      "contribut": 5595,
      "renamed": 5596,
      "rendra": 5597,
      "oko": 5598,
      "oku": 5599,
      "okawa": 5600,
      "plant": 5601,
      "plural": 5602,
      "anna": 5603,
      "Ennio": 5604,
      "Menen": 5605,
      "Reed": 5606,
      "Reza": 5607,
      "Ando": 5608,
      "Andrey": 5609,
      "uko": 5610,
      "Under": 5611,
      "Raha": 5612,
      "Para": 5613,
      "Paris": 5614,
      "Davao": 5615,
      "Wei": 5616,
      "Neil": 5617,
      "serves": 5618,
      "served": 5619,
      "serving": 5620,
      "affect": 5621,
      "coinc": 5622,
      "auto": 5623,
      "Aparna": 5624,
      "aniz": 5625,
      "ahan": 5626,
      "veerakul": 5627,
      "erner": 5628,
      "ernment": 5629,
      "upd": 5630,
      "upon": 5631,
      "upathi": 5632,
      "incarcer": 5633,
      "1953": 5634,
      "Beauf": 5635,
      "exam": 5636,
      "exhib": 5637,
      "Spain": 5638,
      "azine": 5639,
      "ments": 5640,
      "worst": 5641,
      "Harlin": 5642,
      "Harrison": 5643,
      "election": 5644,
      "playing": 5645,
      "McDon": 5646,
      "McCre": 5647,
      "McDonald": 5648,
      "McCorm": 5649,
      "engu": 5650,
      "Ross": 5651,
      "rise": 5652,
      "Robertson": 5653,
      "Meals": 5654,
      "Megan": 5655,
      "Allied": 5656,
      "Erken": 5657,
      "1962": 5658,
      "1965": 5659,
      "1966": 5660,
      "1969": 5661,
      "Contin": 5662,
      "Broca": 5663,
      "Richter": 5664,
      "mez": 5665,
      "Jeet": 5666,
      "Jewis": 5667,
      "Janaki": 5668,
      "Janák": 5669,
      "Blan": 5670,
      "Colson": 5671,
      "Coliz": 5672,
      "Collins": 5673,
      "iza": 5674,
      "ization": 5675,
      "Carol": 5676,
      "aneous": 5677,
      "Brizzi": 5678,
      "Heinz": 5679,
      "Mayuko": 5680,
      "Nora": 5681,
      "Nord": 5682,
      "note": 5683,
      "nights": 5684,
      "week": 5685,
      "Williamson": 5686,
      "Girard": 5687,
      "Mali": 5688,
      "Maldiv": 5689,
      "Maloney": 5690,
      "Malasom": 5691,
      "3FO": 5692,
      "Alejandro": 5693,
      "Alekos": 5694,
      "Jackie": 5695,
      "mina": 5696,
      "minor": 5697,
      "Monica": 5698,
      "Sourab": 5699,
      "eneuer": 5700,
      "Dons": 5701,
      "Donner": 5702,
      "Donnie": 5703,
      "Moran": 5704,
      "Morse": 5705,
      "Morric": 5706,
      "Morales": 5707,
      "Moresco": 5708,
      "Noel": 5709,
      "Project": 5710,
      "YouTu": 5711,
      "1976": 5712,
      "ariya": 5713,
      "itting": 5714,
      "deployed": 5715,
      "dependen": 5716,
      "ughter": 5717,
      "Eastern": 5718,
      "Kenyon": 5719,
      "twood": 5720,
      "ults": 5721,
      "included": 5722,
      "Adams": 5723,
      "Adkins": 5724,
      "Elser": 5725,
      "Elba": 5726,
      "Elorri": 5727,
      "Elfelt": 5728,
      "Samadi": 5729,
      "1981": 5730,
      "1983": 5731,
      "1988": 5732,
      "general": 5733,
      "nomination": 5734,
      "undercover": 5735,
      "appears": 5736,
      "follow": 5737,
      "Buenos": 5738,
      "partially": 5739,
      "Engel": 5740,
      "Mooney": 5741,
      "Terence": 5742,
      "Goldsmith": 5743,
      "Luci": 5744,
      "Luckinbill": 5745,
      "crimes": 5746,
      "hired": 5747,
      "Asch": 5748,
      "Miike": 5749,
      "roni": 5750,
      "ront": 5751,
      "interest": 5752,
      "regard": 5753,
      "Excell": 5754,
      "Shah": 5755,
      "introdu": 5756,
      "radling": 5757,
      "Entertainments": 5758,
      "Bert": 5759,
      "Bertr": 5760,
      "Bercot": 5761,
      "Jimmy": 5762,
      "cliffe": 5763,
      "marily": 5764,
      "Bened": 5765,
      "Orton": 5766,
      "Peck": 5767,
      "Peoples": 5768,
      "Peña": 5769,
      "centers": 5770,
      "harth": 5771,
      "hartha": 5772,
      "indivi": 5773,
      "1942": 5774,
      "Amitab": 5775,
      "Emir": 5776,
      "Emmy": 5777,
      "Patroni": 5778,
      "awarded": 5779,
      "makers": 5780,
      "1890": 5781,
      "Dutt": 5782,
      "thaah": 5783,
      "ought": 5784,
      "Raju": 5785,
      "historic": 5786,
      "Faththaah": 5787,
      "Querejeta": 5788,
      "Suj": 5789,
      "Suman": 5790,
      "Surendra": 5791,
      "aldo": 5792,
      "Classics": 5793,
      "Atkins": 5794,
      "Attenbor": 5795,
      "Salma": 5796,
      "Salazar": 5797,
      "correspon": 5798,
      "finding": 5799,
      "mostly": 5800,
      "slasher": 5801,
      "zek": 5802,
      "throughout": 5803,
      "Martino": 5804,
      "Sharat": 5805,
      "supported": 5806,
      "Canal": 5807,
      "Canada": 5808,
      "Claus": 5809,
      "Guilla": 5810,
      "Juliet": 5811,
      "Saito": 5812,
      "Sairam": 5813,
      "brought": 5814,
      "president": 5815,
      "selaar": 5816,
      "Loubert": 5817,
      "Serg": 5818,
      "Series": 5819,
      "Verd": 5820,
      "Verónica": 5821,
      "Barry": 5822,
      "Barren": 5823,
      "Bello": 5824,
      "Koh": 5825,
      "Koolhov": 5826,
      "cially": 5827,
      "liter": 5828,
      "soon": 5829,
      "animation": 5830,
      "Stephens": 5831,
      "flight": 5832,
      "retrospe": 5833,
      "Robb": 5834,
      "Robinson": 5835,
      "Bloom": 5836,
      "Giovanni": 5837,
      "Kawas": 5838,
      "Susi": 5839,
      "Sidhartha": 5840,
      "osheni": 5841,
      "oshuai": 5842,
      "Competition": 5843,
      "Discover": 5844,
      "Devil": 5845,
      "Jerry": 5846,
      "Lesley": 5847,
      "Rogers": 5848,
      "efforts": 5849,
      "iety": 5850,
      "vedi": 5851,
      "local": 5852,
      "shows": 5853,
      "showed": 5854,
      "Columbus": 5855,
      "Ariely": 5856,
      "Bohwim": 5857,
      "Balas": 5858,
      "Baltim": 5859,
      "Billie": 5860,
      "Billboard": 5861,
      "Everett": 5862,
      "Gert": 5863,
      "Gerstad": 5864,
      "Grover": 5865,
      "Grodin": 5866,
      "Magnol": 5867,
      "Sanford": 5868,
      "campaign": 5869,
      "fourth": 5870,
      "trip": 5871,
      "Akrom": 5872,
      "Akari": 5873,
      "Larry": 5874,
      "Larisa": 5875,
      "Laurent": 5876,
      "Network": 5877,
      "Poly": 5878,
      "Rena": 5879,
      "Slays": 5880,
      "Stock": 5881,
      "Stokes": 5882,
      "baum": 5883,
      "Annabella": 5884,
      "consist": 5885,
      "Webster": 5886,
      "Ernest": 5887,
      "Jefferson": 5888,
      "Blackwell": 5889,
      "88th": 5890,
      "Burm": 5891,
      "Burt": 5892,
      "Eskand": 5893,
      "Jae": 5894,
      "Jaan": 5895,
      "Levinson": 5896,
      "Ricky": 5897,
      "Venkates": 5898,
      "Visual": 5899,
      "kenstock": 5900,
      "parody": 5901,
      "praising": 5902,
      "commission": 5903,
      "committed": 5904,
      "Hanks": 5905,
      "Hanung": 5906,
      "Hartmann": 5907,
      "Linden": 5908,
      "Lori": 5909,
      "Lorenzo": 5910,
      "Rabi": 5911,
      "Ravin": 5912,
      "USA": 5913,
      "Woods": 5914,
      "background": 5915,
      "mainly": 5916,
      "discovers": 5917,
      "rahl": 5918,
      "biography": 5919,
      "Bosn": 5920,
      "Demange": 5921,
      "Demofilo": 5922,
      "Diggs": 5923,
      "Fernández": 5924,
      "Huff": 5925,
      "Jayaraj": 5926,
      "Jennings": 5927,
      "Katariya": 5928,
      "Kapri": 5929,
      "Mahesh": 5930,
      "Randall": 5931,
      "cano": 5932,
      "football": 5933,
      "print": 5934,
      "simply": 5935,
      "similar": 5936,
      "study": 5937,
      "Much": 5938,
      "Muaz": 5939,
      "Melina": 5940,
      "Moss": 5941,
      "Moscow": 5942,
      "Sakveerakul": 5943,
      "Tula": 5944,
      "Tripp": 5945,
      "Taye": 5946,
      "Wilson": 5947,
      "hometown": 5948,
      "narrated": 5949,
      "surviv": 5950,
      "alongside": 5951,
      "contro": 5952,
      "portrayed": 5953,
      "Beebe": 5954,
      "mysterious": 5955,
      "Isabelle": 5956,
      "possess": 5957,
      "Jacobs": 5958,
      "Brea": 5959,
      "Reddy": 5960,
      "Simran": 5961,
      "Vinod": 5962,
      "could": 5963,
      "capital": 5964,
      "visual": 5965,
      "wenty": 5966,
      "issues": 5967,
      "Chandu": 5968,
      "Chandler": 5969,
      "Lucio": 5970,
      "Luciano": 5971,
      "Louisiana": 5972,
      "Austrian": 5973,
      "categories": 5974,
      "Birkenstock": 5975,
      "Curtin": 5976,
      "Gilliam": 5977,
      "Gopi": 5978,
      "Gopal": 5979,
      "Knut": 5980,
      "Keret": 5981,
      "Muslim": 5982,
      "Toei": 5983,
      "daughter": 5984,
      "ijk": 5985,
      "Steiger": 5986,
      "response": 5987,
      "Marques": 5988,
      "Marqués": 5989,
      "audience": 5990,
      "episodes": 5991,
      "Barbato": 5992,
      "returning": 5993,
      "European": 5994,
      "Electronic": 5995,
      "Jamie": 5996,
      "Jamsh": 5997,
      "Kamiyama": 5998,
      "Kirsten": 5999,
      "Landau": 6000,
      "Longford": 6001,
      "Mexican": 6002,
      "Portrait": 6003,
      "Troub": 6004,
      "Tsuyoshi": 6005,
      "Varney": 6006,
      "Varma": 6007,
      "Volcano": 6008,
      "soldier": 6009,
      "varo": 6010,
      "additional": 6011,
      "eventually": 6012,
      "confusion": 6013,
      "pregnant": 6014,
      "McCrary": 6015,
      "Madhouse": 6016,
      "Barton": 6017,
      "Bartlett": 6018,
      "Damon": 6019,
      "Gaumont": 6020,
      "Griffi": 6021,
      "Hilde": 6022,
      "Hilary": 6023,
      "Honesty": 6024,
      "Kurtwood": 6025,
      "Lenzi": 6026,
      "Lupoff": 6027,
      "Mandy": 6028,
      "Mandarin": 6029,
      "Metro": 6030,
      "Pakistan": 6031,
      "Tatum": 6032,
      "Tatia": 6033,
      "greatest": 6034,
      "encounter": 6035,
      "Chaney": 6036,
      "respectively": 6037,
      "Marcet": 6038,
      "Institute": 6039,
      "Sethupathi": 6040,
      "Royston": 6041,
      "Andrés": 6042,
      "Elliot": 6043,
      "Elliott": 6044,
      "described": 6045,
      "effects": 6046,
      "Giannetti": 6047,
      "participants": 6048,
      "challenges": 6049,
      "Burns": 6050,
      "Campbell": 6051,
      "Dawson": 6052,
      "Gosselaar": 6053,
      "Gemma": 6054,
      "Gallant": 6055,
      "Hawthorne": 6056,
      "Ilse": 6057,
      "Kinagi": 6058,
      "Kempen": 6059,
      "Klaus": 6060,
      "Lambert": 6061,
      "Mastorakis": 6062,
      "Messing": 6063,
      "Nirmal": 6064,
      "Nazi": 6065,
      "Poiri": 6066,
      "Umberto": 6067,
      "Zampi": 6068,
      "frequ": 6069,
      "friend": 6070,
      "fifteen": 6071,
      "humorous": 6072,
      "message": 6073,
      "network": 6074,
      "pande": 6075,
      "primarily": 6076,
      "whether": 6077,
      "record": 6078,
      "robber": 6079,
      "lawsuit": 6080,
      "because": 6081,
      "opening": 6082,
      "conviction": 6083,
      "credits": 6084,
      "complex": 6085,
      "travels": 6086,
      "violent": 6087,
      "Ferrara": 6088,
      "Namibia": 6089,
      "Nicholas": 6090,
      "Besser": 6091,
      "Cuesta": 6092,
      "Eduard": 6093,
      "Ganeshan": 6094,
      "Gandhi": 6095,
      "Guru": 6096,
      "Gulshan": 6097,
      "Goya": 6098,
      "Hurt": 6099,
      "Jasmine": 6100,
      "Litvak": 6101,
      "Momoko": 6102,
      "Nyong": 6103,
      "Navid": 6104,
      "Oldoini": 6105,
      "Piper": 6106,
      "Tiexier": 6107,
      "Tirulokch": 6108,
      "Vincent": 6109,
      "Yamada": 6110,
      "Zingelmann": 6111,
      "crore": 6112,
      "potent": 6113,
      "picture": 6114,
      "village": 6115,
      "Álvaro": 6116,
      "statement": 6117,
      "thirteen": 6118,
      "organiz": 6119,
      "escape": 6120,
      "Antara": 6121,
      "Harvey": 6122,
      "Connell": 6123,
      "Extraordinary": 6124,
      "Benoît": 6125,
      "religious": 6126,
      "Laxamana": 6127,
      "scheduled": 6128,
      "Siddharth": 6129,
      "Narayanan": 6130,
      "Fausto": 6131,
      "collaboration": 6132,
      "Wakamatsu": 6133,
      "Aurel": 6134,
      "Averick": 6135,
      "Akira": 6136,
      "Bieber": 6137,
      "Bressack": 6138,
      "Bhaskar": 6139,
      "Bettis": 6140,
      "Brescia": 6141,
      "BAFTA": 6142,
      "Cerezo": 6143,
      "Council": 6144,
      "Dylan": 6145,
      "Deshpande": 6146,
      "Eiichi": 6147,
      "Esther": 6148,
      "Euteneuer": 6149,
      "Ejiofor": 6150,
      "Etsushi": 6151,
      "Fábri": 6152,
      "Fenton": 6153,
      "Fidani": 6154,
      "Fearless": 6155,
      "Fraser": 6156,
      "Friday": 6157,
      "Gómez": 6158,
      "Globe": 6159,
      "Grady": 6160,
      "Gracia": 6161,
      "Houston": 6162,
      "Hepburn": 6163,
      "Hamilton": 6164,
      "Haseo": 6165,
      "Horsemen": 6166,
      "Idris": 6167,
      "Ign": 6168,
      "Kuhn": 6169,
      "Kyaw": 6170,
      "Kolkata": 6171,
      "Kusanagi": 6172,
      "Kudo": 6173,
      "Kennedy": 6174,
      "López": 6175,
      "Lincoln": 6176,
      "Looney": 6177,
      "Lázaro": 6178,
      "Mishima": 6179,
      "Muriel": 6180,
      "NYC": 6181,
      "Njue": 6182,
      "Nunzio": 6183,
      "Oshosheni": 6184,
      "Pregnancy": 6185,
      "Ribisi": 6186,
      "Rhys": 6187,
      "Sutcliffe": 6188,
      "Srikanth": 6189,
      "Tosar": 6190,
      "Toyokawa": 6191,
      "Ubaldo": 6192,
      "Walker": 6193,
      "Xiaoshuai": 6194,
      "Yakus": 6195,
      "adult": 6196,
      "bonus": 6197,
      "birth": 6198,
      "bocca": 6199,
      "buster": 6200,
      "custom": 6201,
      "famous": 6202,
      "government": 6203,
      "herself": 6204,
      "saying": 6205,
      "tremante": 6206,
      "tutto": 6207,
      "reaming": 6208,
      "revealed": 6209,
      "alleged": 6210,
      "diplomat": 6211,
      "important": 6212,
      "terrorism": 6213,
      "Marguerite": 6214,
      "Depardon": 6215,
      "Thierry": 6216,
      "beginning": 6217,
      "neorealism": 6218,
      "opportun": 6219,
      "hnazarov": 6220,
      "conflict": 6221,
      "Beaufoy": 6222,
      "McDonell": 6223,
      "McCreary": 6224,
      "Erkenov": 6225,
      "Jewison": 6226,
      "Colizzi": 6227,
      "Maldivian": 6228,
      "Malasomma": 6229,
      "Sourabh": 6230,
      "Morricone": 6231,
      "YouTube": 6232,
      "dependence": 6233,
      "Elorrieta": 6234,
      "Bertrand": 6235,
      "Amitabh": 6236,
      "Attenborough": 6237,
      "Guillaume": 6238,
      "Koolhoven": 6239,
      "retrospective": 6240,
      "Discovery": 6241,
      "Baltimore": 6242,
      "Magnolia": 6243,
      "Eskandari": 6244,
      "Venkatesh": 6245,
      "Poirier": 6246,
      "Tiexiera": 6247,
      "Tirulokchandar": 6248,
      "!)": 6249,
      "\").": 6250,
      "',": 6251,
      ".'": 6252,
      "26": 6253,
      "33": 6254,
      "51": 6255,
      "69": 6256,
      "89th": 6257,
      "87th": 6258,
      "91st": 6259,
      "?\"": 6260,
      "?)": 6261,
      "AR": 6262,
      "Aj": 6263,
      "Ath": 6264,
      "Aut": 6265,
      "Aay": 6266,
      "Ach": 6267,
      "Aun": 6268,
      "Ala": 6269,
      "Ade": 6270,
      "Aram": 6271,
      "Aran": 6272,
      "Aud": 6273,
      "Action": 6274,
      "Ayn": 6275,
      "Adit": 6276,
      "Aidan": 6277,
      "Acost": 6278,
      "Bor": 6279,
      "Bid": 6280,
      "Bian": 6281,
      "Bres": 6282,
      "Bry": 6283,
      "Bast": 6284,
      "Buk": 6285,
      "Back": 6286,
      "Berman": 6287,
      "Bord": 6288,
      "Brem": 6289,
      "Both": 6290,
      "Bose": 6291,
      "Bho": 6292,
      "Biro": 6293,
      "Bush": 6294,
      "Banc": 6295,
      "Banks": 6296,
      "Bishop": 6297,
      "Boku": 6298,
      "Ce": 6299,
      "Cand": 6300,
      "Ces": 6301,
      "Cic": 6302,
      "Cou": 6303,
      "Crit": 6304,
      "Cus": 6305,
      "Cag": 6306,
      "Cul": 6307,
      "Cusic": 6308,
      "Cab": 6309,
      "Cies": 6310,
      "Cip": 6311,
      "Cass": 6312,
      "Cout": 6313,
      "Cok": 6314,
      "Cine": 6315,
      "Count": 6316,
      "Camil": 6317,
      "Cub": 6318,
      "Cult": 6319,
      "Cull": 6320,
      "Cott": 6321,
      "Cze": 6322,
      "COV": 6323,
      "Cresc": 6324,
      "Ceder": 6325,
      "Cayo": 6326,
      "Dy": 6327,
      "Dé": 6328,
      "Din": 6329,
      "Dim": 6330,
      "Dul": 6331,
      "Dod": 6332,
      "Due": 6333,
      "Dine": 6334,
      "Down": 6335,
      "Diz": 6336,
      "Domin": 6337,
      "Dale": 6338,
      "Dyn": 6339,
      "Duo": 6340,
      "Dilla": 6341,
      "Dmit": 6342,
      "Dash": 6343,
      "Dotto": 6344,
      "Diane": 6345,
      "E5": 6346,
      "Ep": 6347,
      "Eil": 6348,
      "Eion": 6349,
      "Ece": 6350,
      "Eak": 6351,
      "Emer": 6352,
      "Esc": 6353,
      "Eug": 6354,
      "Elish": 6355,
      "Eason": 6356,
      "Event": 6357,
      "Erik": 6358,
      "EE5": 6359,
      "FL": 6360,
      "Fil": 6361,
      "Fal": 6362,
      "Fam": 6363,
      "Fle": 6364,
      "Fol": 6365,
      "Fact": 6366,
      "Fass": 6367,
      "Fug": 6368,
      "Fac": 6369,
      "Fris": 6370,
      "Fever": 6371,
      "Found": 6372,
      "Feld": 6373,
      "Fors": 6374,
      "Frel": 6375,
      "Foot": 6376,
      "Foto": 6377,
      "Fün": 6378,
      "Farr": 6379,
      "Flet": 6380,
      "Family": 6381,
      "Fitz": 6382,
      "Fantasy": 6383,
      "Front": 6384,
      "Gy": 6385,
      "Gin": 6386,
      "Gam": 6387,
      "Gad": 6388,
      "Gla": 6389,
      "Grom": 6390,
      "Gug": 6391,
      "Gust": 6392,
      "Gren": 6393,
      "Game": 6394,
      "Gates": 6395,
      "Gub": 6396,
      "Giam": 6397,
      "Grig": 6398,
      "Gene": 6399,
      "Grah": 6400,
      "Gould": 6401,
      "Gwen": 6402,
      "Hå": 6403,
      "Hö": 6404,
      "Hilm": 6405,
      "Hat": 6406,
      "Hand": 6407,
      "Hof": 6408,
      "Hut": 6409,
      "Hus": 6410,
      "Hiv": 6411,
      "Him": 6412,
      "Hak": 6413,
      "Hath": 6414,
      "Hass": 6415,
      "Hok": 6416,
      "Hick": 6417,
      "Hai": 6418,
      "Hare": 6419,
      "Hoy": 6420,
      "Heng": 6421,
      "Hund": 6422,
      "Huss": 6423,
      "Home": 6424,
      "Hox": 6425,
      "Hoot": 6426,
      "Hems": 6427,
      "Hams": 6428,
      "Hasan": 6429,
      "Herek": 6430,
      "ID": 6431,
      "IN": 6432,
      "Iri": 6433,
      "Ito": 6434,
      "Icon": 6435,
      "Iss": 6436,
      "Ifi": 6437,
      "Ili": 6438,
      "Irel": 6439,
      "IMA": 6440,
      "JD": 6441,
      "Jin": 6442,
      "Jet": 6443,
      "Jov": 6444,
      "Jug": 6445,
      "Jury": 6446,
      "Jacc": 6447,
      "Jena": 6448,
      "Jaff": 6449,
      "Janno": 6450,
      "Kilm": 6451,
      "Krit": 6452,
      "Kent": 6453,
      "Kill": 6454,
      "Kish": 6455,
      "Kav": 6456,
      "Kaw": 6457,
      "Kris": 6458,
      "Kamil": 6459,
      "Kob": 6460,
      "Knight": 6461,
      "Khar": 6462,
      "Kull": 6463,
      "Kras": 6464,
      "Koth": 6465,
      "Keral": 6466,
      "Klos": 6467,
      "Kels": 6468,
      "Kauf": 6469,
      "Khot": 6470,
      "Kinski": 6471,
      "Kaji": 6472,
      "Krahl": 6473,
      "Lo": 6474,
      "Lon": 6475,
      "Lof": 6476,
      "Lion": 6477,
      "Lag": 6478,
      "Log": 6479,
      "Lang": 6480,
      "Lot": 6481,
      "Light": 6482,
      "Lif": 6483,
      "Lod": 6484,
      "Lann": 6485,
      "Lone": 6486,
      "Lher": 6487,
      "Leng": 6488,
      "Lib": 6489,
      "Loff": 6490,
      "Lank": 6491,
      "Lord": 6492,
      "Lola": 6493,
      "Lazar": 6494,
      "Lusc": 6495,
      "Lowell": 6496,
      "Mü": 6497,
      "Mam": 6498,
      "Mou": 6499,
      "Mim": 6500,
      "Mall": 6501,
      "Mear": 6502,
      "Mits": 6503,
      "Made": 6504,
      "Mapp": 6505,
      "Mami": 6506,
      "Muse": 6507,
      "Michi": 6508,
      "Mafia": 6509,
      "Nin": 6510,
      "Non": 6511,
      "Nay": 6512,
      "Niv": 6513,
      "Nim": 6514,
      "Num": 6515,
      "Nith": 6516,
      "Nish": 6517,
      "Now": 6518,
      "Nap": 6519,
      "Nive": 6520,
      "Naj": 6521,
      "Nana": 6522,
      "Nino": 6523,
      "Null": 6524,
      "Nathan": 6525,
      "Naya": 6526,
      "Nisha": 6527,
      "Nuits": 6528,
      "NFL": 6529,
      "OR": 6530,
      "Og": 6531,
      "Ok": 6532,
      "Oz": 6533,
      "Odu": 6534,
      "Ober": 6535,
      "Oly": 6536,
      "Over": 6537,
      "Oke": 6538,
      "Ogro": 6539,
      "Omar": 6540,
      "Ovi": 6541,
      "Ocamp": 6542,
      "Ojo": 6543,
      "Owen": 6544,
      "PA": 6545,
      "Pu": 6546,
      "Pä": 6547,
      "Pé": 6548,
      "Põ": 6549,
      "Ped": 6550,
      "Pis": 6551,
      "Pand": 6552,
      "Pag": 6553,
      "Pla": 6554,
      "Pab": 6555,
      "Pry": 6556,
      "Pour": 6557,
      "Pram": 6558,
      "Pap": 6559,
      "Pop": 6560,
      "Pere": 6561,
      "Pine": 6562,
      "Pale": 6563,
      "Poo": 6564,
      "Plow": 6565,
      "Poon": 6566,
      "Pete": 6567,
      "Piven": 6568,
      "PBS": 6569,
      "Pilar": 6570,
      "Qi": 6571,
      "Rh": 6572,
      "Rw": 6573,
      "Ré": 6574,
      "Res": 6575,
      "Ric": 6576,
      "Rhe": 6577,
      "Rut": 6578,
      "Rad": 6579,
      "Rour": 6580,
      "Rain": 6581,
      "Rio": 6582,
      "Renn": 6583,
      "Rans": 6584,
      "Rakes": 6585,
      "Riley": 6586,
      "Rush": 6587,
      "Raine": 6588,
      "SW": 6589,
      "SX": 6590,
      "Sz": 6591,
      "Sas": 6592,
      "Sand": 6593,
      "Sic": 6594,
      "Sof": 6595,
      "Som": 6596,
      "Siv": 6597,
      "Sur": 6598,
      "Sum": 6599,
      "Sav": 6600,
      "Sug": 6601,
      "Sud": 6602,
      "Suk": 6603,
      "Side": 6604,
      "Sco": 6605,
      "Sara": 6606,
      "Semy": 6607,
      "Some": 6608,
      "Siss": 6609,
      "Sway": 6610,
      "Sny": 6611,
      "Soo": 6612,
      "Sza": 6613,
      "Sini": 6614,
      "Seven": 6615,
      "Siner": 6616,
      "Six": 6617,
      "Sorri": 6618,
      "Sengu": 6619,
      "Ti": 6620,
      "Tar": 6621,
      "Tre": 6622,
      "Ted": 6623,
      "Tal": 6624,
      "Tit": 6625,
      "Tut": 6626,
      "Tun": 6627,
      "Test": 6628,
      "Tears": 6629,
      "Tous": 6630,
      "Tex": 6631,
      "Tally": 6632,
      "Time": 6633,
      "Tsi": 6634,
      "Tiro": 6635,
      "Uch": 6636,
      "Ude": 6637,
      "Uke": 6638,
      "Umar": 6639,
      "Urs": 6640,
      "Uhl": 6641,
      "UPA": 6642,
      "Ves": 6643,
      "Vir": 6644,
      "Viv": 6645,
      "Vog": 6646,
      "Vers": 6647,
      "Vak": 6648,
      "Vish": 6649,
      "Venn": 6650,
      "View": 6651,
      "WE": 6652,
      "Wy": 6653,
      "Wilm": 6654,
      "Wis": 6655,
      "Wes": 6656,
      "Wel": 6657,
      "Wind": 6658,
      "Wale": 6659,
      "Witt": 6660,
      "Wild": 6661,
      "Wont": 6662,
      "Walking": 6663,
      "Weru": 6664,
      "Werner": 6665,
      "WWE": 6666,
      "Ye": 6667,
      "Yas": 6668,
      "Yus": 6669,
      "Yog": 6670,
      "Youn": 6671,
      "Yves": 6672,
      "Yosh": 6673,
      "Yemen": 6674,
      "Yared": 6675,
      "Yvon": 6676,
      "Yadan": 6677,
      "ZZ": 6678,
      "Zh": 6679,
      "Zw": 6680,
      "Zem": 6681,
      "Zur": 6682,
      "Zha": 6683,
      "Zins": 6684,
      "Zoe": 6685,
      "Zolt": 6686,
      "ZEE5": 6687,
      "adu": 6688,
      "aest": 6689,
      "aard": 6690,
      "aac": 6691,
      "aoka": 6692,
      "bun": 6693,
      "bour": 6694,
      "bik": 6695,
      "block": 6696,
      "bara": 6697,
      "bank": 6698,
      "bett": 6699,
      "bana": 6700,
      "bling": 6701,
      "brand": 6702,
      "bike": 6703,
      "basis": 6704,
      "bieg": 6705,
      "bishop": 6706,
      "cing": 6707,
      "cas": 6708,
      "cul": 6709,
      "cich": 6710,
      "cong": 6711,
      "cann": 6712,
      "cess": 6713,
      "cio": 6714,
      "clock": 6715,
      "case": 6716,
      "cott": 6717,
      "cía": 6718,
      "casing": 6719,
      "czy": 6720,
      "civil": 6721,
      "counter": 6722,
      "canton": 6723,
      "dar": 6724,
      "dil": 6725,
      "dor": 6726,
      "dre": 6727,
      "don": 6728,
      "dal": 6729,
      "det": 6730,
      "dest": 6731,
      "doc": 6732,
      "denn": 6733,
      "document": 6734,
      "dale": 6735,
      "dwell": 6736,
      "dnik": 6737,
      "ee": 6738,
      "ech": 6739,
      "eith": 6740,
      "econ": 6741,
      "ebin": 6742,
      "fu": 6743,
      "fy": 6744,
      "fil": 6745,
      "fas": 6746,
      "fro": 6747,
      "fad": 6748,
      "fur": 6749,
      "fill": 6750,
      "fian": 6751,
      "fast": 6752,
      "fost": 6753,
      "fred": 6754,
      "fans": 6755,
      "free": 6756,
      "fze": 6757,
      "fighting": 6758,
      "fried": 6759,
      "fstr": 6760,
      "gr": 6761,
      "ged": 6762,
      "gas": 6763,
      "gri": 6764,
      "gle": 6765,
      "gran": 6766,
      "gud": 6767,
      "gment": 6768,
      "gley": 6769,
      "gely": 6770,
      "gason": 6771,
      "giving": 6772,
      "ggest": 6773,
      "gür": 6774,
      "gained": 6775,
      "hon": 6776,
      "hen": 6777,
      "hring": 6778,
      "hou": 6779,
      "hid": 6780,
      "hour": 6781,
      "hart": 6782,
      "hide": 6783,
      "hous": 6784,
      "hence": 6785,
      "hler": 6786,
      "house": 6787,
      "iat": 6788,
      "iel": 6789,
      "ius": 6790,
      "ioli": 6791,
      "jor": 6792,
      "jur": 6793,
      "jman": 6794,
      "jnov": 6795,
      "jung": 6796,
      "jiru": 6797,
      "ked": 6798,
      "kid": 6799,
      "kung": 6800,
      "kona": 6801,
      "kumar": 6802,
      "kaya": 6803,
      "kasa": 6804,
      "lf": 6805,
      "lɛ": 6806,
      "lon": 6807,
      "lat": 6808,
      "lis": 6809,
      "lou": 6810,
      "lay": 6811,
      "lov": 6812,
      "log": 6813,
      "lers": 6814,
      "lum": 6815,
      "lich": 6816,
      "lia": 6817,
      "ller": 6818,
      "lovers": 6819,
      "mb": 6820,
      "mˈ": 6821,
      "mis": 6822,
      "mos": 6823,
      "mad": 6824,
      "mie": 6825,
      "mik": 6826,
      "mous": 6827,
      "mley": 6828,
      "mund": 6829,
      "mings": 6830,
      "mott": 6831,
      "mock": 6832,
      "mody": 6833,
      "mother": 6834,
      "mala": 6835,
      "nin": 6836,
      "ned": 6837,
      "nis": 6838,
      "nic": 6839,
      "nard": 6840,
      "nill": 6841,
      "nation": 6842,
      "near": 6843,
      "now": 6844,
      "nost": 6845,
      "national": 6846,
      "nered": 6847,
      "nason": 6848,
      "napp": 6849,
      "norm": 6850,
      "nature": 6851,
      "normal": 6852,
      "oing": 6853,
      "ohnazarov": 6854,
      "pm": 6855,
      "pil": 6856,
      "phe": 6857,
      "pet": 6858,
      "pur": 6859,
      "pul": 6860,
      "pear": 6861,
      "pain": 6862,
      "pac": 6863,
      "pell": 6864,
      "poor": 6865,
      "paid": 6866,
      "poulos": 6867,
      "qbo": 6868,
      "rd": 6869,
      "ration": 6870,
      "rish": 6871,
      "rone": 6872,
      "rte": 6873,
      "rics": 6874,
      "ralekha": 6875,
      "rbara": 6876,
      "sa": 6877,
      "som": 6878,
      "sion": 6879,
      "sem": 6880,
      "sag": 6881,
      "sun": 6882,
      "sid": 6883,
      "sum": 6884,
      "sey": 6885,
      "sour": 6886,
      "sok": 6887,
      "sada": 6888,
      "suna": 6889,
      "slow": 6890,
      "sburg": 6891,
      "selling": 6892,
      "sahl": 6893,
      "skaya": 6894,
      "tu": 6895,
      "tw": 6896,
      "tro": 6897,
      "tav": 6898,
      "tical": 6899,
      "trey": 6900,
      "tual": 6901,
      "taking": 6902,
      "talking": 6903,
      "twenty": 6904,
      "uc": 6905,
      "ux": 6906,
      "uals": 6907,
      "uated": 6908,
      "uah": 6909,
      "uoka": 6910,
      "vo": 6911,
      "vet": 6912,
      "vation": 6913,
      "vall": 6914,
      "vict": 6915,
      "vide": 6916,
      "vru": 6917,
      "vino": 6918,
      "velop": 6919,
      "vois": 6920,
      "vorty": 6921,
      "wer": 6922,
      "wal": 6923,
      "wet": 6924,
      "wig": 6925,
      "wall": 6926,
      "wear": 6927,
      "wne": 6928,
      "wind": 6929,
      "wari": 6930,
      "wakes": 6931,
      "wald": 6932,
      "walk": 6933,
      "wants": 6934,
      "walking": 6935,
      "xi": 6936,
      "yin": 6937,
      "ythe": 6938,
      "yle": 6939,
      "yra": 6940,
      "yuki": 6941,
      "yeva": 6942,
      "zin": 6943,
      "zie": 6944,
      "zones": 6945,
      "ät": 6946,
      "ær": 6947,
      "ímur": 6948,
      "ðnason": 6949,
      "ñas": 6950,
      "ñán": 6951,
      "öm": 6952,
      "ölf": 6953,
      "örte": 6954,
      "údi": 6955,
      "ück": 6956,
      "ım": 6957,
      "łata": 6958,
      "ści": 6959,
      "șescu": 6960,
      "ɔtin": 6961,
      "ʃɛ": 6962,
      "ˈft": 6963,
      "ˈlɛ": 6964,
      "ˈʃɛ": 6965,
      "ες": 6966,
      "Пе": 6967,
      "до": 6968,
      "жен": 6969,
      "ие": 6970,
      "иц": 6971,
      "ия": 6972,
      "ка": 6973,
      "на": 6974,
      "пат": 6975,
      "то": 6976,
      "দশ": 6977,
      "の刺": 6978,
      "ック": 6979,
      "ット": 6980,
      "ドット": 6981,
      "ハック": 6982,
      "三人": 6983,
      "十三人": 6984,
      "inas": 6985,
      "iniv": 6986,
      "iners": 6987,
      "inha": 6988,
      "inath": 6989,
      "inne": 6990,
      "inberg": 6991,
      "informan": 6992,
      "incher": 6993,
      "internet": 6994,
      "infat": 6995,
      "inenko": 6996,
      "infil": 6997,
      "aning": 6998,
      "aney": 6999,
      "anies": 7000,
      "another": 7001,
      "anathan": 7002,
      "anormal": 7003,
      "eri": 7004,
      "erly": 7005,
      "error": 7006,
      "ertz": 7007,
      "aran": 7008,
      "aring": 7009,
      "arand": 7010,
      "arly": 7011,
      "arine": 7012,
      "arily": 7013,
      "arva": 7014,
      "stol": 7015,
      "stem": 7016,
      "stik": 7017,
      "stated": 7018,
      "street": 7019,
      "stunt": 7020,
      "styl": 7021,
      "strand": 7022,
      "streaming": 7023,
      "style": 7024,
      "stɔtin": 7025,
      "ilak": 7026,
      "iliano": 7027,
      "ilities": 7028,
      "thod": 7029,
      "thought": 7030,
      "orf": 7031,
      "oru": 7032,
      "orical": 7033,
      "rez": 7034,
      "reth": 7035,
      "rett": 7036,
      "repor": 7037,
      "reasing": 7038,
      "represented": 7039,
      "retold": 7040,
      "onde": 7041,
      "onia": 7042,
      "onze": 7043,
      "onso": 7044,
      "online": 7045,
      "enk": 7046,
      "ento": 7047,
      "ency": 7048,
      "enbaum": 7049,
      "edman": 7050,
      "theast": 7051,
      "themat": 7052,
      "atic": 7053,
      "atian": 7054,
      "atop": 7055,
      "atso": 7056,
      "atsha": 7057,
      "alina": 7058,
      "although": 7059,
      "album": 7060,
      "algic": 7061,
      "asi": 7062,
      "asos": 7063,
      "asant": 7064,
      "asche": 7065,
      "asury": 7066,
      "asberg": 7067,
      "dic": 7068,
      "dian": 7069,
      "dict": 7070,
      "dieu": 7071,
      "district": 7072,
      "dical": 7073,
      "dirt": 7074,
      "itge": 7075,
      "itated": 7076,
      "isen": 7077,
      "isol": 7078,
      "island": 7079,
      "islov": 7080,
      "ispell": 7081,
      "anded": 7082,
      "rings": 7083,
      "esp": 7084,
      "espe": 7085,
      "esday": 7086,
      "esburg": 7087,
      "icz": 7088,
      "icate": 7089,
      "icide": 7090,
      "107": 7091,
      "roy": 7092,
      "road": 7093,
      "roun": 7094,
      "roph": 7095,
      "roian": 7096,
      "root": 7097,
      "roff": 7098,
      "roft": 7099,
      "rosla": 7100,
      "eler": 7101,
      "elson": 7102,
      "elton": 7103,
      "elmo": 7104,
      "elements": 7105,
      "elgud": 7106,
      "eluah": 7107,
      "amo": 7108,
      "amov": 7109,
      "directly": 7110,
      "hey": 7111,
      "heed": 7112,
      "heist": 7113,
      "hetic": 7114,
      "oux": 7115,
      "ourab": 7116,
      "rif": 7117,
      "riman": 7118,
      "riot": 7119,
      "riding": 7120,
      "rika": 7121,
      "leans": 7122,
      "legen": 7123,
      "lehor": 7124,
      "iong": 7125,
      "rao": 7126,
      "race": 7127,
      "rahim": 7128,
      "raiya": 7129,
      "ragupta": 7130,
      "ravorty": 7131,
      "Theater": 7132,
      "osis": 7133,
      "osmon": 7134,
      "rity": 7135,
      "ritim": 7136,
      "toward": 7137,
      "toki": 7138,
      "uter": 7139,
      "util": 7140,
      "utam": 7141,
      "utoshi": 7142,
      "emic": 7143,
      "emary": 7144,
      "emper": 7145,
      "emerg": 7146,
      "12金": 7147,
      "ayed": 7148,
      "ayama": 7149,
      "writing": 7150,
      "usz": 7151,
      "user": 7152,
      "usive": 7153,
      "usett": 7154,
      "dur": 7155,
      "ently": 7156,
      "entire": 7157,
      "adas": 7158,
      "adop": 7159,
      "adding": 7160,
      "adver": 7161,
      "190": 7162,
      "19th": 7163,
      "1919": 7164,
      "1918": 7165,
      "1914": 7166,
      "1917": 7167,
      "1924": 7168,
      "1928": 7169,
      "chy": 7170,
      "chor": 7171,
      "chen": 7172,
      "ched": 7173,
      "ches": 7174,
      "chard": 7175,
      "chack": 7176,
      "chke": 7177,
      "chison": 7178,
      "chtenberg": 7179,
      "promin": 7180,
      "promot": 7181,
      "process": 7182,
      "1371": 7183,
      "etat": 7184,
      "etsu": 7185,
      "agn": 7186,
      "agre": 7187,
      "aged": 7188,
      "agent": 7189,
      "aght": 7190,
      "agher": 7191,
      "aguer": 7192,
      "agaki": 7193,
      "agnat": 7194,
      "agonia": 7195,
      "une": 7196,
      "unate": 7197,
      "unte": 7198,
      "univers": 7199,
      "unfinished": 7200,
      "unseen": 7201,
      "uncle": 7202,
      "unique": 7203,
      "foros": 7204,
      "force": 7205,
      "formed": 7206,
      "igt": 7207,
      "igar": 7208,
      "irō": 7209,
      "irmed": 7210,
      "ovak": 7211,
      "ovation": 7212,
      "idro": 7213,
      "idel": 7214,
      "iday": 7215,
      "ival": 7216,
      "ives": 7217,
      "ivic": 7218,
      "lav": 7219,
      "laz": 7220,
      "lains": 7221,
      "laws": 7222,
      "laback": 7223,
      "laeman": 7224,
      "Itō": 7225,
      "urally": 7226,
      "estic": 7227,
      "estab": 7228,
      "phr": 7229,
      "phil": 7230,
      "phine": 7231,
      "phone": 7232,
      "imath": 7233,
      "imore": 7234,
      "improv": 7235,
      "imately": 7236,
      "ogra": 7237,
      "ogaard": 7238,
      "angel": 7239,
      "loop": 7240,
      "Chun": 7241,
      "Chang": 7242,
      "Chenn": 7243,
      "Chaz": 7244,
      "Chuki": 7245,
      "Chuck": 7246,
      "Chlum": 7247,
      "Chyra": 7248,
      "Chiong": 7249,
      "cki": 7250,
      "11Ele": 7251,
      "akov": 7252,
      "akian": 7253,
      "aksh": 7254,
      "akrish": 7255,
      "manip": 7256,
      "Stan": 7257,
      "Stath": 7258,
      "Stone": 7259,
      "Stoff": 7260,
      "Stiller": 7261,
      "Stark": 7262,
      "Storm": 7263,
      "Strait": 7264,
      "Stults": 7265,
      "Störte": 7266,
      "Stedman": 7267,
      "illy": 7268,
      "illos": 7269,
      "Anil": 7270,
      "Anand": 7271,
      "Anant": 7272,
      "Anita": 7273,
      "Anwar": 7274,
      "Ananya": 7275,
      "Anchor": 7276,
      "bera": 7277,
      "berbatch": 7278,
      "havi": 7279,
      "haunt": 7280,
      "hawa": 7281,
      "ieu": 7282,
      "strial": 7283,
      "Alcor": 7284,
      "Aladd": 7285,
      "Aldr": 7286,
      "eves": 7287,
      "otren": 7288,
      "uml": 7289,
      "umura": 7290,
      "umya": 7291,
      "resort": 7292,
      "resume": 7293,
      "active": 7294,
      "actual": 7295,
      "activity": 7296,
      "ounced": 7297,
      "Marco": 7298,
      "Marley": 7299,
      "Mariy": 7300,
      "Mariano": 7301,
      "Marsha": 7302,
      "Marathi": 7303,
      "htein": 7304,
      "aller": 7305,
      "earthqu": 7306,
      "earthquake": 7307,
      "earned": 7308,
      "abody": 7309,
      "defin": 7310,
      "decis": 7311,
      "itha": 7312,
      "Film4": 7313,
      "Debor": 7314,
      "Depar": 7315,
      "DeCamp": 7316,
      "Debra": 7317,
      "Inc": 7318,
      "Independence": 7319,
      "Inagaki": 7320,
      "aves": 7321,
      "avale": 7322,
      "avision": 7323,
      "avail": 7324,
      "oweth": 7325,
      "ryn": 7326,
      "rying": 7327,
      "shik": 7328,
      "shika": 7329,
      "shark": 7330,
      "shire": 7331,
      "shira": 7332,
      "ourney": 7333,
      "icho": 7334,
      "rame": 7335,
      "ramani": 7336,
      "coma": 7337,
      "comic": 7338,
      "ifa": 7339,
      "iff": 7340,
      "Thor": 7341,
      "Tham": 7342,
      "Thousand": 7343,
      "Theres": 7344,
      "Think": 7345,
      "Thora": 7346,
      "Thilak": 7347,
      "bek": 7348,
      "beker": 7349,
      "behind": 7350,
      "behavi": 7351,
      "apart": 7352,
      "sek": 7353,
      "Shu": 7354,
      "Shin": 7355,
      "Shot": 7356,
      "Shann": 7357,
      "Shwe": 7358,
      "Shakes": 7359,
      "Shiva": 7360,
      "Shanks": 7361,
      "Shioli": 7362,
      "Shohnazarov": 7363,
      "Shroff": 7364,
      "Shelton": 7365,
      "Joel": 7366,
      "Joey": 7367,
      "Joely": 7368,
      "Jody": 7369,
      "neo": 7370,
      "nect": 7371,
      "news": 7372,
      "nehy": 7373,
      "without": 7374,
      "odd": 7375,
      "odov": 7376,
      "istic": 7377,
      "istry": 7378,
      "istani": 7379,
      "quil": 7380,
      "qual": 7381,
      "quel": 7382,
      "quant": 7383,
      "arture": 7384,
      "opada": 7385,
      "opalam": 7386,
      "opoulos": 7387,
      "ips": 7388,
      "occur": 7389,
      "lyrics": 7390,
      "sci": 7391,
      "scale": 7392,
      "scored": 7393,
      "screw": 7394,
      "Sek": 7395,
      "Seiy": 7396,
      "Seez": 7397,
      "Rox": 7398,
      "Roel": 7399,
      "Roque": 7400,
      "sud": 7401,
      "sued": 7402,
      "suggest": 7403,
      "suhide": 7404,
      "assign": 7405,
      "assja": 7406,
      "assroot": 7407,
      "1778": 7408,
      "ranil": 7409,
      "iku": 7410,
      "1992": 7411,
      "pero": 7412,
      "pert": 7413,
      "perform": 7414,
      "percept": 7415,
      "perpet": 7416,
      "performed": 7417,
      "Arj": 7418,
      "Armi": 7419,
      "Armand": 7420,
      "Arlene": 7421,
      "Armero": 7422,
      "ongs": 7423,
      "ongoing": 7424,
      "account": 7425,
      "accomp": 7426,
      "acock": 7427,
      "accept": 7428,
      "according": 7429,
      "Leon": 7430,
      "Leif": 7431,
      "Leong": 7432,
      "Leah": 7433,
      "Legu": 7434,
      "Leeds": 7435,
      "Leanna": 7436,
      "Leisen": 7437,
      "Leacock": 7438,
      "conce": 7439,
      "concl": 7440,
      "concent": 7441,
      "concer": 7442,
      "eller": 7443,
      "oks": 7444,
      "okiat": 7445,
      "pling": 7446,
      "plat": 7447,
      "plans": 7448,
      "plified": 7449,
      "plague": 7450,
      "plicate": 7451,
      "anned": 7452,
      "announced": 7453,
      "anti": 7454,
      "derick": 7455,
      "essa": 7456,
      "essional": 7457,
      "Endh": 7458,
      "geway": 7459,
      "Reich": 7460,
      "Recor": 7461,
      "Rehal": 7462,
      "Recording": 7463,
      "Rebell": 7464,
      "Reilly": 7465,
      "Reeves": 7466,
      "inside": 7467,
      "Andy": 7468,
      "Andō": 7469,
      "Andersen": 7470,
      "tecor": 7471,
      "teaser": 7472,
      "uka": 7473,
      "ukiew": 7474,
      "urene": 7475,
      "Union": 7476,
      "Unlike": 7477,
      "idea": 7478,
      "Rae": 7479,
      "Raf": 7480,
      "Rafi": 7481,
      "Razz": 7482,
      "Raquel": 7483,
      "Abir": 7484,
      "Abril": 7485,
      "Abdal": 7486,
      "icked": 7487,
      "ickson": 7488,
      "aij": 7489,
      "Paré": 7490,
      "ption": 7491,
      "Dave": 7492,
      "Daves": 7493,
      "Davies": 7494,
      "Weber": 7495,
      "Weiz": 7496,
      "Weinst": 7497,
      "Weaver": 7498,
      "titular": 7499,
      "few": 7500,
      "Neo": 7501,
      "News": 7502,
      "Neethu": 7503,
      "Negah": 7504,
      "serv": 7505,
      "serial": 7506,
      "Mox": 7507,
      "Mothers": 7508,
      "Motoki": 7509,
      "afavi": 7510,
      "ldma": 7511,
      "prehistoric": 7512,
      "aux": 7513,
      "aușescu": 7514,
      "epic": 7515,
      "epney": 7516,
      "epony": 7517,
      "Aparaj": 7518,
      "Warsaw": 7519,
      "anić": 7520,
      "anied": 7521,
      "ahiro": 7522,
      "aharu": 7523,
      "veiled": 7524,
      "storyline": 7525,
      "storylines": 7526,
      "ristán": 7527,
      "Clive": 7528,
      "Cluz": 7529,
      "uparna": 7530,
      "increasing": 7531,
      "1951": 7532,
      "1955": 7533,
      "1956": 7534,
      "Behind": 7535,
      "Begley": 7536,
      "exact": 7537,
      "excl": 7538,
      "extens": 7539,
      "Spall": 7540,
      "Spradling": 7541,
      "Spijk": 7542,
      "azon": 7543,
      "azio": 7544,
      "allywood": 7545,
      "ssa": 7546,
      "ssen": 7547,
      "Harold": 7548,
      "Harald": 7549,
      "Harshika": 7550,
      "hero": 7551,
      "Geeson": 7552,
      "player": 7553,
      "McG": 7554,
      "McKen": 7555,
      "McMan": 7556,
      "McKim": 7557,
      "McFar": 7558,
      "McNam": 7559,
      "McGra": 7560,
      "McDer": 7561,
      "McNair": 7562,
      "McKidd": 7563,
      "McNell": 7564,
      "Phill": 7565,
      "awe": 7566,
      "Rosas": 7567,
      "Roshan": 7568,
      "Rossi": 7569,
      "Rosina": 7570,
      "Rosales": 7571,
      "Rosario": 7572,
      "Rosemary": 7573,
      "lsig": 7574,
      "lscher": 7575,
      "denly": 7576,
      "Franchi": 7577,
      "Meera": 7578,
      "Mecart": 7579,
      "iban": 7580,
      "ibal": 7581,
      "ibility": 7582,
      "ruit": 7583,
      "rude": 7584,
      "ructions": 7585,
      "atti": 7586,
      "Feat": 7587,
      "Fehr": 7588,
      "Allison": 7589,
      "obar": 7590,
      "ension": 7591,
      "Erich": 7592,
      "Erickson": 7593,
      "Willy": 7594,
      "Conte": 7595,
      "Conrad": 7596,
      "Contis": 7597,
      "Constant": 7598,
      "Maqbo": 7599,
      "ubramani": 7600,
      "receiving": 7601,
      "Broadcast": 7602,
      "meet": 7603,
      "meant": 7604,
      "meier": 7605,
      "meaning": 7606,
      "method": 7607,
      "vert": 7608,
      "verge": 7609,
      "Jews": 7610,
      "Jeethu": 7611,
      "Jeepney": 7612,
      "Janet": 7613,
      "Janssen": 7614,
      "Josef": 7615,
      "foreign": 7616,
      "ressed": 7617,
      "Blore": 7618,
      "acha": 7619,
      "achi": 7620,
      "acht": 7621,
      "achusett": 7622,
      "izar": 7623,
      "izing": 7624,
      "izamo": 7625,
      "Richardson": 7626,
      "Carey": 7627,
      "Carmen": 7628,
      "Carlsen": 7629,
      "Carrie": 7630,
      "Cartoon": 7631,
      "Carole": 7632,
      "Carmina": 7633,
      "Carmody": 7634,
      "arao": 7635,
      "igni": 7636,
      "Brien": 7637,
      "Brimley": 7638,
      "Comm": 7639,
      "Comedy": 7640,
      "anything": 7641,
      "Corr": 7642,
      "Corey": 7643,
      "Corbett": 7644,
      "Corinne": 7645,
      "create": 7646,
      "indo": 7647,
      "indorf": 7648,
      "Heath": 7649,
      "Heap": 7650,
      "Heche": 7651,
      "Heebin": 7652,
      "Heindorf": 7653,
      "Maya": 7654,
      "Mayer": 7655,
      "Mayil": 7656,
      "Maynard": 7657,
      "Mayumura": 7658,
      "Norma": 7659,
      "Norway": 7660,
      "Noriko": 7661,
      "wealth": 7662,
      "Malone": 7663,
      "Malta": 7664,
      "Sci": 7665,
      "Scilla": 7666,
      "Science": 7667,
      "Scotto": 7668,
      "myth": 7669,
      "Godis": 7670,
      "minal": 7671,
      "shortlisted": 7672,
      "Monster": 7673,
      "Monroe": 7674,
      "Montecor": 7675,
      "Donella": 7676,
      "Donutil": 7677,
      "Morley": 7678,
      "Morita": 7679,
      "Morrow": 7680,
      "Morphe": 7681,
      "Noone": 7682,
      "Nootren": 7683,
      "Proof": 7684,
      "ierk": 7685,
      "iero": 7686,
      "mail": 7687,
      "major": 7688,
      "include": 7689,
      "Madan": 7690,
      "Madden": 7691,
      "Madras": 7692,
      "Madeline": 7693,
      "Worker": 7694,
      "jeet": 7695,
      "raborty": 7696,
      "1970s": 7697,
      "Isaac": 7698,
      "Isidro": 7699,
      "Ismail": 7700,
      "Myron": 7701,
      "Myrt": 7702,
      "Mylene": 7703,
      "Mystik": 7704,
      "alejo": 7705,
      "depending": 7706,
      "departure": 7707,
      "ughlin": 7708,
      "Central": 7709,
      "Jung": 7710,
      "Kenan": 7711,
      "Kenyan": 7712,
      "Paolo": 7713,
      "ultaneous": 7714,
      "Adventure": 7715,
      "Adinath": 7716,
      "Afrika": 7717,
      "Sami": 7718,
      "Sammo": 7719,
      "Samantha": 7720,
      "Sampson": 7721,
      "Samvru": 7722,
      "Westwick": 7723,
      "borhood": 7724,
      "companies": 7725,
      "computer": 7726,
      "traces": 7727,
      "tradit": 7728,
      "Calthor": 7729,
      "Caldwell": 7730,
      "Calvo": 7731,
      "Mila": 7732,
      "Milla": 7733,
      "Sheen": 7734,
      "Shekar": 7735,
      "Shebin": 7736,
      "Sheila": 7737,
      "Solomon": 7738,
      "know": 7739,
      "inali": 7740,
      "eleventh": 7741,
      "underground": 7742,
      "Avika": 7743,
      "Avakian": 7744,
      "Baby": 7745,
      "Baum": 7746,
      "Baños": 7747,
      "Buena": 7748,
      "Buzek": 7749,
      "Edmund": 7750,
      "Agus": 7751,
      "Agent": 7752,
      "Agot": 7753,
      "Agata": 7754,
      "Schwart": 7755,
      "Schmid": 7756,
      "Terray": 7757,
      "drawn": 7758,
      "kien": 7759,
      "noir": 7760,
      "Goldberg": 7761,
      "Manav": 7762,
      "Manio": 7763,
      "Manoj": 7764,
      "Manfred": 7765,
      "criminal": 7766,
      "leads": 7767,
      "Pauline": 7768,
      "Paulson": 7769,
      "Asha": 7770,
      "Asmik": 7771,
      "Miho": 7772,
      "Mirosla": 7773,
      "Tommy": 7774,
      "interactions": 7775,
      "regular": 7776,
      "Assante": 7777,
      "Association": 7778,
      "Dalibor": 7779,
      "Daltrey": 7780,
      "Exton": 7781,
      "Excel": 7782,
      "Exchange": 7783,
      "Shaam": 7784,
      "Shawn": 7785,
      "Shabana": 7786,
      "downlo": 7787,
      "lielmo": 7788,
      "intank": 7789,
      "interse": 7790,
      "radha": 7791,
      "Deepak": 7792,
      "Artur": 7793,
      "Artists": 7794,
      "Arturo": 7795,
      "Berton": 7796,
      "Bergen": 7797,
      "Dela": 7798,
      "Delmer": 7799,
      "Delaney": 7800,
      "Delphine": 7801,
      "Glück": 7802,
      "Jimit": 7803,
      "clips": 7804,
      "media": 7805,
      "issed": 7806,
      "raya": 7807,
      "Strang": 7808,
      "Strange": 7809,
      "Strasberg": 7810,
      "Marko": 7811,
      "Markinson": 7812,
      "Bening": 7813,
      "Benson": 7814,
      "Benita": 7815,
      "Bencich": 7816,
      "Benigni": 7817,
      "Holt": 7818,
      "Hollywood": 7819,
      "Holzman": 7820,
      "Hollaback": 7821,
      "Orange": 7822,
      "Orleans": 7823,
      "Pejman": 7824,
      "Peabody": 7825,
      "centered": 7826,
      "central": 7827,
      "haria": 7828,
      "vention": 7829,
      "1938": 7830,
      "1940": 7831,
      "1941": 7832,
      "1945": 7833,
      "1947": 7834,
      "1949": 7835,
      "debuted": 7836,
      "Amr": 7837,
      "Amol": 7838,
      "Amber": 7839,
      "Among": 7840,
      "Amend": 7841,
      "Amazon": 7842,
      "Emily": 7843,
      "Patagonia": 7844,
      "match": 7845,
      "matter": 7846,
      "mature": 7847,
      "maker": 7848,
      "worked": 7849,
      "workers": 7850,
      "Daung": 7851,
      "Daugher": 7852,
      "Dutta": 7853,
      "Matanić": 7854,
      "Ramanathan": 7855,
      "Rampling": 7856,
      "Ramarao": 7857,
      "rell": 7858,
      "Thomson": 7859,
      "Raja": 7860,
      "Rajan": 7861,
      "Rajendra": 7862,
      "Rajkann": 7863,
      "historically": 7864,
      "Ahmad": 7865,
      "Arabic": 7866,
      "Father": 7867,
      "Fathimath": 7868,
      "Herriman": 7869,
      "LaPag": 7870,
      "Laurene": 7871,
      "Laughlin": 7872,
      "Novas": 7873,
      "Quincher": 7874,
      "Silva": 7875,
      "getZZ": 7876,
      "rash": 7877,
      "Smithson": 7878,
      "Suraiya": 7879,
      "Sulaeman": 7880,
      "Charlot": 7881,
      "1990s": 7882,
      "teenth": 7883,
      "teenag": 7884,
      "Alexia": 7885,
      "Karl": 7886,
      "Salem": 7887,
      "Salvi": 7888,
      "Salomon": 7889,
      "Salvad": 7890,
      "beneiner": 7891,
      "coro": 7892,
      "finally": 7893,
      "slang": 7894,
      "slated": 7895,
      "span": 7896,
      "spons": 7897,
      "verse": 7898,
      "zej": 7899,
      "untary": 7900,
      "Martini": 7901,
      "Sharreth": 7902,
      "support": 7903,
      "Candice": 7904,
      "Clair": 7905,
      "Guy": 7906,
      "Guho": 7907,
      "Guðnason": 7908,
      "Garland": 7909,
      "Garret": 7910,
      "Garrison": 7911,
      "García": 7912,
      "Garrone": 7913,
      "Garrett": 7914,
      "Julie": 7915,
      "Saumya": 7916,
      "holt": 7917,
      "holds": 7918,
      "holiday": 7919,
      "instructions": 7920,
      "Henrie": 7921,
      "Louisa": 7922,
      "Serv": 7923,
      "Veron": 7924,
      "goal": 7925,
      "goes": 7926,
      "good": 7927,
      "umbavoor": 7928,
      "60th": 7929,
      "Bela": 7930,
      "Belle": 7931,
      "Gorden": 7932,
      "Kości": 7933,
      "Merle": 7934,
      "Mercer": 7935,
      "Mercou": 7936,
      "Mercanton": 7937,
      "Masi": 7938,
      "Masaharu": 7939,
      "Masiero": 7940,
      "Outer": 7941,
      "Outstanding": 7942,
      "Revalina": 7943,
      "hmanandam": 7944,
      "literal": 7945,
      "sook": 7946,
      "schol": 7947,
      "schbieg": 7948,
      "songs": 7949,
      "trúdi": 7950,
      "accident": 7951,
      "accused": 7952,
      "Parambr": 7953,
      "woods": 7954,
      "Jeanne": 7955,
      "Jeanette": 7956,
      "Production": 7957,
      "Babatop": 7958,
      "Crow": 7959,
      "Crows": 7960,
      "Cross": 7961,
      "Croatian": 7962,
      "Cinemas": 7963,
      "Kalyan": 7964,
      "Kalavoor": 7965,
      "Kalispell": 7966,
      "Lynde": 7967,
      "Mikhail": 7968,
      "Performan": 7969,
      "Perabo": 7970,
      "Peralejo": 7971,
      "Perumbavoor": 7972,
      "Tena": 7973,
      "Tenzin": 7974,
      "airs": 7975,
      "focused": 7976,
      "garan": 7977,
      "garnered": 7978,
      "loss": 7979,
      "losing": 7980,
      "winner": 7981,
      "ullah": 7982,
      "Robles": 7983,
      "Davison": 7984,
      "Commandments": 7985,
      "Bradley": 7986,
      "Bradford": 7987,
      "Duval": 7988,
      "Duvall": 7989,
      "Gielgud": 7990,
      "Gregg": 7991,
      "Kaul": 7992,
      "Kaori": 7993,
      "Kabera": 7994,
      "Priit": 7995,
      "Prime": 7996,
      "Priya": 7997,
      "Primet": 7998,
      "Suso": 7999,
      "Torrent": 8000,
      "Torquil": 8001,
      "Touchi": 8002,
      "Tokyo": 8003,
      "demon": 8004,
      "dislav": 8005,
      "Andrews": 8006,
      "Angela": 8007,
      "Angelika": 8008,
      "Ghostley": 8009,
      "successor": 8010,
      "Cannon": 8011,
      "Cannavale": 8012,
      "Hayman": 8013,
      "Hayward": 8014,
      "Hayden": 8015,
      "Imamov": 8016,
      "Jericho": 8017,
      "ooq": 8018,
      "involves": 8019,
      "filmmakers": 8020,
      "locate": 8021,
      "showcasing": 8022,
      "istance": 8023,
      "Registry": 8024,
      "Boos": 8025,
      "Boogaard": 8026,
      "Balfe": 8027,
      "Creative": 8028,
      "Catal": 8029,
      "Castillo": 8030,
      "Gerald": 8031,
      "Geraght": 8032,
      "Gertrúdi": 8033,
      "Grou": 8034,
      "Ibrahim": 8035,
      "Magoo": 8036,
      "Magday": 8037,
      "Magnet": 8038,
      "Magazine": 8039,
      "Sanja": 8040,
      "Vasil": 8041,
      "Vasantha": 8042,
      "tries": 8043,
      "Marta": 8044,
      "operation": 8045,
      "operazione": 8046,
      "subtitle": 8047,
      "Abbey": 8048,
      "Akter": 8049,
      "Lauren": 8050,
      "Laurence": 8051,
      "MacMurray": 8052,
      "Macfad": 8053,
      "Networks": 8054,
      "Renfro": 8055,
      "Slater": 8056,
      "Slovak": 8057,
      "Stowe": 8058,
      "Santos": 8059,
      "Taku": 8060,
      "Takashi": 8061,
      "Takayuki": 8062,
      "Takaoka": 8063,
      "Takahiro": 8064,
      "Walt": 8065,
      "half": 8066,
      "minute": 8067,
      "telling": 8068,
      "legend": 8069,
      "Annie": 8070,
      "Annette": 8071,
      "scripts": 8072,
      "consists": 8073,
      "Burke": 8074,
      "Dano": 8075,
      "Doro": 8076,
      "Dorne": 8077,
      "Dorff": 8078,
      "Dorval": 8079,
      "Hallgr": 8080,
      "Jaeson": 8081,
      "Levine": 8082,
      "Plummer": 8083,
      "Swank": 8084,
      "Swiss": 8085,
      "Switzer": 8086,
      "Tisca": 8087,
      "Venanc": 8088,
      "color": 8089,
      "euil": 8090,
      "paranormal": 8091,
      "poned": 8092,
      "praise": 8093,
      "police": 8094,
      "viewed": 8095,
      "Frankie": 8096,
      "Patrice": 8097,
      "Matsukata": 8098,
      "translit": 8099,
      "translated": 8100,
      "Butler": 8101,
      "Diether": 8102,
      "Forest": 8103,
      "Fabio": 8104,
      "Haque": 8105,
      "Hanzawa": 8106,
      "Helgason": 8107,
      "Hansika": 8108,
      "Lorne": 8109,
      "Loridan": 8110,
      "Paco": 8111,
      "Ravshan": 8112,
      "Ravikumar": 8113,
      "Selz": 8114,
      "Selvan": 8115,
      "Sundance": 8116,
      "Tamar": 8117,
      "Tamra": 8118,
      "Tammin": 8119,
      "Valerie": 8120,
      "Woodard": 8121,
      "backdrop": 8122,
      "device": 8123,
      "younger": 8124,
      "discuss": 8125,
      "discover": 8126,
      "lette": 8127,
      "officer": 8128,
      "Northern": 8129,
      "relationships": 8130,
      "Europa": 8131,
      "Greenberg": 8132,
      "Greenspan": 8133,
      "Huang": 8134,
      "Huey": 8135,
      "Huasos": 8136,
      "Horse": 8137,
      "Horror": 8138,
      "Jayne": 8139,
      "Jayasury": 8140,
      "Katsuhide": 8141,
      "Mahmou": 8142,
      "Niuma": 8143,
      "Olsenband": 8144,
      "Prashant": 8145,
      "Randhawa": 8146,
      "Train": 8147,
      "Trace": 8148,
      "Trachtenberg": 8149,
      "carried": 8150,
      "cartoon": 8151,
      "hua": 8152,
      "human": 8153,
      "military": 8154,
      "mitte": 8155,
      "meta": 8156,
      "metros": 8157,
      "principal": 8158,
      "simplified": 8159,
      "simultaneous": 8160,
      "willing": 8161,
      "students": 8162,
      "studios": 8163,
      "andrin": 8164,
      "Aleksandra": 8165,
      "marking": 8166,
      "marked": 8167,
      "referring": 8168,
      "presenter": 8169,
      "politic": 8170,
      "Farooq": 8171,
      "Frederick": 8172,
      "Gianfran": 8173,
      "Hershey": 8174,
      "Hersholt": 8175,
      "Katharine": 8176,
      "Kathryn": 8177,
      "Mui": 8178,
      "Melville": 8179,
      "Saranya": 8180,
      "Sakura": 8181,
      "Sakurai": 8182,
      "Speck": 8183,
      "Tucker": 8184,
      "Tuesday": 8185,
      "Tribeca": 8186,
      "Trivedi": 8187,
      "Wilford": 8188,
      "Wilhel": 8189,
      "banda": 8190,
      "girls": 8191,
      "listopada": 8192,
      "nurse": 8193,
      "narration": 8194,
      "posted": 8195,
      "postal": 8196,
      "postponed": 8197,
      "independently": 8198,
      "forms": 8199,
      "formation": 8200,
      "content": 8201,
      "portrayal": 8202,
      "Isabella": 8203,
      "depicting": 8204,
      "Vijayendra": 8205,
      "Gabriele": 8206,
      "Gabriella": 8207,
      "Brest": 8208,
      "Breiners": 8209,
      "Bronson": 8210,
      "Desmond": 8211,
      "Desagnat": 8212,
      "Ferd": 8213,
      "Kōichi": 8214,
      "Kaye": 8215,
      "Millán": 8216,
      "Nikos": 8217,
      "Purie": 8218,
      "Vince": 8219,
      "Vinnie": 8220,
      "Vinessa": 8221,
      "Vladislav": 8222,
      "Zee": 8223,
      "Zeitge": 8224,
      "culturally": 8225,
      "doctor": 8226,
      "delayed": 8227,
      "join": 8228,
      "nology": 8229,
      "ohoff": 8230,
      "poem": 8231,
      "visuals": 8232,
      "issued": 8233,
      "provide": 8234,
      "provided": 8235,
      "Starks": 8236,
      "Starke": 8237,
      "evening": 8238,
      "deaths": 8239,
      "Rachita": 8240,
      "Rachael": 8241,
      "Christianity": 8242,
      "generated": 8243,
      "appeared": 8244,
      "appearance": 8245,
      "Ashok": 8246,
      "Boles": 8247,
      "Birch": 8248,
      "Birsa": 8249,
      "Chea": 8250,
      "Cheb": 8251,
      "Felton": 8252,
      "Flora": 8253,
      "Gillen": 8254,
      "Gopan": 8255,
      "Keith": 8256,
      "Kanchan": 8257,
      "Kanwal": 8258,
      "Kerr": 8259,
      "Kerrigan": 8260,
      "Musik": 8261,
      "Musgra": 8262,
      "Massachusett": 8263,
      "Padrao": 8264,
      "Pittsburg": 8265,
      "Ridgeway": 8266,
      "Trevante": 8267,
      "Vikrant": 8268,
      "Warde": 8269,
      "billed": 8270,
      "failed": 8271,
      "founded": 8272,
      "childhood": 8273,
      "Alfre": 8274,
      "respons": 8275,
      "Marquette": 8276,
      "pects": 8277,
      "audio": 8278,
      "audiences": 8279,
      "expedition": 8280,
      "expanded": 8281,
      "explains": 8282,
      "experience": 8283,
      "experienced": 8284,
      "particular": 8285,
      "returns": 8286,
      "Goncharova": 8287,
      "murderous": 8288,
      "Argentinean": 8289,
      "Azmi": 8290,
      "Azita": 8291,
      "Azifa": 8292,
      "Bhatia": 8293,
      "Bakshi": 8294,
      "Brenon": 8295,
      "Boban": 8296,
      "Courtney": 8297,
      "Dennehy": 8298,
      "Grinberg": 8299,
      "Grassroot": 8300,
      "Hiram": 8301,
      "Hirsh": 8302,
      "Hirschbieg": 8303,
      "Kamal": 8304,
      "Landon": 8305,
      "Motwani": 8306,
      "Portes": 8307,
      "Ralph": 8308,
      "Snær": 8309,
      "Subha": 8310,
      "Subash": 8311,
      "Troen": 8312,
      "Tsui": 8313,
      "Tsukasa": 8314,
      "passed": 8315,
      "passes": 8316,
      "rating": 8317,
      "ratings": 8318,
      "soldiers": 8319,
      "target": 8320,
      "tising": 8321,
      "zula": 8322,
      "rophe": 8323,
      "Alessandrin": 8324,
      "rescue": 8325,
      "confirmed": 8326,
      "techni": 8327,
      "technology": 8328,
      "Paranormal": 8329,
      "affairs": 8330,
      "McCullah": 8331,
      "Screenplay": 8332,
      "Holmes": 8333,
      "Australia": 8334,
      "Sergei": 8335,
      "designers": 8336,
      "Macedonia": 8337,
      "Fernandez": 8338,
      "Ayala": 8339,
      "Ayako": 8340,
      "Damian": 8341,
      "Etgar": 8342,
      "Etura": 8343,
      "Gautam": 8344,
      "Grivois": 8345,
      "Gravit": 8346,
      "Gibbs": 8347,
      "Honor": 8348,
      "Hallee": 8349,
      "Juana": 8350,
      "Kurup": 8351,
      "Ledoux": 8352,
      "Lennertz": 8353,
      "Lupita": 8354,
      "Meters": 8355,
      "Natalia": 8356,
      "Porter": 8357,
      "Palma": 8358,
      "Pakistani": 8359,
      "Ronald": 8360,
      "Vejnov": 8361,
      "Winant": 8362,
      "Winick": 8363,
      "Winnie": 8364,
      "current": 8365,
      "ginia": 8366,
      "highlight": 8367,
      "model": 8368,
      "sentence": 8369,
      "viral": 8370,
      "virtual": 8371,
      "strug": 8372,
      "thousands": 8373,
      "restored": 8374,
      "Chakri": 8375,
      "Chakravorty": 8376,
      "Chakraborty": 8377,
      "manager": 8378,
      "managed": 8379,
      "respectable": 8380,
      "Marcello": 8381,
      "Marceline": 8382,
      "Indonesia": 8383,
      "dramatic": 8384,
      "Andrzej": 8385,
      "Abraham": 8386,
      "criticized": 8387,
      "criticised": 8388,
      "classic": 8389,
      "describes": 8390,
      "involved": 8391,
      "involving": 8392,
      "investigations": 8393,
      "Nicollette": 8394,
      "developed": 8395,
      "development": 8396,
      "sitcoms": 8397,
      "Giannini": 8398,
      "Krishnan": 8399,
      "challenging": 8400,
      "AFI": 8401,
      "AMIA": 8402,
      "Byhring": 8403,
      "Byerly": 8404,
      "Brahmanandam": 8405,
      "Badge": 8406,
      "Bruno": 8407,
      "Brunette": 8408,
      "Cawas": 8409,
      "Cahn": 8410,
      "Cruz": 8411,
      "Duning": 8412,
      "Dawid": 8413,
      "Dubai": 8414,
      "Gemser": 8415,
      "Gallagher": 8416,
      "Ilonze": 8417,
      "Kinney": 8418,
      "Klaff": 8419,
      "Liber": 8420,
      "Lamas": 8421,
      "Makun": 8422,
      "Makarand": 8423,
      "Mithat": 8424,
      "Mithun": 8425,
      "Mastroian": 8426,
      "Nirmala": 8427,
      "Nazuka": 8428,
      "Olga": 8429,
      "Opia": 8430,
      "Opsahl": 8431,
      "Pradeep": 8432,
      "Ritter": 8433,
      "Rituparna": 8434,
      "Ragnar": 8435,
      "Rudranil": 8436,
      "Sonia": 8437,
      "Takeuchi": 8438,
      "Umesh": 8439,
      "brief": 8440,
      "captured": 8441,
      "friends": 8442,
      "fifth": 8443,
      "justice": 8444,
      "large": 8445,
      "movies": 8446,
      "movement": 8447,
      "motion": 8448,
      "messages": 8449,
      "pandemic": 8450,
      "places": 8451,
      "placing": 8452,
      "satire": 8453,
      "talents": 8454,
      "turned": 8455,
      "volunte": 8456,
      "wheel": 8457,
      "professional": 8458,
      "Chiwet": 8459,
      "results": 8460,
      "decided": 8461,
      "Ingrid": 8462,
      "Ingrass": 8463,
      "sexual": 8464,
      "questions": 8465,
      "openings": 8466,
      "assassination": 8467,
      "assassinate": 8468,
      "anningmeier": 8469,
      "Reiné": 8470,
      "Abeleda": 8471,
      "authorship": 8472,
      "execution": 8473,
      "executive": 8474,
      "Cormican": 8475,
      "credited": 8476,
      "Montana": 8477,
      "Montreal": 8478,
      "Israeli": 8479,
      "completed": 8480,
      "fictionalized": 8481,
      "StudioCanal": 8482,
      "tribute": 8483,
      "subjects": 8484,
      "community": 8485,
      "communities": 8486,
      "helps": 8487,
      "helped": 8488,
      "personalities": 8489,
      "Namibian": 8490,
      "Nicholson": 8491,
      "Aravind": 8492,
      "Aishath": 8493,
      "Busby": 8494,
      "Boston": 8495,
      "Benning": 8496,
      "Bennett": 8497,
      "Cummings": 8498,
      "Cumberbatch": 8499,
      "Crane": 8500,
      "Cranston": 8501,
      "Dhritim": 8502,
      "Dhallywood": 8503,
      "Dasgupta": 8504,
      "Dolls": 8505,
      "Dolatsha": 8506,
      "Dirch": 8507,
      "Friz": 8508,
      "Friedkin": 8509,
      "Galindo": 8510,
      "Hyun": 8511,
      "Heyne": 8512,
      "Heywood": 8513,
      "Hodder": 8514,
      "Hannah": 8515,
      "Hajian": 8516,
      "Hajher": 8517,
      "Judie": 8518,
      "Judith": 8519,
      "Köhler": 8520,
      "Konkona": 8521,
      "Kunchack": 8522,
      "Kuncoro": 8523,
      "Lalonde": 8524,
      "Liebe": 8525,
      "Liebeneiner": 8526,
      "Mateo": 8527,
      "Mateusz": 8528,
      "Maude": 8529,
      "Maurizio": 8530,
      "Persian": 8531,
      "Persbrand": 8532,
      "Premkumar": 8533,
      "Romy": 8534,
      "Romero": 8535,
      "Rishi": 8536,
      "Rishmy": 8537,
      "Sriram": 8538,
      "Sirk": 8539,
      "Sahar": 8540,
      "Searchlight": 8541,
      "True": 8542,
      "Tyler": 8543,
      "Tobin": 8544,
      "Tobias": 8545,
      "Villaro": 8546,
      "Winstone": 8547,
      "Winstead": 8548,
      "Zaror": 8549,
      "aimed": 8550,
      "barren": 8551,
      "bender": 8552,
      "bomb": 8553,
      "bombing": 8554,
      "driver": 8555,
      "driven": 8556,
      "killing": 8557,
      "killed": 8558,
      "moral": 8559,
      "mouri": 8560,
      "sɛt": 8561,
      "sɛdɛ": 8562,
      "tingco": 8563,
      "uyuki": 8564,
      "initially": 8565,
      "industrial": 8566,
      "intended": 8567,
      "formats": 8568,
      "Choi": 8569,
      "Chookiat": 8570,
      "Chitralekha": 8571,
      "Chitragupta": 8572,
      "Anuradha": 8573,
      "Animated": 8574,
      "happened": 8575,
      "Marsden": 8576,
      "declined": 8577,
      "Dewanto": 8578,
      "Intertitle": 8579,
      "Sherif": 8580,
      "Sheridan": 8581,
      "Shritha": 8582,
      "contrast": 8583,
      "Mohanlal": 8584,
      "costume": 8585,
      "Spacek": 8586,
      "Broadway": 8587,
      "Georgia": 8588,
      "Adrian": 8589,
      "Adriano": 8590,
      "Coleman": 8591,
      "Bergman": 8592,
      "climbing": 8593,
      "Silvera": 8594,
      "preserved": 8595,
      "preservation": 8596,
      "college": 8597,
      "contemporary": 8598,
      "catastroph": 8599,
      "catastrophe": 8600,
      "continued": 8601,
      "continuous": 8602,
      "mountaineering": 8603,
      "manufactur": 8604,
      "manufactured": 8605,
      "Bárbara": 8606,
      "Bouli": 8607,
      "Bogart": 8608,
      "Branko": 8609,
      "Bugs": 8610,
      "Bankim": 8611,
      "Biju": 8612,
      "CAA": 8613,
      "CGI": 8614,
      "Clement": 8615,
      "Cardinali": 8616,
      "Costello": 8617,
      "Cecchi": 8618,
      "Díaz": 8619,
      "Domestic": 8620,
      "Diony": 8621,
      "Duras": 8622,
      "Damien": 8623,
      "Fritzi": 8624,
      "Fulci": 8625,
      "Giachetti": 8626,
      "Greek": 8627,
      "Hitler": 8628,
      "Hardt": 8629,
      "Hopper": 8630,
      "Hensley": 8631,
      "Iranian": 8632,
      "Iceland": 8633,
      "Javed": 8634,
      "Kleintank": 8635,
      "Kutsuna": 8636,
      "Kulczy": 8637,
      "Kristin": 8638,
      "Kubasche": 8639,
      "Latimore": 8640,
      "Labor": 8641,
      "Lipsius": 8642,
      "Linda": 8643,
      "Miranda": 8644,
      "Mackie": 8645,
      "Mullick": 8646,
      "Ndeda": 8647,
      "Nolan": 8648,
      "Nakayama": 8649,
      "Nastassja": 8650,
      "Nipun": 8651,
      "Oreka": 8652,
      "Original": 8653,
      "Pascal": 8654,
      "Pulitzer": 8655,
      "Passer": 8656,
      "Pietra": 8657,
      "Rasheed": 8658,
      "Rumierk": 8659,
      "Ruben": 8660,
      "Sriniv": 8661,
      "Sigourney": 8662,
      "Sippy": 8663,
      "Sacristán": 8664,
      "Smyers": 8665,
      "Sylvia": 8666,
      "Temat": 8667,
      "Tracie": 8668,
      "Uytingco": 8669,
      "Uzbek": 8670,
      "Voigt": 8671,
      "Vallone": 8672,
      "Wanjiru": 8673,
      "Waters": 8674,
      "Yuwu": 8675,
      "Yūko": 8676,
      "Yukio": 8677,
      "Zayas": 8678,
      "Zimmer": 8679,
      "Zuckerman": 8680,
      "belie": 8681,
      "business": 8682,
      "badhu": 8683,
      "biggest": 8684,
      "bloody": 8685,
      "bulance": 8686,
      "bacher": 8687,
      "boulder": 8688,
      "celebr": 8689,
      "courtroom": 8690,
      "dangerous": 8691,
      "floor": 8692,
      "favourab": 8693,
      "funded": 8694,
      "longest": 8695,
      "migrant": 8696,
      "millim": 8697,
      "samurai": 8698,
      "лето": 8699,
      "erotic": 8700,
      "struck": 8701,
      "reasons": 8702,
      "reprising": 8703,
      "level": 8704,
      "rapper": 8705,
      "emphasis": 8706,
      "changes": 8707,
      "chronicles": 8708,
      "Chenoweth": 8709,
      "Chiklis": 8710,
      "Churchill": 8711,
      "Margaret": 8712,
      "abortion": 8713,
      "Shiloh": 8714,
      "Shalini": 8715,
      "Johanningmeier": 8716,
      "negative": 8717,
      "neighborhood": 8718,
      "occupation": 8719,
      "Segway": 8720,
      "Arnfried": 8721,
      "Aronson": 8722,
      "Leivaditis": 8723,
      "concern": 8724,
      "containing": 8725,
      "plantations": 8726,
      "pluralism": 8727,
      "Rahadian": 8728,
      "affected": 8729,
      "coincide": 8730,
      "autobiography": 8731,
      "updated": 8732,
      "incarceration": 8733,
      "exhibit": 8734,
      "McCormick": 8735,
      "followed": 8736,
      "Lucien": 8737,
      "regarded": 8738,
      "Excellent": 8739,
      "Benedict": 8740,
      "individual": 8741,
      "Emirati": 8742,
      "Sujatha": 8743,
      "Atkinson": 8744,
      "Salmaan": 8745,
      "corresponds": 8746,
      "Julieta": 8747,
      "Sergio": 8748,
      "Verdaguer": 8749,
      "Barrena": 8750,
      "Kohli": 8751,
      "Kawasumi": 8752,
      "Balasubramani": 8753,
      "Gertrude": 8754,
      "Polyakov": 8755,
      "Stockdale": 8756,
      "consisting": 8757,
      "Burmese": 8758,
      "Jaanu": 8759,
      "commissioned": 8760,
      "Bosnian": 8761,
      "Tripplehor": 8762,
      "survives": 8763,
      "controvers": 8764,
      "Jamshidi": 8765,
      "Troubles": 8766,
      "encountered": 8767,
      "frequency": 8768,
      "friendship": 8769,
      "robberies": 8770,
      "potentially": 8771,
      "Ignazio": 8772,
      "Yakusho": 8773,
      "birthday": 8774,
      "allegedly": 8775,
      "Atharva": 8776,
      "Auteuil": 8777,
      "Acht": 8778,
      "Aunor": 8779,
      "Adepero": 8780,
      "Aranovich": 8781,
      "Ayngaran": 8782,
      "Aditi": 8783,
      "Acosta": 8784,
      "Biddle": 8785,
      "Bianca": 8786,
      "Breslow": 8787,
      "Bryan": 8788,
      "Bastoni": 8789,
      "Bukky": 8790,
      "Borda": 8791,
      "Bhoopalam": 8792,
      "Biroc": 8793,
      "Bancroft": 8794,
      "Ceaușescu": 8795,
      "Cesar": 8796,
      "Ciccio": 8797,
      "Coulin": 8798,
      "Critics": 8799,
      "Cusack": 8800,
      "Cagney": 8801,
      "Culver": 8802,
      "Cusick": 8803,
      "Cabral": 8804,
      "Ciesla": 8805,
      "Cassi": 8806,
      "Couture": 8807,
      "Coker": 8808,
      "Camilla": 8809,
      "Cubitt": 8810,
      "Cullum": 8811,
      "Cottafavi": 8812,
      "Czech": 8813,
      "COVID": 8814,
      "Crescenzo": 8815,
      "Cederberg": 8816,
      "Dyer": 8817,
      "Dinos": 8818,
      "Dimension": 8819,
      "Dueñas": 8820,
      "Dinehart": 8821,
      "Dizon": 8822,
      "Dominic": 8823,
      "Dillahunt": 8824,
      "Epic": 8825,
      "Eilbacher": 8826,
      "Emery": 8827,
      "Famke": 8828,
      "Fleischer": 8829,
      "Factory": 8830,
      "Fassbender": 8831,
      "Fuglsig": 8832,
      "Facinelli": 8833,
      "Frisk": 8834,
      "Foundation": 8835,
      "Feldman": 8836,
      "Forsythe": 8837,
      "Freleng": 8838,
      "Football": 8839,
      "Fotopoulos": 8840,
      "Fünfze": 8841,
      "Fletcher": 8842,
      "Gyatso": 8843,
      "Ginés": 8844,
      "Gamal": 8845,
      "GadgetZZ": 8846,
      "Gromov": 8847,
      "Guglielmo": 8848,
      "Gustav": 8849,
      "Giamatti": 8850,
      "Grigor": 8851,
      "Graham": 8852,
      "Goulding": 8853,
      "Håfstr": 8854,
      "Hölscher": 8855,
      "Hilmir": 8856,
      "Hatosy": 8857,
      "Hutchison": 8858,
      "Hiveluah": 8859,
      "Himaja": 8860,
      "Hakku": 8861,
      "Hathaway": 8862,
      "Hassan": 8863,
      "Hokkien": 8864,
      "Hoyt": 8865,
      "Hengky": 8866,
      "Hundred": 8867,
      "Hussain": 8868,
      "Hoxie": 8869,
      "Hemsworth": 8870,
      "Hamsalekha": 8871,
      "INCAA": 8872,
      "Iribarren": 8873,
      "Issler": 8874,
      "Iliopoulos": 8875,
      "Ireland": 8876,
      "IMAX": 8877,
      "Jetée": 8878,
      "Jovovich": 8879,
      "Jugnot": 8880,
      "Jaccard": 8881,
      "Jaffrey": 8882,
      "Kilmer": 8883,
      "Kriti": 8884,
      "Kishore": 8885,
      "Krissada": 8886,
      "Kobi": 8887,
      "Kharbanda": 8888,
      "Krasinski": 8889,
      "Kothare": 8890,
      "Kerala": 8891,
      "Kloser": 8892,
      "Khotinenko": 8893,
      "Kajiura": 8894,
      "Lofland": 8895,
      "Lifetime": 8896,
      "Loder": 8897,
      "Lanners": 8898,
      "Lhermitte": 8899,
      "Lengel": 8900,
      "Library": 8901,
      "Lankan": 8902,
      "Luscinski": 8903,
      "Müller": 8904,
      "Mamoru": 8905,
      "Mimis": 8906,
      "Mallick": 8907,
      "Meara": 8908,
      "Mitsutoshi": 8909,
      "Mappin": 8910,
      "Museum": 8911,
      "Ninh": 8912,
      "Nivas": 8913,
      "Nimri": 8914,
      "Nithya": 8915,
      "Nishan": 8916,
      "Nowicki": 8917,
      "Nivetha": 8918,
      "Najwa": 8919,
      "Nanaiah": 8920,
      "Ogola": 8921,
      "Oduye": 8922,
      "Oberon": 8923,
      "Olymp": 8924,
      "Okeke": 8925,
      "Ogrodnik": 8926,
      "Oviya": 8927,
      "Ocampo": 8928,
      "Purab": 8929,
      "Pärn": 8930,
      "Põldma": 8931,
      "Pandey": 8932,
      "Plaza": 8933,
      "Pablo": 8934,
      "Pryor": 8935,
      "Pourshira": 8936,
      "Pramod": 8937,
      "Palekar": 8938,
      "Plowright": 8939,
      "Poonacha": 8940,
      "Rhodes": 8941,
      "Ricardo": 8942,
      "Rhea": 8943,
      "Radha": 8944,
      "Rourke": 8945,
      "Rainer": 8946,
      "Renner": 8947,
      "Ransohoff": 8948,
      "Rakesh": 8949,
      "SXSW": 8950,
      "Sasikumar": 8951,
      "Sands": 8952,
      "Siciliano": 8953,
      "Sofia": 8954,
      "Somu": 8955,
      "Sivadas": 8956,
      "Sursok": 8957,
      "Savage": 8958,
      "Scoot": 8959,
      "Semyon": 8960,
      "Sissy": 8961,
      "Swayze": 8962,
      "Snyder": 8963,
      "Szałata": 8964,
      "Sorriaux": 8965,
      "Sengupta": 8966,
      "Tiwari": 8967,
      "Tredici": 8968,
      "Taliban": 8969,
      "Tutsi": 8970,
      "Tunes": 8971,
      "Testi": 8972,
      "Texas": 8973,
      "Tsiforos": 8974,
      "Tirol": 8975,
      "Uchino": 8976,
      "Ukeje": 8977,
      "Umarji": 8978,
      "Urszula": 8979,
      "Virginia": 8980,
      "Vogel": 8981,
      "Vakharia": 8982,
      "Wilmot": 8983,
      "Wesley": 8984,
      "Welch": 8985,
      "Wontner": 8986,
      "Weruche": 8987,
      "Yogi": 8988,
      "Young": 8989,
      "Yemeni": 8990,
      "Yadanar": 8991,
      "Zwölf": 8992,
      "Zemmouri": 8993,
      "Zurich": 8994,
      "Zhao": 8995,
      "Zinshtein": 8996,
      "Zoltán": 8997,
      "aesthetic": 8998,
      "dorfer": 8999,
      "dreams": 9000,
      "either": 9001,
      "econom": 9002,
      "further": 9003,
      "fianc": 9004,
      "grief": 9005,
      "granted": 9006,
      "hidden": 9007,
      "houses": 9008,
      "jurors": 9009,
      "kidnapp": 9010,
      "latter": 9011,
      "mˈstɔtin": 9012,
      "mockbuster": 9013,
      "nostalgic": 9014,
      "pilot": 9015,
      "peare": 9016,
      "sometime": 9017,
      "twelve": 9018,
      "tavola": 9019,
      "velope": 9020,
      "wearing": 9021,
      "ˈftɔ": 9022,
      "Пес": 9023,
      "патри": 9024,
      "の刺客": 9025,
      "ドットハック": 9026,
      "十三人の刺客": 9027,
      "infiltr": 9028,
      "stolen": 9029,
      "stylized": 9030,
      "reporter": 9031,
      "especially": 9032,
      "legends": 9033,
      "osmonaut": 9034,
      "emerging": 9035,
      "adopted": 9036,
      "advertising": 9037,
      "prominent": 9038,
      "university": 9039,
      "improvised": 9040,
      "Chennai": 9041,
      "Chazelle": 9042,
      "Chukiat": 9043,
      "Chlumsky": 9044,
      "11Eleven": 9045,
      "akrishnan": 9046,
      "manipul": 9047,
      "Statham": 9048,
      "Störtebeker": 9049,
      "haunted": 9050,
      "Alcoriza": 9051,
      "Aladdin": 9052,
      "Aldrich": 9053,
      "Mariyam": 9054,
      "earthquakes": 9055,
      "decisions": 9056,
      "Deborah": 9057,
      "Depardieu": 9058,
      "available": 9059,
      "Theresa": 9060,
      "ThinkFilm": 9061,
      "Shannon": 9062,
      "Shwetha": 9063,
      "Shakespeare": 9064,
      "quantities": 9065,
      "occurred": 9066,
      "Seezan": 9067,
      "suggested": 9068,
      "assignment": 9069,
      "perception": 9070,
      "Armiñán": 9071,
      "Leahy": 9072,
      "Leguizamo": 9073,
      "conclusion": 9074,
      "concert": 9075,
      "Endhita": 9076,
      "Records": 9077,
      "Rebellion": 9078,
      "ukiewicz": 9079,
      "Razzak": 9080,
      "Abdalla": 9081,
      "Weizenbaum": 9082,
      "Weinstein": 9083,
      "Negahban": 9084,
      "eponymous": 9085,
      "Aparajita": 9086,
      "Cluzet": 9087,
      "Behindwoods": 9088,
      "Spijkers": 9089,
      "McKenzie": 9090,
      "McManus": 9091,
      "McFarland": 9092,
      "McNamara": 9093,
      "McGrath": 9094,
      "McDermott": 9095,
      "McNairy": 9096,
      "McNellis": 9097,
      "Mecartin": 9098,
      "Constantin": 9099,
      "Maqbool": 9100,
      "Broadcasting": 9101,
      "Heebink": 9102,
      "Montecorvino": 9103,
      "Morpheus": 9104,
      "Nootrenbadhu": 9105,
      "Myrtle": 9106,
      "Mystikal": 9107,
      "Afrikaans": 9108,
      "Samvrutha": 9109,
      "traditional": 9110,
      "Calthorpe": 9111,
      "Schwartz": 9112,
      "Schmidt": 9113,
      "Miroslav": 9114,
      "intersection": 9115,
      "Daugherty": 9116,
      "Rajkannu": 9117,
      "LaPaglia": 9118,
      "Quincheros": 9119,
      "Charlotte": 9120,
      "Salvador": 9121,
      "sponsor": 9122,
      "Kościukiewicz": 9123,
      "Mercouri": 9124,
      "Parambrato": 9125,
      "Babatope": 9126,
      "Performance": 9127,
      "Primetime": 9128,
      "Imamović": 9129,
      "Geraghty": 9130,
      "Gertrúdix": 9131,
      "Magdayao": 9132,
      "Macfadyen": 9133,
      "Hallgrímur": 9134,
      "Switzerland": 9135,
      "Venancio": 9136,
      "Jayasurya": 9137,
      "Mahmoud": 9138,
      "Olsenbanden": 9139,
      "simultaneously": 9140,
      "Gianfranco": 9141,
      "Wilhelm": 9142,
      "Breinersdorfer": 9143,
      "Zeitgeist": 9144,
      "Kanwaljeet": 9145,
      "Musgrave": 9146,
      "Massachusetts": 9147,
      "Pittsburgh": 9148,
      "Hirschbiegel": 9149,
      "Gravitas": 9150,
      "Vejnović": 9151,
      "Ilonzeh": 9152,
      "Mastroianni": 9153,
      "Chiwetel": 9154,
      "Ingrassia": 9155,
      "Dhritiman": 9156,
      "Dolatshahi": 9157,
      "Kunchacko": 9158,
      "Persbrandt": 9159,
      "Villaroel": 9160,
      "sɛdɛmˈstɔtin": 9161,
      "catastrophic": 9162,
      "Kulczycki": 9163,
      "Kubaschewski": 9164,
      "Srinivasa": 9165,
      "Balasubramaniem": 9166,
      "Tripplehorn": 9167,
      "Atharvaa": 9168,
      "Fünfzehn": 9169,
      "Håfström": 9170,
      "Pourshirazi": 9171,
      "aesthetically": 9172,
      "kidnapped": 9173,
      "!\"": 9174,
      "!,": 9175,
      "\";": 9176,
      "\"...": 9177,
      "\"),": 9178,
      "\"?\"": 9179,
      "%:": 9180,
      "'.": 9181,
      "(\"": 9182,
      "($": 9183,
      "(...": 9184,
      "+.": 9185,
      ",\"": 9186,
      "-'": 9187,
      "-)": 9188,
      "--'": 9189,
      ".)": 9190,
      ".,": 9191,
      ".”": 9192,
      "0i": 9193,
      "0th": 9194,
      "110": 9195,
      "112th": 9196,
      "2n": 9197,
      "211": 9198,
      "31": 9199,
      "35": 9200,
      "320": 9201,
      "300": 9202,
      "37th": 9203,
      "3sat": 9204,
      "31st": 9205,
      "3rd": 9206,
      "42": 9207,
      "44": 9208,
      "48": 9209,
      "4D": 9210,
      "416": 9211,
      "44th": 9212,
      "47th": 9213,
      "54": 9214,
      "5ミ": 9215,
      "500": 9216,
      "550": 9217,
      "59th": 9218,
      "56th": 9219,
      "64": 9220,
      "67": 9221,
      "600": 9222,
      "69th": 9223,
      "67th": 9224,
      "61st": 9225,
      "75": 9226,
      "72n": 9227,
      "82": 9228,
      "84": 9229,
      "86": 9230,
      "8th": 9231,
      "86th": 9232,
      "94th": 9233,
      "90th": 9234,
      ";\"": 9235,
      "?,": 9236,
      "?:": 9237,
      "?;": 9238,
      "?\",": 9239,
      "?')": 9240,
      "AD": 9241,
      "AE": 9242,
      "Ao": 9243,
      "Aw": 9244,
      "Ax": 9245,
      "Adi": 9246,
      "Ato": 9247,
      "Aur": 9248,
      "Alo": 9249,
      "Ama": 9250,
      "Asi": 9251,
      "Amed": 9252,
      "A24": 9253,
      "Auer": 9254,
      "Ajay": 9255,
      "Azar": 9256,
      "Avery": 9257,
      "Aash": 9258,
      "Aida": 9259,
      "Amina": 9260,
      "Aadu": 9261,
      "BH": 9262,
      "BO": 9263,
      "BX": 9264,
      "Bi": 9265,
      "Bj": 9266,
      "Br": 9267,
      "Bs": 9268,
      "Bé": 9269,
      "Bö": 9270,
      "Bin": 9271,
      "Bat": 9272,
      "Bag": 9273,
      "Big": 9274,
      "Bey": 9275,
      "Bish": 9276,
      "Bod": 9277,
      "Bip": 9278,
      "Boc": 9279,
      "Bain": 9280,
      "Bong": 9281,
      "Bac": 9282,
      "Bio": 9283,
      "Bick": 9284,
      "Bani": 9285,
      "Batt": 9286,
      "Bend": 9287,
      "Bapt": 9288,
      "Brac": 9289,
      "Bras": 9290,
      "Bemb": 9291,
      "Bied": 9292,
      "Brah": 9293,
      "Bhard": 9294,
      "Bobb": 9295,
      "Border": 9296,
      "CJ": 9297,
      "CO": 9298,
      "Ci": 9299,
      "Cr": 9300,
      "Cé": 9301,
      "Cit": 9302,
      "Cut": 9303,
      "Cem": 9304,
      "Cun": 9305,
      "Cid": 9306,
      "Cath": 9307,
      "Cap": 9308,
      "Cort": 9309,
      "Cod": 9310,
      "Cain": 9311,
      "Cud": 9312,
      "Cell": 9313,
      "Cue": 9314,
      "Cans": 9315,
      "Caw": 9316,
      "Coff": 9317,
      "Cron": 9318,
      "Capt": 9319,
      "Cines": 9320,
      "Cair": 9321,
      "Cush": 9322,
      "Cities": 9323,
      "Casan": 9324,
      "Coul": 9325,
      "Canton": 9326,
      "Cathy": 9327,
      "Cvet": 9328,
      "Cento": 9329,
      "Cigar": 9330,
      "Civic": 9331,
      "Crash": 9332,
      "Cosmonaut": 9333,
      "DF": 9334,
      "DJ": 9335,
      "DK": 9336,
      "Dă": 9337,
      "Ded": 9338,
      "Dic": 9339,
      "Dos": 9340,
      "Dus": 9341,
      "Dent": 9342,
      "Dest": 9343,
      "Dill": 9344,
      "Dha": 9345,
      "Dot": 9346,
      "Dum": 9347,
      "Dow": 9348,
      "Dich": 9349,
      "Dia": 9350,
      "Dip": 9351,
      "Dell": 9352,
      "Dick": 9353,
      "Dai": 9354,
      "Daz": 9355,
      "Dice": 9356,
      "Datt": 9357,
      "Diam": 9358,
      "Dank": 9359,
      "Dari": 9360,
      "Diction": 9361,
      "DTV": 9362,
      "Dway": 9363,
      "Dzh": 9364,
      "Dadd": 9365,
      "Danner": 9366,
      "Diner": 9367,
      "Dante": 9368,
      "Dink": 9369,
      "Dating": 9370,
      "Diana": 9371,
      "Dahl": 9372,
      "DAY": 9373,
      "DOC": 9374,
      "Drama": 9375,
      "Drame": 9376,
      "Draya": 9377,
      "ES": 9378,
      "Ec": 9379,
      "Eu": 9380,
      "Ey": 9381,
      "Ein": 9382,
      "Eon": 9383,
      "Edi": 9384,
      "Eri": 9385,
      "Eig": 9386,
      "Eman": 9387,
      "Eber": 9388,
      "Eight": 9389,
      "Eust": 9390,
      "Econ": 9391,
      "Eld": 9392,
      "Eve": 9393,
      "Each": 9394,
      "Emon": 9395,
      "Eche": 9396,
      "Emin": 9397,
      "Eva": 9398,
      "Eston": 9399,
      "Ezh": 9400,
      "Eken": 9401,
      "Ethan": 9402,
      "Ewen": 9403,
      "Ehr": 9404,
      "Eros": 9405,
      "ERR": 9406,
      "ESP": 9407,
      "Estudios": 9408,
      "FO": 9409,
      "FW": 9410,
      "Fi": 9411,
      "Fo": 9412,
      "Fu": 9413,
      "Fy": 9414,
      "Fé": 9415,
      "Fis": 9416,
      "Fic": 9417,
      "Fem": 9418,
      "Fay": 9419,
      "Fim": 9420,
      "Fak": 9421,
      "Fum": 9422,
      "Four": 9423,
      "Fif": 9424,
      "Fong": 9425,
      "Fame": 9426,
      "Fele": 9427,
      "Fari": 9428,
      "Faj": 9429,
      "Fists": 9430,
      "Focus": 9431,
      "Fied": 9432,
      "Flyn": 9433,
      "Flu": 9434,
      "Floyd": 9435,
      "Fisha": 9436,
      "Fille": 9437,
      "Fowley": 9438,
      "Fiber": 9439,
      "Frass": 9440,
      "Feder": 9441,
      "Fischer": 9442,
      "Flou": 9443,
      "Fruit": 9444,
      "GN": 9445,
      "Gá": 9446,
      "Gilm": 9447,
      "Gas": 9448,
      "Gou": 9449,
      "Gent": 9450,
      "Gag": 9451,
      "Gig": 9452,
      "Gid": 9453,
      "Gard": 9454,
      "Gav": 9455,
      "Gate": 9456,
      "Gann": 9457,
      "Guk": 9458,
      "Gaf": 9459,
      "Gend": 9460,
      "Games": 9461,
      "Galian": 9462,
      "Gadi": 9463,
      "Gound": 9464,
      "Gina": 9465,
      "Grun": 9466,
      "Ganth": 9467,
      "Glow": 9468,
      "Gather": 9469,
      "Gink": 9470,
      "Gben": 9471,
      "Guti": 9472,
      "Gmb": 9473,
      "Gaudio": 9474,
      "HT": 9475,
      "HY": 9476,
      "Hi": 9477,
      "Hs": 9478,
      "Ht": 9479,
      "Hw": 9480,
      "Hé": 9481,
      "Has": 9482,
      "Hem": 9483,
      "Hist": 9484,
      "Hip": 9485,
      "Hsu": 9486,
      "Hik": 9487,
      "Hau": 9488,
      "Hern": 9489,
      "Hub": 9490,
      "Hamed": 9491,
      "Hull": 9492,
      "Hoth": 9493,
      "Hair": 9494,
      "Hira": 9495,
      "Hsing": 9496,
      "Hannel": 9497,
      "Henny": 9498,
      "Hoshi": 9499,
      "Htoo": 9500,
      "Hiyama": 9501,
      "Hachi": 9502,
      "HBO": 9503,
      "HDTV": 9504,
      "IT": 9505,
      "Io": 9506,
      "Ion": 9507,
      "Idu": 9508,
      "Ich": 9509,
      "Ice": 9510,
      "Iow": 9511,
      "Ily": 9512,
      "Iain": 9513,
      "Ike": 9514,
      "Iron": 9515,
      "Ika": 9516,
      "IFF": 9517,
      "Iura": 9518,
      "Icar": 9519,
      "Irik": 9520,
      "Ihara": 9521,
      "IGN": 9522,
      "JC": 9523,
      "Ji": 9524,
      "Jing": 9525,
      "Jen": 9526,
      "Jol": 9527,
      "Jain": 9528,
      "Jik": 9529,
      "Jong": 9530,
      "Jann": 9531,
      "Jiro": 9532,
      "JAM": 9533,
      "Jür": 9534,
      "JBH": 9535,
      "KO": 9536,
      "Kh": 9537,
      "Kw": 9538,
      "Ká": 9539,
[...]
